const static size_t backbone2_1_1_weight_size = 36864;
static unsigned backbone2_1_1_weight[]={
0xbe554cb7,0x3d30a1bb,0xbda0d935,0x3d231fb4,0xbcc99560,0x3de54684,0xbd65a8b5,0x3e161647,0x3df4ea89,0x3cc373c7,
0xbe32a359,0xbbb9cbdc,0xbc174073,0xbd8e8610,0x3dede52e,0xbd901bc9,0x3d90987d,0xbdb5dc49,0x3ce444bc,0x3db226fc,
0x3dacf3bc,0xbb108a2e,0xbc207fb8,0xbca52375,0xbd0e84ee,0x3d9d10d2,0xbe5abad9,0xbe026abe,0x3e275bcf,0x3c89204c,
0x3dfaa849,0xbda515f7,0x3ce1dfcd,0x3d3607d8,0x3df24971,0x3e37a21f,0x3da0ab24,0x3cae1091,0xbd8f5ddc,0xbc18225b,
0xbc852003,0x3e814cf0,0xbbb33d1a,0xbde7b2d2,0xbd22692c,0xbc7e5a36,0x3d982425,0xbcbb95b3,0x3da23411,0xbe31d95e,
0xbd9b9380,0x3dd803fa,0xbd737d2a,0x3da78ed7,0x3d7f270d,0xbbcce098,0xbd29676a,0x3d1a3594,0xbb3ff37a,0x3d0df615,
0xbca10b7b,0xbd906439,0x3d4b9948,0x3d6100a8,0xbdc6e550,0xbdc85984,0x3d82bb09,0x3d393c04,0xbd31a6aa,0xbe124403,
0x3e3c1625,0x3ddf8161,0x3d272b0c,0xbba54341,0xbc181c0a,0x3d712681,0x3db58bf4,0xbdab7586,0xbdaca78f,0xbe647152,
0x3d6ad928,0x3d65e3ff,0xbcc3efe7,0x3c089464,0x3c9270b1,0x3e34dc24,0xbc6dd332,0xbd623296,0x3d84ec12,0x3d529134,
0xbc33f53a,0xbd8dd299,0x3e524ea9,0x3dd0e20e,0xbc1be762,0xbcab0e22,0xbdafa5b1,0x3e33d3c4,0xbe31bebc,0xbd5c2689,
0xbd95e7f4,0x3b2fef80,0xbd5d73e1,0x3cb8fbe9,0x3d28f13f,0x3c3f5b0e,0xbc5bab09,0xbc8eb231,0x3c320ae9,0xbcd14654,
0x3cc0b6cb,0xbc976c8c,0x3c153dcc,0xbdd45eeb,0x3cb0dc11,0xbcedd005,0x3db1adc5,0x3d7a03bc,0x3c0ce972,0x3d8dcb50,
0x3e0aec50,0x3cf37cfa,0xbba1642e,0xbc02854a,0x3d95b710,0x3dbd7440,0x3e07a4d1,0x3e1361e1,0x3d0d4243,0x3dd2eca8,
0x3d649101,0x3db17de0,0xbce7a8a1,0x3de2199b,0xbd845ad0,0xbdba57e3,0xbc7e3b64,0xbdcba97b,0xbda44257,0xbe02b257,
0x3dc7ba36,0xbe1419be,0x3d9c8f7b,0x3d423a33,0xbcb0667c,0xbe323dbc,0xbc83844a,0x3dea02ea,0xbddac038,0x3e0c3c35,
0x3d2c0227,0xbdc03785,0xbd3f8a64,0xbb97a318,0x3c101c6d,0xbe1e2714,0x3de2e0b2,0x3df75e9a,0x3de7590f,0xbc1ced68,
0xbe1ffe5d,0x3dcb132b,0xbdfa2e19,0x3d2b2b6f,0x3df60bb1,0xbdee743b,0x3decb31d,0x3d8f11c5,0x3d3a940e,0x3d46a1ea,
0x3da97b6e,0xbda56f2c,0xbdeb252b,0x3df09a2e,0x3de0e81c,0xbe051ba8,0xbd872758,0x3d014cdf,0x3d30f9da,0xbd7c34d7,
0xbba70a22,0x3c9dde55,0x3e10ce0b,0x3dab12f4,0xbd154280,0xbc816e03,0xbd487f49,0xbb966778,0x3d17543f,0xbdc97a21,
0x3e0b5e96,0x3dcdd89c,0xbe21cf63,0x3d66c7d5,0x3f01e187,0xbdd24ad4,0xbbfb3b95,0x3e0d9092,0x3e09d37b,0x3d330b3e,
0x3d4368a8,0xbc625552,0xbc38f0db,0xbd33036a,0xbd9e12f7,0x3d206844,0x3ccec0eb,0x3c4a0edf,0x3c046839,0x3c89df2f,
0xbd7a8663,0xbcd334ab,0x3d86889b,0xbdab8c86,0xbc9ccce0,0x3dc0f2aa,0xbd927161,0xbc94bfc0,0xbd94d0ef,0xbd9ac55e,
0x3d1c12db,0x3d945a68,0xbd7affb7,0xbd126616,0x3e325b28,0xbc36e41a,0x3c0401ef,0x3db9f735,0xbe086cb9,0x3d3ac1a9,
0x3d9a050b,0x3c97e9bd,0xbd385b53,0xbcbfed81,0xbdee06d2,0xbc8f9676,0xbd786402,0xbd54e26e,0xbe01ac94,0x3c4d0884,
0x3dfef38a,0x3dc0bf73,0xbb804894,0xbd1ee540,0xbdd5939d,0x3c54cde9,0xbdba01d3,0x3e1ba569,0x3da6bf74,0xbdf32537,
0x3c637847,0x3e204efd,0x3e48b880,0xbd882553,0xbd9ea603,0xbc46802e,0xbd1558ba,0xbcf1904b,0xbde63c83,0x3cd50a3a,
0x3d19150b,0x3d5b6603,0x3d45a71a,0x3d98ffca,0x3d70aaff,0x3d5e6f10,0x3d946870,0xbd22d99b,0x3df29baf,0xbe037704,
0xbe44ec63,0x3d392676,0x3c537389,0x3cd4fd9e,0xbdc4cddb,0x3d5b290b,0xbce7119b,0x3d3ce638,0xbdf75728,0xbda69de6,
0x3df3f85c,0xbdd1847b,0xbd865d0a,0x3e424d51,0xbd8900bc,0xbdcf8bc5,0xbd3f07e9,0x3e6d0919,0x3bbea347,0xbd5318e9,
0xbcaa0a82,0xbdab7f28,0x3cb29e68,0x3c82b8d4,0x3ca0ba4e,0x3c0c60ad,0x3c04d865,0x3d641230,0xbc558c43,0x3c4d9977,
0xbd24b0ae,0xbd62db03,0xbcbd06fb,0x3b275527,0x3d48a917,0x3bb30ecb,0x3c792fbc,0x3cd01692,0x3d8baf45,0x3d174a6a,
0xbd7f1f47,0x3d2d1404,0xbd8fc7f9,0xbcf33c41,0x3cdd4c7c,0xba4dea29,0x3b9dda33,0xbcfe8104,0x3d3277fd,0x3a50d2e3,
0x3da6862f,0xbc7a024f,0xbbe8d85c,0x3c926d6d,0xbc8886a1,0xbb6f079a,0x3ce8c73a,0x3d3ce576,0xbca8c6b7,0xbbc8ffd2,
0x3cd3a18f,0xba6cb5f8,0xbd0961f6,0xbc98540c,0x3d9833ae,0x3d54e1c7,0xb98e3c3d,0xbd896c26,0x3cbe02c2,0x3c8ae2f6,
0x3bdf6442,0x3d17dcaa,0x3c8a5bcd,0xbe0c7ea4,0x3c34d18d,0x3d8162a8,0x3d9bb372,0x3da9b98c,0xbc65bcf4,0x3cf8fbe6,
0xbca6d1c9,0xbd0d7386,0x3d1ebc3d,0x3bf0f99f,0x3dbb997e,0x3d3900e0,0x3d94e64f,0xbd230daf,0xbbe4610f,0x3d37434b,
0x3d73b7b1,0xbd5a1f59,0x3d1f7908,0xbddd9c59,0x3afef6b9,0x3c89d8d2,0xbdf0a26f,0xbbf62c50,0xbd57b77f,0x3d45ffe8,
0x3ba99d23,0x3cf29a30,0x3d81466d,0xbd9dfa0a,0x3d08d2c1,0x3cf674b2,0x3cd473d8,0x3de83df1,0x3d8d5ea9,0xbd959b9a,
0x3ca2f88f,0xbce84db9,0x3d7605b9,0x3d3e6d68,0xbd91bdca,0x3d1e27b7,0xbc33cca4,0xbc033e56,0x3ecc588a,0x3d60c553,
0x3d96e57c,0xbdab4e56,0x3d1956b2,0xbd88889f,0x3d1e779f,0xbe1a7204,0xbd0eda3d,0x3da6255e,0x3db17f6b,0x3a34daef,
0x3dd913bf,0xbd6e09dd,0xbc996f3f,0x3d5e3922,0xbce03930,0xbe0fe6e5,0xbcafb4f0,0xbdaa3547,0xbc84fd30,0x3dc7a5cd,
0x3e3c2b10,0xbc83b509,0x3ced4d84,0xbd22d04a,0xbda73b06,0x3c618282,0x3dea7bd7,0x3db188bd,0xbd549bb4,0xbd9cbee2,
0x3dc8adf8,0x3df24b47,0x3e2321b8,0x3cb71fd0,0xbcd30388,0xbde4873d,0x3d0dfd31,0xbd7a1513,0xbc86c56f,0xbd5ba37f,
0x3d7558c4,0x3e289763,0x3d6234c9,0xbd9f35cd,0xbddb3d4b,0x3d9a7975,0xbdd01e11,0x3db0b824,0x3def33bc,0x3dc44d96,
0x3c9e5279,0x3d31c89f,0x3c8ec5f5,0xbe2bfee5,0x3ccf907e,0xbd69f5ab,0xbd4b6f5b,0xbda2a090,0xbc7994bf,0x3e00cfa8,
0x3cbfd1e3,0x3cd531c8,0x3e08dcbb,0x3ada95ae,0xbce30a40,0x3ddbe573,0x3e28c3aa,0x3e253a22,0x3e259541,0xbba6c243,
0xbcbd52f2,0x3d508090,0x3b18e77a,0x3d16ef3c,0xbd24e277,0xbd26c68b,0xbdca631e,0xbd90d436,0xbd80106c,0xbe2f0654,
0x3d236bd9,0x3e53f1a7,0xbe673eda,0xbc3a2905,0xbe264044,0x3c00b227,0x3ccd6caa,0xbd541f69,0xbe1576ac,0x3e6f47d3,
0xbddc515b,0xbdd0d371,0x3d85812f,0xbc84746b,0xbcb50ceb,0x3ea2785b,0xbdceb84a,0xbd22e064,0xbbdf1f2d,0x3d19bfdc,
0xbd78e0c4,0x3e0319bb,0x3e0ac6bc,0x3dffdacd,0x3df03e15,0xbdb91106,0xbe00e139,0x3db4d5d1,0xbdd600ab,0x3ddf7f60,
0xbcf66979,0x3c8bae69,0xbcfd2c56,0x3d3b6d76,0x3e08426c,0x3dc50a6b,0xbe3f74d2,0xbdec6de0,0x3d950198,0xbd618ccb,
0x3b35bbd9,0x3d21d684,0xbd1c3fdd,0x3c5722be,0x3d700ae6,0x3caffe1f,0xbd1369f2,0xbd1b9a1e,0xbd5d5c1b,0xbcb12627,
0x3c9880ed,0x3e87a581,0xbc02cf56,0x3dc25f1a,0xbd83d5b1,0xbdc88ee5,0x3d06117f,0x3e2ade91,0xbd9db030,0x3c4d09c9,
0xbe319869,0xbdaba678,0x3dc91032,0xbd2a123f,0x3cdaaf18,0x3c9477ae,0x3e1e1639,0xbd09ac95,0xbcbb4997,0xbd213d24,
0xbd7dafca,0x3d94a541,0x3ba89d04,0xbb72c1bd,0x3b09e313,0x3c8732b7,0xbd93d7c9,0xbd815712,0xbd8a4091,0x3e0448e9,
0xbd7e246b,0x3e04c121,0x3d3038d3,0x3de9ba70,0xbd823997,0xbdcbc637,0xbd1c639d,0x3e061138,0xbb02ae86,0x3df81b92,
0xbdf88022,0x3aed2bea,0xbd20c0b3,0xbdc7ee6b,0x3df387df,0xbd06c156,0xbd09945c,0xbbee76d2,0x3d89874b,0x3e3f1072,
0xbd96e90d,0x3d8e5339,0xbd57a193,0x3c7655e8,0xbd4f41df,0xbe273aae,0xbd095f75,0xbc980471,0x3d4c788d,0xbc5cf9d5,
0xbdc5a2c6,0xbd982600,0x3ec481d8,0xbe0fe277,0xbe131497,0xbcca6fd4,0xbc4ec9c9,0xbdaacd31,0x3d78ad6e,0x3d3c7b2a,
0x3cf0d5f1,0xbd9a394c,0xbbb9c55f,0xbe05be71,0xbd20b860,0xbd9500fb,0xbdeb75b7,0x3d1ebecd,0x3d8bb74c,0xbd005d46,
0xbca74877,0xbc9300ae,0x3d2efcc9,0xbc86c287,0x3df4d2f2,0xbc7b4432,0x3d5f8540,0xbc348fac,0x3e67d04a,0xbd1240d0,
0xbd711a0a,0x3caa094c,0xbe238c03,0xbe167f95,0x3c99108b,0x3c33f47d,0x3da9da86,0xbc63f28f,0x3e1de5e4,0xbd800a4e,
0xbd5921f8,0xbcd0d749,0xbd854dd2,0x3d2d371f,0xbdf1f2e9,0xbcb7f712,0xbc1a3d77,0x3cd5f2af,0xbdc0db02,0xbd764d92,
0xbd54ffde,0xbd511581,0xbbe3aa61,0xb9697064,0xbc8c3bda,0x3d6ae67a,0xbdb5d245,0x3c2605ee,0x3d149878,0x3d9fa18a,
0xbcf5d7ad,0x3dbc1ac2,0x3db09502,0x3d00b8ea,0x3d594a93,0xbd23ce75,0xbd33e61a,0xbe986136,0xbccecd7b,0x3d690372,
0x3ca7cac1,0xbe43c582,0xbd7820b2,0x3e51c974,0xbe51905c,0x3e9df9e2,0xbd143459,0xbcba6175,0x3e0bc2da,0x3d23aa34,
0x3cebc8de,0x3d6d9b5f,0xbe196094,0xbc5626d1,0x3d940faf,0x3e33aa7e,0x3da32620,0xbd3e2961,0xbd42e4f4,0xbc7065e0,
0x3d15eef9,0xbd3737e6,0x3d80c833,0xbd87f15d,0x3c9d4dd0,0xbc8c5edb,0xbd171d7e,0xbb3b31b5,0x3b5c7516,0xbe41adc3,
0x3d75ba6b,0x3dde550d,0x3d034921,0x3d664769,0x3e0df71f,0x3b863a1c,0xbd20242d,0x3ceafb39,0x3d96ba45,0x3cd70f7e,
0xbb8cfa6e,0x3b1c7e62,0xbcdcaf73,0x3e04a172,0xbdd84ef6,0x3c929dd7,0xbd8ddbaa,0x3ba137fd,0x3d085b91,0xbd230ae4,
0x3da3b8c3,0x3d01e451,0x3df39171,0x3c9f684e,0xbd2200d8,0xbcc7ab31,0xbd7fec34,0x3d91b2b2,0xbd8e021c,0x3dc38664,
0x3cfe86ff,0x3c362b35,0x3c68913d,0xbdb16e10,0xbdc57f2b,0xbd01a046,0x3ccffdd8,0xbd76b997,0x3da6121a,0x3dbddf44,
0x3daa37d1,0x3d7b1b52,0x3c7109e0,0xbbd342a7,0x3d461661,0xbd080237,0x3cf73165,0xbdacfc6a,0x3d25680f,0xbd145d35,
0x3dcf3803,0x3dff245c,0x3d884420,0xbce4b42a,0x3d2f74fa,0xbd78207a,0x3d3e17c2,0xbe04b305,0xbd0adb33,0x3cebc9c9,
0x3d1af22d,0x3d5d9369,0x3d45c671,0xbcd84748,0xbd94f406,0xbd34e16f,0x39377b2b,0x3d36df7e,0xbdbad4c3,0xbd9a36d9,
0x3cf105f5,0xbba4d5c4,0xbdab9c40,0x3c08b3fe,0xbcd8b1a3,0xbcb02b23,0xbc4dd91a,0xbd08fec3,0x3d1ab0b6,0xbc8fb8eb,
0xbc8dc3a2,0x3cf21127,0xbcb5b107,0x3c85f084,0x3e514efb,0x3c776534,0xbcb5a6d1,0xbc351f6b,0xbcc0eb24,0x3d7fc63c,
0x3d3fd714,0x3e551744,0x3de5032f,0xbd4fed42,0xbc66b6d3,0xbd8711de,0x3d019a58,0x3da26900,0xbdd0561c,0x3d988dc6,
0x3d9b6ebd,0xbd13a61d,0xbd715723,0xbe4c0912,0x3cba92cf,0xbe3da236,0xbe2d188d,0xbc77111a,0x3d0f3440,0xbe332140,
0x3ddd9e0c,0x3da0040d,0x3d7a761a,0xbe61fe4e,0xbdc3e039,0xbe0c7be5,0x3c5a5361,0x3c9433bf,0xbce7c738,0xbc495cb4,
0xbc8b3148,0xbbce9b85,0xbd8940c2,0x3e08ca24,0x3c9b1285,0x3d625c90,0x3c6cef07,0xbc911ff3,0x3cbd54d1,0x3e119743,
0x3dba6613,0xbe241f09,0xbd908a23,0x3cacb9a8,0xbda40217,0x3dd6be41,0xbd08bfb8,0xbd78b46c,0xbe66d98c,0x3eacbffb,
0xbd0726e0,0x3df55272,0xbcd2a61a,0x3c05ef6a,0x3d0ac9fc,0x3d813b19,0x3d82d106,0x3da65c65,0x3e2101f5,0x3e330c1c,
0x3d6391cd,0xbe1a49d1,0xbca638e0,0x3ed04d39,0xbe7bd688,0x3db0cefd,0x3d89d72f,0xbdaa2784,0x3e00bfd3,0x3dcfe692,
0xbb6705e6,0xbaca0fea,0x3ddb51a1,0x3e132af0,0x3d131384,0xbdd60563,0x3de4572f,0x3dd2c4a3,0xbd42c6ad,0x3d8aa492,
0xbe3d62bc,0x3ca7e67a,0x3c47850c,0xbdf2cd57,0x3a86c647,0xbc2ca216,0x3e359ff3,0x3e83b440,0xbde11856,0x3dfb2cbd,
0x3de26cd4,0x3d1a63b5,0xbc8dceb5,0xbe195525,0xbcdf5c85,0x3d9bf3e3,0x3ddfd8cb,0xbe08528d,0x3cc5d3c5,0x3be22a25,
0xbc5a9be5,0xbd98ddde,0xbcd4b71f,0xbe263bce,0xbd2390a8,0x3e1d9af9,0x3df0c01f,0x3d80203a,0x3e569a1c,0xbe0e4bd4,
0xbbf372eb,0x3d9cf397,0xbc32b818,0xbc4568cf,0x3daedd98,0x3df3d647,0x3c20368f,0xbc0c6c1a,0xbdbe752c,0x3c209e76,
0x3df3f2d3,0xbdae83a2,0xbc0a0532,0x3d028903,0x3d69f7fb,0xbd967c80,0x3e044ce0,0xbe1b0ec5,0x3dbfcee6,0x3d0856e2,
0xbcd24e96,0xbdc32b6b,0x3c1d4d4d,0xbccf4bcd,0xbe1044c3,0xbd983c26,0xba960936,0xbdfe291e,0x3d623e0e,0xbde480da,
0xbd47609c,0x3b92cc50,0xbccdaa10,0xbd7492e9,0x3d8d83ba,0xbbc00ee0,0x3d374bd2,0x3dd7264e,0xbc33a79c,0xbe1f95e5,
0xbd0e1a95,0x3de1040e,0x3d3541ab,0x3e14eb8a,0x3d633956,0x3da006b2,0x3d6ace6b,0x3d6901d8,0xbce77041,0xbd1a3d04,
0x3d3362b2,0xbc14c084,0x3cbfdc33,0x3c8df51c,0x3e217dfc,0x3d5cc7c9,0x3cd30147,0x3d3a6103,0x3c26a5e4,0xbc238494,
0xbcba0ec6,0xbdb57989,0x3ce15899,0x3d42c6bf,0xbe236147,0x3d958901,0xbd30e042,0xbc0086a1,0x3e09a2f7,0xbba87cbf,
0xbdeb252b,0xbe11c40b,0xbdc165d0,0x3d63bebe,0xbcfb1013,0xbe43ffab,0x3dd78778,0xbce0076b,0x3e176be2,0xbd9b66c6,
0xbce55aa1,0xbdc75d12,0x3b03656a,0x3c61883e,0xbc18600f,0xbdbad984,0x3d54ea1e,0xbddfd9d1,0xbd01a52a,0xbd6697a0,
0x3ec0b17a,0xbccc15d0,0xbdd5aca8,0x3ccc73b8,0x3c4ca10d,0xbb217bf0,0x3c1f502d,0x3d482e74,0xbd0f3cd2,0xbcece485,
0xbd9fbd3a,0xbbca46c4,0x3d98cae4,0xbd62ba92,0x3c47a7e8,0xbd665013,0x3da56f05,0x3d927999,0xbd6a6b7b,0x3d22d587,
0x3d404329,0x3c4f843d,0xbd837d7f,0x3e1480af,0xbcdc46be,0xbd673959,0x3d701852,0xbcbb03d9,0xbbb9da6f,0x3cf29b61,
0x3d603dac,0x3d9e2d43,0x3d625013,0xbccb07bd,0xbd486102,0xbd23d49e,0x3cc42c19,0xbcb1229f,0xbdaaaab0,0xbda383a8,
0xbcf30649,0x3b2d9bd5,0xbbaeaa82,0x3d374203,0xbc428ba4,0x3da63ee8,0xbd474cbd,0xbe503992,0xbe095533,0x3cae26eb,
0xbd4bb734,0x3db8ef74,0xbd65a9ff,0xbd401a8a,0xbcd67ab7,0x3d97e8ef,0xbd0489d6,0x3cb5cb2f,0x3d45b65c,0xbd8c2b25,
0xbcbb8e6b,0xbd65df9c,0x3c991844,0x3e11c7e5,0xbd9547f7,0x3db6e2dc,0x3d4f2982,0x3d4bcca0,0x3c9c1ca0,0xbcf7c43e,
0x3d421f11,0x3dcd43ec,0xbd930582,0xbc9e460d,0x3df1a028,0xbe06e5d9,0x3d14c744,0x3d15df78,0x3df6c92e,0x3d777d9a,
0x3bcb0384,0x3c144da8,0x3ccf905d,0xbdad03a4,0xbb4b6f6b,0x3c275d36,0xbd9621f3,0x3e2a7351,0x3cf6d004,0x3bdbf70c,
0xbcb43656,0xbb72c0d3,0xbdcce076,0xbe11f9ed,0xbd491eb4,0xbc8631b8,0xbd35c0d0,0x3ef14284,0x3db4a11b,0x3c489182,
0x3d745cdd,0xbd876da2,0x3d1870f6,0x3db0faa8,0x3cfb1e77,0xbdbd95f5,0xbd2ad24b,0x3da1f4ae,0xbdd84987,0xbd7e309d,
0x3e06801f,0x3d4a37c8,0x3c0935f2,0x3c981891,0x3d3707b3,0x3c9841e6,0xbda97cf2,0xbe508b2e,0x3cc397b9,0xbd2d223c,
0xbdbbeeec,0x3d9a1726,0x3d7665df,0xbdedabaa,0xbe35cd11,0x3c3e1a8a,0x3dc11789,0x3e2055d3,0xbce58e88,0x3e06471f,
0xbccdbc15,0xbdd7e417,0xbd71f47e,0xbe184509,0x3d8ba8b9,0x3d2becc0,0xbde40ac8,0x3d023a39,0x3d4a98ff,0x3d025807,
0x3d1dd003,0x3d5bc6c2,0xbd95930d,0x3dc02ec8,0x3dc14d95,0xbc995f8e,0x3d20b7a6,0xbc938a88,0x3ada1308,0x3c06da0b,
0xbd9d1ee2,0xbdd25fc9,0x3d901eb4,0xbd72a25a,0xbd5b3538,0xbe2f987c,0xbdd3852e,0xbbe63ee8,0x3e00656a,0x3e165ded,
0xbe250538,0xbe36d118,0xbd829a03,0xbd9ef0c6,0xbd63447b,0x3db490ca,0x3dd6231f,0xbd22b014,0xbbeb4704,0xbd82ac0f,
0xbcd186f4,0x3dbbd3c7,0xbdca9696,0xbdbf4fbc,0xbcaffccd,0x3d96fa47,0x3dd2284f,0xbe1aa21b,0xbe1ce84f,0x3d61256e,
0x3c97b971,0xbd4d1557,0xbd3ae873,0xbd62db1c,0xbd110002,0xbd8baafd,0x3bd07d14,0x3cc32093,0xbb19ce60,0x3e07817e,
0x3d64c20d,0x3cc38322,0x3cf115f4,0xbd2b9ef4,0xbe604b6d,0xbd676e5b,0xbc44aae7,0x3c16ec42,0xbd0aae66,0x3d1c068f,
0xbd948eb2,0xbbdbd46b,0xbcb0170f,0xbd5200e2,0x3aa134b6,0xbc8e4e76,0x3d5fea8b,0x3e1aedb1,0xbd054209,0xba88baa4,
0x3d5bd7a2,0x3da6fb6a,0xbe2e46a0,0xbd5177d5,0xbd26e585,0xbd2eb290,0x3dd0871e,0xbcacc981,0x3b34f468,0x3c01d1d6,
0xbc46b78b,0xbe184cdd,0xbd81180b,0xbd00cef9,0xbd50e2d3,0xbd5276ba,0x3bf913f4,0xbb740a69,0x3e307d9e,0xbd6092fd,
0x3d064ff7,0xbda5ff28,0xbdf6d4b8,0x3d96a27c,0xbdaeb410,0x3d9003f8,0xbde53940,0x3d0dee72,0x3cc3958f,0x3d62129e,
0x3d04816b,0x3e05003e,0xbaf30b65,0xbd81f3aa,0x3af28365,0xbd99f83c,0xbc48be18,0x3d1417b1,0x3c580392,0x3d860bb6,
0x3d8d9816,0xbe1b26dd,0x3c9912cb,0x3d15a75e,0x3d981591,0x3c1c01cd,0x3d5f2ac8,0xbd2eb3f4,0xbdd9db5c,0x3c924c19,
0xbdaa29ff,0xbdd314b9,0xbc7f70b8,0x3d8a19a6,0x3d276fea,0xbe046edd,0xbc7fba8c,0x3db52177,0x3d82609f,0x3ab292fd,
0x3cd59420,0x3cbabf5f,0xbdcb875f,0x3de143b8,0x3da7c057,0x3cc26a4f,0xbda1fd39,0x3c577e41,0x3db01201,0xbd9162f9,
0x3dc92e7a,0x3cffda6c,0x3d5b75d9,0xbe1e66df,0xbc4c24c3,0xbdbb9946,0xbd22017c,0xbe60e06f,0x3ba8a6b0,0x3c526522,
0xbe1dfe7b,0x3e5b7152,0xbcdb82c6,0x3d46cb29,0x3dc3b76f,0xbe062345,0x3d24e625,0xbb74a40e,0x3e024953,0x3d3cfbc2,
0xbdd08fdb,0x3e30749c,0xb9ce14ce,0xbca96637,0xbd3ed09e,0xbc30a57e,0x3d5031f0,0x3dbe63f3,0xbdb110e0,0x3dc55955,
0x3da1a1dd,0xbc94da86,0xbe315d0f,0x3d8d79d8,0x3db20f22,0x3d196b6c,0x3d1692e5,0x3dd14917,0x3d048e86,0xbdc7bfb1,
0x3d615e0d,0xbdc65d41,0xbcdcd47d,0xbcc073b2,0x3e354f4d,0xbd44ad77,0x3d4d4669,0x3dc413bf,0x3df60719,0x3df658a4,
0x3d08c7ed,0x3c1649e4,0x3e27f79e,0xbdbe8a0f,0xbd0977cf,0xbdcd81b0,0x3d74640d,0x3b4d46d3,0x3df4d9f6,0x3c3eaad0,
0xbd58a680,0x3d0e1075,0xbe188f7d,0x3d52ba69,0x3baa3abe,0x3e20819f,0xbe18f79c,0xbe32b477,0xbe33e0d4,0x3db6eb9b,
0xbe195a2c,0xbde8137b,0xbc73c44e,0xbdc1bbdd,0xbe0339f0,0x3d2ed695,0xbe13c36b,0x3d2f508c,0x3da7336c,0x3e413d50,
0xbd72bf85,0x3e681912,0x3b323b42,0xbc7fba4f,0xbd20e551,0xbc8885f5,0xbe1ec718,0xbe37dea3,0x3de98040,0x3de17494,
0x3ceeb5b8,0xbc4dd260,0x3ba715c8,0xbccd7fea,0xbdd2148b,0xbd402e91,0x3d4a416e,0xbdacb96d,0x3e29d32b,0x3dbcd4fe,
0x3df986c4,0xbe0e1867,0xbd33ae0f,0xbe27e670,0x3d1f6649,0x3c5bc535,0x3d4bcc0e,0xbd4cc7f5,0x3e58fd6e,0xbb4f9060,
0xbc9b143d,0xbb3467d6,0xbd19a807,0xbdae1de2,0xbd9347f9,0xbd04fc03,0x3dfea95f,0xbcb5687b,0xbd2a0d9a,0xbd4c17e7,
0xbcd20a1e,0x3d4bfb32,0xbd3aee78,0x3d29272a,0xbd0cc8a6,0xbd384e08,0xbd3a6895,0x3c54e80e,0xbd5d8419,0xbdc8036a,
0x3d2bc6bd,0xbd121663,0x3db00f5d,0xbd6d23ad,0xbca63db5,0x3d5c728d,0xbb64982d,0xbe13b08b,0xbdb1752d,0x3bb55703,
0x3dcac036,0xbd8f6632,0x3d1cb690,0xbc2d26ec,0x3d17b991,0xbd1de4e4,0xbcc42bc8,0x3d881dca,0xbde0d3ff,0x3db771c4,
0xbdb9816b,0xbc4cbeff,0xbdd3d5be,0x3e0f8c41,0xbd16d24d,0x3ba9a14f,0x3bb69077,0xbcbba052,0xbd98fec7,0x3a7ddc82,
0xbc80a085,0x3c55f8ab,0xbe07e1ee,0x3de015d6,0x3d991070,0xbd99a1b3,0x3b930c40,0x3dca76d6,0x3a1f664c,0x3a9cc8cd,
0x3caf53a2,0xbe4afef4,0x3c7f9d28,0xb87fbe57,0xbda5ec32,0x3d825427,0x3d8f511c,0x3dc26c90,0xbcd78ebc,0xbdb2c2bd,
0xbc3d2f81,0xbcf87995,0x3dd7580b,0x3c4f55cd,0xbd956b28,0x3da61d1f,0xbd82e765,0xbaae2bf7,0x3d2b5b06,0xbdab849c,
0xbd38b118,0x3dd25f2b,0x3d3ae9bd,0x3d97ebf8,0x3dbf63d0,0xbca13af6,0x3dacc7c3,0x3d73c114,0x3e0c6fff,0xbd865d66,
0xbd59a9e3,0xbdf13351,0x3d090dfd,0xbdb88fee,0x3d1d052c,0x3e10dfd7,0xbe20cef4,0xbd2f61fd,0xbc5e8e96,0x3d439ec5,
0xbe4569aa,0x3d6d7c48,0x3cf078f8,0x3cdec84c,0xb8944636,0x3dd798c9,0x3dd91326,0xbdc6a0fe,0xbd4e2f52,0xbd373b74,
0x3d821035,0xbd892f8f,0xbe30529e,0x3c9417ff,0x3d5a451a,0x3e0a1f4e,0xbdd19c96,0xbbb7358b,0xbdde72c4,0xbcf7497f,
0xbdc3f4a8,0x3d9e9770,0x3e743266,0xbea8aa6d,0xbe32cd19,0xbdb619cf,0xbcd903be,0x3d9acb5f,0x3c90412f,0xbecfe3d2,
0xbe0b182b,0x3e1bcc6e,0x3c421928,0xbd163187,0xbe0842a9,0xbdaf9673,0x3de378d1,0xbd993078,0xbd1495c6,0x3b8e543a,
0xbb8aa079,0xbc3c835c,0x3ddad3a6,0xbdb2fb73,0x3e7c9101,0xbe03d988,0x3e6b9cf4,0xbdbd26fe,0xbd6f2e44,0xbdc851af,
0x3e0ebe65,0xbd73d59e,0x3e119042,0xbd971924,0x3d8ab09e,0xbd2f208f,0x3d0f83e5,0x3c741cbb,0x3dd53c8b,0xbe1bceb7,
0xbdc051fe,0x3cd9ca19,0x3c51da8a,0xbe5eb003,0x3d5b04b5,0xbe34427a,0xbe5da004,0x3d6d33f1,0x3c15f675,0xbc5f87b3,
0x3cb2e796,0xbd210527,0x3d03a0a2,0xbe1e72c5,0xbdb6d59f,0x3e60364f,0xbd950034,0x3c2acd65,0x3dd2f328,0x3d8b23ec,
0x3c415995,0xbca9de00,0xbe05ef47,0xbd1e98b0,0xbd49caba,0xbd0384c8,0xbd92b863,0xbd2e3bd7,0x3ca6b293,0x3c87cad5,
0x3dccb4ce,0x3dc185a0,0xbe619dad,0xbd05904b,0xbcb6794b,0xbe3d8fff,0x3d39dc24,0xbe48572f,0x3caf3293,0x3b1f4881,
0x3e12c7e1,0x3da53720,0xbe5e60f6,0x3ce889f8,0x3e2ea592,0x3ddc1e5b,0x3e067f6b,0x3d4957b0,0x3eba546e,0x3b8f7586,
0xbe012dfb,0x3be1425a,0x3d9324f9,0x3dc7bf8f,0xbd287004,0xbb8a0e90,0xbcad10a5,0xbd38767e,0x3ca1bc3b,0x3c1169d6,
0xbd317264,0xbc9d935f,0xbd52c911,0x3ce7a477,0x3d0dd9ce,0x3d007091,0x3e16e2d1,0x3d11c35c,0x3e1e68f0,0x3dbd0b0c,
0x3de401d6,0xbd756cdb,0xbccb4f9b,0xbdb65349,0xbe2895b8,0x3cba44f0,0xbde89edc,0xbe7589da,0x3c80398c,0xbd077a96,
0x3d68f8ab,0x3e17dd11,0x3c7e4687,0x3da8b806,0xbe0becb7,0x3c721d7e,0x3e80b14e,0xbdad7102,0xbdcdac1a,0x3c3b6776,
0xbdc733b4,0xbe16930f,0xbdfad0ed,0x3d9f44bd,0x3ce685cc,0xbdbb433a,0x3d942cb4,0x3da86b1a,0xbe15e037,0xbe848306,
0x3da4a7cd,0x3d6b8705,0xbc8c9f48,0x3e38e057,0x3d2ceb6a,0x3e124837,0xbdb62905,0xbda48de6,0x3e4af52b,0x3d28beab,
0xbd616a15,0xbdb52f25,0xbd1b17e1,0xbdc6a45d,0xbe0cff4e,0x3cd20602,0x3be1ac02,0x3ba6c850,0x3d92ec4f,0xbd0a440f,
0xbd707261,0xbd9a1ac7,0x3de2b97c,0x3d63035c,0xbe09dc46,0xbc0496cf,0xbd97dc37,0xbe05bae0,0x3d97e295,0xbddeb52e,
0x3e034f05,0xbd006193,0x3de9694e,0x3dd76b22,0xbd9afab5,0x3dc4ba94,0xbd9c3a34,0x3dab810f,0x3dfca1eb,0xbd9e74cc,
0x3e0c6dd9,0xbda8e6bc,0xbe1c7ae2,0xbcbdad3c,0x3bc72e25,0x3e20ad0a,0x3d984a2b,0xbdc94ee6,0xbe0ba18f,0x3e4f63a4,
0xbde653cb,0x3d889a01,0x3dc59924,0xbe057aa8,0xbd68b232,0x3bf8b6f7,0x3d469281,0x3bfe6f1e,0xbc96958e,0x3c9a84ae,
0xbdaf8020,0xbe1f7b54,0xbe28fd6d,0x3d0145ff,0xbd191128,0x3db4bcf2,0x3e33badb,0x3dc61831,0xbbae8d63,0xbe016adb,
0x3e44eb54,0x3e2b4806,0xbd2f4889,0xbdb3992c,0xbd9b9bab,0x3d03b315,0xbdeb0660,0x3e067976,0xbe5ffcc2,0x3d9f8b54,
0xbd6a38d5,0x3e0b9897,0x3d7d90df,0xbe2f6907,0xbd881f46,0xbe228bf1,0xbd328da3,0xbe21f563,0xbe06a552,0xbe6306ab,
0x3e40d9be,0x3d0c329d,0xbe684172,0x3cef87cb,0xbe0b1d34,0x3e24a68c,0x3d092f62,0x3c8cbe86,0xbdc1a0c6,0x3e243772,
0xbe66bd31,0x3e5b9bcb,0x3dc450be,0xbd31c572,0xbe17b948,0xbe18571a,0x3c882a8b,0x3e487928,0xbdcff142,0x3d5461a4,
0x3cb69042,0xbd2ca175,0x3d312933,0x3da5a601,0x3d31122f,0x3cc9220c,0xbd8943c6,0x3de1cc85,0x3de1dc61,0xbdd65667,
0x3b92c210,0x3dc083d1,0xbd0d03b2,0x3d1a71bf,0xbcdc2d68,0xbbc4a0b6,0x3eacb4ed,0xbde4da87,0xbddf795f,0x3d4d4e92,
0xbcec4e52,0xbcece9fb,0x3d6a7e51,0xbe004049,0x3e0e98c6,0x3da0cfec,0xbdbf10d1,0xbcae61ee,0xbd8c0b1d,0x3e1bb77f,
0xbd8833e3,0xbd991522,0xbd01cff2,0xbb80ee83,0x3e0bb2e7,0x3d6c363d,0xbd30de27,0xbc70f245,0xbc950457,0x3d74006b,
0x3d83e9a1,0xbdfb4734,0xbcda751e,0x3c89142a,0xbd823da4,0x3d870519,0xbdcdaecd,0x3dc81f82,0x3cc45bd1,0xbc5c4d7e,
0xbd3ebd13,0x3d8246e4,0x3d58fd3e,0x3dfece32,0xbde4e35f,0x3c450763,0xbd56c936,0x3b66134b,0xbcee7ee8,0x3c5bf0e0,
0xbd2299bc,0xbdc34852,0x3d0dc0a1,0x3e13dc73,0x3e0e04a6,0xbd432b10,0xbb196d6e,0xbdeec172,0xbcb04da1,0x3e3bbb6b,
0x3d659969,0x3de24e5b,0xbc3b85a1,0x3b940781,0xbd68769a,0x3c2887f5,0x3d66a08e,0x3d22c6da,0x3d8ff909,0x3c6fdefc,
0xbda9b974,0x3dd63ad6,0x3e7c5153,0xbe3525e8,0x3e0a02b1,0x3de97c29,0xbdae5cb7,0x3e3431d9,0x3d92ceae,0xbe3cc5f5,
0xbbef30d3,0x3e2cd060,0x3d43b9c6,0x3dca00a2,0x3d72fa4b,0x3d80f5c1,0x3db59d27,0x3db60d78,0xbd78949d,0x3e0a14ef,
0x3ddb52d3,0x3e1f1656,0xbdd034ba,0x3cc52433,0x3d9e269e,0x3d71f27a,0x3e341961,0xbd9376c3,0x3d98915c,0xbcd6eaa2,
0xbd211b78,0x3d565b10,0xbc7aa127,0x3eb5490a,0xbb9c20af,0x3d42a671,0x3e0af568,0x3b78e31c,0xba9094c1,0x3db533b9,
0xbbc65094,0x3e015cc4,0xbdb420bf,0xbcc410f1,0xbdc83b3c,0xbd414851,0x3dad5703,0x3db87bc8,0xbdd0099a,0x3d9b00b9,
0x3d447f74,0xbd9534bd,0xbcb289c2,0xbd6f0109,0xbddbce05,0x3d562acc,0x3c822b39,0xbccd0242,0xbde4cd9e,0xbe1bf1da,
0x3cf12c3e,0x3e209181,0xbd140ab9,0xbdc683da,0xbe4f055e,0xbbf96acf,0x3e2083bc,0x3d952d8d,0xbd6c8da8,0x3db4d8b1,
0xbe7e99af,0x3daf7fad,0x3d619f0f,0x3e053296,0xbd9e9a11,0xbd07ae29,0x3d6bbb23,0xbec18c3b,0xbe171018,0x3e5a9233,
0x3db0da04,0x3dc13880,0xbda572d7,0x3df143b7,0xbd409ecd,0x3e26d1d3,0xbd0818e6,0xbd681c49,0x3ce152f1,0x3df7c511,
0xbe019713,0xbd224a96,0x3e76b343,0xbe5ba99d,0xbe421364,0xbe3cd2b0,0x3d58923a,0x3e618178,0x3e68a9ee,0x3de4260d,
0x3d3de58c,0x3e05774a,0x3e1cc62f,0x3dbce07f,0x3c7f52fd,0xbe287efc,0x3db6a8be,0xbe2de6e6,0x3ca8b3ef,0x3ded616b,
0xbd88e2c7,0x3e0f1e85,0x3d2050be,0x3ccdca9a,0xbd939521,0x3d58826d,0xbceaa5e1,0x3d924965,0xbc2dcc3d,0x3d5f147b,
0x3c6b5296,0xbd32795a,0x3d246d08,0x39fae441,0x3df2aaad,0xbd619da1,0x3db75b79,0x3cf5f4b2,0xbd5f9b35,0x3c90fcb0,
0xbda9b194,0xbcd4f6ea,0x3c37a619,0x3d408f8b,0xbd0e5223,0xbd5e2eb6,0x3dcdd709,0xbd7b6d7d,0xbc03a85c,0xbabda685,
0x3ba763a3,0xbd19a2a7,0x3e131e12,0xbdc87e04,0xbd217a0b,0x3dd1864f,0xbd35bf0b,0x3d648e46,0xbb610234,0xbd549071,
0x3cc0bd9d,0xbd5e8540,0xbd80365a,0xbc8b8f72,0x3d432806,0x3c18857e,0xbd2f30c9,0x3dae6771,0xbdd1e4cb,0xbd5f751a,
0x3d450a12,0x3d5e5a7d,0x3d7e9135,0x3974327c,0xbc5c7c44,0xbbe94e0f,0xbc0841a5,0x3b795a93,0x3c759920,0xbe07abf2,
0xbd80532d,0x3d04f584,0x3e08f781,0xbadf1b3c,0xbda03ee9,0x3d2828a7,0x3bb7962d,0xbcbba37c,0xbd761b5d,0xbd6aa058,
0x3dcf5a56,0xbd0996ea,0xbd8a1630,0xbb983003,0xbce19b17,0xbe29aedf,0x3cbe6437,0xbd7f1f2c,0x3c48634c,0x3da4549a,
0x3d223700,0x3d4d73d5,0xbc2c4af8,0xbcfe0043,0x3d152f59,0xbd89c345,0xbcb64da2,0xbcae1685,0x3db1f714,0xbbd24c49,
0x3d8bdc32,0x3c86103e,0x3bbbfa3f,0xbdb7645e,0x3d11f192,0x3d3c1acf,0x3dc2bf54,0xbcfda910,0xbdcff6ea,0x3e222414,
0x3c984cdc,0xbe0732d0,0x3c8c9651,0x3d01ee06,0xbdbf815c,0xbe11b4a3,0xbb73bcce,0x3b32f3a3,0xbd007f98,0xbd4d6a9d,
0x3ddfc26a,0xbdca331e,0x3c4f7ea8,0xbd9320d0,0x3df45244,0xbbb6395c,0x3c7018bb,0xbeae45f8,0x3dbe58f4,0x3c1e0777,
0x3d096f03,0x3c32a26c,0xbd0a7e12,0xbe22d0e1,0x3d4a8588,0x3d37d30a,0x3db425e3,0xbbb555ca,0x3df71aa6,0xbd88a011,
0x3d2e59b8,0xbc5a2d92,0x3dc86166,0x3da6b252,0xbd12f0d3,0xbb8fd88c,0x3d714f7b,0xbdd7291c,0x3c82730f,0x3c8c6a1c,
0x3ccef420,0xbd83b3fa,0x3d8213b1,0x3bf8d564,0x3cf901c9,0x3d546392,0x3b977ac8,0xbe25cac7,0xbd30c772,0x3bcfd21a,
0x3c93557c,0xbe23304d,0xbba2dd0b,0x3df92e2d,0xbdfc6e86,0x3d9ce719,0xbe283d4a,0xbd7509be,0x3c6ccf94,0x3e56806c,
0xbe17ba95,0xbda2a045,0xbcaf08ca,0x3d29c065,0xbd7caa3f,0x3c1c8bb9,0xbe4b6337,0xbe56b26a,0x3e4bf69c,0xbdbf8649,
0x3e131533,0xbd877b53,0x3e18408d,0x3ddbadf5,0xbdb711df,0x3e02c861,0x3e419491,0x3e005069,0xbdef85c4,0x3a944c12,
0x3d9d1f3e,0x3cc0b04c,0x3de2a225,0x3e2f12a2,0xbe6dc1a0,0x3e5334f5,0xbdde5c62,0xbd4765fd,0x3d89e221,0xbbf96fb8,
0x3b1cb64b,0xbe354ba9,0x3d781b26,0xbd93b764,0xbdabb3d8,0x3d014e68,0xb95f5086,0xbd02cd81,0xbd646e91,0xbd9c2ac3,
0x3e2cffd1,0x3e9230fa,0xbd7400b3,0x3da9129b,0x3c52b2da,0x3cfa3a85,0xbd4ed4ef,0xba280a7f,0x3e06a4f8,0x3df0d386,
0x3ba5b411,0x3d5d2a7d,0xbe244a93,0x3c4ae0b1,0x3ea678cc,0x3c126ae9,0x3c8482c8,0xbcdbbc40,0xbd87125b,0xbe273ff7,
0x3d020f62,0x3dfe67bf,0xbddd8979,0x3e41ede2,0x3d308162,0x3d95a8ee,0x3dd44357,0x3d31b1f3,0xbe3e9c3a,0x3d91da93,
0xbd3e3213,0xbd7e05e0,0x3d51942a,0xbcae7a49,0xbebf5701,0x3b56080b,0x3dba7213,0xbd813c5a,0xbd6b4037,0x3d8043c1,
0x3d9741f0,0x3d9a2181,0xbe106126,0xbd83a84e,0xbe87d443,0xbb3fa4b8,0xbb889aca,0xbd1f133a,0x3d58776e,0xbe39691e,
0xbda58590,0x3e1298df,0x3b9d9f9b,0x3d24faa7,0xbd9bda8d,0x3cd953a2,0xbe0aaf76,0x3a67ad79,0x3dbfa537,0x3d7fc8fb,
0xbde921ea,0xbca3ab79,0xbd59cdd8,0xbdb1ae43,0x3cd5f70c,0x3dfc6f43,0x3c07256f,0x3e0a3f2a,0x3d352f76,0xbe5a7d61,
0xbd2f41d8,0xbe0fc648,0xbbfb45c7,0x3e0eaf24,0xbd9bc41f,0xbe6d8432,0x3e186712,0x3e48b9a7,0xbe8f64ad,0x3e77d34a,
0x3e41ae4e,0x3e1f4341,0x3de70207,0x3dc3c132,0x3db7a038,0x3e0ef619,0xbdbfb716,0xbe35531f,0x3e04eed1,0x3dcc7d4f,
0x3dd6890f,0x3d01a69d,0xbd2043e5,0x3dceaad2,0x3d5241e3,0xbe33668a,0x3b41372f,0xbd540750,0xbd443b97,0x3b1edd30,
0x3c8d351b,0x3c78022c,0x3dcdcf50,0x3d66d4bf,0xbdc9551a,0xbbb2f563,0xbd0dcf31,0xbd667540,0x3d71295c,0xbbf4ff56,
0x3da14009,0xbe35b43f,0x3dc3dadb,0x3b97cbfa,0x3c94f72f,0xbd6ee52d,0x3c9ab70e,0xbd7e6801,0x3b00e25b,0x3d5d2a14,
0x3cbe09e0,0xbe52bbe5,0xbd23e441,0x3d7098ec,0x3d512685,0x3e21b5dc,0x3c584836,0xbb93d126,0x3cbc1228,0xbd0b3605,
0xbc1d812c,0xbe57d7c6,0xbe615959,0xbdc7ee14,0x3cb44eec,0x3d794029,0x3d95a80d,0xbd49ce86,0xbe1bed85,0x3d73156e,
0x3d2c4c48,0x3da457c4,0x3d93b704,0xbd386f8b,0xbdbcdb16,0xbd59a6b5,0x3aa42363,0x3e976305,0xbc17ceaf,0xbd4aa732,
0xbd40da24,0x3d544331,0x3ba04617,0xbe57ef8f,0x3dd0fc80,0x3d21dbd1,0x3cd3be94,0xbd606ab0,0x3e35bf6d,0x3e3fbec0,
0x3c96ff3c,0x3de4ab44,0x3d9458d2,0xbced58d1,0x3dba45ff,0x3d051029,0xba53c59f,0xbe26c46b,0xbd64bcce,0x3cd2dad3,
0xbe21bfbe,0xbcd9cea7,0x3e1c6da6,0x3da4f3fe,0xbbcc64cc,0xbced9551,0x3b4543aa,0x3d7d02df,0x3d928904,0xbcbebd8e,
0xbdd81f50,0x3d0cd1fc,0x3dafa05a,0x3e2e12c1,0xbd16ef9a,0xbd4c88d2,0x3dd9527c,0xbc51f8fb,0x3db896dd,0x3d5eee21,
0x3e123556,0xbcc4274e,0x3cb9ae2c,0xbd956011,0xbc6272c9,0xbc07a8bc,0xbc140730,0x3db30e7a,0xbc93f328,0xbdf1804f,
0xbccc98cf,0x3cca6fcf,0x3bda5463,0x3d2f3547,0x3db17727,0x3d69394c,0x3dae99de,0xbd8b6159,0x3db0c23e,0xbc943e7d,
0x3dec13b9,0xbd894374,0xbe054390,0xbde01c21,0xbd4502e6,0xbd57369f,0x3d5088f7,0x3dc71f21,0xbd950395,0xbe0ae94f,
0x3d4abe75,0xbda268ff,0xbd08ca8e,0xbdb961c1,0xbd6a53c2,0x3d15f472,0x3d6191fe,0xbd5dfc77,0xbdd16fe3,0x3c7dbfe1,
0xbe07068f,0x3dc968fc,0xbdafee50,0xbd8d69be,0x3cf72589,0xbd75ae56,0x3d56bfee,0x3d232014,0x3c177938,0xbd1f700b,
0xbce718bc,0xbc9a1c60,0xbc336f5d,0xbca34620,0xbd2dca82,0x3cd17c61,0x3ca06181,0xbddbc9cc,0x3d22db7b,0xbc0c4a86,
0xbda78fc7,0xbdcee99b,0x3d1f2626,0x3ddb6415,0xbc37cd73,0x3d3a3f8e,0xbc015163,0x3ced128d,0xbb888ab8,0x3d2dff7d,
0xbc130342,0x3d07cf35,0x3dbb27dd,0x3dbad329,0x3ca2455c,0xbac2441a,0x3d0d0a9d,0x3dc32586,0xbda57891,0xbe17dac3,
0xbe3726fc,0xbdc53bc7,0x3cc8d735,0x3e09c0a7,0xbdcdd683,0xbc089eab,0x3d3dcb59,0x3ca44794,0x3e0189e0,0x3c3cfde0,
0xba23ec3a,0xbc3f81d4,0xbd762ac0,0xbe05e77b,0xbdd5e898,0x3e35651d,0xbb9ce438,0x3e039816,0x3c73e46c,0xbd511bd5,
0x3cb5dddb,0xbd9a89ed,0xbd97d3b3,0xbcb31043,0x3d73f3a0,0x3cddb88c,0x3e2d569c,0xbb7bee63,0x3d9ecd32,0x3d75fa5e,
0x3e4ef319,0xbc9c2777,0x3e252771,0x3d4605e1,0x3d698e93,0x3d229079,0xbdcaf615,0x3c8360c7,0xbdd98166,0x3e451165,
0x3dfd0173,0x3dcf1cc7,0x3ca74605,0xbdf0da5f,0x3d36659a,0x3cd56e6e,0x3dc6c02f,0x3dd602ed,0x3e249d02,0x3e6e4652,
0xbd102624,0x3cb61119,0x3c0e7723,0xbbc96b70,0xbdbd34d8,0x3dca8137,0x3c8cd21d,0x3d9bbe30,0xbdcbd51b,0xbcc48176,
0xbe744dcc,0x3d43452c,0xbd6b8b55,0x3d3d1418,0xbdb97e6d,0xbe3d6ac1,0xbe73af32,0xbcb1b69a,0x3df2eb1c,0x3e445df3,
0x3eb8d29e,0xbdd276f2,0x3e039d9b,0x3d20c612,0x3d083cc7,0x3e29247c,0xbd88941b,0x3d0a0a25,0xbe7df402,0xbd60296a,
0xbda3d2ee,0x3cf1d30a,0x3d930ed2,0x3d33e0c3,0x3b5b25e3,0xbe6b471c,0x3cdeb2e9,0x3ccf26e3,0xbe2cdb3f,0x3e46bc3e,
0x3d27b51b,0xbd41a9b9,0xbaa80d30,0xbe24c987,0x3df26e04,0xbded0ff6,0xbe27736d,0x3c557c8c,0x3d7505bd,0xbc8e5d05,
0x3e075fbd,0x3d7ef355,0x3e1d37f6,0xbdf69e88,0xbc839c9d,0x3dcb03ed,0xbb6cb271,0xbdbc1d47,0xbd862372,0x3e127042,
0x3dbcdac4,0xbd3a339b,0xbd185113,0xbdbe8a9a,0x3da61f19,0xbd0028c7,0xbd161d09,0x3cbf8b17,0x3e06e24a,0xbd8c31bd,
0x3d1b12de,0x3dac7780,0x3cb94dbe,0xbd00f600,0x3d419ba2,0xbca88f9f,0xbdcd0c5a,0x3d00a44f,0xbe041484,0x3dceed84,
0xbd6999aa,0x3d6a9a8c,0x3de53485,0xbd3d3669,0x3e81ac51,0x3d9e572d,0x3d4e13a5,0x3d1dea29,0x3d68e351,0xbd2318e7,
0x3d749272,0x3c565e9e,0x3b03bcd2,0xbdc504b6,0x3bb6000a,0xbc054ffd,0x3cd09dd8,0xbc0e66c3,0x3d031956,0xbc8a1b18,
0xbd38abba,0xbdc1e7c4,0x3deb67d8,0x3c99bf3d,0xbc2c426f,0xbcb897de,0xbcf53a37,0xbda7b847,0xbcb04c7d,0xbc94e524,
0x3dde9295,0x3cb20a2c,0xbc5506ea,0x3d9bd1d1,0x3d06fcc2,0xbca4a05d,0xbcdd5e07,0xbd890f8c,0xbd42be57,0xbd83baae,
0xbddf7b49,0xbc7420dd,0xbd2c978a,0xbc3f34d7,0xbda4500f,0x3c449b21,0xbe034c77,0x3d0b7709,0x3d231b01,0xbd8774d3,
0xbe02390c,0xbcaa83b7,0x3d96a284,0xbd54a5e3,0xbd585583,0x3c3d4198,0x3d522a50,0x3b838068,0xbba96aa3,0x3d56a714,
0xbcae6252,0xbcda5c6e,0xbdce0119,0xbd10ae6d,0x3cb99840,0x3d263613,0x3cda0784,0x3e6004a5,0x3d691fd9,0xbd2c9b86,
0x3db0076b,0xbb35c4df,0xbcaf2ec0,0xbe268c14,0xbe1e77b2,0x3d95d0fe,0xbe2d09fa,0xbdfb364b,0xbca3f963,0x3d1a12f9,
0x3d63323a,0x3d66fefd,0xbd02fb98,0xbd3e07cf,0x3cef7342,0xbd9609bf,0xbd20a0d4,0x3d655f1f,0x3ddd4913,0x3df3256e,
0x3b52ea55,0x3c9544b2,0x3c8b0a12,0x3d87111d,0xbdd4c48d,0x3cdbf4e4,0x3dd37b82,0x3d112a24,0xbb8894a4,0xbe80ba83,
0xbcc873e1,0xbc4d83d3,0x3d4e8975,0x3a986f62,0x3d31651e,0x3d30c611,0xbc465f8c,0x3da372a1,0xbdc06338,0xbdd2b8fc,
0xbc2fedd4,0xbd465678,0xbe37522d,0xbd4b7cf5,0xbd95059e,0xbd99bf0d,0xbd879361,0x3cdcde85,0xbde7d987,0x3bb7769b,
0x3df0cae9,0x3d850a82,0x3e32fcb0,0x3b6ebb49,0x3b5c983d,0x3cd388f7,0xbc7a8308,0x3c809dda,0xbc5cf4ca,0x3e118c55,
0xbd8bd96f,0x3ccf1ce3,0x3df85e0b,0x3d09cf6a,0x3dd56281,0x39c24d7e,0x3dc75cb0,0xbd0f953e,0xbd78298c,0xbcec4ffa,
0x3cfe5414,0xbdff8755,0xbcee6dca,0x3d7febd4,0x3c89d43e,0x3c01c29f,0x3cabc320,0x3d655367,0x3ce0c27e,0xbdaa0346,
0x3d65e13a,0x3d0fcc95,0xbdc41172,0x3d0cba1f,0xbd64c540,0x3dad939c,0xbd52ad37,0x3e0d5c44,0xbd54374b,0x3e806ca4,
0x3da30ee3,0xbc65a322,0x3d662d2b,0x3d99bee9,0xbdbf1fb4,0xbe98a610,0x3e58dbc2,0x3db6379b,0xbbf1dac6,0x3c6c8e53,
0xbe0b6192,0xbbc1cc44,0x3dd492d2,0x3dfbf867,0x3e0bec63,0x3db6e025,0x3d9decf0,0x3d6398a7,0xbd0176f5,0xbc6cce5f,
0xbda5bb2c,0x3d4a104a,0x3e48ad32,0xbcd42595,0xbdc8ad5e,0x3d785b9b,0xbc424a4f,0x3d7bf8bc,0x3b87eec9,0xbcecd37d,
0x3d9b18a9,0xbb8583b9,0x3d949f2b,0x3e1de45a,0xba03318d,0xbe08615d,0x3dd5cac7,0x3e5ac81f,0xbd92fdb6,0xbdcc1594,
0x3da6fea2,0xbde0c5ec,0xbd628f4b,0x3d990cdd,0xbe132065,0x3d263c95,0xbd8a19a3,0x3dc98498,0x3d8328a6,0xbe2b6dbc,
0x3e22c38f,0xbe058850,0x3e04f8ae,0x3bb9344c,0x3d1c7159,0xbd159294,0x3d2f462a,0xbd09e3f2,0x3defa764,0xbdc38172,
0x3d35e2c9,0x3e0ce3d6,0xbcdb24c8,0xbe0a2827,0x3c3f2b4d,0xbd8f39b4,0xbddfc952,0x3e0d019f,0x3de4d7d1,0x3d9b2d52,
0x3e1ff5a9,0x3d276e24,0xbe26cab2,0xbe3fba60,0x3d98ac4e,0xbe2db4e9,0xbd61882e,0xbe3fe3cf,0x3e5a57e9,0xbe0179ee,
0xbdeed8b9,0x3d8bfa54,0xbc9c6726,0x3cf98e12,0x3dc9b160,0x3db61e42,0xbdbb14a7,0x3dcab410,0x3d021fca,0x3d41d552,
0x3d9d18e8,0x3dc1f0bf,0x3dc7bb2e,0xbe05cbab,0xbd7d8420,0x3d873f53,0x3e3c8a9b,0xbe140d21,0x3ce285a4,0x3e0f4357,
0xbddbd3e6,0xbd2dd71e,0x3df5883b,0x3ef85da8,0x3cc7e921,0x3d61ca8f,0x3daf1676,0x3b8ea697,0x3d958f8b,0xbd9615a3,
0xbd8cfb74,0xbe4bd4ff,0xbd9207bc,0xbd87ba70,0xbd33fb12,0xbd8538a2,0x3cce9e53,0x3de4f4a2,0x3d043faa,0xbd9b0539,
0xbdc27ce3,0xbc9a8386,0xbc27b8f2,0x3b9699a6,0xbc20a908,0x3d7028c3,0xbd71643b,0xbd67dbd1,0x3be3d3e0,0xbc20cbdf,
0xbd52586d,0xbd5217b5,0x3d1e799e,0x3edb0828,0xbdca1321,0xbd589ef2,0xbdddfba4,0xbd0dd7d6,0xbce21700,0x3cc9358b,
0xbbee3531,0xbde35a0a,0xbd8c6bfe,0xbd1123eb,0x3dbd6ba7,0xbd95282e,0x3da31bc7,0x3d9bb64c,0x3d60b255,0x3ca09a27,
0xbd200d4b,0xbbf05753,0x3c9e6483,0xbd0826cc,0xbd97e641,0xbd2d072f,0xbcd99f0d,0xbd878c82,0x3daafce4,0x3d994205,
0x3d0eaf93,0xbc2679f4,0x3ce950a8,0xbd8c4e9a,0xbc52f119,0x3e18e79b,0x3dea33c5,0xbd91af93,0xbdb38fcb,0xbdccda19,
0xbdc392b9,0xbdbac06f,0x3d78f8ef,0x3ca7b3be,0xbc247475,0x3d419d9a,0xbd199b27,0x3e74ef49,0xbbb6dee1,0xbdf37965,
0x3da69529,0xbaecc858,0x3e254ae8,0xbbb98f04,0xbd980fb7,0x3d81e411,0xbdf29703,0xbd2f946b,0x3ded9246,0xbd80c1fd,
0x3de611db,0x3d658882,0x3e42a3f0,0x3e6ad2c1,0x3d97a9a6,0xbe257e10,0x3d0edf5c,0xbdea3dbe,0x3b169862,0xbde1eaf7,
0x3d824a47,0x3d5f2f8f,0xbdb21aa3,0x3c9ac9cf,0x3cd241a7,0x3df9461c,0xbc836312,0x3a065ca4,0xbc3b2653,0x3d6eba84,
0xbe2f78f2,0x3d69d755,0xbe81ca58,0x3d1e0318,0x3e39f507,0xbdd60ed2,0x3d3aee38,0x3d070974,0x3c2c1519,0x3d4d43ea,
0xbe0917da,0xbcaada55,0xbcfe86b3,0x3d8a5692,0x3c8dbde8,0xbd815000,0xbdd29ce5,0x3c41ea5f,0x3db0f7f6,0xbe2931ab,
0x3e04b347,0xbd8f14d9,0x3d2ea238,0xbe11714a,0xbdded587,0xbdae5623,0xbe85d231,0xbdb7e537,0x3dee0fe6,0x3d81adc9,
0x3d873594,0x3e0c5301,0xbc98f386,0xbe0ddca8,0x3ddd7764,0xbcf5579e,0xbe01a635,0xbd20df7e,0xbdd397cb,0xbdfff13a,
0xbbabaa50,0xbe054e3b,0xbdcd0073,0x3d02ea5c,0xbddee97c,0xbd9327c3,0xbdc2d5b8,0xbde2934d,0x3d903c7a,0x3e544827,
0xbe1a039c,0xbe0756db,0xbd0983e2,0x3d3211a4,0x3b438ec1,0xbcfb4e95,0xbe36dc60,0xbc6f56af,0xbd0161d1,0xbd2e5137,
0xbe4f893e,0xbe54c0cd,0x3ce3e01e,0xbe95ff5a,0xbd3f491b,0x3c8b039d,0xbc8d5410,0xbd8300a0,0xbe755548,0xbdcd3159,
0x3df62bee,0xbe9376ef,0xbe311585,0x3d8d49c7,0x3df1bca1,0x3ea7d658,0xbe000f95,0x3e6a8a86,0x3e2b548c,0x3da3161c,
0xbd4e93ea,0xbe041cc9,0xbd791ee2,0xbde4364a,0x3d523bdf,0xbe1a725a,0x3d6a98a0,0x3e024a78,0xbcac106b,0x3dc971b0,
0x3df045e9,0xbd2bf6ca,0x3d019c06,0xbd20a372,0x3d7b6575,0xbbdff4e5,0xbd7d9c31,0x3cbd6eda,0x3c48da6c,0xbd64716c,
0xbe5f2f2e,0xbcc7082a,0x3e25ea0f,0x3d99cc6b,0xbd4550af,0xbe8a79d6,0x3d440e1d,0xbe3cb553,0x3c21f5dd,0x3d72106c,
0x3b8998d9,0xbdc1a6a5,0xbb0f832e,0xbd529b11,0x3d4e3b09,0xbda64ae1,0xbdea5044,0xbd9458bf,0x3d2fe7f9,0x3cd72a25,
0x3a187a36,0x3cd4b73d,0xbe009aad,0x3d7e39ea,0xbd693d2b,0xbb852112,0x3c976106,0x3be28245,0x3d044070,0xbd906d1c,
0x3d25bb63,0xbe102df5,0x3dbecff6,0x3d328784,0x3d56f430,0xbd7e301d,0x3c086e09,0x3db1c1ed,0xbbb7ab9b,0x3bc2f99c,
0xbd8d232a,0x3c970006,0x3e084987,0x3e1ba861,0x3ba0d6eb,0x3e038482,0xbdf41732,0xbda13bc3,0x3cc4a9ef,0x3d1810de,
0xbe4404e6,0x3d06d3a4,0xbe8b1b41,0x3dae94e8,0x3deaf7a8,0x3e22bf09,0x3cfd2aad,0x3e0f756c,0xbc51084b,0xbe8732be,
0x3db80889,0x3c5c5228,0xbdec60a4,0xbd883ce5,0x3d0a8a58,0x3c8256f4,0xbd9de510,0x3ddc6fac,0x3b839593,0x3d1fd334,
0xbe0baa66,0xbe225547,0x3d4921a5,0x3e5a9619,0xbb53bc30,0x3de29796,0x3d88c2ac,0x3d7dff45,0x3d55c5d3,0xbe318c3d,
0x3d933406,0xbdef8af3,0xbbada1bd,0xbcd88874,0xbc1f862e,0x3d8b0ed6,0x3d505659,0x3dadef1d,0x3bc46743,0x3d0778f0,
0xbd0e927d,0x3d7da3f0,0x3d25b768,0xbd686d7c,0x3c452332,0x3cf28b9b,0xbd0c5b46,0xbc74fd7c,0xbcb2a32d,0xbc09c783,
0xbc85a0cc,0x3b1b5cd4,0x3d811157,0x3c81ff96,0x3dca782d,0x3b370303,0x3c4bd474,0xbc62850c,0xbca1df56,0x3db533ab,
0x3ca961b7,0x3cb02746,0xbc846deb,0x3d825bbd,0xbd950eff,0x3adf2f3b,0x3d3c6c2e,0xba71bef8,0xbd18ecd0,0x3db66450,
0x3d0b4c5c,0x38c156cb,0x3d5b7911,0xbcfe060b,0xbd04e50e,0x3c96363a,0xbd60a570,0xbcb8a554,0x3d940ada,0x3dbaf95a,
0x3e034b24,0xbd211154,0xbcf68c12,0xbcbade10,0xbc83a4b0,0xbd3addf0,0xbd5a1f9c,0xbdb10707,0xbcf41564,0x3dc8e1d5,
0xbd1a078f,0x3d966169,0x3d9b7039,0xbdf372b7,0x3d6e8d70,0x3d8b045c,0xbe177cc6,0xbb870a44,0xbc870026,0x3d3a885a,
0xbde3b365,0x3ccf43da,0xbdb62712,0xbd61b358,0x3bedfaef,0xbdbd29de,0xbb5c4e47,0xbcf59292,0xbcd005a1,0xbc41f395,
0x3dcd4af1,0xbdbbefa7,0xbdf76565,0x3d7fe2cf,0x3dfa1ac1,0xbd348624,0x3d9dd236,0x3d968740,0xbd51dc02,0x3d46a0ed,
0xbc032565,0xbddbbf1c,0xbd14b2b3,0x3c7961ee,0x3dc1d782,0x3d197fd5,0xbcff92b8,0x39c2fd59,0x3d7ea22d,0x3d05cc0c,
0xbd4ee9e8,0xbd478f3c,0xbe02c5fe,0xbdd1efc0,0xbd4cf1fe,0xbb335a3c,0x3d6de999,0xbdec59d6,0xbd6fe1c1,0xbd7b077b,
0xbddc1eb5,0xbd545c3a,0xbdab2049,0x3d810de8,0xbcbbb79e,0x3e5e969b,0x3d2c7d2a,0x3db6844c,0x3de9ea3f,0xbe07ef8e,
0x3b559200,0x3d211c5b,0xbcc60062,0x3e265156,0xbceacf54,0xbdfeee57,0xbbf31b45,0x3d13de0c,0xbcc1d27b,0x3d97a334,
0xbd11beed,0x3ba77546,0x3b41864f,0x3bfbaaf1,0xbdf3dc27,0x3e3f843e,0x3e799b3a,0x3dc22e75,0xbbc9d301,0xbcaf64ce,
0xbd1ac3a9,0xbe54449a,0xbe6e5ff6,0xbd390544,0xbd53036e,0x3dc172b2,0x3e0f39c8,0xbdebb144,0xbdd2b90b,0xbe31b62b,
0xbd48281d,0xbd0f6d9d,0xbcf95bc5,0xbca1ea10,0x3cefce45,0xbe82383c,0xbe268e26,0x3e0ae4a1,0x3e3c2d16,0xbe0dde26,
0xbdb0fc1a,0xbdfb90ea,0x3cced437,0xbc6fae57,0x3ddabbd2,0x3d673f31,0x3c9c6e1f,0x3e863735,0x3e0972e2,0x3db0ee57,
0xbea1ee9a,0x3dc311b5,0x3ddf3a07,0x3e093601,0xbeb0513f,0xbcf21402,0xbd254e31,0xbdab517e,0xbd3bb5c7,0xbe0d6bb6,
0xbdd6385a,0xbd34b8f0,0x3d7f0c34,0x3d5eefd1,0xbe003c60,0x3dd8c741,0x3e524baa,0xbdafe3f4,0xbe035e0e,0x3e28878a,
0x3e99fd73,0xbe2a3a80,0xbd712abe,0x3e56d936,0xbcdb9925,0xbcf9ba6b,0xbd6466ca,0x3c10efd1,0x3cb660bc,0x3d81d184,
0x3e0c3284,0x3b223f0d,0x3dc1a9c0,0xbda8f872,0x3c1dfac3,0xbd9e6925,0x3c85bc8e,0xbc235470,0x3da14790,0x3cd0a258,
0x3d09e7ae,0x3d12a130,0xbd0638ae,0x3d057b5a,0x3d672cec,0x3ca76a37,0xbcfb8a8f,0xbb90c575,0x3bef21c4,0xbcd9de30,
0x3dc6354f,0x3d6301cb,0xbcfec1cf,0x3cbbdf2e,0xbcadcc11,0xbd9c200c,0xbcdba355,0x3da60fca,0x3eb72712,0x3d29d294,
0xbdea4788,0xbd280b50,0x3d37723a,0x3c227b8f,0xbd1fe0ea,0xbe06d105,0x3e109f8c,0xbe9f5054,0xbcb07970,0xbc29c685,
0xbd005a8f,0x3ca78b1e,0x3cab8b05,0xbe7ee615,0xbc009300,0x3d074d44,0xbe0cd442,0xbcf4de4a,0xbda3264c,0xbcfb6810,
0xbe05c040,0x3d522c36,0x3d31af7b,0xbdb20b36,0xbc9f309c,0xbd27e420,0x3e583787,0x3cc92c89,0xbda95c0b,0xbdc99bcd,
0xbd6c5629,0x3cbb9280,0x3d84f1a7,0xbc7be9f8,0xbe2e7a62,0xbdcb8c14,0xbc5799d5,0x3ca43c85,0x3c3545d1,0xbbc36be6,
0xbdbb3b93,0xbe35bdaf,0xbd4b458a,0xbd9a3391,0x3ca1c78d,0x3d857113,0x3cc0eeda,0x3c85dbdd,0x3dbd6510,0xbcfb1e8c,
0xbe846a65,0x3d3fbd63,0x3db84a0d,0x3dae597f,0xbdbc4233,0xbdb8249f,0xbe9caae6,0x3d9e8a8b,0x3e0ff2ad,0x3ee18ca2,
0xbd1dc0cf,0xbc49adee,0xbd92ffe0,0xbb9c87d6,0x3cb1bc82,0x3daf6487,0x3ca87711,0x3d83c832,0xbd320ae1,0xbd567004,
0x3d1a63e5,0x3e111c3f,0x3cf00882,0x3d64e806,0xbdb91a87,0xbd15e1fe,0x3c8b2be4,0xbdcc3458,0x3d45eb95,0xbc1d58fc,
0x3d0acd2d,0xbcaf5c06,0x3d9d9859,0x3dbc7586,0xbd956661,0x3d214813,0xbe813aae,0x3dd693ce,0xbdd0a4a7,0xbcb9555c,
0xbe053899,0x37a04137,0xbd89adf2,0x3e1de856,0xbcb333c9,0xbe4e45ce,0xbe7d6ec0,0x3dca4248,0xbd688790,0xbde49bbe,
0x3e0b2762,0xbdd699d4,0x3d8b1a65,0x3d797c8c,0x3dbae2c1,0x3d9de577,0xbdf2b831,0x3dddab5a,0x3a0dd23c,0x3c8148dd,
0xbda114c8,0x3d5f38fe,0x3c96b263,0x3ce96b75,0x3c021139,0x3ebea306,0xbc3007d4,0xbc60445c,0xbdb7cb49,0x3e1c0d34,
0x3e082a6a,0x3ddba3fa,0xbda30aac,0x3dccc10e,0xbeaa1cbe,0xbd142558,0xbe0eb60e,0xbe0549c8,0xbea0df76,0x3be81b47,
0xbce0ac7c,0xbd433a4f,0x3dae5134,0x3e022bf2,0xbd51b7bf,0xbe157f65,0x3d88b689,0xbc595490,0x3e159afb,0x3d326810,
0x3b85075e,0xbc56dd78,0xbcd0e9f5,0x3b286dca,0x3e84745e,0x3e917baf,0xbe2f9fe1,0x3e65a241,0xbd99ad0b,0x3e976250,
0xbe5c2d83,0xbe2246c1,0x3cd62b9f,0xbe0b0c86,0x3bd01804,0x3e5334a4,0x3c2e1e99,0x3d5682c4,0xbe036efc,0xbd171210,
0x3d1421ed,0x3d1abe6d,0x3d32e935,0xb99de8fb,0xbc9dd89b,0x3cd18184,0x3d19abac,0x3cea78ff,0xbc038be1,0x3c038742,
0x3c8d2cd4,0x3e143a3d,0xbc4b0d5a,0x3d8d1b9b,0x3db50ec9,0xbab2c7bc,0x3cee37d5,0xbbc332fc,0x3d86caf7,0xbc801972,
0xbcad8b15,0xbdecf20c,0x3d6064e2,0x3c9c4536,0x3c4ffde8,0x3ba7a2ef,0x3d03d3c2,0x3da7d1c0,0x3d2782c7,0x3d30703d,
0x3c41995c,0x3d53080c,0xbe4a47c1,0x3c97c010,0xbdd83ec4,0x3d08b406,0x3ce7d8d7,0x3d0c9e96,0xbd0c6c52,0xbdd4deb6,
0x3dec4370,0x3cb0a0fb,0x3db3a645,0x3c8f605f,0x3b92bb29,0xbd206a89,0xbd1dfda7,0xbd8f18d0,0x3d820b09,0xbca6dddc,
0xbd4983e3,0x3c9471d0,0xbd8108e4,0xbcc6e9d6,0xbd7a1e48,0xbd15f578,0x3da01601,0x3d9e0027,0x3d6ea546,0xbc8781fa,
0xbd32dd11,0xbdbbb789,0xbd7d4573,0x39a15bad,0xbd81eb8f,0xbd949394,0x3c22902c,0x3dde9c68,0x3e1367b1,0x3dd9ac0d,
0x3d07a912,0xbb547c88,0xbd73ad66,0xbca16709,0xbcff2446,0xbb6ec87f,0xbd1e968e,0x3d8dff38,0x3d0f085a,0x3c22ae54,
0xbdbdeac1,0x3d12a1c2,0x3d049194,0x3e2c5913,0x3db4a3e0,0xbde4542c,0xbe47dea1,0xbd592856,0x3e36ce09,0xbe72789a,
0xbc6f52df,0x3e889f13,0xbd4b6231,0xbe05ac7e,0xbcd708c0,0xbcbf866a,0x3d61adc1,0x3d7f03bb,0xbe2a82aa,0xbd85241a,
0xbd69ec86,0xbd2cb71c,0xbdd34da2,0x3dfd5678,0x3cd05f3b,0x3d93e746,0x3d135c72,0xbd4c6064,0xbd9eb587,0x3d471ac3,
0x3dd61851,0x3c950ca5,0xbd1b5a03,0x3deac2b7,0xbc2e046d,0x3d5d30c6,0xbcaf0234,0x3c9d47c9,0xbdd667dd,0x3db7b04b,
0x3db64255,0x3cee09cb,0xbdb0a2dc,0xbc33f8e9,0xbd920adf,0x3d37d20b,0xbddfe122,0x3d810be3,0xbd94817b,0x3e9a643d,
0xbe91b3b3,0xbda4eced,0xbce180bd,0x3df4a5a9,0xbd04a2dd,0x3d6cf89e,0x3ddac062,0xbd48c594,0x3da4a7f8,0xbb8eca73,
0xbd2b8a50,0x3ccab154,0x3de260e7,0xbe27736c,0x3d2d8877,0x3d131373,0xbd5cc726,0x3bc15dd5,0xbcea7a2f,0xbe0e6f5e,
0xbdadffb0,0xbd4b2fd4,0xbcae3631,0x3c4a13f0,0xba846111,0x3b95ac10,0xbe994027,0xbe00d5dc,0xbc714301,0xbca9b75b,
0xbd04bffd,0xbcff61d9,0xbc27bb9a,0x3d83ed59,0xbc9db8c4,0xbd971448,0xbe187322,0xbe31091c,0x3d028294,0x3cf5abc9,
0xbc69d02f,0x3dc8cdc8,0xbd832d15,0xbe43e151,0xbd732f4c,0x3dafaf99,0xbd73f627,0x3c4fddd4,0xbdc75c1e,0x3bebbb2b,
0x3db2ecad,0x3cb0fa3d,0x3e265f65,0xbd3f6188,0xbd83c878,0xbe1224da,0xbe22e908,0xbe0cdbee,0x3bf8df02,0xbc214b35,
0xbd265864,0x3cc22b3a,0xbd231345,0x3be05296,0x3cccece5,0x3df1a6a6,0xbcf99974,0xbca6de92,0x3c3eb9e1,0xbd5cd1d9,
0x3cf320a7,0x3dc5c36e,0xbcdad5ea,0x3d7b4788,0xbc43ebfa,0x3d08f1fe,0x3d8a3b28,0xbd0b78a4,0x3e08d16e,0xbd2a5dd7,
0x3dc023a8,0x3d91bcf7,0x3d76b441,0x396c02c9,0xbca5e138,0x3d02b6ef,0x3ceb8fcd,0x3b8f2281,0xbb12a5b2,0xba268384,
0xbc61b83c,0xbc95eff2,0xbd6aadfa,0x3d22a24d,0x3cc11dc7,0xbe1112f6,0xbdaac0d6,0xbb853bc5,0x3dbfbefb,0x3dc78349,
0x3c81aac5,0xbb8e63a9,0xbdd33ada,0xbd878424,0xbc24d34c,0x3bfe205d,0x3bc3bb16,0x3d6b4e4a,0x3d0d41ff,0xbda4f328,
0xbb042488,0x3d499d76,0xbc1f9942,0x3da09542,0xbd345c68,0x3ca610f0,0xbdd7067b,0x3da44019,0x3ca6cfe0,0xbcdd2c10,
0x3d5baa2e,0x3ca05967,0x3cae2ae2,0xbd42db4b,0xbc96855a,0x3dab3eb7,0xbde78e85,0x3c573c6f,0x3c0487a2,0x3d8378f4,
0x3b950ff7,0xbd26ee52,0xbc4cd3f6,0x3d3840e5,0x3c5bb90c,0xbd4d4547,0xbc267985,0x3dc21234,0xbd2c9d5e,0xbd4ea201,
0xbd3367b5,0x3d93c796,0x3e144541,0x3d6edc39,0xbd3bb5eb,0x3cc8a406,0x3d058b13,0x3e34d107,0x3ca743af,0x3cab614e,
0x3b9950c8,0xbd47f77f,0x3cc0e43a,0x3d24b640,0x3d4faadf,0x3afae56d,0xbc975952,0xbdc7fe5d,0xbd580b65,0xbd3b41ee,
0x3dc7f64e,0x3cb3e318,0xbdb098fa,0xbd81f348,0x3d7460dc,0x3d1fb997,0xbce46eb2,0x3e27e98b,0x3e4975d0,0x3d82892f,
0xbc8ca1de,0x3d2f7efb,0xbcbe41e5,0x3d3707c5,0x3d7e76b4,0x3dbd82f0,0x3e0a8568,0xbd1dbfb4,0xbdf101d2,0xbe13173a,
0xbd36416d,0x3cf6c4c9,0x3d7792b2,0x3ca92a4f,0x3d7281f9,0xbd32278f,0x3d25d100,0xbe544962,0xbd8f9ae8,0xbd5faf1c,
0xbda11427,0xbdfeee38,0xbe151dce,0x3eae7bc4,0x3a59c41f,0x3ceff30e,0xbcc41a61,0xbb09fd66,0x3de0dcbe,0x3e37dd00,
0xbe0b14a4,0x3e35fb55,0xbda8c46a,0x3e8acbe6,0x3b152865,0xbd945d0b,0x3d304c31,0x3d4efd94,0xbd46262e,0xbe16e5d3,
0xbe54e88b,0xb9068d0b,0xbd90066d,0x3ea591b0,0x3e26d886,0x3c987676,0x3d41ca50,0xba0fef35,0xbe2bb9ab,0x3d3b27c1,
0xbdfe62d6,0xbe24ea83,0xbe00912c,0x3db72df0,0xbca50ab6,0xbbbd4f5d,0x3d3b87e3,0xbe0dad50,0xbc094bae,0x3d851c3e,
0x3e4dd2b8,0x3cf48af6,0xb94b108c,0x3de393a5,0xbe93bf69,0xbcbb18d5,0xbd91322f,0xbd9e01f9,0xbd37d239,0x3d931ab5,
0xbe12bdd5,0x3e846706,0x3db84648,0xbc159564,0x3d365d72,0x3d0220a8,0xbcaf79ec,0xbd47a3bf,0xbd9a652b,0x3dbee894,
0xbddb75f0,0x3c789315,0x3db2160a,0x3a66005e,0x3a0c2995,0x3da6fbec,0x3d00a58d,0xbe27e37e,0xbc41fda2,0xbda21edf,
0x3d8fc2c6,0x3db52df8,0x3d60be70,0x3df5cfe3,0x3b3ba20c,0x3b96df7c,0xbc17a585,0xbe37bcd0,0xbc1ce4e3,0x3de1cd8d,
0xbc91a8b9,0x3de0615a,0xbd5581a6,0xbd94f8f3,0x3e01d9b4,0x3e2de01c,0xbdc6b40d,0x3e103363,0x3dce2c31,0x3d5efca6,
0xbd31d3ff,0xbce5e842,0x3d680dfb,0x3d8fbd5a,0xbe0d2df0,0xbd6d1e16,0x3d3d8205,0xbc420da0,0x3d60bc17,0xbd709c01,
0x3e1302ef,0x3de75deb,0xbdfaa57b,0x3db5c1db,0x3bdd8188,0xbdaf9198,0xbe1d0513,0x3dc9e179,0xbdb5c9a6,0xbe0252aa,
0x3dc5b05e,0xbd2de26b,0xbd9c4d72,0x3db7090e,0x3d399f86,0x3d54a160,0xbe23810a,0x3db1dd16,0xbde100bc,0xbe006d78,
0xbc2db25c,0x3c5179ab,0x3c84cd9b,0x3d38962a,0x3cd7e4c7,0x3e12a5ff,0x3cb4b038,0xbe04c383,0xbd8f81dd,0xbdc8c255,
0x3c2ded07,0xbaa68641,0xbab4f49d,0x3df47623,0x3d95f01f,0xbb2eb212,0xbdd7d938,0xbcd2ac96,0x3ea8f87d,0xbd87b2cc,
0x3dc5b934,0xbd8671dd,0xbd99e6b8,0x3d63c2fc,0xbbdcb8cf,0x3d24e84a,0xbe9a0eff,0x3d76e77b,0x3caee4a4,0x3da70cea,
0xbd552950,0x3d6c6407,0x3d9d1219,0xbdf526bd,0xbe4cf3af,0x3d661c77,0x3cd497ca,0xbd382c3e,0x3c2eae3c,0xbd520e45,
0xbe0317a8,0xbda540ce,0x392dcd2d,0x3d9948de,0x3bce18d6,0xbc150ba6,0xbcb16dc5,0xbd0230ed,0x3c8b9743,0xbd9008ce,
0x3dcca866,0x3cd61046,0x3d41ab5c,0xbd54e47f,0xbd9ab312,0xbd0d4504,0x3dd9b8a7,0xbbb8cebe,0x3c14b94a,0x3a1c6967,
0x3dd92f54,0xbcd28bc6,0x3db5f5c3,0xbd082c27,0x3cec6790,0xbd2ae915,0x3dc870b2,0x3dce73ad,0xbd64670d,0x3d4334b4,
0xbb7f54aa,0xbd562096,0xbd92c2fd,0xbd06b436,0x3d263843,0x3d94777c,0xbce4e44a,0x3e716aca,0x3cf183ab,0x3ce61de2,
0xbda8a196,0x3d2384fd,0x3d839e4b,0x3d833b60,0xbd1d7b65,0xbcd1d77f,0xbd7faabc,0xbd621881,0x3cc400d9,0x3d3f2366,
0xbdf62e90,0xbd4ddfad,0x3d2d5656,0xbd642f11,0x3d6e0d9a,0xbd0628b2,0x3cc90df8,0x3d70f963,0x3ca0ca71,0x3d4dfdd5,
0x3cd5889a,0x3d816e7b,0xbe4ef6e7,0xbc38a70c,0xbd6ff3a4,0x3dbbd558,0xbd7c018c,0xbdacbb74,0x3dac9599,0x3d124ff5,
0xbb9978f5,0xbda00867,0xbd701cbb,0x3cee9730,0x3d5b102d,0x3db7b6f9,0xbdddfc44,0x3d638336,0xbe0b728c,0xbabc489a,
0x3d2f06b2,0xbda20ca1,0x3d9bbeff,0x3c9ddae2,0xbde1e951,0x3e504a54,0xbdfaf1bb,0xbdc3c073,0xbc7c542e,0xbe01c8e8,
0xbce09ff6,0x3e140dff,0xbd6263cf,0x3dcd9d7e,0x3c3dc08c,0xbd0ddb93,0x39651dc4,0x3ceb182e,0xbdd82717,0x3ddb81c9,
0x3c557b4d,0xbd1d44e4,0xbdbe3edf,0xbd771436,0x3c4126e1,0xbd21c77b,0x3e0d605d,0xbd034846,0x3d2ae990,0x3ddc8a94,
0x3cb03e56,0x3db73a4d,0xbdde7d1c,0x3d0da7d7,0xbd4b0df3,0xbe18a353,0x3ce34895,0xbd05f67d,0xbd9ae562,0xbd7c737d,
0x3de161eb,0x3cbf2b2d,0x3b20a01c,0x3d8cb3a8,0x3c24e3fb,0x3dc76b46,0x3d4139b2,0xbd29b557,0x3d8d028e,0xbc32059e,
0x3da3db30,0xbc485d7a,0x3ce28aa4,0x3cb9a648,0xbe81bf19,0x3d770cf3,0xbba49946,0x3928e74b,0xbd31e241,0x3d140ab1,
0x3dd3e0fe,0x3cf3ee40,0x3e26d474,0x3d25b65b,0xbadb604b,0x3dc16147,0xbbaa7a92,0x3d685dcd,0xbda4f4a0,0x3d31f0d9,
0x3e0f9727,0x3e22f20f,0x3e99a0a7,0x3d115c6a,0x3c430636,0x3d7a7e99,0xbe2891d3,0x3dd2633d,0xbd20b40b,0x3e682f8e,
0x3dfb2b8f,0x3c16f0a3,0xbcd28954,0xbddb0210,0x3c46964a,0xbdb6c6a1,0x3c1dbb67,0x3b65bd12,0xbd200ad9,0xbc6fa441,
0xbdd32500,0xbcec52be,0xbcfb71c7,0x3b5ef321,0xbe0a22f8,0x3d747945,0xbcee576b,0x3e812f89,0xbe189da8,0x3da6ba09,
0xbd6ef475,0x3db321a1,0x3e82433c,0x3d67ac09,0xbd4e5a34,0xbc627968,0x3e1d4947,0xbe1744d0,0xb9eecac4,0xbc62a1cf,
0xbcad1baa,0xbd05d022,0x3d1b684e,0x3da8eae4,0x3bb1be54,0x3c99de89,0x3df0bde9,0x3bed7d05,0x3d2dbe7e,0x3c366609,
0x3e0bcc3c,0xbd9d2ca7,0x3d632a8b,0xbca4824d,0x3c8c2089,0x3d6485c2,0x3d3f0f2d,0x3d74c65f,0xbdb80c27,0x3d9de8e0,
0x3ddd0c94,0xbd90f610,0xbdcb33cc,0xbda72b03,0x3ca8e260,0x3d20a9f5,0xbda70297,0x3d247464,0x3c449639,0xbd9f8511,
0xbdc55f91,0x3dbbe0a0,0xbd4392d0,0xbda91078,0x3d65b269,0xbca5cb1a,0x3afd9a8d,0xbddae4cf,0x3d85ddaa,0x3dcf842e,
0xbcff5e51,0xbd10ce16,0xbde45911,0xbd2acaee,0xbd81178c,0xbbeaa3c6,0x3d8dc4e8,0x3cd8ab90,0x3c062d93,0x3c889c97,
0xbdadcc13,0x3a63d0ad,0xbd03e94e,0x3c655f42,0x3d4127f7,0x3ccbf840,0x3d9064b2,0x3d3d696e,0xbdc0f02e,0xbdffbce1,
0xbd168a02,0xbca2076a,0x3ccf53f7,0xbd800a2d,0xbdff58e3,0xbd1458c2,0xbdecf66a,0x3d753177,0x3b8cd13a,0x3dcee654,
0x3de678b2,0xbd6a3d83,0xbd435e1a,0xbce9fe8f,0x3da120c0,0xbc4205aa,0xbc430960,0x3da506b7,0xbd9207e8,0xbdb6287b,
0xbe189d86,0x3e13c245,0x3e0cf3ad,0x3ccbb10c,0xbd3a7f77,0x3d1b3072,0xbc5d963d,0x3dbe40d8,0x3e54dc06,0x3c5433f8,
0x3dcb58bc,0xbe0a5ef9,0x3e070723,0x3e635090,0x3cc0219b,0x3c8ace1f,0xbc332d12,0x3c443609,0x3d65a8c4,0xbdb7c652,
0x3dddac3c,0xbc66fb27,0xbd48b770,0xbdd0de62,0xbc29a4ae,0x3bbc8ac4,0xbcc4d813,0x3d5a5c61,0x3c606797,0x3d28be06,
0x3c7bfa66,0xbdaeb1a6,0xbd234f05,0xbbd9f0b3,0x3db89acd,0x3cebec56,0xbd1ff891,0x3d1a9133,0xbd8ea3d0,0x3d64035c,
0x3d006786,0xbcab7fd7,0xbc7a23d3,0x3d6597d2,0x3c5c7b9c,0x3d758082,0x3c949b92,0x3c11d39b,0xbd29fbc3,0x3dc43e5d,
0xbda210ee,0x3ca7bb01,0x3cd68409,0x3d278edd,0x3d0d8a5d,0xbc18d6e4,0xbd9e8ba1,0xbd7586af,0x3d73134f,0x3bef0d48,
0xbdf8f01d,0xbc093e9e,0x3a21c6d8,0xbcf8caf0,0x3bdb91c9,0xbdad1646,0x3b166129,0x3c37e92b,0xbd658d26,0x3c7f7689,
0xbbb6694d,0xbdb9fbcc,0xbd143f71,0x3c6cc0af,0xbbdee535,0x3b64719a,0x3cf8707b,0xbdf28057,0xbd44c146,0x3d2b5be7,
0xbab3ea13,0xbe15799d,0xbbe3911c,0x3d897282,0x3c9ab603,0xbd485d6f,0x3da574a4,0x3ddeedf5,0xbc87ab37,0xbc8d8308,
0x3cc0b697,0x3ce5bbe0,0xbc2636c7,0x3d0ebf38,0xbcd71e91,0x3d9f1d87,0xbc13db39,0x3da753ab,0x3e412fe2,0xbdc297b3,
0x3c92b783,0x3cb7cc62,0xbbb7bdbb,0x3e25c394,0xbdd9c802,0x3cbc0d69,0xbc8750e3,0xbe4da917,0x3cf13d64,0x3ddb28f8,
0xbdb5ccd4,0xbdc7b4d3,0xbdbfef93,0x3e54cf1e,0x3db38aad,0x3b2e87d2,0x3c83a2e3,0xbd418535,0x3d466728,0xbd544c47,
0x3d9f04c2,0xbd37e4dc,0x3dd64933,0x3d08048a,0x3d8b0f62,0x3d60becd,0xbda0442b,0xbce6dba1,0xbdbf0e12,0x3dd3e7d2,
0xbcedf17a,0xbd757d66,0xbd1ba17a,0xbd4b97a7,0xbda5a640,0x3b4f71ac,0xbc2f798b,0xbcc85baf,0x3d00c31d,0x3c06230b,
0xbd12ef64,0xbd0958c5,0xbdb8da23,0xbe331db6,0x3d796641,0x3db3c16f,0xbcbc96b8,0xbd96a689,0xbc5e3684,0x3cfd97dc,
0xbe0c13b5,0xbdc3400f,0xbcb8eb77,0xbdd7dd08,0x3dcb8234,0xbeb6d5b6,0x3c62366c,0x3e590e09,0x3d03aa66,0x3e21b537,
0x3da07a40,0x3daaf79f,0x3de83360,0xbd118b0b,0xbdf30916,0x3d1c514f,0x3da76b71,0xbd688839,0xbd4350bc,0x3db4c755,
0x3bcda18f,0xbe175d96,0x3cb20f15,0xbe90b6ed,0x3c9dd831,0x3d78015d,0x3db47da7,0x3cb55dd3,0xbd372ea1,0xbdb700ff,
0x3dd7e9df,0xbe2cc41b,0xbccd5d81,0x3d96edf0,0x3d0aa92a,0xbd6b1ed8,0xbdb7aa01,0xbdec1247,0xbc93eb4b,0xbd86dbf9,
0xbe4df68b,0x3ce3c65e,0xbc78d90b,0xbd06fb77,0x3c2df749,0x3d0c5ba1,0x3e8242dc,0x3e754d77,0xbcf8b355,0x3e65cce0,
0xbdd8658a,0x3e392ccf,0xbd18e72e,0xbe76c6ae,0x3e01ea45,0xbd6a31b2,0x3c303833,0xbdac4b9e,0x3de6c99c,0xbe148aa9,
0xbe27ac42,0x3dda1553,0xbdd36058,0x3c37c976,0x3cf5e40c,0x3dc32c95,0xbde2320d,0x3dd71efb,0xbde42050,0x3d647860,
0x3d57e13c,0xbe29b7ac,0xbd9a85f1,0xbdb4d4d7,0x3cfcba05,0xbda46714,0xbcaad0a7,0xbd58661f,0x3d8ed1c8,0xbdde1b5e,
0x3e315dd8,0xbcec9b15,0x3d96fa9c,0x3dc1922d,0xbcd74ce4,0x3d27b1f0,0x3c9ca60f,0xbc8b7a08,0x3e0ff432,0xbdd79dc2,
0xbd5eca4c,0x3c54883d,0x3d679542,0xbce50ea5,0xbc3825c4,0xbe1ec83a,0x3c43ab5a,0x3b0f7d7d,0xbd030a86,0xbdd72af0,
0xbdc3f482,0xbb829f7b,0xbe3ee579,0xbdb9aaa9,0xbda78812,0xbdc4cea2,0x3d353a5a,0x3c7f9f34,0xbda33334,0x3da7d1fb,
0x3bfb07e3,0xbd288d47,0xbd949b16,0xbd319af6,0xbce472db,0x3e48f24e,0x3dd736c1,0xbcff2acb,0x3e3d6956,0x3c74fcff,
0xbe87aab2,0xbd8972b7,0xbcf75785,0xbdae74ea,0x3d19d75c,0xbc67986b,0x3d036cab,0xbd71ba6b,0xbd249793,0x3e0f9a76,
0xbd60b377,0xbd9af4ec,0xbc72de7e,0x3d48e390,0xbe1ef920,0xbd835ac3,0x3d64187f,0xbb58c8cf,0xbcab42c7,0xbdf32216,
0x3e61b368,0xbd485be9,0xbdb24bc0,0x3e022a1b,0x3c4b7082,0xbd499b3e,0x3cae1531,0x3e9c139a,0xbe3c55eb,0xbe5a1da3,
0xbd89d54e,0x3e03d617,0xbe1d0c4b,0x3d1ac5a0,0x3d941ec3,0x3e115eb1,0xbd55f475,0x3c0a3f11,0x3db595cc,0xbd0badc2,
0xbe27b28e,0x3db62b9a,0x3d31812e,0xbbac3d25,0xbe0a1bf3,0x3e4ae148,0xbcc1bf8c,0xbcaee4ff,0x3d06c1ad,0x3c6f6f9e,
0xbd0efcda,0xbd1dba34,0x3d72bae7,0xbda5f355,0xbbcd41c0,0x3cbb39a2,0x3d04b106,0x3dbfd62e,0x3d3b1eb6,0x3bfc199b,
0xbe0eae99,0xbc5deab8,0xbd5326ee,0x3e44744d,0xbd0fc080,0x3d9d5365,0xbc94300a,0xbda8b71e,0x3cdf20fb,0xbc95fa9e,
0x3d3b401c,0x3dc866d2,0xbd0a56aa,0x3a935b10,0x3daee8ef,0x3ddf0254,0xbdc29d8f,0x3cea0f34,0xbcd92f58,0xbc33254d,
0xbd8f23db,0x3e0a2c1f,0x3d970c25,0xbd523ee8,0xbd7053b8,0x3e10f5db,0x3d42b17f,0x3e2b06c8,0xbdd9bdd4,0x3d340dcd,
0xbe4000bf,0xbc037291,0xbd811929,0xbe096098,0x3d312814,0xbe0511e3,0x3daf785c,0x3ca25773,0x3bc69a4c,0x3d2edbc5,
0xbd250ae6,0x3de5e08a,0xbdfc8641,0x3c226d6a,0xbddcdc2e,0xbc8db532,0xbe0b6398,0x3e63e549,0x3c11b1e8,0x3d569d93,
0x3d9b3637,0x3d250a4e,0x3d1d94b9,0xbe9ed754,0xbe00aedd,0x3dad3a92,0x3d4187a2,0x3d866968,0xbdc23005,0xbd42f1aa,
0xbe53aeac,0xbc2ec6d6,0x3cc2e6a8,0x3c913e61,0x3d6b272b,0x3d25a20f,0xbe880074,0xbdfc44cb,0xbc7341ee,0x3cacf3fa,
0xbcfdec1e,0x3ceeeee2,0x3d35fe8f,0xbda1cfb7,0x3cb70bce,0x3c05ddad,0x3c6f7e2a,0xbd15dddf,0x3d6350ab,0xbc0c008a,
0xbd3a8c38,0x3d4c0184,0x3d019c8d,0xbd1ef030,0xbd827f09,0x3d6f50a1,0xbc191d2b,0x3c2745fc,0xbc135a3b,0x3e063580,
0xbd6a475f,0xbd223ada,0xbce741e0,0xbd860812,0x3ce1ba36,0xbc858b86,0xbdd57c1d,0xbd0af039,0x3d3a57ee,0x3d90f62e,
0xbc00f17e,0x3d76fa19,0xbda180ef,0x3c8cbaa7,0x3d9d3cf0,0xbccccf48,0x3c854cf3,0xbd1afab9,0xbc125f1c,0xbc6f6739,
0xbcac42d5,0x3d4c7f91,0x3d4fce49,0x3dd3002a,0x3d9d26f8,0xbd0ecb91,0xbd5f975c,0xbc442ae4,0xbdb16959,0xbce37bf2,
0xbdfc2230,0x3d8ffb08,0xbc068787,0xbc7cfe58,0xbd842e73,0xbb8c2fc6,0x3db03857,0xbda2f1ce,0x3c1a735d,0x3afccb14,
0xbd6b72a2,0x3d028fc4,0xbd062fdc,0x3c630a6a,0xbdc6472c,0xbd9f4e84,0xbd027ce5,0xba6189c8,0xbdfafc66,0x3cdc4b81,
0xbda694ef,0xbd1cc356,0x3d9a552c,0x3d0b6da0,0xbd70a397,0x3cd88570,0x3dc23418,0xbd79df51,0xbc0df3cb,0x3cf61f5a,
0x3ce45e89,0x3bb083da,0xbd768917,0x3cd50942,0x3d1b551d,0xbcbe3f7d,0xbdca1fb2,0x3c02bfef,0xbda7f5da,0xbda4016b,
0x3c4458ea,0x3c9dba0f,0xbd9f99b3,0xbd975a53,0xbdfcec67,0xbd609725,0xbca7ecfc,0xbd385545,0xbdf8c019,0xbd7e4fc0,
0xbd78eea6,0xbcc5de8e,0x3cbbb0af,0xbd7dc984,0x3ccd88df,0x3c98d036,0xbb09332a,0xbcdeea70,0xbcf955c7,0xbcfd4cec,
0x3d65d1f8,0xbdc4c467,0xbc3c3605,0x3d2b0e9c,0x3d4fc65e,0x3d3baa28,0xbb19e962,0xbda4f519,0x3d965cb2,0xbcf21d52,
0xbd00ca6f,0x3d5e1f14,0xbca9903c,0xbd9c6a80,0xbddc44f2,0xbdb8cfd6,0xbd7234e3,0xbd5639ab,0xbc72111e,0xbd7b398c,
0xbccc837d,0x3d6347a6,0xbdb12097,0x3d149588,0xbd314e2c,0x3cf6cda8,0x3dbd9e0e,0xbc2f2652,0x3e0e9bd9,0xbd8a54f7,
0xbddd9687,0x3cfb9099,0xbbdc8b00,0x3d904fc8,0xbd262b35,0x3d920da0,0xbc18119a,0x3dab1e6a,0xbd9e1394,0x3cfd537d,
0x3d054fb1,0x3da5a1e9,0xbd649765,0xbc44f19f,0xbc7faa05,0x3cdc0ace,0xbccbe522,0x3d98ead7,0xbcc5ff2b,0xbe15e7d3,
0xbb7b50de,0x3da054c1,0xbd27b784,0x3cdb6f66,0x3e01cce5,0xbda85de1,0x3ccde7ed,0xbd8b9611,0xbd3ee735,0xbd58f51e,
0xbc4f3355,0xbce9d5f5,0x3d292de8,0xbde3006a,0x3d0c094a,0x3d1e473a,0x3cd504bb,0x3dc7cf1e,0xbcf0cafa,0xbcb9c965,
0xbca3be03,0xbdb38b7e,0x3d89e117,0xbe092612,0x3c06504a,0x3e4c8343,0x3d4ef8d0,0x3d97b8c7,0x3d9a42ee,0xbbc43da3,
0xbd14e7e8,0xbdedb14b,0xbe0f1a73,0xbe497c89,0xbde9bef6,0x3db05f15,0xbcfc45f8,0xbc988449,0xbd0d61ab,0xbd99a7e5,
0xbd75e64e,0x3d532181,0xbc8fc4db,0xbd0890ab,0xbd9cc722,0xbd5735bf,0x3d05ca03,0x3ccb6015,0x3c36e532,0x3c19df44,
0x3c15ad94,0x3cfd7643,0xba35c7e7,0xbdfb588f,0x3cc637d0,0xbdadc151,0xbd2fbe60,0xbdaf72a8,0x3da6a69b,0xbd061fd8,
0xbc528ca8,0xbc43b37d,0xbccb25eb,0xbe336c26,0x3d63b007,0xbe17ac00,0xbd12cbd6,0xbbd6fd04,0xbe163d85,0xbd9850a3,
0x3d71fb6f,0xbd3d65ae,0x3e087649,0xbec200cb,0x3d2ea203,0xbe24135e,0x3e0c3901,0x3cc99ea4,0xbd5e6987,0xbc7e25ea,
0xbae3ad29,0x3ed83405,0xbd3f8633,0x3b1035ad,0x3dab5152,0x3aba1377,0xbd6509d9,0x3ae8841e,0x3e357214,0x3d0ee3b2,
0x3d9c4c67,0x3ca20956,0x3dbf26f0,0x3ce5e0a5,0xbd154a38,0x3e1dd89a,0xbd0f5fd4,0xbd581295,0x3d53a661,0xbd070b36,
0x3c5ba902,0x3d67d158,0xbcef7e57,0x3b317efe,0x3dcbb769,0x3ce3ea64,0xbc7db2aa,0xbd7ebab0,0x3e265124,0x3dcd368c,
0xbcd22b63,0x3e3dbb18,0xbcc499f3,0x3b8b5c4b,0x3dcee45b,0xbcabc721,0xbde69341,0x3d13201d,0xbce06b2f,0x3e3b0d04,
0x3e044e6e,0x3d469713,0xbd1e099f,0xbdbbba73,0x3ea15cf5,0x3dcc7344,0x3cc662c3,0x3d98c795,0x3c9a413d,0x3b53d429,
0xbbba7da5,0x3cee1306,0xbc52805b,0xbd074a8a,0xbd8ba817,0xbddff117,0xbd24d997,0x3e1c593c,0x3e032540,0xbd115a60,
0x3d8afd7a,0x3cfb3827,0x3d6769a1,0x3d82df03,0xbd1c20fb,0x3ba49e42,0x3ca4f98b,0xbd823e66,0xbc5ea3c7,0xbdd1ed8e,
0xbca8d7ba,0xbe135a93,0x3d1f0296,0x3c320853,0x3c29af53,0xbc9028fd,0x3d1b19ba,0x3d9d33af,0x3ce186d5,0xbdb27fac,
0xbc645004,0xbc7c0936,0xbd875f91,0xbafca324,0x3c112b9c,0x3dba025d,0xbd86e3f8,0xbbd05a9f,0x3d298df1,0xbdf5e46c,
0xbc27db7f,0xbdbed224,0x3d9078bc,0xbe393f1f,0x3ddf4ba2,0x3c342321,0xbe096a4a,0x3c4f87ff,0x3d726286,0xbc8b9339,
0x3d7a314f,0xbdedec9a,0x3d95f4a0,0x3d5c5421,0x3bc3db9e,0x3c9f6bed,0xbcdbb340,0xbbbd2c90,0xbd213b11,0xbd4afde3,
0x3d9001db,0xbc8c0df6,0xbdbb51c4,0x3d93bacf,0x3ca4ad7e,0x3d5fe927,0xbd6bb177,0x3d2113d0,0xbdc0a8c3,0xbcd45b2f,
0xbcc39922,0x3e093841,0xbbc8e33d,0xbca456cc,0x3dd14846,0xbdc91804,0x3d3791fc,0xbd1dfea4,0xbd69556d,0x3d154a6a,
0x3e09447e,0xbd9d4129,0xbd989407,0x3d845e8c,0xbd8f6406,0x3cfa7b6d,0xbe1135f8,0xbc91a160,0xbda64ae5,0xbd0cdbcd,
0x3e30faea,0x3ba06449,0xbc7be13c,0x3d06ec18,0x3c86ee0f,0x3c1627f0,0x3d3f7ad3,0xbd0a970d,0xbc9323c3,0x3de50c37,
0x3c412272,0x3dd74f53,0x3da85871,0x3d494ac6,0xbc20909b,0xbd2d9c1e,0xbcba7ac0,0x3cfc798f,0xbd01c4a5,0x3cf192d5,
0x3d2360ab,0x3da5afb3,0xbbe7f972,0x3d004c83,0x3ca31635,0x3d8429ed,0xbd2340c1,0xbd404fd6,0xbb7df95f,0xbcda7aca,
0x3d89bac0,0x3ab5b3d6,0xbd510352,0x3d9f8f4f,0xbb38fd83,0xbca2ff9e,0xbd0fc62f,0xbd025749,0xbd4ac6d8,0xbc415612,
0x3d360cbc,0xbc2304d4,0xbdaced95,0x3cfe11bc,0xbd930123,0x3d0118f4,0xbd17c9b9,0x3bfde3f3,0xbd5d8049,0xbcef6272,
0xbc5a735b,0x3d3044d2,0x3d750b00,0x3d332b33,0xbed0c5bc,0xbc24a151,0x3dd56e1f,0xbcff2636,0x3d781536,0x3c8d74d5,
0xbd99617b,0x3d7926fe,0x3d14741f,0xbd4456d4,0x3cda6d6a,0xbc863c25,0x3d2e15f5,0xbc639a1e,0x3d13ec55,0xbbfb5464,
0xbb13ce78,0x3d4085b5,0x3dc9d1a0,0x3ce09c9f,0xbb784d59,0x3da7eeb4,0xbd73b93b,0x3df3c260,0xbc556e31,0xbc8f7288,
0xbdfebb4a,0xbc449eb6,0xbbe2ab4a,0xbdce047c,0xbdb9e7ea,0xbd34fada,0x3d175ebf,0x3a4b8478,0x3bdcf110,0x3da6bbdb,
0xbdbc13d9,0xbaf41539,0x3d8138e6,0x3cb60a45,0x3cd28fc1,0xbd4d721a,0x3d950749,0x3d92e079,0x3ab14691,0x3da351ba,
0xbd8fb756,0x3e095060,0x3cdb4e35,0x3e0fd9f4,0x3c7ba823,0x3dad9870,0xbc32032a,0xbdaf3319,0xbcab33de,0xbda981d0,
0xbb1fc2ab,0xbd5ad678,0xbd4a4c71,0xbc041619,0xbc37c9c1,0xbd4ebd18,0x3bf61b81,0x3e1239bb,0xbd33c9ee,0x3d24dc1e,
0x3d0a81fc,0x3df0b401,0x3c87fa84,0x3d69eda4,0x3c1cd924,0x3cd464c7,0xbd2791e1,0x3d0353cd,0xbc94e7b7,0x3e1bf46e,
0xbda5b21e,0xbdccf9df,0xbccfc24a,0xbca585cd,0x3a275e9d,0xbdf4c847,0xbccaff93,0xba4c4479,0xbdf0662b,0x3d7788fd,
0xbcbd4d1c,0xbdde1a7e,0x3dbbc7e4,0xbd993843,0x3e1aaef6,0x3c6eb411,0xbd65c06c,0xbd483581,0xbc9f9959,0x3d64e1fc,
0x3da99177,0x3e8f55cc,0x3bd29384,0x3e1b6380,0x3d559adf,0x3e03a6c7,0x3d953d4d,0x3d80e908,0x3e208ed7,0x3d8d5225,
0x3e0867d4,0xbd8f69a9,0x3d542d24,0x3d89188f,0xbc85f237,0x3d2cba6a,0xbcc80e27,0xbd8065e5,0x3dbc360b,0xbb71eff4,
0x3d421055,0x3dfdf4b4,0xbda85ba7,0x3bc8295d,0x3d6269ef,0xbd00a35b,0xbddf25a7,0x3c6e8661,0x3b9f7e81,0x3dba165b,
0xbe31b4f5,0x3d32f820,0xbce2e11a,0x3d9b3b5b,0x3d22f0da,0x3dce7b31,0x3e05c4d4,0x3dd64d8a,0x3cc2c3cd,0xbd657268,
0x3d0faf53,0xbe8cd378,0x3e8150b8,0x3e291d20,0xbd334cf8,0x3e0a3b8e,0xbd5663bf,0x3d9dba65,0xbdc6b881,0xbc984e07,
0xbc20038e,0xbdb5e794,0x3d1dfb49,0xbca60ef8,0x3dad9823,0x3d9c1326,0xbbb9647c,0xbcddad14,0xbd451ee6,0xbdc5b3b6,
0xbc065957,0xbd1d051c,0x3d4bbfdd,0xbd9aa1ce,0xbd0a04b9,0xbe08a06e,0x3e351f12,0x3d665581,0xbd08ab5a,0xbc35135b,
0xbaea4e6b,0x3d8e03aa,0x3d2ad79e,0xbe0ee21f,0xbdc3b928,0xbdaa06a7,0xbdc8fa06,0xbd036fac,0x3c05ba59,0xbe0c10b7,
0xbe00763d,0xbd2440cd,0x3dff31c7,0x3c57ea63,0x3cd2d2f9,0x3dd3dec5,0xbdf0a3fa,0x3d946a93,0xbdadf839,0x3c5b79f3,
0x3d758318,0x3daffd9f,0xbd1ac1a2,0x3d749926,0xbe3bc6a2,0xbdff076f,0x3c8caa42,0xbd26e674,0xbea660cb,0xbd2e60dd,
0x3d8f61e9,0xbcf78e8c,0x3d991015,0x3e02391d,0xbc8abf4d,0x3b03c893,0x3e12e21d,0xbe4a9069,0xba14de63,0x3b95a7ed,
0xbe3e14a0,0x3d5421a8,0xbc368baa,0x3b08377d,0x3bef472f,0xbdbc6ecf,0x3e06338c,0xbe2037f0,0x3cac91ca,0xbe49cb84,
0x3deb1b0b,0xbe10a982,0x3e1dfa60,0x3da0b40e,0xbd04c3fe,0xbdc1312b,0x3d5d5367,0x3dcccb19,0x3dbf6cf2,0x3dd76129,
0x3c027b48,0x3e4f9125,0x3e0ea83e,0x3e161892,0x3db0faf5,0xbdf3b317,0x3d47f5a2,0xbde1375f,0x3e3f826e,0xbe23c2ee,
0xbc4a8723,0x3aa8bbf6,0x3c932d86,0x3d40715e,0xbcc2b8bb,0x3cdc34f1,0xbc0c217d,0x3ca121f8,0x3dc74cf9,0xbcbaf797,
0xbd93d7a3,0xbdb78f66,0xbc9df1fe,0xbd5536f2,0xbcd87086,0xbcfbe792,0x3e0dd949,0xbe09ff1d,0x3c339f3b,0xbd7e7c44,
0x3e3fee96,0xbc570605,0x3ccc863a,0xbd6178d8,0xbdc6a139,0x3d67d6cb,0xbca5c89e,0xbde73e97,0x3df834c7,0x3d77d5da,
0xbc214588,0x3ab2eeb2,0x3d6658cf,0xbdb9b047,0xbbf61799,0x3d40a9f0,0x3debe7fa,0x3d70b5ce,0xbd5dadb0,0x3cc7abaf,
0xbdb0faa0,0x3c0b04e7,0x3d2bb0f2,0xbd6bd81f,0xbd7245b4,0x3d663009,0x3dce779b,0xbac1ee45,0xbd59f9c1,0xbb41b856,
0xbd9b6bd5,0x3e285214,0xbc23c5f0,0x3db61c26,0x3c96e131,0x3df9bb28,0x3cdf0479,0x3c93d204,0x3cfe2ac1,0xbdee9152,
0xbd327d94,0xbc98c5a9,0x3d37c03c,0xbd26cf91,0x3d9a64b0,0x3ce73d2e,0x3e1cd8a8,0xbba29863,0xbd5bdc2f,0xbda53307,
0x3d2d8128,0xbc8a83d3,0x3d3e23bd,0xbd01408d,0xbd3f8050,0xbdd77997,0xbdbebf67,0x3d785e1d,0x3e15cd4e,0xbcde5fde,
0x3d624f2d,0x3d03a5a8,0xbb5477b5,0xbd5801b7,0xbcffe9b6,0xbdd1e1c0,0x3e1792e4,0xbd33e110,0x3d05323f,0xbba024d1,
0x3df0ea85,0xbcb63cb3,0x3e2f5cd0,0x3d2d3cf9,0x3e0c32c3,0x3bd4c4d3,0x3ceff2c4,0xbc005871,0x3ce6feec,0xb9105d93,
0xbdfe9457,0x3ce358fa,0x3e55c7cd,0x3dd5feb3,0x3de00645,0x3d63ba52,0xbe016d62,0xbdbaf942,0x3d317061,0xbdab60f8,
0x3d7a9f0b,0x3e246d1b,0xbdbf9b83,0x3d6704a6,0x3cf8c3fe,0x3deed8ec,0xbd35634f,0x3ae90eea,0xbde63074,0x3c930100,
0xbd1ce693,0x3d7aa63b,0xbe1be969,0x3c7e883c,0xbdc153cb,0xbd4fa90e,0xbe4c8f0c,0xbde61241,0xbe03ba7d,0x3ca0a5f1,
0xbd49f202,0x3dff43f5,0x3b5a80ac,0xbd92b4ff,0xba98e26a,0x3d91571f,0xbd8b7730,0xbe0a99aa,0x3e3604df,0x3c8bb1d2,
0x3cc7e42d,0x3db6f00f,0x3c58f685,0x3d5c8b8c,0xbc17acdd,0xbe1d49ba,0x3da704c0,0xbd7fc74c,0xbd85e847,0x3e22c412,
0x3dce1766,0x3daa4ba8,0xbed7ac1b,0xbd009f7f,0xbd811956,0x3e0da5e8,0xbd0fabfe,0xbda55dc9,0xbced199a,0xbdecc4cc,
0x3dabd4e9,0xbd891744,0x3e694807,0x3bccfbb9,0xbd870b41,0xbd144db9,0xbdc5dffd,0x3e18c46f,0x3e01b70e,0x3d2ce954,
0xbd4935e9,0x3a51787f,0xbd609ded,0x3c5ae06c,0xbd3eb2e6,0xbd903366,0xbd965cbb,0xbe283191,0xbc208a7d,0x3de0f81f,
0x3d8e0a7c,0xbd943bd5,0x3e3f4285,0x3e097e14,0xbceee1d3,0x3e67d876,0xbe4fe36a,0x3cf5c5c4,0xbd0863b5,0xbe1f6f59,
0xbd72af94,0x3d7ba71f,0xbcbf91a4,0x3cc1b1dc,0x3dbe2438,0x3ddd196e,0x3e542867,0x3bffb53c,0xbba0c0ff,0xbda0db5f,
0x3df26310,0xbdcaab2b,0x3dd9c848,0xbdd695f1,0x3d9d893d,0xbb773718,0x3dc76a29,0xbd9d96b5,0x3befdede,0xbc049b29,
0xbd9c965c,0xbd0ee0db,0x3d798151,0x3ca83d96,0xbd945e41,0x3c34fd56,0x3cd1558e,0x3e79c166,0x3de2d716,0xbda2cd02,
0xbd913980,0xbddaf1e9,0xbd0452cd,0x3ce529f2,0x3d28abf5,0x3d588309,0xbcfd379b,0x3d04b266,0xbe1624a5,0xbe9d9fee,
0x3d2ff2bc,0xbdb7c1e0,0xbd0274f6,0x3d8ad169,0xbc248929,0xbbe28f9a,0xbb25a4f1,0x3c921a8c,0x3d27c810,0x3d32a9ce,
0xbde710f3,0x3dbeb609,0x3d2adc08,0xbd9a1a4c,0xbc910d19,0xbd5412de,0x3d177bfb,0xbd8a9450,0xbe1ff888,0xbe91d909,
0x3d160e37,0xbd699dba,0xbcb6f561,0x3ded7178,0x3c8ffce6,0x3d237012,0xbce26cc2,0xbda8c73e,0x3d2fb36b,0xbbc7cf50,
0x3e385b36,0xbbd10c5d,0x3e295e74,0xbcd919ea,0x3bd6b854,0x3df75110,0x3c26dfbd,0x3dbd6dbc,0xbdd3aeb0,0xbb37ac03,
0x3d835f73,0x3e3085d8,0x3c57f25a,0xbd7946ca,0xbdfb2cd6,0x3e76e170,0x3d2ba2a6,0x3ce57d25,0xbd587315,0x3c1451f3,
0xbe91b15b,0xbdbe9a46,0x3d87eef5,0x3d391ab6,0x3bef4332,0xbe3d794c,0x3e048b0d,0x3cd56ab0,0xbcc0c15c,0x3d0b919f,
0x3d2529cd,0x3b9cf108,0x3d5588d0,0x3d5e5fab,0x3d2a5893,0xbd564e2a,0x3c43744d,0xbd6649ee,0x3c4e6523,0xbca0bea7,
0xb9be861f,0xbd398d51,0x3d18dfcd,0x3d4f833e,0x3cb19097,0x3bf53837,0xbda5cbf2,0xbcc9da20,0x3d5e6898,0xbcd6de7f,
0xbca91de0,0x3ca34239,0xbd01d7a8,0x3c161911,0xbda9fd9d,0xbc3509e7,0xbd693803,0xbd83aa13,0xbd17e5df,0xbc4d8e00,
0x3d6557e5,0x3d105cea,0xbcb5fb2d,0xbc2c4723,0x3ce69865,0xbd0b7bb4,0x3d696c39,0xbd2d802b,0x3d8cb545,0xbdb8e108,
0x3c99f5ae,0xbd70acec,0xbd5fa95b,0x3db337ba,0x3d00c1b1,0xbd348a11,0x3d902c23,0x3c8a7b8d,0xbd7f9157,0xbcd8768e,
0xbcc5bbe9,0xbdbafb41,0x3ccda80d,0x3d7a3f12,0xbd9d6276,0x3c6957a4,0xbdf4b62e,0xbcee66cc,0xbb3d5788,0xbcc73e32,
0xbda23e64,0x3cfe515e,0xbd0e3a38,0x3cb3b932,0xbd2d2b5f,0x3cf9463d,0xbcbd53cf,0x3d1393fb,0xbdf31203,0xbcc1420d,
0xbc70a73a,0xbd9ee708,0x3d1c7bea,0x3c0a2065,0xbe00b531,0x3d2d05b5,0x3d10e399,0xbaa8e2e5,0x3d8ad769,0xbd4cadf4,
0x3bdece45,0xbd427218,0xbb488721,0xbc526522,0x3c3f93bb,0xbc2eeba9,0x3c99cc25,0x3d1c6314,0x3d6d4d53,0x3b3415a0,
0x3d25d4e9,0xbd153364,0xbdca798a,0x3b8495bd,0xbdf5fef9,0x3cf98c7c,0xbda263ec,0x3c23354b,0x3d96b112,0xbe1772df,
0x3d8aca49,0xbd56c839,0xbcd4676f,0xbb7af7ed,0xbcabc86a,0x3cd5c71e,0xbc44da95,0xbcabf222,0x3d8c45c9,0xbd820690,
0xbd900ca0,0xbd77766e,0x3b91528b,0x3bf042c5,0xbd822764,0x3d2093b9,0x3d99acff,0xba39277a,0x3d9d5f13,0xbd17fe49,
0xbdd2d081,0x3cfc2920,0x3b885ca0,0xbbbb5ca6,0x3dd5462e,0x3cf9a014,0xbcdbdeac,0x3da7e0f2,0xbbec0941,0x3d5e043c,
0x3e216cc9,0x3d495b92,0x3d04a65f,0xbc949814,0xb7adb296,0x3cdedb17,0xbb1a5fb5,0x3c3c63a4,0x3cb14055,0x3dbe9517,
0xbe34425f,0x3d653b99,0xbd497193,0xbd9affaa,0xbd307a0a,0xbd07265d,0xbd7557ca,0x3c515ead,0xbdabd6b2,0xbb940f7c,
0xbcf584ff,0xbd8be60e,0xbd18a721,0xbda2ed1f,0x3d70eca2,0x3cfdbff6,0xbd86576e,0xbc8e06cd,0x3d9b1430,0xbce0fb03,
0xbdf6bbee,0xbdd75528,0xbab52971,0x3daa0286,0x3db7774c,0xbe0f72ab,0x3dcf055f,0xbc1b0a11,0x3d5600dd,0x3c9d1434,
0x3e290de4,0xbd68df31,0xbaddbf89,0x3d5831e0,0x3c8ca8aa,0xbd942518,0x3bc3965f,0xbd88cf99,0xbd72e7be,0xbb8369bb,
0x3d128afe,0x3d215f96,0xbd9d6c1b,0x3e666cbc,0x3e211456,0x3b53ca0a,0x3e1f3032,0xbcde6d47,0xbccd714c,0xbdf4ae40,
0x3cbf5479,0xbd795130,0x3d8e43f1,0x3e0a6809,0x3d53ed45,0x3c843300,0x3dea8108,0x3c0bdbc3,0xbdcc34ca,0xbdbe3f6f,
0xbd96ac16,0x3cb6364d,0xbce08c17,0x3db59b73,0xbc82ad1f,0xbd829b33,0x3e169fe9,0x3a82ed2e,0x3b1c3d93,0xbd013db6,
0xbc66ecfd,0x3c14550d,0x3cd52708,0x3c8e942e,0xbbe583b5,0xbdb5b24a,0x3d25accf,0xbc7efdbf,0xbcb5f476,0xbd030d8f,
0xbcb2d206,0xbcdc5155,0x3c7a2e7a,0x3b052345,0x3c9a687d,0xbd23061c,0x3d34ed68,0x3b3ed251,0xbe0d9e25,0x3db0cf7a,
0x3c545460,0xbda75aae,0xbbd93af8,0xbcde724b,0xbd88c6c2,0xbda566c5,0xbe9bbb83,0x3cb0d6db,0xbda72a32,0xbaaa1d07,
0xbd82e898,0xbd66c890,0xbc4f5ae4,0x3ad055d1,0x3e33ade1,0xbd1cfd19,0xbc90a34c,0x3d67dffc,0xbc7fdd40,0xbd9f41fc,
0x3e6fb482,0x3d9269e2,0x3d864ae9,0xbd888649,0xbd9b1ab1,0xbd5febab,0xbde1b69d,0x3dcf470f,0xbc4a86e0,0xbd27a12c,
0xbda19717,0x3dba5979,0x3d670ea3,0x3d50ad79,0x3d81d73b,0x3c853c96,0x3ca248e9,0x3d34ca05,0xbdea4474,0xbe347268,
0x3daeb6bb,0xbc41fe9e,0xbde2761d,0x3d778887,0x3dd1a88a,0xbb420dff,0x3de4715a,0x3e1d9e45,0xbe12f6a9,0xbb4a9869,
0xbdfb7e10,0xbc74dd28,0xbcc5b77a,0xbdff1ebe,0x3e4badf3,0xbb9c8cdb,0xbc96f700,0x3dfec478,0x3dcb10be,0xbe2700d8,
0x3de34a55,0xbb8df4fa,0x3df6d9e1,0xbd429bc8,0xbd9f2b44,0x3b9987b0,0x3dc6ba15,0x3e15e6ae,0xbd81b9f7,0x3de85900,
0x3d61aa55,0xbcc38f74,0xbd1a143d,0xbc8f2daa,0xbdc832d2,0xbdb0abef,0xbdd03a73,0xbdcf9c33,0x3d09198c,0xbc911018,
0x3beaf446,0x3ae17ae6,0xbd6a5362,0xbd083486,0xbdb46814,0x3d411e5e,0x3d3c6f80,0xbe47ed41,0xbdd69be5,0xbd80e823,
0xbb904355,0xbe0683cb,0xbe2bf08a,0xbd70a352,0xbd205c92,0x3e17bc4e,0xbd673c07,0x3e534a0e,0xbd90a750,0xbdb3daf2,
0x3d6206dd,0xbe51cfd1,0x3dc108bc,0x3cb87357,0xbe33b2e2,0xbe409dca,0x3daffdb8,0xbcdc1dad,0xbcdf0407,0x3e180d24,
0xba8f5da6,0x3e4a65e5,0xbc3329dc,0x3dad05b8,0xbda692a8,0x3e0dd8af,0x3e2d075f,0xbe952eac,0x3d1e0713,0x3e120ad9,
0xbd556fcc,0x3d6596a2,0x3d9df57e,0x3bc371b9,0xbeb1156b,0xbb5f9937,0xbdc1f105,0x3d470084,0x3da5cfaf,0x3d36cdec,
0x3aa99584,0xbd5d610c,0x3df8df83,0x3da49df6,0xbda16cc6,0xbc414fec,0x3d5df318,0x3c4e2c00,0xbd5ae3e2,0x3dfbac89,
0x3e61871f,0x3da16805,0xbdd7e277,0x3e540023,0x3e31f785,0x3ce666f9,0x3d386561,0xbc28575f,0x3e2cb827,0xbd888b4f,
0x3e8137b7,0xbd2b190b,0xbd189529,0x3db412a4,0x3ab77541,0xbab90e23,0xbc4f500e,0x3d36a041,0x3daf5887,0xbdaf9f61,
0x3d0a7543,0xbdad470a,0xbcf1c46e,0xbd8b7734,0xbbb75aa5,0x3db01f60,0xbd2b5efc,0x3c0402e2,0xbaadd521,0x3d1a15e1,
0x3d04c6cb,0xbbbbc452,0x3dc0f40c,0xbd92921c,0x3d212eb8,0x3d6a4a90,0x3d556101,0xbd9b0b80,0xbe08fd21,0xbdd59888,
0x3a7fde19,0xbcf4f68e,0xbdad7048,0xbc7e800f,0xbd9e3130,0x3d073146,0x3d092df5,0x3d3dcc36,0xbd58536a,0xbcf87dcd,
0x3d0fde37,0x3d266063,0xbb76dfcd,0xbd741497,0xbc642cfa,0xbd9d0a99,0x3d0d7a22,0x3dd48d2c,0x3beb977d,0xbda4981e,
0x3b19215d,0x3c34f820,0x3b8635e9,0x3dbcfc4b,0x3df84225,0xbd431d19,0xbb9f31be,0x3e0f95b6,0xbd1fe946,0xbd8a9dea,
0xbdc61c18,0x3d2beb6c,0xbc30869f,0xbdc056df,0x3c198eac,0x3cb16f63,0xbe2dddb8,0x3d5e28e5,0xbd4244d3,0x3dfcf4be,
0xbc99f2f3,0xbd31cca3,0xbcae7d27,0x3d5a2f68,0xbcf90580,0xbd46aae1,0xbd6437a9,0xbd1c9080,0xbe44c2ed,0x3d8e5a75,
0x3dcfc23d,0xbd22e74e,0x3cdf51f8,0x3d90ae18,0xbdcc957e,0xbd117bb8,0x3d2994d2,0xbe00d93b,0x3d8cf9f7,0x3cb75c56,
0xbdc5d651,0x3e80dbd6,0x3c4bef7b,0x3d7b98b1,0x3d8e35e3,0xbc906964,0xbd99edd3,0xbd3ed316,0xbd1e9e32,0x3dec3563,
0x3d3d7c0c,0x3c6e4c6a,0x3dab3a19,0xbd69eb06,0xbda76edc,0x3d6a6836,0x3dd8334a,0x3d2d47b6,0xbbb586f9,0x3d374158,
0x3c6678a9,0x3bd555c9,0x3c7d1993,0x3d88ba76,0xbd9b082c,0x3ddee895,0xbd9e0b39,0x3d2275e2,0x3d6b11ac,0xbc3bd1a5,
0xbd815747,0xbda5bed6,0xbdca6d25,0xbdacfd42,0xbe27bc69,0xbc540896,0x3ddb2937,0x3e1bf915,0xbb68c2c6,0xbd6c8b49,
0xbbaf6354,0x3da7602e,0xbc0f1c08,0x3dac0366,0x3e055cf9,0xbccd91bf,0xbd03d167,0x3b919a0e,0xbe75145b,0x3de98dc4,
0x3d4d2b64,0xbda58a83,0xbd5ec148,0xbde05ee1,0x3c197073,0x3e2e4d18,0x3df23001,0x3db6c00f,0x3d80e26e,0x3d4819f8,
0xbdae6503,0xbb1a465e,0xbd17409f,0xbd26398c,0x3cd0235d,0x3d7541ff,0x3cb5ee9a,0x3dc36822,0xbd16ef37,0x3de39771,
0x3e17ccd5,0xbec3ed5a,0x3ca4e1a6,0x3c1cbf62,0x3d176e3d,0xbd3d4bf1,0xbdadcdaa,0x3d2f0f40,0x3e9ef421,0x3d70a0f2,
0x3db251fa,0xbbf91902,0xbe1b8f39,0x3d8505fc,0x3e42293a,0x3d86533a,0xbd0c0262,0xbd295da7,0xbcfa3a08,0xbd7d6fdd,
0xbdd54a07,0xbcecfe75,0x3ca03887,0xbdf4b861,0x3e12ee14,0x3d452222,0x3e2bde6f,0x3dbe3a9f,0x3de8f8b0,0x3dcd8a35,
0x3cbf4861,0xbe12a24d,0x3e22ce23,0x3dcaea48,0xbd370ec9,0xbc1d2836,0x3ba97aff,0x3ccd7e22,0xbd81fdfc,0xbd954446,
0x3d123a65,0x3d516750,0x3d807319,0xbe0901f2,0xbc809e2c,0xbd2c02cf,0x3d756edc,0x3d11b915,0xbc11ef8b,0x3da3ff77,
0x3d7aab15,0x3bd297bb,0x3cc691a5,0x3c1de562,0x3d966a9e,0xbbce28c3,0x3c4be807,0xbcbf9e8d,0x3cf4bf16,0xbd230c63,
0xbc337735,0xbcf1be39,0xbcb4350a,0xbc425c42,0x3d8cc62b,0xbcef40ad,0xbc5abf6e,0xbdd15566,0xbdd6e402,0x3de5cc57,
0x3d8d4c88,0xbdb366d3,0xbdd3424f,0x3cd7ec5f,0x3da8a601,0xbdeea07d,0x3d03b245,0xbd209f65,0x3d0a61b3,0xbd3f64e2,
0x3c37b155,0xba6db70d,0xbda25fe5,0xbc12989d,0xbdbeb336,0xbd077b9b,0x3d8354b3,0xbce08431,0x3dad1364,0xbbebe18d,
0x3d55796a,0xbde9264a,0xbd837b25,0xbdf0a9c7,0xbdab3972,0xbc9680d3,0x3de313aa,0xbc2fe393,0xbd7e0eff,0x3c540447,
0xbdccc02e,0xbd606d29,0xbcfc443f,0x3d963855,0xbb2f0653,0x3d2bcf7e,0x3dd43d48,0x3deeb911,0xbdd3c1e3,0xbd278e84,
0xbdb40209,0xbdd44dc5,0xbcbd61ee,0x3b7e3ffd,0xbbc4570a,0x3d90c153,0xbd9e5cec,0x3d4afbc6,0x3e243832,0x3d1fdba1,
0xbc226d44,0x3d1900c4,0xbc03f410,0x3c801ca9,0x3cddc11a,0xbe3b0ced,0x3d401974,0xbd3dcf05,0x3dc1a7f0,0x3e2d91c8,
0xbd1d24f7,0xbd2b0970,0x3d2c7eaf,0xbd194798,0x3b811c11,0x3c509777,0x3e03df78,0xbb9151b9,0xbd9756d2,0x3cdc5919,
0xbd4dd322,0xbdd28e94,0xbdc59c37,0xbd9ae9ca,0xba2c168e,0xbd9a649f,0xbd229ee8,0xbdeedcaa,0xbe4e233d,0xbd101bdb,
0x3d47e644,0x3bbd34de,0xbd65ab71,0x3e2e37fb,0xbd83c0f8,0xbdf6a188,0xbc5b3813,0xbe1bed68,0x3deb5ac0,0x3db963a2,
0x3cbaa3cd,0x3e206e6f,0x3d04c320,0xbdfab4e7,0x3b9b2537,0x3bcc79a3,0x3d4fa4cf,0x3d9178a2,0x3d9ee4b4,0x3ce9d299,
0x3b8aa2ed,0x3d9762f2,0xbdbfbde9,0xbda76dbd,0xbdbd8af9,0xbd8653a6,0xbc889288,0x3e2aa880,0x3d1c51da,0x3daf27c5,
0x3c441788,0x3ddea1c7,0xbcbd066c,0x3dbee8a3,0x3be90f90,0xbce24a6b,0xbdc45984,0x3da1dc56,0xbe53fff4,0x3d43933d,
0x3d2cc588,0xbba6fbf2,0x3b5f58e2,0x3d6b7d09,0xbd81bcb1,0xbd5d69c1,0x3c8cd743,0x3d1f04be,0x3cc25e55,0x3d3e2f35,
0xbdb8f514,0xbd5bb212,0xbd0ecde0,0x3dbe2ba9,0xbe13246e,0xbd44bb51,0x3e88b55a,0x3ccc0009,0xbd94e4b6,0x3e3ae238,
0x3d9ae2f0,0x3d524fe0,0xbdb5e57d,0x3deecd9b,0x3dfe1ea3,0xbd3df064,0x3d71c7e5,0x3dc36307,0x3e7e24fe,0x3db8c444,
0x3db43933,0xbd87f0d3,0xbd3b597f,0xbe2ae98e,0xbdb9c908,0x3e80438a,0xbd9724f5,0xbb35ec35,0xbc235697,0x3d31136f,
0x3c53e6a4,0xbd536f6a,0x3c12bad6,0xbdb2d47c,0x3d88a54f,0xbdd358c7,0xbb76c2fa,0xbd726544,0xbba8b246,0x3cde8cec,
0x3ca02657,0x3bf1e089,0x3d76d142,0x3c040449,0x3d8c3b36,0xbd3a0a55,0xbd93b405,0x3d34310e,0xbc23126b,0xbccdd709,
0x3d1530d8,0x3d1cdd2f,0x3d3b4b7b,0xbd5044c0,0xbd88aaaa,0x3c1cff31,0xbd176932,0xbc713292,0x3cff66fe,0x3cce4ec5,
0xbb94daa2,0xbd80a353,0x3cc68fff,0xbe09cf26,0xbd8f2b2d,0x3ca6a874,0x3d188a6c,0xbc45c9f6,0xbd4d2e3b,0x3c28c430,
0x3cf99740,0xbe061c40,0xbe7b2409,0xbd99b43e,0xbd6cff7a,0xbd985fdd,0xbd9841bf,0xbc93e5a6,0xbd3b4aa2,0xbd8d814b,
0x3d62f02d,0x3dcc373f,0xbc6e25a9,0xbbdaddd0,0x3cec7dab,0xbe00d158,0x3ce196a4,0xbd1a8794,0xbcd84d80,0xbcc0b590,
0xbdb77388,0xbd4fe342,0x3d976453,0xbd05be64,0xbc41ae65,0xbd3337c2,0xbd4c9f68,0x3d226e71,0x3d858019,0x3c192809,
0x3a2bff41,0xbb99be66,0x3ce6c833,0xbe040093,0x3cbf2919,0xbdc37075,0x3d9abb6f,0x3d4cfa27,0x3cf8ae12,0xbd63d942,
0xbdf95d6f,0x3d3ee367,0xbd9955d4,0x3ce584cd,0xbd156e5a,0x3e0e7f72,0x3d6624fc,0xbca0dd4f,0x3d92c0f7,0x3cef2fd0,
0x3c88d249,0xbe063e46,0xbd17821b,0xbe08109a,0x3d700e8c,0x3db161c9,0x3d92ce75,0x3e347035,0x3c81adeb,0xbd534749,
0x3d3dc3d4,0xbd98e839,0x3d5d186c,0x3c9e802c,0x3dacca3c,0xbd89736e,0x3c8c8e56,0x3d2b693b,0xbd8d367e,0x3d88695c,
0x3d82cd9a,0x3d7985d9,0xbdcf22e3,0xbd6bf7ca,0x3d9553a6,0x3d98ced4,0x3d424e9f,0xbb86648d,0xbda4e282,0xbd83426d,
0xbd7b8dfb,0xbd897ad0,0xbdd89dc9,0xbcdb061c,0x3d176c13,0x3d9cd343,0xbdeafdc8,0xbcc20716,0x3da001d5,0xbd49690e,
0xbca5b768,0xbd0d7d64,0xbdf15690,0x3e369baa,0xbd7159ee,0xbd8ad148,0x3a04eff3,0xbdaa9a1f,0x3d0df175,0x3d9d5e67,
0x3c4f277a,0xbe42c84f,0xbd994e0b,0x3d695edf,0x3b994159,0xbcbefcb9,0xb8398d16,0x3d92122b,0xbda66668,0x3c8cc651,
0xbdaf325f,0xbca75f6f,0x3e1de279,0xbe02c2e2,0x3cf684df,0xbdbc4c33,0xbbacf3ff,0xbacd2784,0xbd432183,0xbecb43dd,
0xbc7abc73,0x3d5d5b5f,0x3cf949a9,0xbcad2a09,0x3d41bba0,0xbdce5e27,0x3c85dfb3,0x3d25f3bb,0xbe14cd77,0xbdda37c0,
0x3cddb807,0x3dba26c6,0x3b44d4f8,0xbca34c57,0xbc356c6c,0x3d734753,0xbdc645b4,0xb881569e,0x3d40fcf6,0xbc2dddbd,
0x3da56816,0xbde94f99,0x3d570459,0xbd7ad84b,0xbdb531d8,0x3d3e8730,0xbd8667a4,0xbd2bbfd8,0x3cf60954,0xbd4996a3,
0x3c29d6d5,0xbdaf8b38,0x3c5b9ae7,0xbbdf92ec,0xbd44c220,0xbd39429b,0xbd28825c,0xba6c6152,0xbcba8b01,0xbca425af,
0x3d9d3fad,0xbd156378,0x3d2bf06b,0xbc258a9f,0xbd23b879,0xbd0ae087,0xbdaf364a,0xbc88b943,0xbd039062,0x3d407787,
0xbdb09a38,0x3c4dac0d,0xbd0a8ac8,0xbba62c75,0x3db5a104,0xbcc9fd6f,0x3d129764,0x3b9f126a,0xbaa66647,0xbd8011cf,
0x3cde066f,0xbb985399,0x3ba21126,0x3d8b6c17,0x3c5ef9a3,0xbdbad988,0xbcdd0e19,0xbca63978,0x3ceb0406,0xbcd99792,
0xbb2e1a5f,0x3d198780,0xbd188e5a,0xbd1c03f3,0x3d870236,0x3d7efb30,0xbd9f7ef7,0x3c9950bc,0x3c033059,0xbc75ab0e,
0x3c39fb81,0xbceaf1a4,0x3d9e9e7e,0xbbd29c67,0x3dc03196,0x3d9d5a1f,0x38f415d8,0x3cc5c129,0xbdf11cdb,0x3d4d7811,
0x3ca4b7c9,0x3de3a574,0xbdfa8f5d,0xbe07614e,0xbdae901e,0x3d8a7cd7,0xbd928bfc,0xbcf6e92c,0xbcc23052,0x3daec409,
0x3d8b95e3,0x3b6c3b6b,0x3dd3fbfb,0xbcef4abf,0x3d06c855,0xbc49d4ad,0xbdd840f4,0xbe0fd1fd,0x3af7a309,0x3d591428,
0x3cf74c0e,0xbd2183b9,0xbc3f78d0,0xbda72d6e,0xbd0ae9c2,0xbb3167d3,0xbcb02c05,0x3da052fd,0x3d6f6982,0xbc69585b,
0xbdaa7438,0xbc861441,0xbd10d1b9,0x3c94917c,0xbd56d226,0xbb280ca3,0x3e0a61da,0x3d645866,0x3d684cab,0xbde5f3a6,
0xbe0d3a85,0x3ddebceb,0x3dbefb4b,0x3dcce068,0xbcac4f36,0xbdd76fb8,0x3dcab8ec,0xbd0e4c5f,0x3e0b17b9,0xbd960f35,
0x3c86a379,0x3df782fd,0x3d8095cd,0xbd4bc1cd,0xbde5aed7,0x3d3cb11c,0xbc9d745c,0x3d5af6dc,0xbc855e58,0x3df0f3d4,
0x3e14e67d,0x3c35e5f9,0xbd7e18f3,0x3d80052f,0xbc3f6e93,0xbe3b87c5,0x3ca45c65,0x3d22aaf5,0xbca8239a,0x3daa3c76,
0xbcaaed31,0xbd805f1a,0x3d7e5d67,0xbcfe02fb,0xbcfc6719,0x3d1380c4,0xbb688664,0x3d057292,0xbd73ff0d,0xbd783209,
0xbe1c2929,0xbd83fcb5,0xbd305ae4,0x3c32688c,0xbdbac7a6,0xbe23d69b,0xbd516a1e,0xbc98b7d3,0xbdb8879e,0xba8021d0,
0x3ca5cb8e,0xbb8b679c,0xbdb0e4cf,0x3c9a4402,0x3cff8202,0xbd780a5d,0xbe0c550a,0x3d3890dd,0x3d475756,0xbd547b6f,
0xbd079fc4,0xbe0c1288,0xbd10310c,0xbdba929d,0xbd274f30,0x3d8d7b94,0x3c6aca15,0x3e269792,0xbd3e8c37,0x3cc992c5,
0x3df97636,0xbdca4aa1,0xbbb17eb1,0xbdcf0db7,0xbc884411,0xbe1cf8c3,0xbdd8c413,0xbd083335,0x3da1ebac,0x3d437a0b,
0xbdd6bb14,0x3e07ea57,0xbc7dd4c1,0x3d874b09,0x3dc6ac48,0xbd675488,0x3c8b0504,0xbc85d2a1,0x3df27bec,0xbb4929cf,
0xbbfc93c8,0x3c8d6597,0xbd1c65b6,0xbd188984,0x3c455f8a,0x3d3e3006,0x3c63b48d,0x3d3919c2,0xbb5c7e0e,0xbd4eecc6,
0xbc822083,0xbd118111,0x3becfc29,0x3bb738e2,0x3d9096af,0x3a5fec5e,0x3d5fe1cf,0x3c6835a0,0xb9d88738,0x3ce81a96,
0x3d20b454,0x3c97fee5,0xbbc8b6e4,0xbcff505c,0xbd93384a,0x3d002a4a,0x3c372378,0xbc587917,0xbc482b4e,0xbd79b323,
0x3cd1c1b8,0x3a98ab78,0xbc1ebc3e,0x3c68e8b0,0xbbbdc263,0xbc9d1364,0xbcbfa7d3,0xbc652224,0xbd5414ec,0xbd30f0b2,
0xbd673cdc,0x3ca538fc,0xbd7c7885,0xbc2b02ce,0x3d8d8520,0x3cfea05f,0x3d9d1a8b,0xbc0c1dc0,0xbd9ee5ea,0xbd92b083,
0xbc94170c,0x3bea3f1c,0xbb647efb,0x3ce8af47,0xbc53d540,0xbda87965,0x3a4fbe06,0x3c9a76e9,0x3d67cc5c,0x3c7da9a1,
0x3ceb8e8f,0x3c86636d,0xbce3d7c4,0x3ca36312,0x3c4c99c8,0x3d22a01f,0x3c9ad78b,0x3c2d4d42,0x3da0050f,0xbcbb615e,
0x3da0d7d9,0x3d2646f5,0x3db3c5b9,0x3c62051f,0x3ca12d53,0x3a7e817b,0xbd3b735d,0xbcc18fa3,0xbd86e5d4,0x3cc0776b,
0xba833af5,0x3d031acc,0x3cca6ab0,0xbd069c29,0xbd54c2af,0xbc005d20,0xbde3f88b,0x3d28b594,0x3c672c83,0xbbd0ff39,
0x3cba2044,0xba9f32c8,0xbce93028,0xbdf89bcc,0x3d7a7c21,0x3c76f117,0x3cb76e9e,0x3aa0e3a8,0xbcad3756,0xbe0956bf,
0xbd17faa1,0x3d1a62d2,0x3d6b8634,0x3d8157d3,0xbd40ecb5,0x3d3602ee,0xbcf0d788,0x3c936f7a,0xbbb56bf7,0xbd2df46a,
0xbd77a6d0,0x3d3f18ec,0x3cc7027b,0x3d294b9d,0xbd6e52a9,0xbc915d32,0x3c687a36,0x3c2bfeb1,0xbdd977d2,0xbcec280c,
0xbc842f03,0x3c132400,0x3dc05979,0xbbdf38d8,0x3d2f93fa,0xbd293bae,0x3bfec325,0x3d256c9f,0x3cd0975b,0xbd20341a,
0x3c40f3fa,0xbd1d3efc,0xbe6181c9,0xbdac354f,0x3db5f306,0xbb18d7d3,0xbd360c0d,0xbd51df5a,0x3c8c28b5,0xbcc04fa7,
0x3e4bfebf,0xbd1edb75,0x3dff97bf,0x3cadb069,0xba9c3c8f,0x3d8a60b9,0xbd74c47c,0xbd1f192a,0xbc21eeba,0xbe054a77,
0x3d31ad1f,0xbd3231ba,0xbd758101,0x3d3c9943,0x3cc4d221,0x3d9d3efc,0x3d741c33,0xbd6f18b5,0x3d07d5ef,0xbd9f3dff,
0xbdc8108c,0xbe1f729d,0x3da2589b,0x3d952b54,0xbd9eec23,0x3d5c3033,0xbd34a4df,0xbdfb40c6,0xbdf720df,0x3c9cf394,
0xbdfed3bc,0x3cbc4ae7,0xbd652a38,0xbdc28d93,0x3e299a36,0xbdeb3203,0x3e06b682,0x3d630fff,0xbbfeece5,0x3d2016ec,
0x3c0ed695,0x3dfb54a8,0x3ccae45e,0x3d7faba6,0x3e6c1e29,0x3d11bd6a,0xbce55fe8,0x3c511458,0x3d100d89,0x3d7ef926,
0xbd3145bd,0x3a5a52f8,0xbd85fa10,0x3d888550,0x3dc4123b,0xb865b171,0xbbb2daf3,0x3d47466a,0xbcfa5548,0xbd49784f,
0xbc9f8af1,0x3dc08a45,0xbe072c47,0xbc4b1cf1,0xbc3a84f9,0x3e02e265,0xbd986cc3,0xbe1b6814,0x3cc98ccf,0x3e3ed1b6,
0x3d834442,0xbd43659e,0x3c4a000c,0xbd0bc2d6,0x3d9fef15,0x3df053ec,0x3dbb978b,0x3e0ad8d2,0xbc8b3b6b,0xbdde7c4c,
0xbe1653ff,0xbd31b107,0xbdb49fa8,0x3d18231c,0x3d81b395,0xbdb99525,0x3d561cb6,0x3da8760f,0xbdcdf8c6,0xbd557e2c,
0x3cb1c62d,0x3c43d165,0xbb2b1e86,0xbc89a6f6,0x3bf0f28a,0x3d8aeb3c,0xbc36e14a,0x3db7f8ea,0x3d145acf,0x3d5f0e9a,
0xbdb80f7e,0x3b22211d,0xbd15704a,0x3d15fbd3,0xbb9d7864,0xbcd203cf,0xbdb896a7,0xbd59ab59,0x3bba7c22,0x3b9820d9,
0x3a018449,0x3db2a422,0x3c087250,0x3d352680,0x3d8ef02d,0xbd82c133,0xbe400c7c,0xbd990f3e,0xbe3c7531,0x3ca10bf4,
0xbda3a67e,0x3e2afe1b,0xbd651ca7,0xbd4fc472,0xbc24668f,0xbe355c0f,0x3d8b3878,0x3c9f4d34,0xbd252e42,0xbcf83219,
0x3c5121d2,0xbd8fafcb,0xbdb059a8,0xbe11061c,0x3e06f43f,0x3cb2c8b9,0x3d8b02f5,0x3dab3c34,0xbd8b6eb3,0x3d042cba,
0xbd73af74,0x3da6400f,0x3cd39e9e,0xbc6fd764,0x3e3b63e9,0xbdd45317,0xbcc18122,0x3c382b95,0xbb0d73e1,0xbcfe7c76,
0xbc28d739,0xbdac1162,0xbb5532b6,0x3d9e30f4,0xba3fd30e,0xbdf64fa4,0xbdcb2c4d,0x3dfb3195,0x3c1d684c,0xbd29582b,
0xbd22f2bc,0x3e138699,0xb7318d59,0x3d6fb655,0x3d8dbaef,0xbd81ff93,0x3dcfeb08,0x3bedaf10,0x3caa1766,0xbe4d061f,
0xbc96bf7f,0xbd85af32,0x3a7cc9ac,0x3d85548c,0xbc1f0d38,0xbc74fce3,0x3bed3a1e,0xbd37b612,0xbe191c0f,0x3dca555c,
0xbc38bf1d,0xbc338b6c,0xbd484524,0xbbfa62d6,0x3da3fe47,0xbce0979b,0xbce5c82d,0x3e15f022,0x3cf07669,0x3c2c5f84,
0x3ce680e5,0x3ba888ba,0x3e061bbe,0x3c6cd927,0x3cccdfb2,0x3d0df3f5,0xbc2e9b01,0xbdf2f641,0xbd1743dd,0xbd6904d9,
0xbd0ab067,0x3ca01b8f,0xbcfe31be,0x3be89a6c,0x3c995007,0x3da9eea5,0x3cf286b0,0x3e2b4608,0x3d2bded7,0x3c3fbb6f,
0x3dae598e,0xbcddd7b1,0xbe22098c,0xbdd9cd6f,0x3d49c440,0xbd504888,0xbe1a6e45,0x3db62298,0x3e37500d,0xbd72a769,
0x3d9ad003,0x3e10ec14,0xbdf12141,0xbdaf8188,0xbdcc331b,0x3d3178a2,0xbe4892e7,0x3d7dfd81,0x3dabff93,0xbd35605a,
0xb9522615,0x3ce9608d,0x3dadf9cc,0xbd46908d,0xbe0efaea,0x3deed696,0xbdabff63,0x3dde87f2,0x3cdbe242,0xbcf87c25,
0xbd65b435,0xbe0bbba0,0x3d56e63c,0x3d10070b,0xbcdcd37f,0x3e049061,0xba372cca,0xbd03cb46,0xba7781d6,0xbdb813f1,
0x3d39dd42,0x3ca8f772,0xbab24b3b,0x3d3efeec,0x3d6d505b,0xbcc0c81c,0xbbeac253,0xbccb6e31,0x3c19437f,0xbd684a44,
0xbd2704a3,0x3d86af96,0x3c1404e1,0x3cd2173a,0xbd665161,0x3b9819d7,0x3cfdd334,0xbd5d3bae,0x3d8682cb,0xbd9c98d4,
0x3da6379a,0x3d91a96f,0xbe1a0088,0x3aa6f8a3,0x3e04bdbd,0xbd43fa97,0x3b903b26,0x3da628cf,0xbce9be57,0x3cb9f478,
0x3cbf692b,0x3c2b72cd,0xbd2b8ecb,0x3d1180b7,0x3ba05186,0xbd0b4f98,0x3d88e8da,0x3c2fab9a,0xbd5c15b6,0x3e02e783,
0xbd22e1bd,0xbd363268,0x3d722741,0xbcdb40f6,0x3d7544c7,0xbd73be8d,0x3d13cd90,0x3c1d4d1b,0xbd244443,0xbbd8ea36,
0xbdbbaa2f,0x3d520512,0x3c90dc27,0xbcda5163,0xbe29b700,0xbd8b6a42,0x3d8dd2dd,0xbd0226f2,0xbd44bf88,0xbdc1e36b,
0x3d21cbfe,0xbcae46f9,0xbdcddb39,0xbc0ab3f4,0xbdeb3b12,0xbded5b51,0xbdb17522,0x3c557be6,0xbdf25404,0x3e3b05b8,
0x3e88a508,0xbd7ebac2,0x3e059872,0xbdea10d6,0x3da8e410,0x3c61f156,0xbe5c1d15,0x3e3b449b,0xbd6c32fb,0x3df075ee,
0xbc57754b,0x3d292baf,0x3dabba0c,0x3e4ed053,0xbe2d3c42,0xbe85e374,0x3d7bfd02,0x3b253004,0x3d5e7c96,0xbe3651f5,
0xbc8c97c8,0x3d8a547f,0xbd314d09,0x3d849e9d,0xbd76f528,0x3da0f158,0xbc7770b8,0xbc34dc8c,0x3d1bc27f,0xbdffac0a,
0x3d6a7ec4,0xbc50a51f,0x3dffdca6,0xbd51bdcf,0xba438fb2,0xbd0b4e9f,0x3dc8a3c0,0x3d4d9d9c,0xbb6af24b,0x3cce6b54,
0x3d3ef4ba,0xbcd5217b,0xbd88c19a,0x3d290139,0xbb785540,0x3dbf28b0,0xbc850eca,0xbc0e4533,0x3d168b27,0x3cdec3c4,
0xbd818ee9,0x3da3ab26,0xbdb3cf76,0x3cbacc35,0x3d34366a,0xbc435dc0,0xbc349b4e,0x3e139353,0x3d3d19ea,0xbca047ab,
0xbd8db47e,0x3d0c228b,0x3d87417b,0x3d9ceeeb,0x3b2ce6e8,0xbd41030d,0x3c3e600b,0xbd8e211e,0xbc7500c9,0x3d0332d3,
0xbdda43dd,0x3d73bc37,0x3b1ade66,0x3da251ce,0xbdd0658a,0x3cbd9e5a,0x3c299528,0x3b91f82d,0x3db6bfbd,0xbd8d182f,
0xbcb42c2f,0x3dac90f7,0x3d47e4ae,0xbdfe221e,0x3db6692c,0x3df995a1,0x3d720ae6,0x3b956f10,0x3b1462af,0x3c62b58f,
0x3c330539,0x3e2d3bb6,0xbd839027,0x3d4ca41f,0x3d49a6b5,0x3e265bf5,0x3c8eb232,0xbc406bec,0xbd6cb263,0xbd1eee9a,
0x3c73b26e,0x3d70b659,0x3dcc53c4,0x3d9220e4,0xbd8e98f5,0x3d0a9622,0x3d386b61,0xbdf53ba2,0xbd99d810,0xbdfdb422,
0x3be2c82b,0x3d1557ef,0xbdad5dba,0xbd786968,0x3d5a02de,0x3d930a9d,0x3d230c79,0x3c6874c0,0xbd13afdb,0xbbf59add,
0xbdd92cb3,0xbd2030c5,0x3d1a8344,0x3d604ee3,0xbdbe9e47,0x3d03e3e2,0x3d85592a,0x3c6d91bc,0xbc5dbf80,0xbb863555,
0x3d1f7340,0x3d1218b8,0xbdc001b5,0xbd054982,0x3bce4e49,0xbd3a895d,0xbdae74bf,0xbc922f5c,0x3c6c2731,0x3c5a6e7a,
0xbd763e90,0xbd4bf4da,0xbd8b8c74,0x3cbab94c,0x3cbaed61,0xbcaa1a8b,0x3d016f40,0x3e0162a1,0x3cab18ff,0x3d5aebd6,
0xbcb52b85,0x3d966840,0xbdf5b0ba,0xbb339470,0xbd0554cc,0xbd681066,0xbcfc26eb,0x3d9ce5d5,0x3d26950a,0xbc10fec2,
0x3df91be3,0x3b5ac5dc,0x3ca0b41d,0x3db22494,0x3d8c44ae,0xbcd9e995,0x3ab61b40,0xbdad4586,0xbd09ae6a,0x3c3278ba,
0xbde1001e,0xbcb5c229,0xbce47bbc,0x3d4b93d6,0x3cad645a,0xbcdd497b,0xbd39a00d,0xbd8762ab,0x3d204efa,0x3ce8c95a,
0xbbfdb970,0xbd4aa7db,0xbc82a00e,0x3d8a28e5,0x3d360055,0xbcb5ae85,0x3d1eb130,0x3d386432,0xbb387759,0xbe048a59,
0x3cc4d97e,0x3d656e64,0x3e00a072,0x3c7f678a,0xbd84cde8,0x3d3c5f58,0xbe69ef78,0x3c503c97,0x3db6b18b,0x3c956d7c,
0x3d1edb0f,0xbcefebf8,0x3bf8f10d,0x3db0c035,0xbcd9c62f,0xbdd1ac52,0xbc31bd7e,0xbd513d8b,0x3c85a500,0x3d9d6c63,
0xbd2d2f95,0x3e437397,0x3d936e4d,0xbd7bf4e8,0x3d828c98,0xbd469f95,0x3d64e4fd,0x3d8bede6,0x3d480333,0x3d47303c,
0xbc9a4eca,0x3d32927e,0xbd354558,0xbd064ceb,0x3d02f40a,0x3daaa311,0xbb2dc0e6,0xbd43fe71,0xb98722b8,0x3e0a55e4,
0x3dda178f,0xbce42c28,0x3c0bad46,0x3b3b7a30,0x3d004bf2,0x3ce4a549,0x3beebf2e,0x3d178a9b,0x3c169512,0x3d6b38d7,
0x3b6f3634,0xbd0920ee,0x3d1adb80,0x3c897e22,0x3d2332ef,0xbd6e7d34,0x3d0f05fa,0x3d8aad09,0xbdd730b8,0xbcb69221,
0x3dbfaae2,0xbdb56eef,0x3d544e08,0xbcc5afe8,0xbdad5e07,0xbd879cbd,0x3dea9f6f,0xbc3c3137,0x3d9f2076,0x3dd38c26,
0x3cbd6025,0xbc1dcaa4,0xbd2220f3,0xbe167efc,0xbd1ce2f9,0x3c3a7589,0x3c063501,0x3d3b35c4,0x3d04aa6a,0xbaba6ba9,
0xbda5f721,0x3e267fc9,0x3e6098b3,0xbd102200,0x3ca3a458,0x3db7735e,0x3d0b291a,0xbddc8169,0x3d47e03c,0xbbe0f1a1,
0xbd93f841,0x3e369167,0x3e55b6ed,0x3db590a2,0xbcea406c,0x3c1a88ba,0xbcb185f1,0x3d954ff0,0x3cf0f170,0xbe7d44cf,
0x3d5b1bc4,0x3d872fc9,0xbdcc48e5,0x3d945440,0xbd225192,0x3db50d42,0xbd09a7e1,0x3da63ce7,0x3c74bf05,0x3dfe199f,
0x3d304d05,0xbd1c8010,0xbda894e8,0xbe1d88e2,0xbe2479b7,0xbd76f1a7,0xbc79ec43,0x3d355f40,0xbc60488b,0x3cf2adaf,
0x3cffbc7a,0x3dd75b36,0x3c3b5da8,0xbdb3e82b,0x3d32c134,0xbbca2d19,0x3d0feaf5,0xbd552463,0x3d494f41,0xbccc4100,
0x3da9306f,0x3d243970,0xbcb527eb,0x3d9ebb39,0x3cc05094,0xbd799b25,0x3d488cd3,0xbd16bbac,0xbd80d430,0xb87055cb,
0x3d0bf7b0,0x3cb2700a,0xbcdf3ec8,0x3cb241ed,0x3e0b9d7f,0xbd1c7bf1,0xbc52aa2a,0x3d4bb7c5,0x3cc97ece,0xbd5c7cee,
0x3d2ff598,0x3db44842,0x3bba5ca7,0x3cc19ca2,0xbd120b2d,0xbd786b86,0xbc951afd,0x3c32267f,0x3ccf6238,0x3c892069,
0xbb2d8d3b,0x3c57e1e6,0xbdb0f42e,0xbcc4b4d5,0xbd065b68,0x3c816cc5,0x3c9916f4,0xbcd64cad,0xbb2b9894,0xbc6c6391,
0xbc9385f9,0xbd2aa168,0x3dac2172,0xbc2c3fe1,0x3cd982e3,0xbd064adb,0xbd364532,0xbd5dadf2,0x3dc2b7dd,0xbd90ccb6,
0xbde0ed22,0xbd888466,0xbb6df737,0x3d372c00,0xbc7e9d59,0xbca01e24,0xbd55d308,0xbd2e58e0,0xbdd5a3d3,0xbb8812dd,
0xbdbf8434,0x3d829982,0xbcca556b,0x3d19efd4,0x3b7840a7,0x3b7f8fa1,0x3d9e1e21,0x3d0b3776,0xbd56ed61,0x3ce98ded,
0xbd72efd1,0x3d19c7bb,0xbdc91d03,0xbddaed05,0xbdc62e20,0xbd421792,0x3cc52d0e,0x3d531dbc,0xbe3c0395,0xbd36f2e3,
0xbd60f88d,0xbcab5390,0xbd00a510,0xbdec5e1e,0xbdaa8c07,0x3ce867c1,0x3e591fee,0xbd529f1b,0x3d9a12d0,0x3cf9fbb7,
0xbc0fe469,0x3cc30bba,0x3ca71dd8,0x3bb4e3a8,0xbd319915,0xbd2b340d,0x3e296533,0x3c6e3aeb,0x3d8b693e,0xbd8b0ce3,
0xbc2d846c,0x3d13f0fb,0xbc0104a5,0x3c1946a0,0x3cf80309,0xbb8cf02e,0x3be33400,0xbcd6e9fe,0x3cf114e9,0x3d19cf5f,
0xbdc45428,0x3ced71db,0x3d5414f2,0x3d8bae4e,0xbd911270,0xbd85214e,0x3d97af1f,0x3da84a84,0x3d7c2b25,0x3d38685c,
0x3dd4af20,0x3c30fc6d,0xbd4997b0,0xbe2631d3,0xbd01aabe,0x3cf5c50f,0xbc81bcf5,0xbd039107,0x3d99ea07,0xbded66d8,
0xbd4e3bc2,0xbd09b5c2,0xbca59e21,0xbc2b7bed,0xbe00c18e,0x3e5337f9,0xbd4ad84b,0x3b0929b2,0xbdcd331c,0x3d647236,
0x3d13ec8d,0xbdea0253,0xbd9e0f5c,0xbe170ef5,0x3cb77049,0xbe4d10e6,0xbdc3018f,0xbd8ea00e,0xbd6b09d6,0xbcd29dc4,
0xbd57ea13,0xbdc66fd4,0xbd611ce3,0xbe44b38e,0xbc340fda,0x3c645494,0xbc0ba5f7,0xbcf342c7,0xbdc1a87b,0xbe1ed3cb,
0xbe004fce,0x3d75dc88,0xbd42ebc5,0x3de646d5,0xbc8b7206,0xbd6320aa,0xbc86b5c3,0xbd9512c5,0x3d7e7c8f,0xbc84da6e,
0xbd4ea158,0x3ddef5b8,0xbe049c1b,0x3bde7ffe,0x3e237556,0xbe0c27e8,0x3df3ab30,0x3de6c99a,0x3bfb556e,0x3d28abdd,
0xbd9033d4,0x3d090192,0x3d9c03a7,0x3cc81d4a,0x3d64af03,0xbd89547c,0x3d187bca,0xbe03bbd0,0x3da2ac2a,0x3d34ec99,
0x3de2a51b,0x397c4c9a,0xbc32c56e,0xbb9fc339,0x3cdfe392,0x3e06e419,0x3ced13de,0xbdeb723d,0xbd97780d,0xbd0cd889,
0x3d924292,0xbd955f76,0x3da4c2bb,0xbcf5ac8f,0x3d08a049,0xbd41013e,0xbd975dfa,0x3dbf2d13,0xbc8ce2c4,0xbd1bb56b,
0xbbdb8f2f,0xbd3a0e98,0x3db65a63,0xbd628c7a,0xb9887ae3,0xbc80fc67,0x3e1df678,0xbd7508ec,0x3dab53b9,0x3da69414,
0xbaa11b3c,0x3b4dd025,0x3c303774,0xbc425acf,0x3e2fe3ee,0xbd7cdadb,0x3cbe30f7,0x3dcc850c,0xbdd12405,0xbd381f06,
0x3d89dd81,0xbccad536,0xbdbd310e,0x3df7055b,0xbd0cd77f,0x3db3590f,0xbc374985,0x3e055fe7,0xbc335868,0x3d43e60b,
0xbc9a4753,0x3d09e00e,0xbe16a343,0x3d663d76,0x3e099a14,0x3e3597ec,0x3df05a20,0xbcab571a,0xbdc9f7c8,0xbc4de6f3,
0x3cc67e57,0xbe58b3eb,0x3e389d19,0xbb472838,0x3d8dcd91,0x3d12cd56,0x3dceab60,0x3d9f84da,0xbe152970,0xbbd61bfb,
0x3deeb613,0xbc1f9303,0xbdef9e1a,0x3b152273,0x3c2edd79,0xbd0d9ae6,0xbdf67de5,0x3e573957,0x3e125d1e,0x3cd06622,
0xbddd116d,0x3c920127,0x3d4ad4a1,0xbe236d66,0x3d5a55ad,0xbe2b2b8e,0xbcecab63,0xbc392f3a,0x3e0221ba,0xbd8a077e,
0x3dfb2d0a,0x3dca7ab9,0xbca7a405,0xbdfa1779,0xbcaa51fe,0xbdb4fde2,0x3e3be6e7,0xbd019af7,0x3d1425b8,0x3e548cf5,
0x3ddb0cda,0xbca19a28,0xbcb24242,0xbd3c1440,0xbd75fd7c,0x3d84c189,0x3dbbb184,0xbe0b6375,0x3b563340,0xbda5afd4,
0xbd102755,0xbcd65592,0x3d84cbbd,0x3c8e05ee,0xbc341027,0x3df68736,0x3baa62cc,0xbbcf43a7,0x3c3c938a,0x3d63aded,
0xbcf450f6,0x3dd7c373,0x3c59eada,0x3cd36956,0x3d94ea56,0x3e06720a,0x3dfcc242,0xbdd6009e,0x3dce5310,0xbbd9a001,
0x3d896e59,0xbdddd418,0xbd866720,0x3c8e38dd,0xbd8cb59b,0x3d52c67a,0xbcd9d385,0xbd886438,0xbd7b9fdc,0x3bd5cc92,
0xbd33dd42,0x3e30c38b,0x3da35821,0x3df17869,0x3e18da65,0xbbef6bc1,0x3df987f7,0x3d4df80c,0xbdd4931e,0x3d5b1350,
0xbd889998,0x3db33efe,0xbd2645b3,0x3dacc977,0x3c85524e,0x3c0a261f,0x3cf37c83,0xbce84cdb,0x3e20c479,0x3dc6e9a1,
0x3e2a27a1,0xbe214baf,0xbdb3c8d6,0x3bdca024,0xbe182ef8,0x3e4b309f,0xbd0e545c,0xbe3f10b5,0xbd38a3df,0xbb9fe337,
0x3d91c8a5,0x3dea41c2,0xbe0289af,0x3dd1795c,0xbe271e54,0x3dbc47da,0xbde14867,0xbdc495eb,0x3d2d73e0,0xbd01d0e6,
0xbc0f8e34,0xbc7286fd,0xbc7bea1d,0x3d4062e1,0x3debc77a,0x3df7ae43,0x3d7e2b99,0xb98de86c,0x3e05b1d3,0x3c138e21,
0xbdba911f,0x3d2a1893,0xbd499709,0x3d8a0f2c,0x3d20eaf2,0xbdb5bdd5,0xbc53b4d8,0xbd32189e,0xbdef435f,0x3cbd157e,
0xbd332063,0x3dbfdcde,0x3cea113d,0x3c8d3ab3,0x3c7bd591,0xbd8442d6,0x3d95ac84,0xbda532ce,0x3ad2931e,0x3e090fe0,
0x3d865a91,0xb936aba0,0xbd42e801,0xbd52e05f,0xbd955259,0x3da121e6,0xbc296358,0x3cabce76,0x3d805f4f,0x3d832a82,
0x3d3a3dd5,0x3b475b89,0x3e52965f,0xbdb8b438,0xbdcadaf8,0xbc836e40,0xbd5287c0,0xbd482f4b,0xbdbe3a7b,0xbd493e39,
0xbdc87a24,0xbc9616a8,0xbce6da11,0xbd9ad401,0xbb8ea719,0x3d3d634b,0xbc4c7256,0x3dfdbd71,0xbd606b61,0xbd5d311a,
0xbc41919e,0x3d7490ea,0x3d02caac,0x3d13b4fb,0xbe149ce4,0x3c89ab01,0xbe073a9f,0xbc886295,0xbd2a5f92,0xbe1a1be4,
0x3ca20374,0x3bdbb679,0x3de3d559,0xbe2863a9,0xbbc87eb1,0x3df0c0fd,0x3c2455d8,0xbdd80eab,0x3d7ff822,0xbdc42579,
0x3c3bb607,0x3e264e8b,0x3dd032c5,0x3c0174af,0xbdb95832,0x3cdf47cd,0xbdb7407e,0xbd6a0192,0x3cc587b9,0x3d2fca79,
0x3e0944d8,0x3e190922,0xbdbc561e,0x3d784d9e,0x3db0fac4,0xbcbe8c18,0x3d2b0ba8,0xbd0191b5,0xbd4bb7c3,0xbc6df694,
0x3d270f14,0xbcb310ad,0xbbb1be0b,0x3d75f85a,0xbd47201b,0x3d8c80a3,0x3d80725b,0x3be3eb10,0x3c1ce844,0x3e0d601f,
0x3cff555e,0x3dd0806b,0x3dd6efdb,0xbd679be1,0xbd720144,0x3d5384af,0x3d9d87fb,0xbdc1b13c,0x3baf63f0,0xbd767287,
0x3cda5e0e,0xbcd0e64b,0x3dafc7ff,0x3d864f1d,0x3c9b7690,0x3dbb59b3,0x3d292e1a,0x3d141d7f,0xbd46b11c,0xbcc0fbb7,
0x3dae48d2,0x3cdc3558,0xbd9d35d0,0xbd678079,0xbe86515d,0xbd7cd6e0,0x3bb22aa6,0xbce53f8a,0xbd927799,0x3e077b5e,
0xbce5ff06,0xbc2f6dcc,0x3cb31327,0x3dca70f8,0xbd9ed362,0xbd9cca79,0xbd4036cc,0xbc8a393c,0xbdd5278a,0xbcfcd38a,
0x3d2c5d96,0xbd22a1a1,0xbcdf71f2,0x3d1b9238,0x3a91b767,0x3d149163,0xbd886f84,0x3de4524f,0x3e1c1449,0xbd9f0cba,
0x3d24a2d3,0x3e4a22fa,0xbdca1de2,0x3dcb2b74,0xbe28fc68,0x3d403f0a,0xbdc2dde6,0xbdc211a5,0xbcf26c42,0x3c59bb11,
0xbe40da6b,0xbd9f9ecc,0xbcc23d65,0x3bd16098,0x3d5749d2,0xbcc7eabb,0xbe421b75,0xbc90067a,0xbd9dd497,0xbd2f6974,
0xbcced316,0x3d8783e3,0x3e5e8d4e,0xbda3f945,0xbd6d9fc0,0xbcd785d9,0x3da22174,0x3cb9793d,0xbde6c853,0x3e53ed4f,
0xbe540d93,0xbe471af9,0xbd0c5769,0xbd797e41,0xbd9c53ed,0x3d3d48be,0xbd6f639c,0xbac4a0f2,0x3b36ca71,0xbd131cc8,
0xbd0c82a4,0xbdbc7fc8,0xbc9db25f,0xbde41bbb,0xbb384cd0,0x3d265432,0xbd171e3c,0x3c49456f,0x3c5f8438,0x3da1106b,
0xbcfc067e,0xbd860c09,0x3db3d368,0xbd090739,0xbd16f4a5,0x3dfd1237,0x3c97fcfe,0xbd5b608b,0x3da40937,0x3d7a06ec,
0xbc35061b,0x3dd0f3b1,0x3d50b6d4,0x3d22a22c,0xbb4b0e32,0xbda436c6,0xbcbdb316,0x3dc421f8,0xbda7530e,0xbcc2d786,
0xbb83af4e,0x3c99f4e9,0xbe0f8206,0x3cd1b2f9,0xbb33422f,0x3d8c16ff,0xbd7b62e9,0xbc6a7a6c,0xbda7f903,0xbd951f51,
0xbde652a7,0xbb736c69,0x3bfeddeb,0xbce23cd6,0x3d952fd4,0xbe11c2d7,0xbc196a68,0xbd639a2c,0xbc406e2a,0x3d7e3710,
0xbcdc0e2f,0xbb8a30b4,0x3d083bc0,0xba9c46e7,0xbd208a44,0xbcc0bd1b,0xbdac9b29,0xbe50bd9c,0xbd6bcd82,0x3d06475d,
0x3dd2b88c,0xbc4675f8,0xbc5bdacb,0x3cea3306,0xbdc3d113,0x3cb69c38,0xbd3d6855,0xbd2c0c06,0xbdd7e090,0xbd6bc526,
0x3da576bd,0xbd8a78be,0x3ce4815f,0x3dab12b7,0x3dc4f507,0xbd85d9b5,0xbe2cfe67,0x3db44030,0xbddbffbc,0xbe263c5d,
0x3c7a5322,0x3c44742d,0xbd52966a,0x3e2c6e49,0xbe342b98,0xbc5879d3,0x3d8a8eed,0xbd294f54,0xbca6a3a3,0xbe8db682,
0xbc07ebdd,0x3d9c936c,0x3cbc8361,0x3de92e28,0x3d97354e,0x3d8e999e,0x3d34e63d,0xbcfbf2f3,0x3e0b08a9,0xbd42be7c,
0x3d5da321,0x3cb884ae,0x3d4713be,0x3d8cfe87,0x3d8b72c4,0x3ce7734a,0x3dfa297f,0xbc8fb4ff,0x3c99ca0b,0x3be4889c,
0xbd0cc90a,0xbd6aa7b4,0x3da05c69,0xbce1e486,0xbde6a485,0x3db20c58,0x3dc5b226,0xbe6a092c,0x3d579b3c,0x3e258422,
0x3dab6817,0xbdc58e23,0x3cfb1dc1,0x3c91578d,0xbc4ede38,0x3dc02761,0xbdbd3fcf,0xbd3c5a44,0x3c9b0d47,0xbd7c5619,
0x3dcb43b2,0x3cbff9f4,0x3cbcb405,0xbc6aa8ae,0x3c6d8af9,0xbd0e5628,0xbd0541f8,0x3ccabb07,0xbd94069a,0x3cbd4cdd,
0xbda54cd4,0xbd1c0dd6,0xbd98a456,0x3d6afd3d,0xbdb0300f,0x3dd02fae,0xbc462a20,0x3d74e7ef,0x3d6d80f1,0x3d74af9f,
0xbbbad5e6,0x3d783f79,0xbb6b13fb,0x3db7701e,0xbe49716b,0x3d216249,0xbd9e9a4e,0x3c518649,0xbbc48b95,0x3ca7da89,
0x3cd7fc77,0x3d968f29,0x3d85aecd,0xbdaf2994,0xbc50346e,0xbdb3d862,0x3d8fe4d8,0xbd8e5b63,0xbca5620f,0xbd3d404b,
0xbd530a0f,0xbddbc9b0,0x3d13f00c,0xbbd9ca6a,0x3c5f51f5,0xbd7ca324,0xbd8c0685,0x3def6c28,0xbca2730c,0x3e0cbd7b,
0xbd8af6fc,0x3cfaa163,0xbce17fc0,0xbe180306,0x3d6c1ba3,0x3dbfb720,0xbc95c5fc,0x3bd90abd,0x3bff56c6,0x3d135c1e,
0xbd10616e,0xbd1a5b5a,0x3cd3dba0,0x3c2d3179,0xbb689328,0xbbbd1aa7,0xbd0f1552,0xbd920876,0xbd6a3e9a,0x3cdff904,
0x3d47c2af,0xbc59f832,0xbd3c39f1,0xbc97480e,0xbe109468,0xbcfbc5d5,0x3cd655f6,0xbc12c391,0x3c8694b7,0x3cbe2f0f,
0xbd764b31,0x3d0abb8a,0xbc83c8bb,0x3c08a223,0xbcd64824,0xbda3400f,0xbcdfe9ec,0xbc5856ef,0x3d394937,0x3cfb08e4,
0x3c15cb74,0xbc3c47c0,0x3d28e0e3,0xbdb02d8e,0x3dc2f476,0x3c8551ea,0xbd1f7a01,0x3d4f516d,0xbd0ab948,0xbd23da0c,
0xbd0f95ef,0x3d70163a,0x3da1ac23,0xbc9acd5e,0xbd12f0e5,0xbcd0a155,0x3c9ed8c4,0xbcb63d16,0xbcc342f5,0x3b9d14ea,
0x3ca2cdee,0x3cb7e903,0xbd4ec184,0x3cde2b3e,0xbbffa240,0xbc295986,0x3d8c9bd8,0xbd5b8521,0xbd3411f9,0x3cae8b27,
0xbcf36940,0xbc41726f,0xbcb5cb9c,0x3cb7cbce,0x3be2dd6c,0x3cd67eab,0xbd9c61a4,0xbc077ea2,0xbb2455ed,0x3d19a077,
0xbd84f657,0x3c0da2bb,0xbd47ec20,0xbc4b6a7b,0xbb3aa9c7,0x3cb8af18,0xbcb030fb,0xbdc1ef74,0xbdaf35e6,0xbd32f8b7,
0x3d9e92ea,0xbbfa1403,0xbde6ee8f,0xbcef1004,0x3d3bcbac,0xbc9a6ec1,0x3d3818a0,0x3d6a206e,0x3a6120e8,0xbcdc8bb4,
0xbdab9f60,0xbc2ca4a3,0xbd05fbec,0x3cedb294,0xbda806d2,0x3d24b22c,0x3d562dd2,0x3d5117a4,0x3d800816,0xbc309e51,
0xbd840a87,0xbd3a0033,0x3e2337b3,0x3ca4c06f,0x3cc3186c,0x3dbdc70b,0xbcd2728b,0xbd575d6e,0x3bf866bd,0xbdb6ff66,
0xbcbbb0b9,0xbcb0cfe3,0x3bbbeda1,0xbc0953b6,0x3e006ba6,0x3d87f01f,0x3ce20f76,0xbdb6a8b8,0xbc17679a,0xbcf6a855,
0x3ac10702,0x3d6b0d10,0xbe0374b4,0x3cefade0,0x3cd84fcb,0xbd67221b,0xbcd755b5,0xbd66cfde,0xbe00ace5,0xbdfb4e01,
0xbe0051f8,0x3ce6df8d,0x3cb3ddf1,0x3b77f024,0x3dcdf4e2,0x3d69ed24,0x3dbf3a93,0xbca07a83,0xbcd4b753,0x3da6d681,
0x3cae844c,0xbdc36166,0xbcb5062e,0xbc9c8e82,0x3d8f66eb,0xb9cd470b,0xbd071af9,0x3d5e4c3e,0xbe053c8f,0x3d6e2436,
0xbd435563,0xbccfbdea,0x3c06730b,0x3d18dd6c,0x3d11d443,0x3d2b72de,0xbdeef1f2,0x3c04775c,0xbd515c54,0x3d8b48da,
0xbd365d54,0xbdbaca0a,0x3b014f9a,0xbd417a87,0xbe209655,0xbe18709f,0xbdafd3f3,0x3d383c64,0x3c73abc8,0x3ccc9805,
0xba2a5f77,0x3dd84da1,0x3e170f6a,0x3cc37f29,0x3bded740,0x3e39316e,0x3d3e001b,0x3d220ec5,0x3cf73467,0x3dbd3ddb,
0x3dc912f8,0x3bb08a4e,0x3e055612,0x3c9a3ea6,0xbe20742d,0xbd2a1b8d,0xbc4c12fe,0xbc1ab805,0x3d20b813,0xba867850,
0x3da0ea47,0xbcdea4d5,0x3cd9e39c,0x3c7d6128,0xbdc3ef05,0x3bd6612f,0x3d50de43,0x3b90fc38,0x3d5d2487,0xbcbe3449,
0x3cc2ff5f,0x3d274ceb,0x3d303436,0xbda1d935,0x3d8287cb,0x3d3ce543,0xbd2a0530,0xbd2ecc1f,0x3d8b931f,0x3cb39b18,
0xbd4b9c0c,0x3cac884a,0xbd938589,0xbd7dad5f,0x3d052ec3,0x3c6ce6da,0x3ad948da,0x3c621b9e,0x3ce70bcf,0xbd738732,
0x3daff90b,0x3d558af9,0x3bf6f2f9,0x3e01122b,0xbca995fc,0xbd2d236d,0x3ccd273e,0xbcf2ab8d,0x3da652b9,0xbd447dac,
0xbcd42026,0x3b6d182c,0xbdf97e67,0xbdc8a6d3,0xbdd2c974,0xbd7b7e98,0xbca253d6,0x3d099f8d,0xbd3773f6,0xbddac8c4,
0x3cf4c19f,0xbd9f1878,0xbdd9e84c,0x3d0783e9,0xbc75d738,0x3bfa1f17,0x3df9b30f,0xbc9d317a,0x3d297616,0x3d37edec,
0x3a5be041,0x3c8bc304,0xbdd51ffe,0xbd7803c9,0xbd120f6a,0xbcb12a42,0xbca09c3f,0xbddcf6b3,0x3df604d5,0xbd116b39,
0x3cd147aa,0x3db7f5d2,0xbd2af1c8,0xbdb45479,0x3d0ea1c9,0xbd72e6af,0xbda0fa58,0xbcd07482,0xbc52dd4a,0xbc2d16b4,
0x3d4835ce,0x3c4baa0e,0x3da61185,0x3e089dd8,0xbdd69bb0,0x3d7b8c83,0xbe0f0c2f,0x3d3e9cbd,0x395eaf1f,0xbde746b2,
0x3d051c34,0x3d4ca65b,0x3c80cf2f,0xbc822fd1,0xbe0c1225,0x3a291ff6,0xbb79ad54,0x3d253064,0x3cd33605,0xbcac779c,
0x3c0866de,0x3cfca7a7,0xbc72fb90,0xbaf32d5b,0x3d2aec99,0xbd42c7cb,0xbaf9e4eb,0x3e087a36,0xbc7ce74e,0xbdbb3f21,
0xbe2bb2a2,0x3d3ac8db,0xbcf7a9ab,0x3d9d1974,0x3d2f3488,0x3d9d9b39,0xbd7ce785,0x3a947732,0xbc89d2e2,0xbbc3fa64,
0xbdf9b883,0x3c99db4e,0x3cb7d767,0x3c882578,0xbba3da91,0x3c0291a5,0xbdbda870,0xbbd60155,0x3db6bbfe,0x3c24772f,
0xbd200b1f,0x3c281711,0x3cb1c053,0xbca59490,0xbc2c8ace,0x3ca0660c,0x3de4e1d7,0xbbf7c304,0x3d89dabe,0x3bce56e3,
0xbda72f5b,0x3d024a6c,0xbddd3591,0xbc194c8e,0x3d8c4823,0xbc9e6a79,0xbd56617b,0x3c7e6ee3,0xbcd5f353,0x3dc6adaf,
0x3d1ee093,0x3d6a74ec,0xbc2addab,0xbda4d66d,0xbd16b6bb,0xbbba7249,0xbd9c15dc,0x3bc53ee8,0xbcc94152,0xbdb3855e,
0xbdb91829,0xbcf822c7,0x3d71045a,0xbcd77cf5,0xbd8f970a,0xbccab788,0xbd9827bc,0xbd520285,0xbc9fa5ee,0x3d1ebd0f,
0xbdd66ff3,0x3b9d9934,0xbcf84dbd,0x3c80c06a,0x3d1cdff5,0xbe2b6b08,0x3d3c3b49,0xbc8f173d,0xbd13d7e9,0xbc8aa91d,
0xbcbf7f52,0xbd7c5b56,0xbd7d9e9b,0xbd031837,0xbd671803,0x3e57741f,0xbc1b97b1,0x3bbcedf3,0xbde896f3,0xbd3276e6,
0x3b6dac37,0x3d02a453,0xbcc57fda,0x3c7de149,0xbd25c077,0x3c8a2057,0x3cdcea7e,0x3cf78866,0x3b2437d6,0xbca282fd,
0x3c004bf2,0xbd8545e2,0xbd25cef4,0x3d030d82,0x3dabe497,0xbb5c728d,0xbd728e53,0x3cb6c6f8,0x3c55195b,0x3c3e199d,
0xbc1b0890,0xbdd5d03a,0xbbefe8b5,0x3d1f9b97,0x3d1a1735,0x3de7f72a,0x3d0a1f6d,0xbbdf506f,0x3c285030,0x3c25f219,
0xbd36053f,0x3d0adb67,0xbc68156d,0xbc9df1b7,0xbc04c6e0,0x3cb95383,0x3d302b0c,0xbce21e57,0x3d306a79,0xbd8d5802,
0x3c27e70d,0x3d59a9cc,0x3c49920d,0xbc2363f5,0xbd282de7,0xbc17d412,0x3c762805,0x3bf2d681,0xbcedf250,0xbbde3445,
0xbd8f0d03,0x3d111f4d,0xbc744cc8,0x3cf1bd60,0xbd3aeb1a,0xbc189411,0x3d0ac837,0x3c5204f9,0xbd84faed,0xbdc5892f,
0x3c473c49,0xbdb1c941,0x3d621508,0xbd6e121d,0xbbd7cd6c,0xbd3470e0,0xbd93f876,0xbd1eff4f,0xbd445654,0x3d91b340,
0x3c45640b,0x3d7242e0,0x3d16041d,0x3c366941,0x3daf462e,0xbd5df6c6,0x3d4d05df,0xbd888c64,0xbcac9e19,0x3df028f2,
0xbd1d9157,0xbd3a0516,0xbc69993a,0x3d122665,0x3cf75fe4,0x3d595aba,0x3c1466f9,0x3d11d543,0xbc44fb29,0xbd33f86a,
0xbdc38155,0x3dac0609,0x3d8ae547,0xbc71525e,0xbdb815d7,0x3e4d2a14,0x3c187a5f,0xbc65ee3c,0xbc7e26e2,0xbcc6169c,
0x3d27fbf9,0x3da6a22c,0x3b4642a9,0x3d0332e7,0xbda4ca14,0x3c2ec38c,0x3bccd8ad,0xbd2e1f80,0x3ca196d0,0x3d9b801e,
0xbbab2532,0xbd37d720,0x3be58138,0x3ca4193e,0x3cac2497,0x3cb20df2,0xbcde8300,0xbb52effc,0x3e07edb8,0xbccf1fc6,
0x3df163e1,0x3e058a2a,0x3af9d985,0xbd5f2fe6,0x3c15d060,0x3d2d7d67,0xbda34afd,0xbd27d4bb,0xbb279aa2,0xbd5714e1,
0x3cc02530,0xbd3a2f80,0xbd7f1157,0x3d30d0b1,0xbdc4ebd1,0xbd45af73,0xbcdf2433,0x3d433342,0x3a8d484f,0x3d168b26,
0x3ca1fb62,0xbd284a73,0x3cc57c2c,0x3cb755cb,0x3cc36d10,0xbc368648,0x3bac636a,0xbbc4da0c,0xbd0bedd0,0x3c611f2b,
0xbcfff4fa,0x3cc0f1fd,0xbd7f4a9c,0xbd3c5309,0x3ba39df1,0x3d1494bb,0xbbcafe0a,0xbd59b14f,0xbc957003,0xbc08f0dc,
0x3c6c6472,0x3d01c166,0x39a388ce,0x3de0a9f9,0xbd56648e,0x3bd5f543,0xbc7da925,0xbc458740,0x3d54f60e,0x3db0dde5,
0xbb60bdf9,0xbe0f97c1,0x3caa5204,0xbc896083,0x3ace624a,0x3d07719e,0x3d0685a1,0x3cabd5f8,0xbcd6fc91,0x3c701b76,
0xbb96244e,0xbdcd8ce6,0xbd98c915,0x3db56d9f,0xbcaac693,0x3dadcc6d,0xbda1c51a,0x3d8f8987,0x3c1664fa,0x3c5ab741,
0xbd9d8a47,0xbc8851c3,0xbdd71f41,0xbd760df7,0x3beed6d7,0xbcd73150,0xbcac671f,0x3aac1d8c,0xbd8e0c0f,0x3d87a92a,
0xbd4abffc,0x3d3a1387,0x3d2753d8,0x3c54e6d0,0x3d507802,0x3d5ed1ac,0x3daadad2,0xbcd33c28,0xbccc4790,0xbd122246,
0xbc2e2617,0xbdab7a75,0xbd540494,0xbd2c1785,0xbd47e9d6,0x3cad7bad,0x3d9e7ab9,0xbd89da2e,0xbd7db50b,0x3d745a6a,
0x3c9345e7,0x3cb1e251,0xbd2208e5,0x3cc7f3cb,0x3cdf66a4,0x3d1cf33c,0x3c97e341,0x3cff2e02,0xbdc09459,0x3beb2759,
0xbe10d66e,0xbd9f2e97,0xbd45ec65,0x3d5c45f3,0x3d5b203c,0x3c20a396,0x3e264f26,0x3d1a60d3,0x3d17ec90,0x3d1068e7,
0xbd93c457,0xbdbc3da8,0x3c9fc485,0xbdbd23b0,0x3cad53d5,0x3d2897c6,0xbe1b0519,0x3d9604c9,0xbcd25480,0xb9c9fcca,
0x3d7e2294,0x3cca0691,0xbdb017bd,0x3cef35cf,0x3e05a170,0x3d631e7e,0x3caab836,0xbd42ddb9,0xbd5c5a7c,0xbb87bd5d,
0xbd076460,0xbb8b52ff,0x3ccb1b9c,0xbc73d5cf,0x3ddf79ae,0xbd7481d3,0xbd1698e2,0x3d3d096c,0xbd691817,0x3db60270,
0xbde818c4,0xbdac7693,0xbdfa78ba,0x3dbda20a,0xbba0991e,0xbcadd278,0xbd8ee513,0xbd30e1c7,0xbe5264c9,0x3d42c6b6,
0x3da8c31f,0xbe198acf,0xbdbfe2b7,0x3e157600,0xbe58196a,0xbe3d6be3,0x3ca6c63c,0x3e314980,0xbc05a8fc,0x3d62a924,
0x3d1f350b,0x3cf7f3e8,0x3db44d05,0x3c453cb9,0xbcd734da,0x3cc0992b,0x3cda78e3,0x3d01340f,0xbdaae85e,0xbcf49425,
0x3d8fd0b5,0x3db93298,0x3d0535d1,0xbdab3662,0xbd22f6ee,0xbc76d634,0x3cef3979,0xbda96a54,0xbdf2505b,0xbc0d195b,
0x3d45bc09,0xbb178931,0x3d88a32e,0xbd49b010,0x3d1d92a1,0x3d03ef56,0xbd7a08b9,0x3d76daa7,0x3d099b04,0xbd14341a,
0x3d0b7d6c,0x3d0fea1c,0x3c755734,0xbd7ab601,0xbd47a472,0x3d58dffa,0xbd594595,0xbd5b4ce1,0xbc558117,0x3e386b32,
0x3c943112,0xbc7bbf2a,0x3da3d57b,0xbdeb2f7d,0xbd133436,0x3d4f4a36,0xbbe3fde9,0x3cce9b2c,0xbcbbabff,0x3beb2c87,
0x3d06fa73,0xbcd5548e,0x3c931f33,0x3d83e30f,0xba85344e,0xbde7bf1e,0xbd03bc1f,0xbe03387b,0x3d566105,0xbcf9a0c0,
0xbda27613,0xbbbc40b4,0xbce30d28,0xbcf9b9a0,0xbcbb2c67,0xbb2d0437,0xbdde46c2,0xbd8b060e,0xbd7f33b4,0x3e325b03,
