const static size_t backbone1_0_weight_size = 7200;
static unsigned backbone1_0_weight[]={
0x3d16b920,0xbd4e34e9,0xbda8e87a,0xbdd15df8,0xbd24fd5a,0xbd1e228c,0x3d1a9afd,0x3da8be25,0xbbd32001,0x3b9c0a45,
0x3cf2d5da,0x3dbc9613,0x3dc310be,0xbcda7649,0x3b8316d6,0x3d10a873,0xbcb810ef,0xbd6cd10d,0xbd6b5d40,0x3c64b007,
0x3d398bab,0x3cb2c682,0xbb4485e9,0x3c8da7fb,0x3d3c3004,0xbd6bd87a,0xbcaaf65c,0x3c97d079,0x3c381389,0x3d2fc940,
0xbdb373ef,0x3df4ba8c,0x3e524b9b,0x3df5fa7c,0x3db9c7e9,0xbc45faeb,0x3e02f4cb,0x3e07ec69,0x3cd8a033,0x3d322d6e,
0xbd6c4d33,0xbd8546c7,0xbddfcd78,0xbdd71590,0xbc8a8aa4,0xbd64aef1,0xbdca058a,0xbdf7a0be,0xbdac8894,0xbd0a8a60,
0xbd8a81ec,0xbbe9ccfb,0x3d01e3f7,0xbce58fbc,0x3c453c96,0xbd2191b5,0x3e0b1535,0x3e3b67ee,0x3d95eebd,0x3d83479b,
0x3ca305df,0x3e054c82,0x3dd9dad0,0x3bdeb081,0x3c807928,0xbd261f03,0xbd57229a,0xbd867898,0xbd8264a0,0x3baa7639,
0xbd1e6c96,0xbd8cad05,0xbdb13d5b,0xbd6d1271,0xbd07fb26,0x3d35a7f2,0xbd7bb4bd,0xbd3e77a1,0x3c9989d3,0x3e1f560c,
0xbd34888f,0xbe3cb70c,0xbe3fc02c,0xbdffba32,0x3d85ad82,0x3c33e249,0xbd22b397,0xbd25f311,0xbca50707,0x3d53d145,
0xbc58fd10,0x3d06e371,0x3cc73e8f,0x3ca22662,0x3c163836,0xbd6b59e2,0x3b72d171,0xbb82bfe6,0x36b22634,0xbbf92ca0,
0x3d8b4ec4,0x3e3e7a95,0x3e329281,0x3d8734b6,0xbd6852cb,0x3e3d2a8a,0x3ed1f874,0x3ef7f22e,0x3e6e7935,0xbd91b44c,
0x3d5d7821,0x3ead8e0f,0x3eb99db5,0x3e07aa44,0xbd689dda,0xbd2d8a2c,0x3ba4f847,0x3d16680c,0xbcb40792,0xbda9523d,
0xbd80139e,0xbdc1abaf,0xbd87ed37,0xbdbeb08a,0xbda7d76d,0xbd915867,0xbe1ca5ed,0xbe09a1ba,0xbe25e41c,0xbd58b1b5,
0xbe1e20a2,0xbe857c93,0xbe74715e,0xbe3a23a4,0xbbcb6708,0xbd850026,0xbe3b92b5,0xbe7003fa,0xbdf05259,0x3cbd761b,
0x3ca6b940,0xbd8b52f5,0xbdaa2a8c,0xbc91417d,0x3d845d24,0x3e04375c,0x3dc691e6,0x3df06984,0x3dc66f1f,0x3dc2dead,
0xbd11e82a,0x3cc1b60e,0x3c754646,0x3cbb8cb5,0xbdaa6b07,0x3dc7a4bb,0x3dffc22d,0x3d8af719,0x3e20e451,0x3d25d580,
0x3cb4a950,0x3dbcc249,0x3dc57c16,0x3db934c1,0xbaf92d89,0xbcae34e0,0x3e04a43d,0x3e027bfb,0x3e015054,0x3ccd6397,
0xbe1a2465,0xbd02c45c,0xbc6aa4b4,0x3d77f7ed,0x3c09d656,0xbcb65477,0xbabda79d,0xbb92b6d0,0x3d06ce7d,0xbd529e06,
0xbc62d4bb,0xbdb9bbb3,0xbe0c0589,0x3c85bbda,0x3be50ebf,0xbd2b9c92,0xbddc8c59,0xbe1f4e62,0xbd83b11f,0xbdaac953,
0x3c8d6955,0x3ce75116,0xbd357f04,0xbd57a355,0xbd95475a,0xbc888886,0x3bf3bf82,0x3b9dbc56,0xbaa3f64e,0x3c16a736,
0x3d872178,0x3d26c4f4,0x3c79cef5,0x3d090e57,0xbd9b2f05,0x3d9dcc4b,0xbba07cdd,0xbcc8f16a,0x3d8be628,0x3cb56e61,
0x3cb7f5d5,0xbd282ff7,0xbda53cb6,0xbb968315,0xbcbf8b01,0x3d03fe1a,0x3c0c2401,0xbd8928e5,0xbd300bb7,0xbcd961cf,
0x3d02754a,0x3cb61d73,0xbc3e8a2e,0x3d104491,0x3d5049d6,0xbd6174a7,0xbd89a4c5,0x3d20a153,0x3d1d29e8,0xbd4c5c4c,
0x3d12f295,0x3d91bba0,0x3e57725c,0x3e7a8f82,0x3d412e2b,0x3cbea476,0xbced6725,0xbcef067d,0x3db9bd7c,0x3d6a0ef4,
0x3c50d72d,0xbdb3f380,0xbe2b4c4c,0xbe0049df,0xbd8785af,0xbc755a57,0xbcde3d18,0xbd34d3a3,0xbb335cf7,0x3c1168ec,
0xbc3d7576,0xbdb2503a,0xbd9401e0,0xbd64c984,0xbc13e973,0xbc87f7ae,0xbdbf9022,0x3d6cb2e0,0x3e4f6791,0x3d872d36,
0x3c30f819,0xbe189fda,0xbe113d7f,0x3da3d3d4,0x3de7298b,0x3d366976,0xbd852e19,0xbe47f014,0xbdbb2610,0xbd4d47e6,
0x3d85ff76,0x3c57028c,0x3bca4624,0x3b83d557,0x3cadece2,0x3e1f1a70,0x3d385dea,0x3afd8199,0xbac74526,0x3cb9c102,
0x3dabee3b,0x3cbad7e1,0xbcbf6996,0x3cc9e773,0xbd55770b,0xbc99c95c,0xbd936544,0xbd4d3ff8,0x3d32dc17,0xbb9a71ca,
0xbd09d4d4,0xbcfdaee9,0xbc2692fc,0x3cb6b224,0xbd8486d2,0xbc354073,0xbce4c4b7,0x3d808ba6,0x3db574a9,0x3d15037d,
0xbd39ad73,0xbda4f24e,0x3c91f10b,0x3c9f40ac,0xbb64e2e0,0xbd461837,0x3e30bc3c,0x3e9f20fd,0x3e125f82,0x3d7b5b2d,
0x3d64a10b,0x3e5a5416,0x3d7d0e6f,0xbe5cc229,0xbd7300eb,0x3cd273cf,0xbd0b4801,0xbe9fa9e4,0xbeb2ddc1,0x3d142a3d,
0xbcabb129,0x3c0d88bb,0xbc912e33,0x3d7db959,0x3d9bfc35,0xbd33e2bd,0xbdcb7dca,0x3c6ba5e1,0x3c2dad04,0xbc910cbd,
0xbdaace87,0x3e259174,0x3ea29a00,0x3df870c1,0xbc9f4369,0x3ced43d1,0x3e2640b8,0x3d0e0ab2,0xbe49700a,0xbd92d937,
0xbc894281,0xbd990162,0xbe93cc7b,0xbe901bbe,0x3d5cd280,0x39a6e1e8,0x3cf2fd45,0x3c8ac936,0x3d932f9c,0x3d7014a7,
0xbb4108ba,0xbd3073d9,0xbba7f4a7,0xbd3403aa,0xb989f3e1,0xbdaf34fc,0xbc28e5c0,0x3dc3a9f8,0x3b864999,0xbc41843c,
0xbd24b63c,0x3d019195,0x3d9f192e,0xbd88a665,0xbc895b54,0xbc8930e4,0xbaf55c32,0x3af485e8,0xbccbc0d9,0x3d16ab9a,
0x3bef29d8,0x3da01eb2,0x3daa44f5,0x3d04d969,0xbd8f9b44,0xbca7705f,0xbcd6dd4c,0xbd88d6dd,0xbdbd40fa,0xbd37dc5a,
0xba929d86,0xba1cece9,0xbd1111be,0xbda5275e,0xbd3a75e1,0x3ca23a3e,0x3b4d8d89,0xbc9224f1,0xbd142262,0xbc7e30cd,
0x3d2b3178,0x3d544225,0x3d1a0cc9,0x3b6d2a84,0x3c1ca0be,0x3d180d97,0x3d6aed55,0x3d9bc106,0x3d97689e,0x3d56dfcb,
0x3bd21b8a,0xbc22e141,0xbd5d5f7e,0xbda53809,0xbd21159c,0x3a093e5c,0x3b9b9037,0xbc247761,0xbd4c70d9,0xbcf8efba,
0x3c4e69ba,0x3befd91b,0xbb2e7942,0xbc9f33d6,0xbb0fcff8,0x3c828d99,0x3cd3fcdd,0x3c80532f,0x3c181bf4,0x3c5e50c6,
0x3b5eb09b,0x3caf8fd8,0x3d556350,0x3d59f704,0x3ca2ab20,0x3bf32db4,0x3b74e05d,0x3c1fde45,0x3c4dd48f,0x3d1dad97,
0xbc364b39,0x3c4d540a,0x3d0d0d2b,0x3cb9a363,0x3cfd1bae,0xbc835c14,0xbbdba347,0x3cb22cdb,0x3c0495d3,0x3c38fa61,
0xbc78ab4a,0xbc3c055b,0xbb2aa9f4,0xbc3e3cd4,0xbc8d16aa,0xbcab4005,0xbce0ac41,0xbae6fcb0,0xba96f81b,0xbc9b09e7,
0xbcd05da1,0xbd77b141,0xbce92f39,0xbcc51117,0xbd4899b6,0x3e012a50,0x3d0a462a,0x3de267d4,0x3e0522fb,0xbc8a21f0,
0x3d717e6d,0xbe856a2c,0xbe5ae7b1,0xbc0c5dae,0xbb89b3ae,0x3ce1c980,0xbecde877,0xbef2acfd,0xbdd677f7,0x3d4e29f0,
0x3e871015,0x3dad12c6,0xbd45f3b8,0xbd69d832,0x3d9ca237,0xbdce1594,0x3bd5cddf,0x3d852926,0x3c3014c2,0xbd0188c0,
0x3d57edca,0x3d7bb5f1,0x3e48c729,0x3e3c76bd,0x3d5c7a45,0xbd7dc051,0xbe4d6e13,0xbdddbbb7,0x3dd78f63,0x3da9179f,
0x3a0a0902,0xbeaeeb5c,0xbeb35cb5,0xbca5abee,0x3d7eae3c,0x3dd86079,0x3db1aaa2,0x3b225e6a,0xbcbd936c,0xbb7711b8,
0xbd5c100b,0x3d0c2fb8,0x3d6dc281,0x3b078a01,0xbd658ebb,0x3d758004,0x3d8330af,0x3e22f286,0x3def7e59,0x3afdca4d,
0xbc8cb4fb,0xbe1b40bb,0xbe0d25fd,0x3dd73b8e,0x3da4937b,0x3b8fc067,0xbe817183,0xbeabc83b,0xbd2e5b64,0x3d523fe9,
0x3e3bb9d8,0x3e1cf81c,0xbc2d232b,0x396e1f65,0x3ceda551,0x3d0aba9a,0xbc469ce3,0x3caf1123,0x3cdee74c,0x3c7081a3,
0x3c9bfdbb,0x3d8917ee,0x3d532fc3,0xbcae5d2e,0xbc8b76a9,0x3d0b8268,0x3e0fc87e,0x3c012d83,0xbde9470b,0xbd675e82,
0x3d0f1881,0x3db6d932,0xbd9d27f6,0xbe05dd01,0xbc99b049,0xbc3be8f4,0xbca0a8b8,0xbdae461b,0xbd27d72a,0x3c231d95,
0xbc24d892,0xbd040fb6,0x3cfc9fe1,0x3bca97e0,0xbbf266da,0x3c316114,0x3da09c1f,0x3d40bacb,0xbd1f6763,0xbcc8b35a,
0x3cf40955,0x3e431529,0x3d5183dc,0xbe044daf,0xbd6ad079,0x3d3a04de,0x3de01aa1,0xbd75aeab,0xbddd4778,0xbc983ddc,
0x3c16ca65,0x3c80a4e5,0xbd750c4d,0xbd275670,0xbc257890,0xbcc92d98,0xbd8082eb,0x3cbea2c9,0x3c32053c,0x3cf90f97,
0x3cb7d936,0xba433c49,0x3bea1437,0xbcabd0c3,0x3d305a27,0xbc40f6fe,0x3d959886,0x3cfe09cb,0xbd78ee85,0x3ccd31ab,
0xbbc9b3f3,0x3cc2acf9,0xbce3e04f,0xbd190745,0x3d34c186,0xbcddbd84,0xbc72373b,0xbd0e11e7,0x3c67a545,0x3d21c673,
0x3dba30ff,0x3d60ff09,0x3c2e8411,0xbc12a3c0,0x3d863b4c,0x3e147532,0x3dc93766,0x3d2de4bb,0x3ce006be,0x3d8625ba,
0x3de94d65,0xbbedd1c7,0xbd926f6a,0xb9e7b327,0x3db5637f,0x3db3200b,0xbda9f638,0xbdb9a2b4,0x3d006d6e,0x3e01b8f3,
0x3d827d9a,0xbd609f00,0x3d1c9a34,0x3e02bd3b,0x3e5a3b9d,0xbde32257,0xbd8f07ec,0xbd5f3857,0xbd27a722,0xbd78682b,
0xbddd0554,0xbce5bb61,0x3c229fd4,0x3c689373,0xbd27f733,0xbdb3dc36,0x3d17ea7f,0x3e044df7,0x3d3e1e4e,0xbd40ee5c,
0xbd06adf1,0x3e454d76,0x3e71d370,0x3c842e02,0xbda2a174,0xbcd42737,0x3dde2ab8,0x3de2ac8e,0xbdc9e151,0xbe2d7720,
0xbc6a6b91,0x3c42e314,0xbc148011,0x3c922068,0x3cabb725,0xbd4a7fa4,0xbc54d5cc,0xbcb57fad,0xbc83f9a4,0xbc6b7039,
0xbd8a8c9c,0xbad243a4,0x3cc20496,0xbca29878,0xbcfcab26,0xbcb6e492,0x3df165c4,0x3e01dec7,0xbcfb9768,0xbdc53c98,
0xba20fd05,0x3d8716b4,0x3d676d0a,0xbdc28ba1,0xbdd84d7f,0x3cf4c467,0x3d8794fb,0x3d8b25a0,0x3c8ed457,0xbc8abaff,
0x3dae9c03,0x3ddc14f4,0x3defe05b,0x3d7a6d11,0x3d002a05,0x3d5d6566,0x3db86348,0x3d475164,0x3d76dd54,0x3cd014be,
0xbc1b9b85,0x3cb2b26f,0xbca3b9f7,0xbcf8a56d,0xbcf87bae,0xbc724b22,0xbd66a6c0,0xbdca8f43,0xbdb9050e,0xbdb3001a,
0xbc79d9b4,0xbc9f34ea,0xbc271bbc,0xbc3f777a,0xbc2c9e5e,0x3cd8a94b,0x3c5379b8,0x3c9caece,0xba471d30,0x3c82f5c0,
0xbb8d4822,0x3d098f68,0xbcd9298a,0x3cf00c21,0x3cd3a449,0xbcfe4dd8,0x3a698090,0xbd3c14e9,0xbd06c744,0xbb90a52f,
0x3a5b0323,0xbce57b1c,0xbd5c8d96,0xbd8e012f,0xbc7524bd,0xbcb9ae4b,0xbc967ccd,0xbc2183ca,0x3c329131,0x3cac85e1,
0xbd2913a9,0xbd9c157c,0xbd402c8c,0xbc6300b9,0x3ca549be,0xbce08417,0xbd56a966,0xbdac9b32,0xbc9b0704,0x3c8c8caa,
0x3b097de7,0x3c440137,0xbd409265,0xbd4e93f5,0x3c0356e5,0x3dc4ed69,0x3d6e3f5b,0x3d00d936,0x3c558017,0x3d8260b6,
0x3a62beb0,0xbd2323e6,0x3cf51e54,0x3ced8347,0x3d855716,0x3d8f607a,0x3de7e772,0x3e33fc9b,0x3d71810d,0x3c93f53a,
0x3e132112,0x3e97af2b,0x3e82e8e8,0x3e0e90ee,0x3bd4e1de,0x3d543ea5,0x3e3f7d10,0x3e59eb67,0x3d4e78a1,0xbd91a863,
0xbd35a5af,0xbcbe73f9,0x3b21eccc,0xbcb04450,0xbd4915fd,0xbda92098,0xbd1c29a3,0xbccab195,0xbd3100e1,0xbd6e9895,
0xbdfc9e81,0xbe2703da,0xbe3261e7,0xbdae8b80,0xbcbab0ec,0xbe5b4bda,0xbea4fb52,0xbebdee03,0xbe305ba9,0x3d33982e,
0xbe23ce9a,0xbea4475d,0xbe9680ce,0xbe1621d3,0x3d3459c6,0xbccc2e6a,0xbd5639e7,0xbc77e8af,0xbca68334,0x3d1a671f,
0x3cb51030,0xb96f0c9c,0x3d5c9d73,0x3c272156,0xbd032c58,0x3dcdb2ab,0x3dc6bec1,0x3d405e12,0xbbdf13aa,0xbbf78852,
0x3df1b355,0x3de9ae32,0x3c3ce3e0,0x3cdf8269,0x3cb94883,0x3d94cae8,0x3e141e2d,0x3e24a499,0x3dcf34d5,0xbcbacf87,
0x3c5c883e,0x3e0f02d3,0x3e1b0f57,0x3cdcdcde,0xbd1cda7f,0x3cb09529,0x3ceae356,0x3d7c0a38,0x3d6c9c9a,0x3ceb82b9,
0xbd2e433e,0xbd9a79dc,0xbd307d9e,0x3cbfbc94,0x3d011de7,0xbd290282,0xbe142507,0xbe387a41,0xbd83882d,0x3ce970e1,
0xbd25a383,0xbdc5896c,0xbe13b9f9,0xbdefee96,0xbd1d1583,0x3c0db69d,0xbca59d05,0xbd4c9bed,0xbd702374,0x3b7cecd5,
0x3c8a7a79,0x3bcb4533,0x3d0a1319,0xbac34ae0,0x3c32045b,0x3cd9eec3,0xbc0f1fc9,0x3c5f0fd3,0x3b8e783a,0x3c411f74,
0x3dd05d5e,0x3d84412d,0xbbeee085,0x3cade2e4,0x3d2e7c4c,0x3d7ea867,0x3dd51437,0x3db43de1,0x3d2836be,0x3ca8937b,
0x3d0cebbb,0x3d396c5d,0x3d90bd32,0x3d380273,0x3cf9727a,0xbd314c6d,0xbd35c074,0xbcc53bbd,0xbd80e439,0xbda0ca65,
0x3c09f572,0x39e53488,0xbc371587,0xbd15da5d,0xbd77bada,0x3d543f14,0x3da92208,0x3d604bde,0x3d4c4615,0x3c257d8e,
0xbd02c8b4,0x3daa02c2,0x3ddbdc5d,0x3d78fbb9,0xbb3410f4,0xbdd7f3bc,0xbd26abe9,0x3cfa5362,0x3ccfc370,0xbcdca11f,
0x3e1f15db,0x3e5b5721,0x3e67fd8d,0x3e980ba5,0x3e8d8d5f,0x3dd42aa5,0x3d3daf36,0xbe274ea6,0xbdf9cf94,0x3d36fc77,
0x3da3fdbb,0xbda084a7,0xbf0095fe,0xbece9d13,0xbe572ae2,0x3dd783c1,0xbcb4664e,0xbe6a9758,0xbe720afd,0xbde3ac70,
0x3da3f702,0x3d4d7021,0x3c35dd8b,0xbc0859dc,0x3e0f46d8,0xbe6c87da,0xbc75b80e,0xbc771431,0xbe07ba7a,0xbe1f2494,
0xbd773f38,0x3e9eccdf,0x3e92a19b,0x3df85bfa,0x3aa4cc82,0xbc42ea78,0x3e8918e4,0x3e26ab51,0x3e21cead,0x3ce97be5,
0x3b1d8298,0x3e39f896,0x3e2e869a,0x3dad0335,0x3d39b4db,0xbc938698,0x3d328eac,0x3dbae832,0xbcb727bb,0x3ca5772c,
0xbe38519e,0xbdc58f32,0xbe232f9c,0xbe48c7c0,0xbe59cb74,0xbdc8868d,0x3e186827,0x3e2ebf95,0x3e102cfe,0x3c78e369,
0xbdf7c999,0x3e12b419,0x3e407aa8,0x3e7a4573,0x3db404f2,0xbdd5b1da,0xbc058a03,0x3e0a4bca,0x3e01e0aa,0x3da5c1a7,
0xbdf66097,0xbe1ccb24,0xbdce126d,0xbdbdbe59,0xbd7e8fd4,0xbd101ba7,0xbdcd61a8,0xbe1ce472,0xbd0db0fc,0xbcdec3a6,
0xbe11b645,0xbd81da02,0x3d28c013,0x3c2d5889,0xbc674b91,0xbe39864f,0x3ea2503f,0x3ec92f8f,0x3d2669a9,0xbd0e72f7,
0xbd9bb3c2,0x3f1a84ba,0x3f0ee7ca,0xbd63928a,0xbd2553d6,0xbc1bec84,0x3ee8166d,0x3e2f5b7b,0xbdff9cf4,0xbc8e1e08,
0xbc6686d8,0xbc166123,0xbd1c7a5e,0x3b9d62d9,0x3bf94df4,0x3d256f41,0xbdd5d7be,0xbcc45126,0xbda26326,0xbd0c87f7,
0xbd748725,0xbde6cb60,0xbd8fb616,0xbdaab055,0x3d64a513,0xbe3020f9,0xbe4332e5,0xbdf3d694,0xbdaf0499,0x3d4769d5,
0xbe04ee4b,0xbe17d766,0xbe21bba9,0xbc127373,0x3df71c28,0x3d411acf,0x3deaf490,0x3e502a47,0x3c0f756f,0xbbc6b390,
0x3e740b94,0x3d1e356e,0x3d9340da,0x3cc98626,0x3d271249,0x3e50af93,0xbe74d77f,0xbe5bd798,0xbd7d7ec5,0x3da8632d,
0x3d58b45c,0xbedb46d1,0xbe8dbbb1,0x3c6aaa0f,0x3d85427c,0x3e0512fb,0xbe7e2d31,0xbd3bc212,0x3e259f92,0x3ca46836,
0xbbb5d4fe,0x3d11eb09,0xbe5777f4,0x3d9b5f8d,0x3dc40d36,0x3c912c51,0x3dcf2303,0xbe2e23f5,0x3c1cf204,0x3d8b4b69,
0xbaa39049,0x3d8d2a2e,0xbcda4877,0xbcc1cd22,0x3d3fe3f8,0xbc00de7e,0xbc2d56aa,0xbcfefcc4,0xbd3c0da8,0x3ac08c8f,
0x3c5fda07,0x3b765141,0x3a3c2181,0x399a597c,0x3be2019e,0x3d4f0641,0x3d7c0234,0xbe8c36ee,0x3c85cdaa,0x3d9e7bb1,
0x3d69fdf8,0x3e2f4795,0xbe23e057,0xbcda20ff,0x3d91db98,0xbaac5be4,0x3db4ef0b,0xbb655eac,0xbc910bc1,0x3d449869,
0xbca94120,0xbd2bf6c7,0x3c2b849f,0xbca91e28,0x3bf667b0,0x3ad94e98,0xbd04ba7b,0x3bcead09,0xbc282e51,0xbb98cd82,
0xbd1b4c79,0x3dd45422,0xbe0da593,0x3cb9f1f5,0xbce9a134,0xbd836735,0x3d97921b,0xbd481d3a,0x3cc8e157,0xbade666f,
0xbcb731bb,0xbc5c2424,0x3c766047,0x3ca3db58,0xbc4b1b77,0x3d10fc28,0xbcc57e47,0x3cbb3075,0xbc87a5b6,0xbd0fe715,
0x3cb4b16d,0xbb54f6e4,0x3d3930d9,0x3c82fd01,0xbb18147a,0x3d2b6bb5,0x3caddf0c,0x3d876996,0x3ccb3f34,0xbd814395,
0xbd953a6e,0xbe50ecf0,0x3d6065d3,0x3e68e560,0x3d00eb02,0xbe94ed2b,0xbecf1141,0x3dc669ae,0x3ea6d95e,0x3de616a9,
0xbe20b95b,0xbe21b2b1,0x3dd3aeb3,0x3e33561e,0x3db1b6c3,0xbc8c6b7d,0xbddf96f9,0x3cc6c686,0x3d427e6f,0x3daea9d4,
0x3d8c1b43,0x3d16f3a9,0x3bfacdcb,0x3d083558,0xbc2a5330,0xbe03a7d1,0xbe94dd27,0xbd281c69,0x3e7538a5,0x3d119052,
0xbeac81ad,0xbed427de,0x3dd9f3c3,0x3ea84a65,0x3da8e0c5,0xbde73f32,0xbe0e78e3,0x3e18b733,0x3e3d9875,0x3b0fa824,
0x3cd527da,0xbc41ebd5,0x3d765c6a,0x3d1bd8eb,0x3cef8244,0x3dd069b5,0x3ca69e04,0xbddcd22a,0xbdc9c822,0xbdc017b1,
0x3c699fed,0xbe14b81b,0x3b59b1ce,0x3ded44d7,0xbd46115d,0xbda3e470,0xbe38d3c9,0x3dc689a3,0x3e4bad0d,0xbcad4957,
0x3dbeef0f,0xbbfc5b83,0x3d792333,0xbb885e93,0xbd03df34,0x3e15c04e,0x3ca094f5,0xbd277ff8,0x3b02fe30,0x3cdb52bd,
0xbe09ba2f,0xbe2f1ed5,0xbe240129,0xbdde3190,0xbd889e8b,0x3ceee733,0x3e5ff499,0x3e10a620,0xbd41f30a,0xbd84d603,
0x3dcd8b0d,0x3ee0c5a7,0x3ecbde12,0x3d775261,0xbd91d1e7,0xbdc509c2,0xbd8d6b20,0x3c94a7f5,0x3d146ba6,0x3c263c54,
0xbd6419e8,0xbd844a5e,0xbd48215c,0x3bee262c,0x3c653592,0xbc34e711,0xbe6127d3,0xbe33cf50,0xbc0d80d4,0x3e01404d,
0xbc99af8e,0xbdeebb32,0xbe3280d0,0xbe208c23,0x3d65e8ff,0x3da4aadb,0x3e4034b4,0x3df344db,0xbd2119df,0x3bac2312,
0xbbf9aef2,0xbca3e63c,0xbced4746,0xbce9504c,0x3cbadf3d,0x3d191072,0x3cd55916,0xbc8ef21d,0xbd3c5786,0xbc96f811,
0x3ddc9bb8,0x3e0f2847,0x3e2f7499,0x3de1adf5,0x3b22b65e,0xb9e2d2ff,0xbccb37fe,0x3d161394,0x3b1dd96e,0x3cc8bdb8,
0xbd8a485c,0xbdca2f14,0xbd6c8c68,0xbcd159db,0x3d24619f,0xbd912322,0xbe277035,0xbe3664ff,0xbdf68eca,0x3c07dc82,
0x3cda4dc3,0x3daa0a87,0x3d9ed667,0x3c562e9b,0x3cf854ee,0x3d7b737e,0x3d339550,0x3c22ca41,0x3ceac530,0x3cd6f75b,
0x3d5c42bc,0xbc7b6825,0xbdd7fe9e,0xbc23b8cf,0x3d51c3c5,0x3d06de63,0xbdc801e4,0xbe92266d,0xbd4491ed,0x3d1f0e64,
0x3d377d77,0xbcdc8af0,0xbdb0f6eb,0xbcd8d8ee,0x3cfa169b,0x3cb4adb7,0x3b1009cc,0xbc5cb093,0x3bd3abb1,0x3ad6b485,
0xbc6c2379,0x3b9f4619,0x3a44e7df,0x3bd0c682,0xbcddeec9,0xbca3981a,0xbbd7ba6f,0xbc87738f,0xbae31ec7,0x3b12539a,
0xbc9dd854,0x3b489fc4,0xbe3c8efb,0xba8828c5,0x3a32048f,0xbc0dcb8a,0xba1f5874,0xbc795e22,0x39be2507,0xbbbad981,
0xbc58cbc4,0xbc17eec8,0x3c9db77a,0x3c919604,0xbc77715f,0x3ba02e65,0x3c678641,0xbcaebdb1,0x3bc88fee,0xbc6aa71d,
0xbbbabaf5,0xbd7dc7d6,0xbe411614,0xbcd1e7ec,0x3ba12105,0xbc73c402,0xbde160bb,0xbee7b9de,0xbd286fc3,0xbc151e8d,
0x3ba2f6f2,0xbc8092ca,0xbda4d81a,0xbc82bad1,0xb8d71a10,0x3c44d6d8,0x3cbdf461,0x3cfab188,0x3d3c5039,0x3c646b11,
0x3d954b03,0x3d1bd461,0x3d23508e,0xbb5ba840,0xbdae7b97,0xbbb04866,0xbe644042,0xbe4a2e78,0xbd1e47b6,0xbcd9ac47,
0xbceacaac,0xbe8ae1a9,0xbe1c08a5,0xbd101c30,0xbb6bfdc3,0x3ceddaa0,0xbceba117,0x3bff2ebc,0xbcc3e4f5,0xbc499b32,
0x3c2733f6,0xbb7740e5,0x3c6cf6d4,0xbd04b2e9,0xbd5fdabe,0x3c801b0a,0xbcf7b0fc,0xbc2005a9,0xbb2966a9,0xbb93ec43,
0x3c2f960e,0xbdd4abd6,0xbdaf0855,0x3c70f504,0x3c7d2f27,0x3cad3d59,0xbdb572fc,0xbd268d34,0x3b45b3c7,0xbb202676,
0x3d5287a4,0xbc9a7e4d,0x3be1c839,0xbc3a39a9,0x3bb79d48,0x3ce004db,0xbc8b3122,0xbc90fec7,0x3bc27504,0x3d1919ca,
0x3d37c710,0x3b1fd403,0x3c341b08,0x3d2c1eaa,0x3c94ec9b,0x3dbc3244,0x3d6878a3,0x3d738d90,0x3da19b9f,0x3c68f341,
0x3da63ce5,0x3d7594b1,0x3daf04f5,0x3c405f50,0xbd1188c6,0x3d2fbda0,0xbb8464c3,0x3b1a80d6,0xbcba47dd,0x3a91aec5,
0xbc7f650a,0xbd303506,0xbcd456c6,0x3cbc2c3d,0x3d2a4018,0x3d32a291,0x3c13f2ef,0x3bda038d,0xbc54a109,0xbc9d4620,
0x3e20544a,0x3e1366bd,0xbb90c910,0xbd73ed0b,0xbd526b13,0x3e272e1c,0x3e3f1afd,0xbd04c5ad,0xbe2abfa3,0xbd8c0fbf,
0x3d9cc796,0x3df06f40,0xbbfe5c66,0xbdbe4cf2,0xbc802975,0xbd46a012,0xbd0e7765,0xbd421b3f,0xbd6654bb,0xbda5a1d5,
0xbcb23469,0xbd81d9d8,0xbcb13b66,0x3c9c94ca,0x3ca34f76,0xbd099a53,0xbdd20d54,0xbd9d247e,0xbc25af9a,0x3d2802d1,
0xbd93dd18,0xbdda2760,0xbe1f71ca,0xbddf489e,0x3d16dfc9,0x3ca1e25f,0xbccfe12e,0xbc6281e8,0x3bbceeec,0x3de3c9fd,
0x3ddb0cac,0x3c83a519,0x3d6c8cb3,0x3d7443d6,0x3d22e3e5,0xbc9e945c,0xbcd5988d,0x3d9eb912,0x3d9c4170,0xbb9fa9a1,
0xbdb66886,0xbe00036b,0x3cb593b9,0x3dda7362,0x3dce5a22,0xbe2bc871,0xbe5084c6,0xbdae96c1,0x3c1aedef,0x3d6e67bb,
0xbd89a419,0xbdfe8d62,0x3d2f242f,0x3da50376,0x3db11862,0x3cfe8d4f,0xbd0c78c9,0x3dbed32e,0x3dba7eaa,0x3c926666,
0xbb41c60f,0x3c38f510,0xbcad6bf5,0xbc1233cf,0x3d2a1bd5,0x3ca8a5cf,0x3cc3232f,0xbc8e4c68,0xbd6fb7fe,0xbcd522b0,
0x3c2363cf,0x3c96a007,0x3d8bc3b2,0x3cb2a876,0xbcc1047b,0xbca933a0,0x3c8f270a,0x3d92d6fb,0x3d001607,0x3bbb6917,
0xbd12fa0b,0xbc867829,0xba98943f,0x3bf26701,0x3d1e7be6,0x3cebac97,0x3d0a5a77,0x3be40e7c,0x3c4ac645,0x3c89e2fc,
0x3d1e2545,0xba93b85f,0xbd2e9da9,0xbd2e66f4,0xbc3dd130,0x3c7903e3,0xbdaf151d,0xbd52473b,0xbcc5afa9,0xbcab594d,
0x3ca3d4dc,0xbd8f3e02,0xbd9b5b49,0xbd5b1dfc,0xbcbf9412,0x3cc370c6,0xbc8a35b7,0xbd568644,0xbd60a756,0xbc8c575f,
0xbbb5101b,0x3c9de468,0x3cade07b,0x3d4797c9,0x3ca18d23,0xbcd75dfd,0xbd1b7ef3,0xbc084752,0x3d0bdc0f,0x3c84d8c2,
0xbc5a241e,0xbdbcf373,0xbd299837,0x3ce4963d,0x3b6fd841,0x3d45b085,0xbbb96d31,0xbd2030b2,0xbcf86a9b,0xbc97d629,
0x3d2207e3,0x3d3bab20,0x3b886ccb,0xbd1e24c9,0xbcf1c6b8,0x3bdb6851,0x3d0cc641,0x3d71688d,0x3cdd223f,0xbcda066c,
0xbd5ddcbd,0xbc2c9818,0x3daf8acf,0x3d95fb8c,0x3c5359b0,0xbd7413f2,0xbdb9589e,0xbc506bfb,0x3cf96899,0xbb4f0105,
0xbc2994e2,0xbd87e872,0xbbe03676,0x3c8bbad5,0x3bd5a325,0x3c7a958d,0x3b06c322,0x3aee9679,0x3be56b2b,0xbb541ebf,
0xbb959f7b,0x3d4b426d,0x3d3bc662,0x3c2d20cb,0xbd4e7586,0xbd7352d5,0x3c187b57,0x3da1b6c4,0x3d875cc9,0x3bf780c3,
0xbd930bca,0xbdc26136,0xbc73d56d,0x3c47d6b8,0x3c00d455,0xbc38a8bd,0xbd87f862,0xbc660332,0x3c0f89f1,0x3c8342b8,
0x3c453ce3,0xbba1cc34,0x3c851619,0x3c6182f3,0xbb1aeb29,0x3c93c995,0x3d421eaa,0x3d0294a1,0x3b4fb325,0xbcaf8aed,
0xbc82f99f,0x3b689e7e,0x3d3ea6e9,0x3cd8fe83,0xba175df7,0xbccd5bb4,0xbd8808d7,0xbd040857,0xbcbed98d,0xbc4190c4,
0x3cf05d42,0xbce8ad74,0xbb34855f,0xbc62f980,0xbc1dd155,0x3ca8cb54,0x3c884179,0x3c2fb036,0x3b88b6aa,0xbb2ab411,
0xbe724fb4,0xbe6f3920,0xbe8f64a9,0xbd5a3304,0x3cf7a58c,0xbd495dfb,0xbdae34e5,0xbd4b8e83,0xbc9b9524,0xbc5c3947,
0x3bf26ced,0x3cecd690,0x3d0ffd26,0xbcdf4038,0xbc621a0e,0xbd5baee8,0xbc86dacb,0xbcc6258a,0xbcea5a56,0xbcaa56d7,
0xbd6232ca,0xbd0d7fc8,0xbd55ecad,0xbcd46bde,0xbceeed54,0xbc95b9aa,0xbd4f552b,0xbe020ac7,0xbb17c58a,0x3d55fd85,
0x3c9d32bc,0xbd47d016,0xbd48368e,0x3c1d3bd4,0x3cfc6856,0x3c8682f3,0xbc9ccf3a,0xbc8ca909,0xbc042d06,0x3ca0f8d9,
0xbce6e6ed,0xbc826363,0xbc81c790,0x3a80e953,0x3cc1497f,0x3c0c77a9,0xbbbb7f83,0xbba74a88,0x3c3b0cb4,0x3d3629ff,
0x3c440dc6,0x3bf29211,0xbd44c6ba,0xbbfcf0f2,0x3d293112,0x3cf92a4b,0x3bb25647,0xbcc2f65e,0xbc30898e,0x3c2081d9,
0x3d3a62b0,0x3cafd7e7,0xbc48faa6,0xbc3ec543,0x3c468f0e,0xbc07eb11,0xbbdc7709,0xbc5007b4,0xbc799bfc,0x3c70edca,
0x3cf45a1a,0x3d1891e4,0x3bbeb103,0x3c93cba8,0x3d70e88a,0xbc99056e,0xbb5de833,0xbc9e1e8d,0xbc0a5148,0xbc494c9d,
0xbced9ed7,0xbc9e6e59,0xbd90ac82,0xbcdbc00c,0x3c34fa32,0xbd7f99ab,0xbe0c1f4b,0xbea98cd2,0xbd9888d7,0x3c3b2184,
0xbd98638a,0xbde70df7,0xbe7b019f,0xbd4d5673,0x3cff4098,0xbd88635d,0xbd39c87f,0xbdae6562,0xbbc7c78b,0x3d28c486,
0xbb037d9c,0x3c2751ec,0x3c22053f,0x3ced2493,0x3c7708bd,0x3ac675d1,0xbc4ea42e,0xbc4d4590,0xbada3583,0x3cdc60b3,
0x3aa71269,0xbdaca972,0xbe1dac21,0xbd162291,0x3c74f190,0x3d1276c6,0xbcfd2944,0xbdf533c6,0xbcf18e9a,0x3c35058b,
0x3d148505,0x3d66c645,0xbbb776d9,0x3c77a710,0x3d1184b2,0xba730e85,0x3c855e62,0xbb892be6,0x3b6c4eca,0xbc5ec47e,
0x3d0c8a6b,0x3d844fe8,0x3cd10cf5,0xbbaa4f5e,0x3c24a361,0x3ca70255,0xbb39361f,0xbd57de8d,0xbcfd1fe4,0xb8fb7a02,
0x3c4f85e7,0x3a34a18f,0xbd5b0d89,0xbc4aa4f7,0x3c75c7f3,0x3c0bae6a,0x3cfe9fe3,0x3ba8af5c,0x3c36fed3,0x3d0a5201,
};

