const static size_t backbone2_3_0_weight_size = 3456;
static unsigned backbone2_3_0_weight[]={
0x3d6ed04b,0x3ca5b4cf,0x3cf6ac9c,0x3d19d8a8,0xbf5a9dfc,0xbe4b578f,0x3e31a168,0x3ee8d515,0xbca82706,0xbe1becb6,
0xbe905e95,0xbe966fd6,0x3e648ac7,0x3e736516,0x3e448f40,0xbe97b145,0xbe046a94,0xbd9a7379,0x3e017252,0x3c1d5c4c,
0x3eb9fa54,0xbebb3359,0x3f74a4e3,0xbeca1a0c,0xbe99445b,0xbf5d8849,0xbdfd514b,0x3f42b125,0x3e08d5de,0xbe6d950e,
0x3e5ca0c5,0x3e5e1131,0xbebb6f2c,0xbe9a3d0c,0x3f02c21b,0x3e65ba0a,0xbe6809ae,0xbea1b51e,0xbf20d580,0xbca1160a,
0xbfad5154,0xbe4b03c4,0xbe400279,0x3d8b0a9c,0x3e9a9e94,0x3ecde83e,0x3ed97c31,0xbdeb574d,0x3e784cb9,0xbea9bdbb,
0xbc11de12,0x3e593762,0x3eb9a037,0x3e1fcb85,0xbe2523c6,0xbecbff6f,0xbe981d38,0xbf2b7624,0x3ea1f6cd,0xbe277cc2,
0xbea165d5,0xbe5aeedd,0xbe8d704a,0xbd917de8,0xbeba6a92,0xbeabbc7f,0x3e92f1c5,0x3eed22d1,0xbd8d35a4,0x3dabcd0b,
0xbec74ea8,0xbea4e70c,0x3ea22c48,0x3e54f013,0x3d9144b7,0x3efbd71d,0xbeb20400,0x3de41c7f,0x3e140866,0x3e2593a9,
0x3d37ff96,0x3ede664d,0xbe1a2725,0xbe182125,0xbdc5ff73,0xbdf4e853,0xbdc360f8,0x3f2e1a68,0x3ecadbad,0xbe539ff5,
0x3f59f484,0x3eadc2af,0x3e76f42d,0xbe9c1c94,0x3f0d9286,0x3eb19259,0xbe3d9e58,0x3e67ae6f,0x3e2e82e2,0x3dfaff30,
0x3baf0ed2,0x3e8185ed,0x3f0ebfba,0xbf54d96b,0xbdd891a4,0x3f4edb11,0x3eba548a,0x3d45c0e1,0xbdcdbc44,0x3c3c8105,
0xbed7b5be,0xbf2fa490,0x3e6bf61c,0xbe8c4c06,0xbee4ab28,0x3d8b26d1,0x3d4d5733,0x3ece2c5d,0xbd59a156,0xbf5ec6c0,
0xbe75b4e3,0x3f5518ac,0xbe12440d,0xbeda0382,0xbf09e27e,0x3d82ecf9,0xbef411f8,0x3b3ea877,0x3e376945,0xbf01a209,
0x3f3d5e7a,0x3e990261,0x3e858e59,0x3ede0f65,0x3e932287,0xbe7631f7,0xbeb50c3d,0xbc54e29b,0x3e91d5e6,0xbd31630f,
0xbe9a9652,0x3e9920b5,0x3e8b72fd,0xbdbb3c08,0xbdd9ce12,0x3dc376f8,0x3e3b2cd0,0xbeac895b,0xbf08ea21,0x3eb60abc,
0x3db928e9,0x3eef0ffa,0x3ecd9f7c,0x3f20900b,0x3eb0582e,0x3eab4f51,0x3e2b9ddd,0xbecf22db,0x3e5ef507,0xbe68ab35,
0xbe149c41,0x3e2d6731,0xbe068844,0xbe6a137c,0xbda19d22,0xbeab7fb3,0x3fb4fb5a,0x3d355995,0xbb00b49d,0x3d942996,
0x3da96819,0x3e0bd84b,0x3e8a95b5,0x3dded219,0x3e69cbc7,0xbdf55a70,0xbc14b759,0xbf127c2a,0xbee68f21,0xbd8fec2f,
0x3e103250,0xbe4b7cfb,0x3f275068,0xbdd53f3f,0xbe1c635d,0x3eec5c6e,0x3c34f65e,0x3ea2d20d,0x3e55a89c,0xbf36d23e,
0xbe4ef787,0x3ea6e2e0,0x3d60f39c,0x3e867b59,0x3e8618b0,0x3e964c88,0x3ec02671,0x3e467ce8,0x3e00f9d1,0x3f662026,
0x3f242203,0x3e81e343,0x3dbf695e,0x3de8592f,0xbd68006c,0x3e6e79fe,0x3e6d384f,0xbe602292,0xbba7afb4,0x3d98a96a,
0xbdc2b2cc,0xbdeb3e52,0x3cdb4fde,0x3d441cf3,0xbec5de73,0x3eeb78e4,0x3c7c780a,0xbe20b5cc,0x3dd2614d,0x3ea8bd66,
0xbf31c1e1,0xbdb6d98c,0x3dcb1146,0xbd1bf6dc,0xbc9a9a95,0x3f66e897,0x3f2d5d2f,0xbc863fe6,0x3ec48147,0xbe7f077e,
0xbe538f84,0xbdde20bc,0xbd773702,0x3d1d7b01,0x3e695a20,0x3e4a2c45,0xbcd0ac7b,0x3e1c98d2,0xbf035906,0xbf1fc1e5,
0xbe2af8e1,0xbf42fab9,0xbec05a66,0x3db4bc39,0xbe00f899,0xbe94bae1,0x3ed6671b,0xbf50d3a0,0x3e2baa7a,0x3ec51ab9,
0x3f168640,0x3efa9cf6,0x3f50e6f2,0xbdf55b3f,0xbe32d061,0x3dffcb8c,0xbf7070e4,0x3ee3ac43,0x3ebcb61f,0x3f14ac0c,
0x3ea04fc6,0x3f346852,0x3f38d63b,0x3ee48759,0x3e3cccac,0xbee71a99,0xbe560121,0xbe9cbba5,0xbea4f524,0xbea838f4,
0x3e055425,0x3e016dde,0xbb9eb850,0x3e870f39,0xbf88753a,0xbd74791a,0x3e806406,0x3e4a582a,0x3e449629,0x3dc19b17,
0x3dbb03d8,0x3cca513b,0x3f060988,0x3f566b30,0x3da3de68,0x3ed8cb12,0x3edc6396,0x3dae221a,0xbddedf75,0xbdadf047,
0x3db76b77,0xbe432bc7,0xbf10ab72,0xbe8b254b,0xbdfb66a5,0xbebda994,0xbe55602a,0x3cef6d2a,0xbef7794f,0xbef08880,
0xbd5ab893,0xbf4bffb3,0xbdda5474,0xbd0b8cf2,0xbe8d9c8a,0xbe8cef63,0xbf18a4b5,0xbea2c317,0xbf01d299,0xbe8e9c9b,
0x3f4ccf94,0x3e8f7de1,0x3dde5d98,0x3e57e816,0xbe3cb7f1,0xbf0b162f,0xbe61a2c4,0x3e625730,0xbe86cb0f,0x3de5b5ab,
0x3e1d8a33,0xbced8f72,0x3ee6283e,0xbd83da29,0xbec6c2ac,0xbe21340e,0x3ebe03b5,0x3dd4debb,0xbf577e04,0x3f02d883,
0x3e1b8607,0x3de88770,0xbd8b4121,0xbf39e07b,0xbf0d6bef,0xbecd6cb9,0xbeddac43,0x3f36d567,0xbd4affb7,0xbddb1ed6,
0xbd474d86,0xbe1ea9b1,0x3eaa8544,0x3e409e5a,0x3ecd46af,0xbe3e7634,0xbfa20ce0,0x3f08759f,0x3ee93fde,0xbda83d22,
0x3eb4dd51,0x3e6acaf0,0x3f106dd1,0x3e993cb3,0xbeeb3331,0x3d3ffb9b,0x3e64efb1,0xbe772a55,0xbea3a23b,0xbe1da3e8,
0xbdf12744,0x3e898d75,0xbee87848,0xbe57defd,0x3ea82846,0xbe7d7d7c,0xbde51a17,0xbf0fc72d,0xbe9dad30,0x3ec2efd7,
0x3f896b04,0x3e0cb3a2,0x3f2b3964,0x3efe6164,0xbe84d7b5,0x3d897b4c,0x3d1594d0,0x3d893cd7,0x3ee14b7f,0x3f79cb40,
0x3f0fb27f,0x3e8f7c9f,0xbe62654a,0xbd3bd496,0xbe26deed,0x3da5ee5d,0x3d4c2466,0xbe3fdae7,0xbe94fc8f,0xbea2b932,
0xbd1267c8,0x3f918c3c,0xbe574594,0xbd05396f,0xbdf58a78,0xbdcfa7e1,0x3e4f024c,0xbf5071a0,0xbebd21a4,0xbef46986,
0x3f16cbf3,0x3e3f05a7,0x3c25ee56,0x3ecd6d62,0x3ed2a9d5,0xbe47da0d,0xbea96320,0x3e8f2539,0x3e5aa174,0xbf2ed457,
0x3e4b9923,0x3daa4f56,0x3ebbff60,0x3f1f7a3c,0xbf1cc586,0xbf5a0e4d,0xbf25c190,0xbf3229c5,0x3e23a2eb,0xbf9a9fa0,
0xbe296082,0xbf25219d,0xbe7debca,0x3da51609,0x3e3d7eed,0xbdab391a,0x3e7928e1,0xbc449a6b,0x3dff2ca1,0x3f319d0a,
0x3f4e9271,0x3ddf546b,0x3ed318ce,0x3f3a5488,0x3eec32c1,0x3f14cab9,0x3e26c90c,0x3e93ee13,0xbe04677c,0xbeeedf5d,
0xbe0720f0,0xbc000d8e,0x3ea26324,0x3f508ef9,0xbf08f264,0xbea486ac,0x3ed963d7,0xbeca3437,0xbd9f15f3,0xbecfad3e,
0x3de65da4,0x3ee89cf4,0x3e496485,0x3eff7204,0x3fa3d006,0xbdda729b,0x3cf4a2bc,0x3bce2d6d,0x3c786d61,0x3d997209,
0xbe9658b3,0xbf538d5a,0x3d91c0ed,0x3effe05c,0xbf9b292d,0xbe5443a3,0x3da832d3,0xbf1e91e4,0xbd1b5828,0xbf1fb145,
0xbe95b944,0xbf37aeeb,0x3e155276,0x3eaa005e,0xbf33f77c,0xbef1de94,0x3d49322d,0x3e910177,0x3eaabd6b,0xbddbeefb,
0xbd93e614,0xbf39e2df,0x3e8505d7,0x3f03ee35,0x3eafd58b,0x3ee471c7,0xbf208e02,0xbf09d483,0xbedcb9f6,0xbf7e595b,
0x3edba992,0x3dfa1a4e,0xbe010c3a,0x3d5de073,0x3f2de2e5,0xbf4b745a,0x3eb0ec41,0x3ec3031e,0xbf286146,0xbf5a66cf,
0xbed606be,0xbe9f4fa4,0xbec0f177,0xbe965a8c,0xbeeb2be6,0xbf13416f,0xbecb157e,0x3e43992c,0x3e31a984,0xbf319f64,
0x3ebe9bae,0x3ea180ff,0xbe1771d2,0xbd6d2a35,0xbdfc851b,0xbdc676c6,0xbeef462c,0xbf6b272a,0xbd9fe936,0x3d4d2831,
0x3ea92595,0x3caf3c3c,0x3e616d46,0x3f409c70,0x3f92d80b,0xbf152377,0xbe99ad76,0x3f398e31,0x3ed5ea20,0xbdac84c9,
0x3df62940,0xbf514059,0xbf9c25f7,0xbed0a19d,0xbf016f4f,0xbf2477c2,0xbf1c7f8b,0x3e37218a,0x3ccd72e8,0xbe6fac1b,
0x3d035244,0xbf34ab7a,0xbe9abce3,0xbe33ff76,0xbf9835c6,0xbf14ec6e,0xbd741736,0xbf2c79fb,0xbef8d02d,0xbf0a86f0,
0xbf001b7d,0xbe73f7ca,0xbd07dece,0xbe968661,0x3d35b7c2,0x3e89ef0c,0x3ccfe1a1,0x3e268f42,0x3f634313,0x3d77f503,
0xbd03dea6,0x3f23887f,0x3f8b4fa7,0xbe732cb6,0x3e3f0e60,0x3f7d5cb6,0x3dd06532,0xbcdb8539,0xbe0ed13a,0x3ec0fe8a,
0xbe6cd787,0xbea989b6,0x3f51f0c1,0xbebbf3bb,0xbe27ebd2,0x3ef9ab15,0xbf1ab6ed,0xbeaa51ff,0x3e857df3,0xbf6cef2c,
0xbee967a6,0xbe852e26,0xbd1bcca4,0xbfa70281,0xbf5a3824,0x3e1e4a42,0x3e87858b,0x3e168977,0xbdb229bf,0xbf767410,
0xbeb4f003,0xbeeb97f4,0xbf165a32,0xbe9e5c50,0xbe76cf22,0x3e18f377,0x3fb036af,0x3cb6ea19,0xbee28fd3,0x3f8a96c0,
0x3db9925d,0xbe6d35b6,0x3effad1f,0x3f2f498c,0x3f1b3a2e,0x3f0770c2,0x3e5623d2,0x3f7740de,0x3e9091e2,0xbf7f4b03,
0xbfa0e028,0x3e22dc54,0xbfda6de6,0xbfa6a42b,0xbefcf917,0xbf582d7c,0xbf0b6ab1,0xbdedb091,0xbed3d211,0x3e69c28b,
0x3dafdeb4,0x3e9db8c3,0x3e62395d,0xbd50e81d,0x3fb6e931,0x3e092ddf,0x3cca78e4,0x3f64f35a,0x3e9bd06f,0x3e472d80,
0x3ee5a36a,0x3f80c3e6,0xbd71e73f,0xbf5724ae,0xbed67ed9,0x3de0dbef,0xbe5eecd2,0xbf7dfe32,0xbc9211ca,0x3ea85288,
0xbf08fada,0xbf1a426f,0xbe98f6cb,0x3e6191bb,0x3f563974,0xbf106c7c,0x3e8d908b,0x3f80a71c,0xbf10f661,0x3ebbd02a,
0x3ed597e1,0xbf1eff40,0xbfa35852,0xbf106edb,0xbf33b990,0xbeee7d55,0xbe4e68b3,0xbda94e32,0x3f15aab8,0x3dc08ca8,
0xbf648783,0xbf08414e,0x3e1760a7,0xbf3a2ec3,0xbf292847,0xbea9b6eb,0x3e904b75,0x3ebb13e8,0x3e55cd74,0x3ec8e920,
0xbf9a097f,0x3ea80a2d,0x3eb4f280,0x3e1949f1,0x3e44e09f,0xbdd930fa,0xbe9cbd7c,0xbe7b28fc,0xbea1e545,0xbf943418,
0xbe6fae18,0x3e2f2d53,0x3dcf2e86,0x3ef408f2,0xbf5acbae,0xbe54111d,0x3dcfbde3,0xbef1ca92,0xbf70a5dd,0xbf400a83,
0xbdacede5,0xbf1ee743,0xbf1f6897,0xbe753b38,0xbd4aad74,0xbd970e66,0xbfbc995f,0xbf1393bb,0xbf5a10bc,0xbf45b791,
0xbf654407,0xbf1f8999,0xbe042efd,0xbf5f6e74,0xbf081a79,0xbe3e36e1,0x3f7fe776,0xbf1f38ae,0xbe317a0a,0xbecce892,
0xbf337085,0xbf83c0f2,0xbea40a92,0x3f1605b8,0xbf0c2c13,0xbdeb9d2f,0x3f96a020,0xbdfaa9f9,0x3f2c6671,0x3f7a76c6,
0x3dfe9a9d,0x3f4d407b,0x3e97a752,0x3ea4b9e9,0x3f27f533,0x3f437e9b,0x3e00343f,0x3f0db3de,0x3eb9d75e,0x3f96435c,
0x3fa92ed9,0x3f16813a,0x3db8177f,0x3f208ee3,0x3f93754b,0x3c05daaa,0xbdb2b361,0xbe3ae27d,0xbe1dc38e,0xbef284d2,
0xbf4fa702,0xbed6eee1,0xbff6f358,0xbe82ee99,0xbf2ebc18,0xbef841f1,0x3c2c57cf,0xbd8a37f0,0x3f08cd67,0xbd55ac90,
0x3f5ee52d,0xbdad1063,0xbf4e1487,0x3f89a947,0xbe5985cf,0xbe1c25ba,0x3f17eab2,0x3fa05df1,0x3f904c39,0x3f121bd5,
0x3eab818d,0x3ee49245,0xbd47ed12,0xbddc5fa3,0x3daa35cd,0x3e44004e,0x3eacf694,0x3bb38dd1,0x3f394fc8,0x3eee2454,
0x3f72991f,0x3f017633,0x3f88db32,0x3f12c7ac,0x3faa4cfc,0x3fc47070,0x3f36dd8f,0x3fb46247,0x3efa5d85,0xbd8ce9da,
0x3f17c8fa,0xbd57e7ac,0xbdbfbc02,0x3f940b1b,0x3f0595d6,0xbeb0d896,0x3f95088d,0x3f7ab772,0xbf31cf11,0x3d74d598,
0xbee1273a,0xbeea57f1,0xbded7d2c,0xbd0ffab4,0x3df11a0d,0x3f738072,0x3ed43295,0x3ef36d46,0x3f7ae370,0xbdd70ee5,
0xbe97c764,0xbd745dd8,0xbe4fdec8,0x3f85416b,0xbeec9b00,0xbe3624f7,0x3f703703,0x3dea5f14,0xbe0c9de8,0x3f21c17b,
0x3f59e57c,0x3e9c784d,0x3e847bd8,0x3fa144f1,0xbf40a732,0xbecbeb10,0x3f5ebbd9,0x3f3c9226,0x3d5c21df,0xbeac4586,
0xbf2eb729,0x3eaf3e16,0xbf7cb84f,0x3f0e7543,0x3f8d08f6,0x3e7ebba4,0x3f9671ef,0x3f652162,0x3ea01eb7,0xbd978548,
0xbea29e7d,0x3f380270,0x3f9b5f16,0xbe4f2d94,0x3dfe1bc2,0x3eec4c50,0x3e0985bc,0xbda7077c,0xbe9ecf07,0xbf644228,
0x3c7b9abb,0x3d654366,0xbf91cdde,0xbf079845,0xbf8bc01e,0xbf53536e,0x3f899302,0x3f664a65,0x3d6c3a12,0x3ec7f4cb,
0xbe5d5862,0xbf1292d5,0xbeceefd9,0xbed5dd93,0xbd2b9d17,0x3cd6fe14,0xbe0700fe,0x3e3917f1,0xbd4de72b,0x3f1bf028,
0x3fb27511,0x3e9718e4,0x3f64582e,0x3fde496e,};

