const static size_t backbone1_7_0_weight_size = 1512;
static unsigned backbone1_7_0_weight[]={
0x3e8d1f2b,0x3f294068,0x3f0a134e,0x3eae5a14,0x3f5a3226,0x3ef4ad67,0x3e5cda4b,0x3e8dd971,0x3e196d01,0x3f47f51e,
0x3f1e7eb7,0xbdc4546b,0x3f39681a,0x3f01a4ae,0xbe3e9c31,0x3d0b4454,0xbdcaf263,0xbe869c3b,0x3e993f23,0x3ef228fd,
0x3e8987d7,0x3f1d5aef,0x3f3095ef,0x3e803afc,0x3ea1c7ab,0x3ea0531b,0x3e1a7d78,0xbf217f79,0xbf2344a5,0xbd84b775,
0xbf1b157f,0xbedd4d61,0x3d1a213b,0xbed44cd0,0xbe176bcd,0x3e142620,0x3e3e75df,0x3f052cb2,0x3eaa7870,0x3ed3da6b,
0x3f54d6bd,0x3f141053,0x3e41f9c0,0x3ee31e02,0x3ecd0a7e,0x3cbf2533,0x3f113fb6,0x3ebee65d,0x3c7746a4,0x3f5994a7,
0x3f386d09,0x3d35a865,0x3edce2a4,0x3ed99cc9,0xbef58da1,0xbe9573c5,0x3ee14ce7,0xbe9efe56,0x3eb40a4d,0x3f350c38,
0x3cf3a810,0x3f05791b,0x3e72fb5d,0x3ea05d8c,0x3e7c8ec6,0xbd6d8cf8,0xbd0b94dc,0xbec2c20f,0xbeda6f41,0xbe690a46,
0xbf22ae08,0xbf039305,0xbf38d973,0xbeee1dce,0x3dc12741,0xbf1b326b,0x3d2f5334,0x3f202d1d,0x3e1c233d,0x3f27c43b,
0x3ef7d05c,0xbee41c36,0xbe3b8bfa,0x3e6c4faf,0xbe420d5f,0x3eb302e3,0x3f07822d,0x3eb6a755,0x3f2b7a70,0x3efc1c10,
0x3c240310,0x3e26dc21,0x3e5991cb,0x3f0a3e4a,0x3f8bf807,0x3f98c46b,0x3f6d3daf,0x3fbaec04,0x3f8985d6,0x3eb145d3,
0x3d8e9bcb,0xbf280a3f,0x3e645cbb,0xbd9a76de,0xbea92d9c,0x3b4f8bfd,0xbedf053e,0xbee09270,0x3d5701b5,0xbf4005ce,
0xbf26de93,0x3f1481f6,0xbd4be463,0xbeb7a708,0x3ee65b03,0x3f01a6c7,0x3e07c833,0xbd92dfea,0xbea26d84,0xbf0944f7,
0x3ec7d115,0x3ebe1bdf,0x3d8a67ee,0x3f0c9e9c,0x3f087a96,0x3e428f0e,0x3f6a26eb,0x3f547185,0x3e30bdd8,0x3f0ee54a,
0x3d013c8e,0xbdec5c51,0xbe56e10e,0xbe9ee6e4,0xbdba7c9e,0x3d8d46e5,0x3f05f418,0x3ef964cf,0x3e6c1354,0x3f3fb5b0,
0x3f202c57,0x3e32c8da,0x3edcbf12,0x3e8968c5,0xbeb846d8,0xbeffb078,0xbe5c7cfb,0xbf380985,0xbeca6676,0xbd958c8e,
0xbee77574,0xbd971c06,0x3e076e70,0x3df14782,0x3c77c5bd,0xbe680b56,0xbef2f435,0xbf6190cb,0xbf1ba9f2,0xbf388cef,
0xbf715393,0xbf04f9ed,0x3eb00a47,0xbe4840f6,0xbee3b3fe,0x3f299af3,0x3d6a78bf,0xbec64a14,0x3ef5d7a0,0x3e313fe0,
0xbe0ca1ab,0xbc4ff43d,0x3e497d67,0x3e087891,0x3e0a4289,0x3ed373cf,0x3eee0a72,0x3dbe1252,0x3ec82307,0x3edce194,
0x3cecc7fc,0x3ee75b9f,0x3f01a1d9,0xbeeebdd2,0x3e8d9779,0x3ee7df82,0xbeedd16a,0xbde1caec,0x3c047d05,0xbf199f1c,
0xbf7f5c15,0xbf04e265,0xbf319710,0xbf7cc5ad,0xbecaa34f,0xbe29b9ba,0xbe2ad428,0xbc88001c,0xbec21a80,0xbeb7ff95,
0xbe8795e9,0xbf149701,0xbf767f6c,0xbf32aa8c,0xbecc0154,0xbf50060c,0xbf1182a3,0xbe733c97,0xbf0266c4,0xbe70cd38,
0xbf55efa1,0xbf564b74,0xbeef1409,0xbf270eae,0xbf407ddb,0xbec5f1ad,0x3eb66a3b,0xbbe69c49,0xbe03d36e,0x3f786e9f,
0x3f277333,0xbda051e4,0x3f5228f8,0x3f2e16ad,0xbd57616c,0xbe954791,0xbf2d01c3,0xbf38bef9,0xbdf316ba,0x3ce5523c,
0x3dab471e,0x3ec0c0ea,0x3f0b5ecd,0x3e4ca957,0x3e01a8a5,0x3ea8b59b,0x3e92bf12,0x3ec8240d,0x3f1fc067,0x3ee0529f,
0x3eaeed77,0x3ebea51a,0x3e41546a,0x3ed97176,0x3ea89c9c,0xbd56a0c4,0x3eb8e315,0x3f2de917,0x3e75dfd9,0xbdc306ce,
0x3eb0d0c4,0x3eb28970,0x3d03e12a,0xbee783ad,0xbf1a73df,0xbe89fdf7,0xbf634b94,0xbf326c0d,0xbec1ddb9,0xbef4bdf1,
0xbebb4e11,0xbeb93cc8,0xbf267071,0xbe86395b,0xbf23c8a6,0xbf8e992e,0xbeeb08f0,0xbeb9ae0f,0xbf1f927e,0xbe5c9d7c,
0x3d2137cb,0x3d71c689,0x3e08c9cd,0x3f0017cc,0x3f401fa8,0x3ed95dad,0x3f3195bf,0x3f412d69,0x3e8868da,0x3f0a33f0,
0x3e8cc92f,0xbccd3421,0x3ef1c253,0x3f10b659,0x3e3dd0f8,0x3d7eb348,0x3dfd3d6b,0x3db59c33,0xbea3fec8,0xbf17d673,
0xbf0419ed,0xbdbf5d21,0xbf7db955,0xbf7a0d4f,0xbe8b6e11,0xbf5e84b1,0xbf48f402,0xbf4db54c,0xbf283482,0x3d33d01b,
0xbf9ce5a4,0xbf51dadc,0xbde2e7fd,0xbf5ddc3d,0xbf34a2da,0xbe6c3bd9,0xbeb62581,0x3f157db9,0x3f3a11cf,0xbf17306b,
0xbe8b627d,0x3e796c2e,0xbdeaefa5,0xbf3bbb16,0xbf30b554,0xbf701652,0xbf369938,0xbdba90bf,0xbf8ae5a3,0xbf962fe8,
0xbee1a924,0xbecc2a74,0xbf237f5c,0xbec80bf5,0xbfa58d2f,0xbfb97fa7,0xbf584ef7,0xbfe2cd90,0xbfdc5f89,0xbf0db028,
0xbf2e3e9f,0xbf8e3588,0xbebf76fd,0xbf8d4912,0xbfa642fd,0xbf079296,0xbf7f8785,0xbfd09ea6,0xbf7f400a,0xbf269e40,
0xbf94baf0,0xbf468120,0xbea8ff51,0xbe9ce336,0xbd82cdfe,0x3e5cb52a,0x3f8c3a56,0x3f7194dc,0x3ec649a0,0x3fab5985,
0x3f88bf35,0x3f1c8185,0x3f52f0a0,0x3ee78633,0x3f226633,0x3f30cd75,0x3ea02ec0,0x3f0e76b5,0x3ef6113d,0x3d5a5b16,
0xbe05e159,0xbf741465,0xbfae7f79,0xbf8499ee,0xbfc32286,0xbf9b55a7,0xbf754542,0xbf64626c,0xbe2e642b,0xbf32abb3,
0xbf1c5672,0xbeb2f627,0xbf8f7d1f,0xbf426010,0xbd43f4df,0xbf0b98e7,0xbeb86958,0x3d138a09,};

