const static size_t backbone1_8_1_weight_size = 10752;
static unsigned backbone1_8_1_weight[]={
0xbd47fda6,0xbbd16115,0x3de26200,0x3da6fe98,0xbe011b0c,0xbaf59ec8,0xbdc9c3e6,0xbc959d19,0xbdf96440,0xbda4f7c4,
0x3d6325b2,0xbdc45c26,0xbcb02800,0xbcd890ff,0xbd8a225f,0x3d4e0a93,0xbe003ea9,0xbe6a9217,0x3da98bb8,0x3e48a6cb,
0xbcb652d1,0xbd53fd41,0xbda9209f,0x3dac6bbb,0xbe30f732,0x3d93a456,0xbd61cabd,0x3cbe8e04,0x3d216fa2,0xb98be773,
0xbdc99892,0x3e41b16a,0xbe69b35c,0x3d204b5c,0xbe3968bc,0x3da47855,0x3d4a1354,0x3d27acd7,0xbcbddd69,0xbdd25033,
0x3e552806,0x3dd68937,0x3df9bd7f,0xbe258264,0xbe25b53c,0xbcf00749,0x3da79bc3,0x3cfd4073,0xbb42fc2a,0x3ed9b311,
0x3bedbaff,0xbd25fd3f,0x3c872c59,0xbd7b54aa,0x3dd25398,0xbbe48a28,0xbd3b81bf,0xbd84f50c,0x3d8a8714,0xbd141ddd,
0x3d8a5d2b,0x3d2f356f,0xbda239ee,0x3c7e7d99,0xbd800b26,0x3d130a3c,0x3d03c337,0xba5f573b,0xbd8159dd,0xbc085cfc,
0xbcbdbf3c,0xbc641d21,0x3c4e0fc1,0x3d9a1770,0x3db65be2,0xbe0847bf,0x3e07fa12,0x3d273823,0xbd787a67,0xbd2d694d,
0x3d55d70a,0x3d92a9ba,0xbbf5c172,0x3bf85802,0xbdd40694,0xbd940e25,0xbd827b0e,0xbdfd8460,0x3da275eb,0x3debb358,
0x3e1a2265,0xbe35fb5d,0xbd38b4fc,0xbd32919c,0x3e4dcad7,0x3da98b28,0x3d80fa9b,0x3e82030a,0x3ea93af7,0x3df84b33,
0xbce46821,0xbd174ed8,0x3de4ad74,0xbdcd1dde,0x3e148b7a,0xbd77aa4a,0xbe19131c,0x3d214c2c,0x3e9eeec7,0xbd5044b6,
0x3d1d6328,0x3d027985,0x3db33553,0xbdbe3d83,0xbe49b6c4,0x3d5967c7,0x3d284ea6,0xbdbb1106,0xbe5e0e66,0x3e565966,
0xbcbb74c8,0xbe41f2d3,0x3d7a270b,0x3cc95b71,0xbd925b08,0xbe4b2c3a,0xbc4c6e84,0xbe539a81,0x3e81a845,0x3e229565,
0xbd5303ab,0x3e413fba,0xbcd07de3,0xbc1477ba,0x3e413cf3,0x3e8f3a81,0x3da5701c,0x3e329dae,0xbea590f0,0x3c28758f,
0xbe076202,0x3d50f022,0x3dfc745e,0xbdabb345,0x3e0c80b1,0xbdc93504,0x3d3b06c5,0x3e8f7f6e,0xbdd974f9,0x3d4dc3ae,
0xbd6da613,0x3e7165e2,0x3c6a8fd1,0x3ca9e5a7,0xbde48100,0x3e2682fb,0x3c60f236,0x3d526533,0xbd337b77,0xbd8d6ab4,
0xbd87d808,0xbd00f490,0x3c6e1479,0x3d4aa446,0xbdcc53c5,0x3db5a010,0x3d6552a6,0xbd96da59,0xbdc03ab4,0x3e275573,
0xbde880ec,0x3dd73084,0x3d858baf,0x3b2fb591,0x3a8caa98,0x3db59647,0x3d4c3f06,0xbdb873c5,0xbdae1562,0x3da3756e,
0x3d82758c,0xbcee94d4,0x3e0ce448,0x3e070e70,0x3c5bc442,0x3ca47b89,0xbe07c710,0x3d68d23b,0xbd240b73,0x3dcea2c9,
0xbd173025,0x3d9f580d,0xbe23c2b0,0x3e086239,0x3c303b8d,0x3e95d66b,0x3d795dad,0xbb5b45e0,0x3e38109f,0x3ed0bcba,
0xbe0464d1,0x3e7f9757,0xbc3ab3f3,0x3b8295fb,0x3d2d64cc,0xbd920ed9,0xbe30dfb4,0xbe2d0592,0x3dac7f8c,0xbe38e694,
0x3d902093,0xbe83ff79,0x3dcce314,0x3da032c4,0xbd447f2f,0xbd986100,0xbe40857d,0x3d55e4c1,0xbe132c3a,0x3db56eec,
0xbe777bd3,0x3da28785,0x3dd74356,0x3d31df70,0xbc87b773,0x3ecedd73,0xbd8ff8d9,0xbbc97446,0xbe8909c8,0xbe2a7fb5,
0xbe77ffd4,0xbdfdb40c,0xbe94dcf4,0xbd41c51f,0x3e82f480,0x3e21531f,0x3dd3ea81,0x3e8555f1,0xbe6bd297,0xbd7ef5a4,
0xbc57acba,0x3d84928a,0x3cdedb36,0xbdb48501,0xbdabf4cc,0xbe21dcab,0xbc5cb4bb,0x3dccfb80,0x3cea4d31,0x3d89dd84,
0x3d9a49f4,0x3d24cf92,0x3c8fe069,0x39ee2a4e,0xbd7d0b47,0x3d8e7d96,0xbcbf2ac2,0xbc8f3dec,0x3d3dda76,0x3d65c2b2,
0xbd4486b0,0x3ddb3571,0x3de13bad,0xbc1203cf,0xbcfd2d99,0x3cf39710,0xbc32a5e7,0x3bd61b53,0xbce9b092,0xbd6eb183,
0xbd4d9944,0x3b4c6820,0x3e6e3fda,0xbd1e0d85,0xbdd13955,0x3c0694fb,0xbd65e958,0xbd9b6cd2,0xbd471a5b,0x3d059b26,
0xbb9dbc30,0x3e48d845,0xbd6e1abb,0xbd61f029,0xbd9a8822,0x3dc678dc,0x3db13053,0x3d5233d8,0x3d78318f,0x3be7d608,
0xbd01c568,0x3da2e173,0x3d62b20e,0xbe1f7325,0x3d8b8790,0x3c16ad4d,0xbdca38bd,0xbc5111aa,0xbe2e58f5,0xbc48a63d,
0xbd38d2a3,0x3e04ec7a,0x3cdd9da6,0xbd860f1a,0xbd2b5b59,0x3d773a0d,0x3de2ffb2,0x3d1ac230,0xbd1eaefd,0x3ce0c3ed,
0x3d852220,0xbdabb653,0xbdf27a81,0x3d9e4969,0x3dc2ad7a,0xbd6ac554,0xbbebb5d8,0x3dd0b037,0xbe39e223,0xbd085657,
0xbc9c5ca4,0x3d45b789,0x3d3caeb7,0xbe147515,0xbddc8857,0x3c23cf27,0xbd900069,0xbd1c21db,0x3c83938c,0x3c06000d,
0x3d813257,0xbdd72459,0xbcbc6856,0xbb414144,0x3de4a305,0x3da821fd,0xbd25447c,0xbd1e3db9,0xbdabeb0c,0xbd80ba84,
0x3c831a09,0x3d9d13c7,0xbd013bd5,0x3e17c28e,0x3eb60e1f,0xbd265f06,0x3dc4aae8,0xbd8af0ad,0xbc0b8629,0xbe198e3b,
0xbcdeda43,0xbe02bbfb,0x3c50f40e,0x3ded9713,0xba99879f,0xbd311110,0x3dd531ad,0x3d925c97,0x3dfe252d,0xbdb5ad1a,
0xbcc71eab,0xbdd912e8,0x3da88298,0xbd793899,0xbd00b256,0x3da704f9,0xbcf10197,0x3c7cf68b,0xbdb29756,0xbd871579,
0xbe06f380,0x3d4a9b6d,0xbe20f5b3,0xbdc4adab,0xbd9589c3,0xbd0cb289,0x3d80eb6e,0x3db90971,0x3e06d23e,0xbd0f3bfa,
0x3d014def,0x3e049b6f,0xbdd5c3e4,0xbe048d15,0x3d906051,0xbbfc757d,0xbdb814ab,0x3d705e7e,0xbc6159ad,0x3cd92b83,
0xbe00d530,0xbd91b59e,0xbdf68b7f,0x3d11a623,0xbda3394b,0x3c74cf3d,0x3dc665b2,0xb9d072b3,0xbd07e7d2,0x3d2c62b7,
0xbd2ba211,0x3e191508,0x3d81868d,0x3c7cbd97,0x3bd974ef,0x3d73856d,0xbd19ac5f,0x3d092d2e,0x3db95a35,0x3e102a9e,
0x3d0204b2,0xbd6e4d71,0x3de1da64,0x3e1294d8,0xbdc25b1e,0x3c6755ba,0xbc4148ee,0x3e0630de,0x3c7463f3,0xbd98f1cf,
0x3de98ed0,0x3be7a95a,0xbe56def7,0xbc8a6ed5,0xbb96ab22,0x3ea317eb,0x3b8f4248,0x3d534661,0x3e5ae01c,0xbd9b36cc,
0xbe188111,0xbd8cadc7,0xbdd7f693,0x3d81bf08,0x3d706e1c,0x3de82a19,0xbe041cd7,0xbd06512c,0xbdee4a50,0x3d82b230,
0x3db06c5f,0xbf0808b4,0x3d99c7e7,0xbccae954,0xbe6da1fa,0x3c7a3095,0xbce50f13,0x3cdd56c6,0xbe0e8900,0xbd35244e,
0x3addba29,0xbc643cbe,0x3e34b0de,0x3b2b2bb0,0x3cd94944,0xbc60cd82,0x3de7adbd,0x3cfd37eb,0xbdf4cf46,0x3dab80a0,
0xbd33ab16,0x3dc9e07b,0xbca3f3c1,0x3d0ce876,0x3cce0565,0x3c9a8680,0xbd97da82,0xbe67e20e,0xbda2055a,0xbdc92f08,
0xbbdb67da,0x3dfa5e58,0xbb5dda80,0xbd75e8b3,0x3dbff947,0xbe5c8e82,0x3a536e0a,0xbe94364f,0xbd7bd5ec,0x3e0b3265,
0xbd5b65ae,0xbd644941,0x3cfa8e3b,0xbd810b38,0x3e045a0d,0xbd269bbc,0x3c9b8a18,0x3aceb818,0xbd1e6082,0xbd0724c4,
0xbe087f35,0xbd7c5f3f,0x3be7e8d9,0xbcf811b6,0x3d9b70ce,0xbc6c4967,0x3bb5e46f,0x3dca98cc,0xbd872ec8,0x3dabd922,
0x3ca1f052,0xbd9a80ad,0x3dcbd321,0x3dc6ecca,0xbdf88b7c,0xbd33ec7b,0xbd03efac,0xbbb00575,0xbb259f45,0x3d3e69d1,
0xbcedd053,0x3c77b788,0x3cd8b680,0xbcefd49e,0x3dbde2ff,0xbdb1a6bb,0xbcfd8850,0x3e154b4d,0x3dfc39d1,0x3db5fecc,
0x3cf8f706,0xbdab5cd1,0x3df51dbd,0xbd204f51,0xbe8d3392,0xbc67ffc1,0xbc3df867,0xbd22e4c1,0xbd6847e7,0xbdb8b545,
0xbc9c07cb,0x3db91c70,0xbda8d233,0x3dc8c800,0x3e6a4201,0xbde1f9c6,0xbc8b2995,0xbd2d320c,0xbc20f80a,0xbe0b059b,
0xbe1c5079,0xbcf903dc,0x3d3926fd,0x3c12038a,0xbda3b044,0x3d9ffa9c,0x3e1fa3b7,0x3d4c8a53,0xbdd4f564,0x3c4bacb5,
0x3d45304a,0xbe1ce469,0xbcf21148,0xbdcec32f,0xbba93252,0x3e02e931,0x3d9416d1,0xbdd8560b,0xbbd943fe,0xbd54c829,
0x3cb9d83f,0x3c71426f,0x3cc598cb,0xbd46e7da,0x3daeb4ef,0xbd92bcb7,0xbd938e7e,0x3d189644,0x3dcf62ec,0xbdc10476,
0xbc4e58c6,0xbe4a6ad7,0xbdab3a79,0x3dae35ef,0xbdd63520,0x3df865b4,0x3d4cb200,0x3c8d9465,0x3cca556f,0x3c058009,
0x3e0c7f05,0xbc8a6711,0xbd2f62fa,0xbd713daa,0x3c1467f8,0x3d523a16,0x3bd1d679,0xbd9278f0,0x3e153d44,0x3d3d7bd6,
0xbd5724eb,0xbd329161,0x3cb1dadf,0xbd789a71,0x3c80fbe0,0x3b54edea,0x3b9802d5,0x3d01f75f,0x3d392e9c,0xbd9f3bd9,
0xbc29d6f4,0x3d92ae93,0xbd395ec7,0x3d1aaca9,0x3d6e2044,0xbb5af1b5,0xbe3a80a2,0x3df7aefb,0xbc00d1de,0x3da9ac5d,
0x3c86787a,0xbde20af0,0x3d9563aa,0x3b663f62,0xbd533c3a,0x3d544216,0x3d8be18a,0x3d4d240a,0xbdbcfc69,0xbe180b50,
0x3d2d07d9,0xbe452f8a,0xbdbe7c90,0xbe121fc9,0x3ab285c1,0x3cb1aaf2,0xbe17f99b,0x3d5c483b,0xbdb6aee6,0x3aa7eb2b,
0xbd89b67b,0x3b1e9a00,0xbccb9e60,0x3ded6fc4,0x3e0eca66,0xbcf3e0bd,0xbcd5dc54,0xbe85a87c,0xbcf3124a,0x3e03113d,
0xbc0cf492,0xbd3b37bd,0x3d3a0245,0xbc63b7d6,0x3def0ec7,0x3dcb9014,0xbdd9e08f,0xbd86802b,0xbe3a8ff7,0x3c05e1c6,
0x3a7db0f3,0x3d8fb4e5,0x3c9d5365,0x3b12027f,0xbca03a88,0x3d85e3c3,0x3ca220ad,0x3daeef20,0x3d9c91ef,0xbd81023a,
0xbda84b54,0x3df2c3a9,0x3b957706,0xbd0712df,0x3dbc302e,0x3e41099c,0x3cd57bff,0x3daf23af,0x3a131f1c,0x3dc18b43,
0x3c6754e0,0xbda74559,0x3d1d3d21,0xbc587e02,0x3c349ef5,0x3d9d5f8e,0xbe11c2dd,0xbd85a07f,0xbd3db616,0x3d6bfb48,
0x3d628dde,0xbd64984a,0xbdf8a43e,0x3aff40f8,0xbd5e2020,0xbd4907e4,0xbe0f2fdd,0x3d178118,0x3dd1731a,0xbda3b27e,
0x3aa59056,0xbd1d7c2a,0x3d7f6f79,0x3cc9ebd9,0x3d66ba41,0xbda36e68,0x3d9aa654,0x3d163e00,0x3c80d868,0xbe28936c,
0xbde4d1b8,0x3d8efbd2,0x3cd04f85,0x3b05abf3,0x3c2f1725,0xbe6a1b34,0xbdabe347,0x3dbe25dd,0xbd3612c2,0xbd20c122,
0x3d40228c,0x3d7f8b23,0xbd0c9a6f,0x3ad2c5a0,0x3c1c944c,0xbd1cecca,0x3bf7b774,0x3d7b6eef,0x3dd80c91,0xbd31ba66,
0xbe3b5061,0xbe08b777,0xbd7aed62,0xbd6dc5e4,0xbd40deb3,0xbb615dc5,0x3c7a2b26,0x3d903f25,0x3e383755,0xbbc76c7c,
0x3dd6e04b,0x3d2b0b41,0xbe244947,0x3d12289b,0x3db6a88b,0x3efbe952,0xbda2f231,0x3d353275,0xbc29c7d6,0x3daa5cd7,
0x3da7e82b,0x3d2096a8,0x3e702c8e,0x3ce326fe,0xbd57638c,0x3c3fc8fa,0x3d1a7ed0,0xbe19abd1,0xbda232a4,0x3df6ba18,
0x3db7e062,0xbaf1ae39,0xbda0829c,0x3bc1b4b0,0xbdd7f99b,0x3e2bfaec,0x3d261e91,0x3c3c3fe0,0xbd693e3f,0x3dc0960d,
0xbcfae73c,0x3d5dd542,0x3dc1f168,0xbe0155b1,0x3dc1bb95,0x3e238d28,0x3db6dd56,0x3d917cf5,0xbd9b62fc,0xbdfdddfb,
0x3d64c56b,0xbd9604a9,0x3e15cadf,0xbe077054,0xbd87ddf0,0xbd201c4e,0xbd363e9a,0x3a84c4f5,0x3d902cc3,0x3cc3fdb3,
0x3b6f7f8b,0x3da6afb7,0x3e241dd0,0x3cd4097e,0x3e324d83,0x3cce3325,0x3d3e9d88,0xbd15f264,0x3ce4da3c,0x3e550bbf,
0x3dbe7087,0xbd09f18d,0xbd8eeb87,0x3d78ab4c,0xbcb3072e,0xbd9b8666,0xbde441cf,0xbdc334c1,0x3b8e32f9,0x3e1b12a9,
0xbdf1059d,0x3e1965eb,0x3d98350b,0xbd25cfc1,0x3dd1764a,0xbd986c3a,0x3cc65490,0xbd395bd4,0x3e61e03c,0x3e0bbb57,
0xbd80fc3a,0x3d0e0577,0x3c516b2e,0xbcf07a28,0x3d9f083f,0x3e100178,0x3e0d35b4,0x3da46ac7,0x3e205f5e,0xbd8ce4d5,
0xbd58c49c,0xbd40ece5,0xbd08af67,0x3d7a3492,0x3d1c15a2,0xbd8de850,0xbda92eaf,0xbe195932,0xbccaa3bc,0xbcdd9667,
0x3e03131a,0xbd110dd4,0x3d8885af,0x3dd609fa,0xbde658e3,0xbde62395,0xbe1c6bca,0xbe122c6f,0x3d426c59,0xbbf453a3,
0xbdb0a27b,0x3e1f0305,0xbdfc2dd2,0x39c180d9,0xbdc99ba9,0xbbb83478,0xbcd4dc15,0x3eadf614,0xbdf9161d,0xbb4d680e,
0x3e57a314,0xbe2e51c6,0xbdfa2a43,0xbd7faae1,0x3cc79900,0x3db15321,0x3b3ca1ff,0x3d90d364,0x3be9c120,0x3ebcfb4f,
0x3e67b7ce,0x3e199ddc,0x3e40b51b,0xbe3a14e4,0x3dbb77b0,0xbd5dab46,0xbc6b642c,0xbdca9f99,0xbde7ae0a,0xbd63c3f6,
0x3d56ae61,0xbd60a281,0x3d705943,0xbbc8e035,0xbec55e85,0x3cd3c143,0xbab49db8,0xbda36d76,0xbdd1d242,0x3c0e9aea,
0x3de3f9b5,0x3dd2f42b,0xbec803dd,0x3e3e5435,0x3d8da91c,0xbc0b0146,0x3dd867ee,0xbd973d82,0xbe289525,0xbae68e54,
0xbd98f5c4,0xbdc21bd1,0xbd5ef410,0xbcfabaf5,0x3bda7fdd,0xbc6a3e38,0xbdcb2aeb,0x3cd4b982,0xbc09612b,0xbe3bf174,
0x3e1801db,0x3b1943d1,0x3d90bef9,0xbd2cf01c,0x3d8ca4fd,0x3d0e1327,0x3e11a291,0x3d174fe3,0xbc2ef846,0xbdb5e257,
0xbc078346,0xbb7c8fb6,0xbe08bd0a,0x3d7c7778,0x3d975c6b,0x3d07a3aa,0xbd850fe7,0x3dd6da0b,0xbd081724,0xbd86e8f2,
0xbe0b187a,0xbe4d3f0f,0xbd8fe0e9,0xbc83bcf9,0xbd4aaf2c,0xbd461140,0x3d144f37,0xbd213cec,0x3daa21ed,0x3e269935,
0x3dafb289,0x3d50d990,0x3cbacf65,0xbd32675a,0x3e1267a1,0xbe147af5,0xbdf05b4c,0xbc3ed691,0xbd49e22e,0x3e381364,
0xbe003bd5,0xbe0e4d8c,0xbd3dc88d,0xbbb1425f,0x3cba2287,0xbdae1a45,0xbdf3904e,0xbe433ab2,0x3d2b7d32,0x3b869718,
0x3e1e7160,0xbd848295,0x3e465dcb,0xbe53c657,0x3e037818,0xbdf7b3f6,0x3dd887d6,0xbe11d460,0xbe930eac,0xbe6e530b,
0xbdfc7a1d,0xbc610062,0xbcbfbe78,0xbd1562b3,0x3e09c2ea,0x3e0228d6,0xbd96e5fd,0x3dcfa85f,0x3e95b225,0x3d4aa357,
0x3e0dfda4,0xbca787d7,0xbdd0099d,0x3e08835c,0x3e20c92d,0xbd64b3cd,0xbdc0b670,0x3e347074,0x3d901917,0xbd267e81,
0xbda946cd,0xbe350e3a,0xbd1aad41,0x3e6e5f4f,0x3d5bf0c4,0x3e081337,0x3c8d446b,0x3d93d689,0x3e975b1f,0x3c9f94d3,
0x3d3f92d2,0xbdec0af3,0xbdbdfbe2,0xbddaffce,0xbdc67a49,0xbe10a3fd,0x3e75a69f,0xbe18463a,0xbde22675,0x3e501766,
0x3daefd37,0x3d39fde2,0x3e9e0c45,0xbe240460,0x3dd25f52,0xbe45f49b,0x3dd11a25,0xbce94f3e,0x3baa2196,0xbdf3178e,
0x3e18e1f0,0xbdd3d146,0xbd20c50e,0xbca31555,0x3dec3f89,0xbd862dae,0xbdee0f39,0x3dafb26d,0xbdf4cf13,0xbb0b7da2,
0x3dec6962,0xbc944c81,0x3c00f826,0x3d35ce33,0x3d8e462d,0xbd8ec08d,0x3d0a45e6,0xbe138fab,0x3e14b912,0xbe5f93aa,
0xbdd8a78a,0xbd78bd9c,0xbcf5de93,0xbc8faa4b,0xbc754b0f,0xbd58ab46,0xbd8a87dd,0xbefd1d52,0xbdfe6d8b,0xbe042e7e,
0xbe469c60,0xbd758303,0xbdecb61c,0xbdada90f,0xbdb4e47f,0x3d190105,0xbe13cbc5,0x3dbe1d94,0x3c897e33,0x3e815770,
0xbe56cab3,0xbd2060a3,0xbd9e6faf,0xbce355f4,0xbe56e161,0xbd9fc6b4,0xbd68766c,0xbe0cfd55,0xbd87119e,0x3dd622ab,
0x3c9d0b19,0x3df7b49a,0xbe3cd2c6,0x3e1b2080,0x39ad1e98,0xbcb92741,0x3e23b12f,0xbb4a3dfe,0x3e2bdeaf,0xbe025307,
0xbdd25af6,0xbdc19dfb,0xbca97071,0xbda7bf98,0x3c488609,0x3e3ac6cb,0xbd5456bc,0xbdd124d7,0x3e2ef16b,0xbc9b77bd,
0xbdac7a18,0xbd190e78,0x3cd9ad7b,0xbcc90208,0xbc81f716,0x3d8bd93f,0x3e03b73b,0xbde64f73,0xbcd2e7e3,0xbdb8baa5,
0xbd9a189c,0xbd4f2017,0xbe2a375a,0x3db1ca45,0x3d9ffe1e,0xbcb52bf5,0x3e074868,0xbd7e097e,0x3dcdfd6c,0x3de24572,
0xbe09ab42,0x3de8ec17,0x3e05829e,0xbc86a78c,0x3e143654,0x3d3663c2,0xbc8e9191,0xbdfc1baf,0xbd860028,0xbd851d09,
0xbdfac163,0xbd535da9,0xbd6b4607,0x3d6f24ff,0x3d9918d0,0x3d2b9d14,0xbe132b2c,0x3d012faa,0xbcfaf8ba,0xbc76ee70,
0xbd0baf95,0x3b223f48,0x3dd7cb42,0xbdb7bcb7,0xbd415765,0xb99e1e91,0xbd859fd8,0xbe390433,0x3d91b94b,0x3cae30f8,
0x3d5d2abc,0xbd65a181,0xbd617b42,0x3cd7880d,0xbcc4c0bd,0x3da06961,0xbdd2ff5b,0x3d3c6b46,0x3d44e323,0x3d63ca4c,
0xbd4604f7,0x3d830046,0xbdb6dd1f,0x3d84e606,0x3cddf641,0x3c415093,0x3d830a35,0xbe27ef13,0xbda888d3,0xbd94ccf2,
0xbc21534c,0xbc86f202,0x3dce2d30,0xbddf870c,0x3e0909ba,0x3e65d9ec,0xbd6eb8ca,0x3e0d0692,0xbda8122c,0xbe158ac7,
0xbd0c5597,0xbda08159,0xbd2be34d,0xbda2ace5,0x39cfb855,0x3da939ee,0xbdd8b1ab,0xbbe2277e,0xbd47c701,0x3e188ea6,
0xbcef6490,0x3e6543cd,0x3e275895,0x3d5935cd,0x3c88c958,0xbdaee87f,0x3e9b7a23,0xbe078d4d,0xbd6e5610,0xbdb9ae2e,
0xbe46535b,0xbdf70214,0xbb820d42,0xbd164ad1,0xbdb4c8a8,0x3dada8e4,0xbc1fa731,0xbe841828,0x3de84cb0,0xbcd701e6,
0x3e0b1e7b,0x3db529b8,0x3c44c6a0,0x3e5c96fa,0xbdfea9a7,0x3d83d686,0xbe109d4d,0xbdabbc4d,0x3d549e32,0xbe86aa6c,
0xbd788628,0x3d9f9729,0x3d221c61,0x3dc9243f,0x3d99eeb5,0xbc9c34d0,0x3da79167,0xbbd5966d,0x3bcfc801,0x3a68b252,
0xbd9a25e4,0x3d9d71ea,0xbd81063e,0x3d1c244f,0x3dd09b1c,0x3d9a5cab,0x3db0b03d,0x3d8ae2db,0x3cce6a6e,0xbdaa82fc,
0xba100bd2,0x3ddb63de,0x3e02aee9,0xbdfbfe9d,0x3d801d01,0x3e71ba1b,0x3d318e8b,0x3d0258aa,0x3d8868a1,0x3d28a7c8,
0xbc3f38e7,0x3d48ca3c,0xbb9d7e32,0x3e05303f,0x3d4ce679,0xbb880688,0x3d1aa1e7,0xbcabb4b6,0x3dfd440e,0xbd57c15f,
0xbbb67ed8,0xbce4f8c7,0xbcb38fe2,0x3d350a8a,0x3ea41d20,0x3da966d6,0xbadda04a,0x3d655d0f,0xbd91b61f,0xbd8f80ae,
0xbdc48b22,0x3d413112,0xbc3d1f54,0xbc231efe,0x3cd796a1,0x3de6945a,0xbd10e88f,0xbe1b7ef4,0x3ce73de1,0x3d9b78b6,
0x3c9f7efb,0xbdd9d5d4,0x3d7bafdb,0xbd166d32,0xbd82b79e,0x3ad99768,0xbd46fee4,0x3d7a795e,0x3de54e7a,0x3c88bef7,
0x3d40c652,0xbc112270,0x3c8621a9,0xbda4a92c,0xbeca3251,0xbdbb4b81,0x3d94699e,0x3e142b06,0x3cf7399c,0xbde05ca3,
0xbd836c95,0x3d670b23,0x3ce89c4c,0xbd60a3bd,0xbddcae3c,0xbd46e24e,0x3d86011f,0xbdfa3fe2,0xbcb98680,0xbdcfcf39,
0xbda71241,0x3dda6efc,0x3d81c620,0x3e0d037d,0x3bed5a27,0x39bd4369,0x3d12b7b6,0x3d0fa759,0x3c87dc40,0x3de1650b,
0xbb981c3b,0x3dbb303a,0x3d8167ed,0xbce49efd,0xbdd8d9c0,0xbd211bf8,0xbe12ea10,0x3d07bdf7,0x3d35a8b9,0x3d73297d,
0xbc3db78e,0xbd87accf,0x3cb5078b,0xbdd32d7c,0x3dae72a2,0xbd5befb1,0x3de50e9d,0x3d99f9b5,0xbd98cbf3,0xbe0c35e9,
0xbd991572,0xbc61fe6c,0xbd1910cb,0x3e4111ea,0xbdf9b3c3,0x3d2f69a7,0x3cf2857d,0x3e058b9e,0x3dd83448,0xbd6a65cf,
0x3cab49c7,0xbced3524,0xbd00491b,0x3d2a98b6,0xbd8e6d05,0xbe089ce9,0x3bb62fce,0xbd0919c3,0x3de31206,0xbbee920a,
0xbe1adc02,0xbc9e4023,0xbd9a46b1,0xbe1b8381,0xbd5e8f03,0x3e32e444,0x3d5f93c8,0x3b94edee,0xbd396f45,0x3cdc111a,
0x3dff2cdb,0x3d27ef69,0x3d70b863,0x3d1f4d3f,0x3cb1ccb5,0xbc0ff4c3,0x3c9c9623,0x3d1e5959,0x3ca5d185,0xbbd0c950,
0x3c4bee76,0x3ca38a62,0xbd207000,0x3d9829a8,0x3dfbf01b,0xbcab2e5a,0xbd2e73a3,0xbd15073d,0x3deebd01,0xbd2de415,
0xbcc9c0fd,0x3d585d67,0xbca28828,0x3dc2dc7c,0xbc10ad8c,0x3d574aa8,0xbd791d45,0xbd06b77d,0x3bbc952b,0xbdb3c249,
0x3e4f4295,0xbe56617a,0xbccc26d5,0xbbedfc53,0x3d15f67a,0x3c9f457c,0x3bf8fba0,0x398c94ad,0xbd78e889,0x3dbf976d,
0xbcc219ad,0x3db55f40,0xbc867e1a,0xbd9274fb,0xbd50722a,0x3c425467,0x3d8cffda,0xbdb973f3,0x3ce74bb5,0x3bf98f75,
0x3d69a544,0x3c2c8ccf,0xbd8bccf7,0x3d601c3d,0x3add7964,0xbb0894c8,0x3da63a8f,0xbbaa1f53,0x3dc43c60,0xbda192be,
0xbcdc8968,0x3d1a20a5,0x3de2dfa9,0xbcdc3e0e,0x3d59f6c6,0x3c9d66d6,0xbc910eed,0x3da106b6,0xbd2c01d1,0xbca47323,
0x3dac604f,0xbd3ebe0f,0x3da1693e,0x3d536d59,0x3cc2be15,0xbdab5676,0x3e0f8ddb,0x3cd33a0c,0x3dd84c14,0xbdd51826,
0xbce7be17,0x3cf44aec,0x3c8fc892,0x3d8a71cc,0x3e81c283,0xbcf7515a,0xbe0c4b68,0xbbbac19f,0xbd9acc66,0xbe0f7130,
0xbd0ef764,0xbd5cc1d4,0x3d720ed7,0x3d8c8508,0x3daabd35,0xbd320da7,0xbdc160d9,0x3c458685,0x3dae45c8,0x3ce07bdd,
0xbd4d472c,0x3e640825,0x3da8e2dc,0x3d3ccc86,0xbd569490,0xbcf15add,0x3cc54724,0xbd2297f2,0xbdf8fe6e,0x3a668825,
0xbe165126,0xbc4f07dc,0xbd5e26ba,0xbc7202ca,0xbd79d3a9,0xbd30fdd3,0x3d632b4a,0x3c38fbf5,0x3d8aacab,0xbd63576a,
0x3e7bafb1,0xbe1ac50d,0x3cf12288,0xbe72491f,0x3e209e93,0x3e9db75b,0xbcd2fcdf,0x3dd94dc0,0x3cbf0a79,0xbd3924f4,
0xbdb0e26c,0x3e057d2b,0xbca15022,0x3c54318b,0x3deb3b7f,0x3e13bdc2,0x395d6f43,0xbd8abe73,0x3d87a327,0xbd8bdd59,
0xbc1b5ed3,0x3de5b0fd,0xbd9d2ad0,0xbd6b8bc1,0xbd1f4f78,0xbda37c45,0xbdc7412a,0x3d57d812,0x3dd3e5bb,0x3d0bfaf3,
0xbe2edb1c,0xbd7624bd,0x3e90f4d9,0x3c015a99,0xbdf9f900,0x3cbaa100,0x3d15576e,0xbc2a598e,0x3e0256c8,0xbdb7cd0d,
0xbd76c159,0x3dbf0e3a,0xbbc9b989,0x39753821,0xbdfc3fc6,0xbd028854,0x3d22f494,0xbd36a52a,0xbb12cb7a,0xbcf12795,
0xbdc874d9,0xbd6dd0ed,0x3db8e47a,0xbd5b640d,0x3ca7b351,0xbe4f4f30,0xbd840bd9,0x3cff1446,0xbe127610,0xbb9b9bbc,
0x3cc2fe1c,0xbc5c7890,0xbc17f979,0xbdb67992,0xbdc5774d,0xbddbc266,0xbdaa5cac,0xbd952bec,0xbc7e261b,0x3c8d072d,
0x3d4bd356,0x3d7c3d04,0x3c60a463,0xbe1c9bfe,0xbe237f99,0xbdaa8a9a,0xbe05a430,0xbc47befc,0x3c457cfb,0x3d624c37,
0x3d291e00,0x3c70aa54,0x3d581b8b,0x3e2995f1,0x3da87240,0x3d399792,0xbce2b0c9,0xbcab6ba3,0x3d4e77a7,0xbe40d56a,
0xbd64fa28,0xbdcfbdce,0x3d392497,0x3d5b794e,0xbd9c6025,0xbd8cb1ec,0x39c5ae54,0x3c332761,0x3e34f808,0x3e1400ad,
0xbbf886f6,0x3d8d7d0a,0xbe14902b,0xbe4b28be,0x3cf0b97d,0xbcec256f,0x3df0152f,0xbb7090a6,0xbe01d6f8,0x3d36d81c,
0xbd2c9027,0x3ca366a5,0x3d3bef90,0xbe0926ad,0xbcaf209a,0x3d7a8471,0x3e014866,0x3decddea,0xbd887265,0x3e2832a5,
0x3d301c72,0x3d877c57,0xbd098c0e,0x3d26ce8a,0xbceddd8a,0x3d6df21e,0x3d2429e2,0x3d255b5a,0x3d112b5a,0x3d269301,
0x3e0399fd,0x3ddfa17c,0x3d6d168b,0xbd9cf8d0,0xbd2f9134,0x3d622455,0x3d6bbe09,0xbdac0063,0x3d20a307,0x3da6793d,
0x3aac38e6,0x3c7840c2,0x3d0ab050,0xbdae6ebc,0x3dfb6bc4,0xbcc2dc15,0x3d6d6f07,0xbe060bf1,0xbcd5c73d,0x3cbc58a6,
0xbbbedc77,0x3caf2393,0xbda30e1c,0xbb6d5a75,0x3d9b7e66,0x3d462cf4,0x3d760643,0x3e0c58a7,0xbdcc1ed3,0xbd4e67b7,
0xbc259ef8,0xbdc348da,0x3d697c85,0xbda09636,0x3cf673e0,0x3d9a27ac,0xbd2af9ec,0x3d5aaeef,0x3d5df085,0x3d0620c1,
0x3d9cf95a,0xbd9bbe5a,0xbd67c194,0x3e297745,0x3c2ab21c,0x3d8587bd,0xbd86e166,0xbd83b002,0xbd2f3cba,0xbc4827df,
0xbcad4a91,0xbdfae48c,0xbcd876d9,0xbdcab700,0x3bd90164,0xbc456858,0xbd6704a7,0xbcfec9fa,0xbd8e5ccd,0x3da80ebd,
0x3e098cbc,0x3d4edb86,0x3e28dee3,0xbd582767,0x3dbc7156,0x3da2233d,0xbd057b2f,0xbd98ef22,0xbe0da9b6,0x3cc62f83,
0x3d2891fb,0x3de73220,0xbb4668dd,0xbde537d3,0xbdf3d51b,0x3d8f2068,0x3d3a13be,0xbe1dd11e,0xbe2f2b19,0xbc78ed92,
0x3c56f384,0xbbb5861f,0xbd158fa8,0x3ddb7dae,0x3d0e5679,0x3d90292a,0x3e73aab3,0x3bcdecc6,0x3d72a6ae,0xbba9305e,
0xbd37cc5e,0x3dbab4e2,0x3c70265e,0x3cf4d4f2,0x3db8de5a,0xbda7099f,0x3d51c2fa,0x3e3be3e7,0x3e07df19,0x3b1b5cbe,
0xbcdb3bff,0xbe355d21,0x3ddc744e,0xbd4287ee,0xbdac37fa,0x3d1db350,0xbd1dcef4,0x3dfbd66c,0xbe0773b4,0xbe1f0f5a,
0x3e1359bd,0xbe88ba5e,0x3cb047d1,0x3d53be6e,0xbe274e52,0x3d895b85,0x3d6273ff,0x3c6699d7,0x3d6bc402,0x3d4591b8,
0xbe0d2ef8,0xbd03fe3e,0x3debad50,0x3eba295d,0x3dfd8c71,0x3d980f3a,0x3dd8f73b,0x3d748a74,0x3d3dddfc,0xbc8f630a,
0x3d1d30b2,0xbc7d500e,0xbcb01477,0xbda1de3e,0xbdb2983a,0xbd0d63cb,0x3caff5b9,0x3d0edfed,0x3d953ff7,0xbd0a14d5,
0xbd557594,0xbc5c5714,0xbce80af6,0xbd13ccf7,0xbd39f25e,0x3b132ce3,0xbd53e6fb,0xbca17462,0x3cab9960,0xbdb46aca,
0x3c1c1ae8,0xbce17c1b,0xbd72bd3b,0x3cf50fb0,0xbd1ce650,0x3d1c75d6,0x3ddae9b0,0x3c98994d,0x3ca7913e,0x3db96ac7,
0x3e40d8a2,0xbd654594,0xbd5d25c4,0x3e1b1a2a,0x3e295967,0xbd931917,0x3ddebe9c,0x3c11d3f0,0xbd92cc34,0x3d6795b8,
0xbc82f334,0x3d66a9a6,0x3d572962,0xbd9eff2c,0x3dcd6ee8,0xbd50b9f9,0x3dd82df0,0x3dc988a5,0x3d07586b,0xbd812a8e,
0xbde588cd,0xbe26eb71,0x3d481946,0xbc69bfd8,0x3e695284,0xbcd1c306,0xbd2a8142,0xbd3d9069,0x3c5a67f6,0xbbb009c7,
0xbb1aa7d4,0xbe095f7a,0xbbc57e4f,0x3d889f26,0xbe1520db,0xbd5ad0e9,0x3e1936f5,0xbdd950d3,0x3e080305,0xbb2263db,
0x3d396a66,0x3d7fa63c,0x3dd3d952,0xbdd6d69b,0xbd94455e,0xbde0918b,0x3ced7854,0x3d0f6160,0x3d199f92,0x3e238d8b,
0x3e79c3e3,0xbabd220b,0x3db528a2,0xbe3e416e,0xbb9b5f04,0xbaeb98fa,0xbdcfb437,0x3cf16307,0xbd91bede,0xbb08ee81,
0x3e6742e0,0xbc116882,0x3bb1d8f5,0xbc3398b9,0xbbc2a8e3,0x3ce1b162,0xbcd3ff50,0x3cf46d32,0x3c20498c,0x3d3e2556,
0xbdd5f037,0xbd08a20f,0x3ba17165,0xbcbd9d40,0xbe0d7bb0,0x3ce472e1,0x3d77b99b,0x3d65dbdc,0x3c9c5f75,0x3dcd7857,
0xbd550edc,0xbd845603,0x3d950447,0xbd3372d8,0x3bbecb51,0x3d094a28,0xbd0a6117,0xbc72b2cc,0xbd909b86,0xbcb2082b,
0xbd70c60d,0x3bfa34ec,0xbd863201,0xbdcaed63,0xbcc1948a,0xbd75e9f6,0x3e3615d1,0x3dee9fd0,0x3d8ed277,0xbc675f5b,
0x3c94cb7c,0xbd17f8a3,0x3e04cdde,0xbd70a0f8,0x3e2dd1d1,0x3db2a6fb,0xbe257230,0x3cc67344,0x3dcaebeb,0xbe97c2f5,
0xbdbfde96,0xbe2a41ac,0x3e11e915,0x3de5f021,0x3d9c10ca,0x3cf62994,0xbdba78e2,0x3d7fbf8a,0xbbc88e46,0xbe02cf5a,
0xbb381275,0xbca36644,0xbcb633c4,0x3dea89e3,0xbbd64656,0x3c2d2632,0x3d8adabc,0x3d819000,0x3c15fc64,0x3bdbecf4,
0xbd697c1e,0xbdde038a,0xbd6ac81d,0xbd95ca93,0xbbcb7ae3,0xbd166b39,0xbe017ec7,0xbd316cb7,0x3d9d3391,0x3d8031c8,
0xbe18934f,0xbc59adf3,0x3b7c5aff,0xbd93bc69,0xbdac9e17,0xbc48875c,0x3d1d8f2f,0xbd87a530,0xbc62c587,0x3cf95478,
0x3ddeb537,0xbd7fe26e,0x3d3f1914,0xbd924f7a,0xbd39b067,0x3dbb6f83,0xbdce39f1,0x3d8ae1de,0xbd98dfbd,0xbca233c9,
0x3d2e508d,0xbe19c4a5,0xbbe23397,0x3d5d87f1,0xbc9face0,0x3de5f48e,0xbe001b4c,0x3c299d47,0x3bba5051,0x3d1cca00,
0xbcad214c,0x3da51b6c,0x3c7ed5f4,0xbd52d336,0xbde49888,0x3d1800b9,0x3d8577b2,0xbb4255e1,0x3d3418ba,0xbd3668de,
0xbd3d5239,0xbd51cde9,0xbd1629aa,0x3bf80db8,0x3ce0b7ef,0x3b8481af,0x3b27447d,0x3dbe632d,0xbcd8f5f8,0xbd6196d5,
0x3dba3736,0x3b648bdc,0xbcd86ac4,0xbc545341,0x3d1b1888,0x3ccfdfdb,0xbca70486,0xbcb4b8fa,0xbdd5c03b,0x3d9d28f8,
0x3e0351cf,0xbd3a4250,0x3d555598,0x3d431d48,0x3e362cd4,0xbe3350d7,0xbd72afea,0xbe17682a,0x3c6b7f2a,0x3d85fb9a,
0x3d29050c,0x3d5cc731,0x3d9eaa88,0x3e1a0213,0xbe13c020,0xbd84b1ed,0xbd9f06f4,0xbdd81bca,0xbdf94504,0x3d52609f,
0xbd86284b,0x3c3d0ef4,0xbc2ccd7d,0x3d796419,0x3b0ebe11,0x3d07b601,0xbddccd5a,0x3d8e55a0,0x3cd3072c,0xbd10ce55,
0xbe2af883,0x3a5729c0,0x3d89854b,0xbc9aa96e,0xbd010580,0xbdedff57,0xbe10c80a,0x3cf204ad,0x3ce9991a,0xbe234ec2,
0xbda4a323,0x3c8f40e6,0x3e2f7f18,0x3e430f70,0xbd1bb9b4,0x3e03dac2,0x3d977409,0xbde0f765,0x3dc4f829,0xbdc4af1f,
0xbd0826ad,0xbd895098,0x3c873773,0x3e0e6a24,0xbe1c3fd6,0xbe2c8304,0x3d6817cc,0x3c37f2d2,0x3c62e8e9,0x3dde00a8,
0x3d2449bb,0xbd934c10,0x3cb90a3f,0x3dfea4b9,0xbc7fa56e,0x3da3387d,0xbc2802d3,0x3d6fbf90,0x3c9dce71,0xbcd102ee,
0x3dc6503a,0x3d5e1128,0xbca3cfca,0x3d382b46,0xbdcd2dff,0x3b077271,0xbdd62a40,0xbcf180a0,0xbd7fd07a,0xbd91c999,
0x3cb350fb,0x3d9cbd6c,0x3ba81271,0xbe26330b,0x3d9d111f,0x3cfea404,0xbd2c7e85,0xbd814103,0x3cec0700,0xbd62a2a5,
0xbc2ab8d5,0x3ada2e1b,0xbe00c384,0xbc482c55,0x3d789313,0x3dc5955f,0x3c63f530,0x3d68f3e5,0x3cd40177,0x3d796baf,
0xbd996eb5,0xb9799301,0x3e10ab5c,0x3d245dbe,0xbc33476b,0xbd8ed489,0x3c96c2ee,0xbd42fb30,0xbce2a719,0xbda1384a,
0xbc237436,0xbdae5c1d,0x3cfcc471,0xbd738dd7,0xbd480963,0x3d0c2572,0xbda014c6,0xbd817893,0xbd2889b9,0x3cf771ed,
0xbc9755c4,0x3be59f24,0x390132c5,0x3abece61,0xbda46dd9,0xbd16c42e,0x3d0d866c,0x3c40bfc1,0xbd28f860,0x3d9aad4c,
0x3ccf7ca9,0xbcf4682f,0xbd68202c,0xbaab57c7,0x3c8e718a,0xbd35e38e,0x3d8dd0d4,0xbdd8dc71,0x3dc74f25,0x3d223def,
0xbc94e39b,0x3ca119f2,0x3dbf5085,0x3d720fde,0xbcaf2c66,0xbc9f6953,0x3d328e38,0xbaabb7d5,0x3c0cd540,0xbc74aed0,
0xbd8c0c2a,0x3da9456d,0xbd9956ec,0x3d4bc5e8,0xbd22c9ca,0x3ce56cba,0x3c3221e4,0x3c826b50,0x3ca65541,0xbc927eae,
0x3d1ec7e5,0xbc7e7de6,0x3d9599f8,0xbc311525,0x3b3dd180,0xbddbd2a7,0xbd5bb3cf,0x3c0123de,0x3da32c62,0x3d130fb6,
0x3d86f416,0xbca7442a,0x3c8c64fa,0xbb043fc8,0xbd31221d,0x3dd3d4ab,0xbb627339,0xbe11b1cd,0x3cabead1,0xbcd3bc9f,
0xbc8b5f6f,0x3cbd9fa3,0xbd82d73b,0xbce2d2a4,0xbd976716,0xbd83fcc4,0x3c7904ed,0x3c47ba00,0xbd202319,0xbbf4c05b,
0xbd0ca884,0x3c26b143,0x3d26e861,0x3d1abe28,0xbd168a48,0x3d5d3346,0xbd9b178d,0x3e174339,0xbcc251da,0xbc94641f,
0x3d7449da,0x3c2d1c3b,0x3dd19ae3,0x3c2c0c57,0xbd4cf10a,0xbd724fd8,0xbd901099,0x3e032a5d,0xbd117b61,0xbc1b8cce,
0x3d75b2b7,0xbd0d3f79,0xbd8aac33,0x3d160a7f,0x3d86d0a2,0x3db2aac4,0xbddfb7b4,0x3da10374,0x3dafbb94,0xbbfe22ae,
0xbd1297c9,0xbda262d8,0xbd61532b,0xbcacb54c,0x3c452fe6,0x3d8cb931,0xbdcc1d07,0xbd654045,0xbd5bff24,0x3c0a3153,
0x3a12b87a,0x3d717f01,0x3d250101,0x3dab2ec8,0x3c8644ff,0x3de739c2,0xbc8dfb81,0xbd9de62d,0xbc83a2cb,0xbde81645,
0xbdd2e3e0,0x3c78a767,0xbce630fd,0xbd2cc150,0x3e2907b1,0x3d4bd1f6,0x3de4004e,0x3cb524bc,0xbd867719,0xbc8e369b,
0x3cadb3ad,0x3c3b0e8b,0xbd1c40ec,0x3d6cf0b6,0x3cda4a1e,0x3b81b2a5,0xbb4d9173,0xbde51b96,0x3dcf1ba2,0xbc644d43,
0x3d8c9c87,0xbdcd9054,0xbe5f11a6,0xbd2a1fa2,0x3daba51c,0xbbbddc0b,0xbd2f4a9f,0x3d33898c,0x3c1f922d,0xbd10205f,
0xbe11e967,0x3d20478d,0x3da8bc75,0xbd88019d,0xbb4b6c51,0xbd3ccf3a,0xbdfaaa95,0xbb287a21,0x3e01a510,0xbc48c611,
0x3d9708f4,0xbd174ba9,0xba135ce6,0xbc867c8f,0xbbee586a,0xbdcefe8d,0xbddfa902,0xbd966448,0x3dc34300,0xbe06460a,
0xbde693a0,0x3de4d4ec,0x3ce9ab65,0x3c272777,0xbe7c5031,0xbde4c5cd,0xbcf529d2,0xbbe005c7,0xbd05f99b,0x3e28d4eb,
0x3ca6ed90,0x3cbe2605,0x3b36844e,0x3e02a69c,0xbe17b162,0x3d5c2522,0xbe4988db,0xbd2494cd,0x3cd9c0c3,0xbc422b30,
0xbd71c102,0xbd8883c8,0x3bae3cee,0x3e2f8019,0xbe0e10a6,0x3e4c9e5d,0xbda84d59,0xbdcc0796,0xbd64f9be,0x3d9550b3,
0x3d9f776e,0xbdbc247f,0xbd2a07f0,0x3d98da7e,0x3d90f687,0xbd36760b,0x3d56e83f,0xbbdfc4d0,0x3c49a0ad,0x3b93b012,
0xbd3617be,0x3dc8ee84,0x3d06fdce,0x3d83f29c,0x3d8adc8c,0xbd5ea041,0x3d1146f3,0xbd1d66c4,0xbd4263a1,0xbcc540ec,
0xbd086fcb,0x3d9d9ab4,0x3e32aa37,0xbd558d89,0xbd56df6e,0xbd284dcc,0x3c1bb636,0xbc11782c,0x3c0c39cc,0xbc43acd0,
0xbd362127,0x3cc5edb2,0xbd29d068,0xbce9161f,0x3d36a136,0xbd92dda4,0x3cad4735,0x3ce20b83,0x3c765842,0xbd9a7323,
0xbdd56c43,0x3c2ff768,0xbcd9f10d,0x3ca8d1d7,0xbd1cdeb3,0x3dc9ec74,0xbd5b791e,0x3de73b06,0xbb54c2bc,0xbc8be95b,
0xbc4cc08c,0xbccc19eb,0x3c80d036,0xbc101739,0x3d02a10a,0xbd2b2756,0x3d096e00,0xbde72041,0xbd0baccf,0x3d0317a2,
0x3c30093b,0xbce42451,0x3d8c22c1,0x3c3abe5e,0x3d2423ea,0x3d6f2343,0x3c6d3361,0xbd321e99,0xbb68b8ad,0x3c558c76,
0x3e111fa5,0xbd3a0772,0x3cfec3a8,0xbcc3b51b,0xbc83c2f9,0xbcc9add3,0x3d0ced5f,0x3d657ba1,0xbc439e4f,0x3cc1dfc3,
0xbc5c52e6,0xbd259d00,0x3c6edaa4,0xbc6e68af,0xbbb80edc,0xbce2f789,0xbd4c3f40,0x3bb7d2b4,0x3d4e8be2,0x3d23a357,
0x3bdb0669,0xbc2fc3e7,0x3cb293cf,0xbd868c07,0x3ba7a69d,0x3da031f0,0xbd8342f6,0x3cce80b2,0xbdf94c0c,0xbbfc3cbe,
0x3c988be5,0x3d40854e,0x3b38e6e0,0x3c766537,0x3b97056f,0xbbaae59d,0x3ad8ac90,0xbd1a5085,0x3d03ed16,0xbce0547c,
0x3cd61e6d,0x3daf3999,0x3d7c925c,0x3cf27d76,0xbda4784e,0x3bc6c375,0xbc0990cf,0x3d15484f,0xbc085689,0xbdaa54a3,
0x3d039dc1,0xbd801168,0x3d913704,0x3d209a51,0xbc63348b,0xbd28bb75,0xbd621e26,0x3cb75d9c,0xbcd8c93c,0x3c67b675,
0x3c1957d7,0xbd3b9a90,0xbcd1bb90,0x3da14dcd,0x3baa1c93,0x3d762f81,0xbcf2c6c9,0xbd271c57,0xbd43f4a0,0xbce58679,
0x3d388895,0xbcf11d15,0x3d43c5c4,0x3da1840e,0xbdfa0c50,0xbc873f00,0xbd71e709,0xbd47477e,0x3be38a7d,0xbe25673f,
0x3d9471f2,0x3d464cf5,0x3cf379d2,0xbc9cab87,0x38930a7b,0x3bfbf814,0x3c4f1198,0xbce4dd66,0x3b9dd2fa,0xbe38c7bc,
0xbd6eb6f2,0xbc25f167,0xbd95c02a,0xbe452966,0x3d1b7aae,0x3c65c354,0xbbe6e7f4,0x3d88bd5e,0xbb28434e,0x3a88ede7,
0x3dca8aef,0xbcf985e6,0xbbce385a,0x3c26e557,0xbd8ae8f2,0x3caa4aeb,0x3c8fc962,0x3d16e4ed,0xbcaa7751,0xbd1c1c9a,
0x3bff191f,0xbd3f3b42,0x3c96b4bf,0xbb8643cb,0x3d1c63af,0xba928825,0xbdd1e38e,0xbcb3442c,0x3d3cee61,0xbbad8c58,
0x3a8361df,0xbb9ed3fb,0x3d2d2b4c,0xbcf6aad8,0x3d558d6b,0xbd2d3e6b,0xbcba05d0,0x3ccf1305,0xbd95d187,0xbcce9195,
0xbcf3fa04,0xbcc660db,0x3ce58a2d,0xbd27cefc,0xbd5e20c5,0xbc532c8a,0x3d6e2b3f,0xbd070303,0x3c1ecb54,0xbd27d317,
0xbd333fd2,0xbd5fbe2a,0x3c125c06,0x3c22b73a,0xbc557def,0x3e0401ef,0x3e597d06,0x3d1a2eb7,0xbd812c50,0xbb2afa46,
0xbbbe05c9,0x3dc930e7,0x3b7b4eec,0x3ceb0d23,0x3dc54b66,0xbd108a3e,0x3ced1ec4,0x3e99cdad,0x3ddbdb26,0xbd853363,
0xbcd85153,0xbc8f675e,0x3d6bf17e,0xbc1365f4,0x3be16078,0xbcf99fa9,0x3c8d90ca,0x3c26b2d6,0x3d7d5525,0x3c94c867,
0x3d36c36a,0x3bd4c557,0x3d757aad,0xbc6b1589,0x3cfcff29,0x3d2eff16,0x3ca541c7,0xbd01f8a2,0xbb70cf2d,0x3dd44981,
0x3e3203d0,0xbb940608,0xbd3a283b,0xbd8f167d,0x3dee0275,0xbcda25cd,0xbd9a3aae,0xbe3431ca,0x3e01260a,0x3d883366,
0x3dd32613,0xbc6b0ca4,0xbe1b8d7b,0xbb8cdd77,0xbb2fc53b,0x3d21cddc,0xbd9d6859,0x3c8ba095,0xbd7762e7,0x3cdc9325,
0x3cfbd8ea,0xbd1e7d01,0x3d56d191,0x3cd1ef92,0x3d3c9eb0,0x3df6e9dd,0x3b56c520,0x3daf1ced,0xbcd0f206,0x3c9ec3cc,
0x3c0f5ee6,0x389585e6,0xbc8dc06d,0x3da8a1b8,0xbdae2364,0x3ba319a0,0xbd1756be,0xbc6af2d3,0xbc9a21c4,0x3d09a34a,
0x3d6b783b,0x3d6485b3,0x3b64cbc8,0x3d39661d,0x3d240587,0xbe033925,0xbc9d84e8,0x3c9e1267,0x3dc37c89,0x3d82e6b3,
0x3d8b3111,0x3dda3c4a,0xbd2f246b,0xbcc1a36b,0xbc772858,0xbd22a526,0x3d59cc74,0x3d16e7b8,0xbd217152,0x3ca3e277,
0xbd632a31,0x3b93abd6,0xbc755aee,0x3cbf5aa2,0x3c1c478e,0x39cb5d8b,0x3d8b4de5,0x3a150255,0xbac076c8,0xbd6c9f3d,
0x3d9c7aab,0xbcc81e12,0x3cbb2942,0xbc5e8aea,0xbc09aba3,0x3c4edae5,0xbd354caa,0x3c873d54,0x3d1589b8,0xbc635196,
0x3c38aa38,0xbc3169f4,0xbce07167,0xbd4f3e79,0xbd442399,0xbc94c90e,0x3c325304,0x3ce3feaf,0x3cd9bb0b,0x3c2444e1,
0xbd1da67b,0xbc922dfb,0x3cc3d892,0xbd179b64,0x3da0cf8c,0x3c8891b3,0x3cf78ac0,0xbd397cbb,0x3c9c2acf,0xbd27fca4,
0xbd07d99a,0x3d8ae23d,0x3d217455,0x3d5e5643,0x3c6d1f97,0xbd5b662d,0x3c4bee99,0x3cfb6f95,0xbd7b0778,0x3c33f79e,
0xbd850ab4,0xbcd6e51c,0x3d095901,0xbb3704af,0x3d68437e,0xbb8f1ade,0xbd3182ac,0xbc5ec6e8,0x3cdd06cb,0x3dad0a1d,
0xbd8b0c94,0xbd6e1aaf,0x3e1980ce,0x3d3ffc93,0x3c127466,0xbdafc45b,0xbd67d6cb,0x3e0c8041,0xbd4f1296,0x3b0b15e4,
0x3cae1ffd,0x3e374394,0xbcdbb7ee,0xbc9fb79d,0xbd2b3f26,0x3dda9f2d,0x3d8165da,0x3c412162,0x3d88bea1,0xbdd0abfe,
0x3a8a8e07,0x3d4fb5f3,0xbd270e21,0x3d0c8c5e,0x3bb714fe,0xbd4fe90a,0x3da80643,0x3cf44231,0x3d725dda,0x3d66a77d,
0x3d0b6562,0x3d7bb74c,0xbcf82ffa,0xbd787a6d,0xbdae601c,0xbbf44dad,0xbc47edba,0xbdc9e951,};

