const static size_t backbone1_7_1_weight_size = 8064;
static unsigned backbone1_7_1_weight[]={
0xbdc1560f,0x3e0ad231,0xbcd63f1b,0xbd7dc82b,0xbe20ecd1,0x3e786926,0x3dc985b1,0xbca0398b,0x3cda27a8,0x3cefe1f6,
0x3e16752a,0x3ced8f67,0x3daa5866,0x3ded0f33,0x3cb22991,0xbd065edc,0x3d963b4b,0xbd466b17,0xbd6e6fd0,0x3d7eef5e,
0xbdbfb445,0x3d8838bd,0xbd6090f1,0x3e2003ff,0x3e57056c,0xbde88ead,0x3d48bd74,0xbe0b116e,0x39b48149,0x3e45def1,
0xbe2482bc,0xbe56ac4a,0xbd03054c,0x3db1dd97,0x3de22965,0x3e4279e3,0xbe5eb6e9,0x3df651a0,0xbd852bfc,0xbc492006,
0x3ddd41be,0xbd34a4c7,0x3c37c56f,0xbdb63674,0x3cd7971a,0xbda1a80b,0xbd80af4b,0x3d5d1913,0x3df37790,0xbc333391,
0xbdd74003,0xbd82fb60,0x3ddb02bd,0xbde07447,0x3c3e78e5,0x3d1487f5,0xbc8405e8,0x3dbfd961,0x3ca8af08,0xbd4be86d,
0x3b11bd6a,0x3c3a9272,0x3bee622d,0x3e28f3ec,0x3d6be3ed,0x3c6b2137,0x3c833816,0x3d19aabd,0x3d1b8066,0x3ab8029e,
0xbe007289,0x3e8f428f,0xbdd9e7a1,0x3d200f19,0x3dd140f3,0xbe1015cd,0x3beadc70,0x3d608af5,0x3da1d76e,0xbe6a1f7e,
0xbda85141,0xbe7a10e2,0xbe15f236,0xbe26d0bf,0xbe5447a4,0x3da95da8,0x3e97276c,0xbd81907f,0xbd5947ba,0xbd807bcc,
0x3eb639ff,0xbd55eaab,0xbd6f4a73,0xbd5013e5,0xbdedc163,0x3e316c84,0xbd9bff30,0xbd916420,0x3bee8408,0xbca53ca5,
0x3dc2cf7f,0x3e2d23c4,0xbe3ff123,0x3e0c8c8c,0x3d88534d,0xbdaea205,0xbe75503f,0xbe8ba174,0xbe135110,0xbdee22f8,
0x3dcdd1c9,0xbca6f29c,0x3df1cd4a,0xbe8c5717,0xbcebd712,0x3dbf79e6,0x3e54dee9,0x3d946058,0x3b81578a,0x3dddc28a,
0xbd3b044f,0xbe227bdf,0x3cc10a11,0x3de008ac,0xbe028943,0xbd9f46e5,0x3d8cfdc7,0xbbf0e158,0xbda5dd66,0x3e428f6c,
0x3d83c53f,0x3c5083cf,0xbd92c7e7,0x3d1698f1,0x3b99d66b,0x3d63fcbd,0x3dade780,0x3dda65ff,0x3ddbaef6,0xbd9728f7,
0xbe0d1ce4,0x3e1b3792,0x3d82eb6a,0xbb086b2b,0x3d7257c2,0x3d8ec11c,0xbe0ebefb,0x3d044992,0xbe95bfa7,0x3a893d70,
0x3e902441,0xbe47faa1,0x3d9b8cae,0x3e20cf2a,0x3da6c894,0xbd979bf0,0xbdbb7599,0xbc60706b,0xbdbe25c8,0x3e0c73f1,
0x3e1d7efe,0xbdf2a9b1,0xbd058a59,0x3d65271f,0xbc38fa5b,0x3c3395b7,0xbd84ae35,0x3e42f5da,0xbe656b08,0x3dd4fc34,
0xbce779d0,0xbd37f7e4,0xbe02105f,0x3c33a4d7,0x3d0ac0c5,0x3e85ec1d,0xbe8c0c87,0x3dd4b310,0x3eacc337,0xbe4b1849,
0xbd66d422,0xbdeddee0,0xbde4a720,0x3ebbfa43,0x3d6876a1,0xbe9f9f65,0x3e1b23a6,0xbd760159,0xbd2b39e4,0x3ccfb1db,
0x3e0d1fc4,0x3dc22156,0xbd1bcc73,0xbd3d42c7,0x3e67fd7b,0x3d1cab35,0xbdce33cc,0x3e1ac830,0x3e433697,0xbe276d0c,
0xbe878e09,0x3e826d72,0xbd31b464,0x3df97c29,0x3d315662,0x3e6ecca1,0x3e6f7699,0x3eb3bb8f,0xbcc949b6,0xbec6d18f,
0x3da8094f,0x3d5faf93,0x3e7b3eca,0xbd8f86a0,0x3e097f6c,0x3e1556d6,0x3c9155bc,0x3d35eeb6,0xbd08b987,0xbb77d095,
0x3d194d04,0xbda8eab1,0xbd95c0d1,0xbdde2ba0,0x3ca71c4f,0xbdc00df3,0xbd8aff29,0x3d87c9c4,0x3d8c4944,0xbdf45aac,
0x3d346d69,0x3e69f3a4,0x3e179e6a,0xbcf5c952,0xbe3e369b,0x3ddd0d6d,0x3da65c88,0x3d4f33b9,0x3cbe24ca,0xbc9ea6b2,
0xbf03c01b,0x3d133ddb,0x3e8ab064,0x3d7bde40,0x3de489e5,0x3e984995,0x3e1ec95d,0xbd84d955,0x3e335493,0x3da29fee,
0x3e0f4509,0xbe42016c,0x3dbaf210,0xbcbac52a,0x3d1b3d58,0xbd044caa,0xbd4fca32,0xbd2244df,0xbce13ddb,0x3de85379,
0x3dcd054e,0xbe2dc3b0,0xbda94bca,0xbd357fee,0x3d9dc12e,0x3ded2188,0xbe2e581f,0xbca699f3,0x3d9c875d,0xbd08e610,
0xbdf4ce4c,0x3b092d2b,0xbcc77359,0x3d2548de,0x3e083adf,0x3ce02bd2,0x3d89d462,0x3d223bfb,0xbcbf2b42,0xbdccc761,
0xbc8dcce5,0x3de7f329,0xbd68c443,0xbc110eb6,0xbce4f7a9,0x3e22d2b0,0xbd5f3b86,0x3cc59125,0xbbb053ee,0x3c9e03b9,
0xbdcd5486,0x3d10452f,0x3da27a83,0xbe2d603d,0xbe0d994a,0xbe23981f,0x3dc29806,0x3cf1a197,0xbd74e085,0xbd83e1a1,
0x3e2deb5a,0x3da26582,0x3df9f212,0xbc97d4bf,0xbd88e7f9,0x3d0f597b,0x3b91dd4c,0x3db98f94,0xbbcf2fca,0x3dc08440,
0x3d8f79a6,0xbbc825bb,0x3db5a567,0xbc9cb329,0x3e269fc8,0xbdd1c57f,0x3e231d75,0x3e69b22e,0x3d966fae,0xbda313f9,
0xbd6ef663,0xbca66e0a,0x3dacf727,0x3af48214,0xbe487f5c,0x3d681681,0x3dc66899,0x3de87f93,0x3e112d31,0x3e18f111,
0x3c201a45,0xbd94b794,0x3e2ca566,0xbd6a765e,0xbda70b2c,0xbe895eae,0xbcda1a53,0x3cf2ad97,0xbdaf79ea,0xbdf02a86,
0x3cd15dba,0x3ddbc39e,0x3d06f384,0xbd94c150,0x3c110714,0x3e1d7dc6,0x3dd596f3,0x3e643703,0x3c1b5e45,0x3d5da026,
0x3e18043c,0xbd502b01,0x3e3f33da,0xbdb2c709,0xbae5f85e,0xbe401729,0x3e0b6f50,0x3c994166,0x3d612f2f,0x3d413e0a,
0x3d29809d,0x3dd93df7,0xbdfda02d,0xbd1b3f1e,0xbd6df8e7,0x3c1b3cdf,0x3c94c2c2,0xbc4afa1b,0x3e47f4f7,0x3dda670f,
0xbe475966,0x3d7ac3cb,0x3e2e415a,0x3d21cb6c,0xbde85cfa,0xbca1ab6d,0x3d92735d,0xbd0ac19d,0xbc88d086,0xbe8b93a3,
0x3de01733,0x3def2dc4,0xbdf73318,0xbc9aaa24,0xbd11931e,0x3e0f550c,0xbd37eae3,0xbc41594e,0xbe11cd34,0x3dddc083,
0x3e73cdeb,0x3d427b96,0xbc194fdc,0x3d26c293,0xbdc616a8,0xbe4cd395,0x3e0a251f,0x3de79884,0xbe140ad8,0xbd43e51b,
0xbd580895,0x3e06aea4,0xbe8ab81f,0xbdf4e102,0x3e0feb76,0xbdd989f2,0xbe882d43,0xbde90f41,0x3db1a864,0xbe5bf0fa,
0x3e7db9c0,0xbe487ca8,0x3e7c27bc,0x3de2ee4d,0xbd21f221,0x3e204a86,0x3e8d5609,0xbdad4e61,0xbe040a4d,0x3dd1eff9,
0x3cb3e186,0x3da962b7,0x3d6fd9cf,0xbd3485c7,0xbd296759,0xbc7bc8d5,0x3dab8fe7,0xbd80b104,0xbd6245a7,0x3d4255ea,
0x3e5a9313,0x3d4fdecb,0x3e02a9d2,0xbda38d8a,0x3d7b6109,0x3e071927,0x3c001911,0x3d9b94db,0xbe481a8f,0x3e0ae060,
0x3d9b7969,0x3da601cb,0xbdd7003d,0x3e18e9cb,0x3d4b3688,0xbcdd81f4,0xbc648e39,0x3e0e8cef,0xbe81eced,0x3e4079b2,
0x3ccb8f11,0x3c23af67,0xbd2f1586,0xbd19972c,0x3c70a27f,0x3cb2bbf7,0xbd3e7f85,0xbd998c46,0x3da99264,0xbde794ee,
0x3e531f06,0x3d88db8f,0x3cd46d93,0x3b909fb6,0xbd24a14a,0x3d3cf9c7,0xbe0b8aa7,0xbda6cd7c,0xbde438db,0xbb6f2087,
0xbdcf95e3,0xbafd8db7,0x3d4d6205,0x3d96d1f9,0xbda49712,0x3bb16195,0xbdfce925,0xbdb0e7f5,0x3e16ee03,0x3b8f94b2,
0xbca7f1a6,0xbd4aa6cf,0x3db67c34,0x3d9597a2,0xbe1ec99c,0xbe5ae221,0xbd298ffc,0x3d7b4130,0x3caceb7a,0xbc60087a,
0x3cd2f7e8,0x3d0e03a5,0x3c853774,0xbd0c0f04,0xbdacd382,0xbd70fbdb,0xbcc24437,0xbe0810ea,0x3af1158d,0x3eaa6cf3,
0x3d908eb8,0xbd626fda,0xba187a26,0xbd6b054a,0xbc8504ec,0x3ca08b7f,0xbdd00018,0x3e7cc510,0xbd5eb208,0xbd3dc94b,
0x3dbeb696,0xbc85ac1d,0x3ccb5516,0x3deb338c,0xbb02e36e,0x3d928785,0xbe2747cd,0xbdfc87ca,0x3e296913,0x3e994c1c,
0x3cbbeea4,0xbd328278,0xbcf69995,0xbc2578e2,0x3c3c9b6d,0x3bb38b07,0xbd0e20e8,0xba599d0a,0xbdad3640,0x3cb41732,
0xbc4a7d22,0xbdac6b22,0xbe1e960f,0x3e46e69c,0xbe202da4,0xbdf56f1b,0x3dc991a9,0xbb1857cd,0xbe3ae291,0x3e32a514,
0xbd18f7ad,0x3d3edeb5,0xbd388e21,0xbda1c5dd,0xbd13a3e3,0xbdcdcb94,0xbd0e3c09,0xbd980c8d,0xbe15aa85,0xbd2b3fe3,
0xbe49504d,0x3d9ac06a,0x3d8acebd,0x3d017f74,0xbd210f23,0x3da34c28,0x3e3f1a36,0x3c3ea741,0x3c8531e2,0xbd9ace95,
0xbd771d57,0x3d294ec6,0x3def4722,0xbdcf844a,0x3e435bfc,0x3c8e9ae8,0x3dad30cb,0xbca5a8f0,0x3ce2675f,0xbb7f5da7,
0x3db3cf09,0xbb27731e,0x3d90e466,0xbd4b5a5a,0x3e672419,0x3d0b6caf,0xbe110d51,0xbce4c3d5,0xbab2fb03,0x3e6c1a51,
0xbde98744,0x3dbb2b25,0xbe3cc6bc,0xbe35b3b1,0x3e2e22a2,0x3d88a449,0xbd437d9c,0x3b61e8e0,0x3e113e12,0xbd1c2a42,
0x3d081e81,0xbd89b7a1,0x3d81896c,0x3e1eb98c,0xbd3caf82,0xbdfd3633,0x3d9a623c,0x3cea603f,0x3cb1f3b5,0xbe9c3222,
0x3c1788da,0xbc616c82,0xbe227c34,0xbe392da3,0x3e526a52,0x3d91f6ab,0xbd909a1d,0x3df2556a,0xbe1eae66,0xbd5ae88e,
0x3ce434da,0xbc97e051,0x3acaef9f,0x3cc1ba3a,0x3d99d441,0xbe829975,0x3e18f8b6,0x3cf028fc,0x3e2dfc0e,0xbe252cc2,
0xbda1deb2,0x3d2836b5,0xbca31c1f,0xbcfc4197,0xbe0a10bd,0xbdf58212,0x3c9540e9,0x3d1d40b7,0x3bac1e10,0x3d601f4c,
0x3e16d5fe,0x3e737f5e,0xbd0383f8,0x3be57395,0xbe0fa3ff,0x3e6de344,0xbe597315,0xbd7e553f,0xbdaee72c,0x3e032496,
0xbd7d2f3d,0xbe0ec2d9,0x3ed0cfc8,0x3e664a07,0xbe126f8c,0xbe80e8e3,0x3e186fd2,0xbc6c1ea7,0xbd384d25,0x3d5fefd5,
0xbdb874a9,0x3e7274d8,0xbdea068b,0x3e3b9515,0xbcdf622a,0xbccd49a7,0x3cd5b7b0,0xbd84b3b8,0x3d68cd5c,0xbe3cf5fc,
0xbe5ad053,0xbe23ef37,0x3e4951da,0x3df0bfc3,0x3e85d67e,0xbceb8356,0xbda1a811,0x3dbcad37,0xbd8bff99,0xbdf3e138,
0x3c66a798,0x3e148a0d,0x3e4dd2b9,0xbdb381fb,0xbd6265c2,0x3d7da95f,0xbd3ae68b,0x3cd3a135,0x3c8759ef,0xbd783a76,
0xbcb2c6c6,0x3db89bab,0x3e074ced,0x3de60b65,0x3df18bb9,0x3ba3a259,0xba4ef7c2,0x3d13c213,0x3e1ce299,0xbe980d2d,
0xbd54b49d,0x3d30af9b,0x3db508dc,0x3d349981,0xbd878c24,0x3d0159f2,0x3ca18cd6,0x3dff4690,0xbe6315ba,0xbf01e9cc,
0xbd27df77,0xbcb73af8,0x3acf43cc,0xbe88ab79,0xbe907448,0x3af10ba0,0x3e0dd865,0x3e6c986f,0xbed2b1f0,0x3e7ddb0b,
0xbe0d6ec9,0x3e8b7134,0xbde7daea,0x3c84ff3d,0x3de0bc29,0xbcded6a0,0x3d40ccd7,0xbded78a0,0x3d43e260,0x3c2429d3,
0xbe02e819,0xbd90ec8a,0xbc8aaee5,0xbe3453de,0x3e511d92,0xbe79733a,0xbde9de03,0xbc6a3604,0xbe359c18,0x3ce25f21,
0x3e12e9dc,0xbbe7c34e,0x3cd81bab,0xbdda97be,0x3d537c9a,0x3c57b708,0xbd9bd108,0x3dfae31f,0xbcfd9102,0x3dfbf585,
0x3d1c48da,0xbb9deb52,0x3da275f0,0xbb64cddf,0xbd7a6e14,0x3d814d11,0xbe81140b,0x3d341e7d,0xbe2c0492,0xbc7474de,
0x3ced87e5,0x3efa3906,0xbd9e0f70,0xbdd1d0fc,0x3e37aa73,0xbdd0ad30,0xbdf79655,0xbdcb3b42,0xbd854211,0x3e09abdc,
0xb93ad97b,0x3de7c8d0,0x3c2b5dfb,0x3c0c972d,0x3d8ec7f3,0xbdc61e97,0x3e3af445,0x3de97ff4,0xbd0b46bb,0xbe81d1eb,
0x3dd4d91a,0x3e0219db,0x3d772e3c,0x3d3bc9da,0x3db7f105,0x3e1dfbfd,0x3d16cfb7,0xbdeb8cdc,0x3a1c29e3,0x3e81c634,
0x3e239346,0x3d7cf25a,0xbdab08c9,0x3bb8ecd6,0xbcd64337,0x3deff1e0,0xbbe03c78,0xbb210f0c,0x3ce208d1,0xbd42b916,
0xbe0f0868,0xbe5d9786,0x3d36c41e,0xbdbf10bb,0x3e4899fc,0xbe55f61d,0x3e81d9d6,0x3d8f3f10,0xbcd0a0a1,0xbb7865b6,
0x3e0cc328,0xbd9b44ed,0x3d8b5253,0x3c2bab6f,0x3e342aaf,0xbe007766,0x3d35b27d,0xbdf77f7d,0xbe87ce99,0x3dee80e3,
0xbdae7ebf,0xbc99d740,0x3d6c9b74,0xbd8495bb,0x3dab64a5,0x3e47a537,0x3c3b9b06,0xbd13c629,0xbde04f19,0xbce7d846,
0xbe0d75ed,0xbe081877,0xbd610295,0xbe3ea823,0x3da35dfc,0xbcddde5e,0xbdb0fd2a,0x3e0af075,0x3ce8c6e2,0xbc632c8c,
0x3dff83d2,0x3c7424b0,0x3e3fbb4c,0x3cfab36a,0xbeaaa812,0xbe5dde97,0xbd8a5aee,0x3c9e444f,0x3dbecdff,0xbd86017b,
0x3d3cc913,0xbe058ed8,0xbe1b7628,0x3d86bbf9,0xbda7761e,0xbd16bc61,0xbd503bb2,0xbda19df1,0x3db2c234,0x3a7ad017,
0x3d68ad76,0x3c9ea47f,0xbe22af47,0x3d8481e8,0xbea03344,0x3e6190f3,0x3d1117d1,0x3cd40dde,0xbcc04325,0xbe272247,
0x3d328273,0xbe8bd81a,0x3e3411c1,0xbc02b102,0x3e09c0db,0xbb46feeb,0xbcb51586,0xbcf1430a,0xbd9675c4,0x3e22f33e,
0x3db31376,0xbd720bdc,0xbdb2732c,0xbdd29798,0x3ded54b3,0x3de7b672,0xbe1c7211,0x3c113572,0xbd8707b2,0x3dc4348c,
0x3e625f2a,0x3e9f26bb,0xbc5fdc06,0xbd07a4ec,0xbcbdeb26,0xbdb1fca9,0x3cba0fad,0x3d7361f0,0xbb1c0c4a,0xbdcda1f4,
0x3ca7f375,0xbb8ce7fb,0x3d42144e,0x3d55ddf5,0x3eaef5d6,0xbaf6f1f1,0x3e05a555,0x3df53591,0x3d50cd3e,0x3da64aeb,
0xbe68ed6c,0x3dfe4844,0x3e2ef6c8,0x3d11b3b5,0xbe0be0c4,0xbdd38d37,0xbe78b2fa,0x3e530d37,0x3d1a2c71,0xbb9d196f,
0xbd2ee44f,0xbdec3373,0x3ca8e3fb,0xbe61fa0b,0xbd3179fd,0x3e3b5b90,0x3ca0e1bd,0x3e8e274b,0x3ce70b2c,0xbbc92b01,
0x3d1e3723,0x3da8bcc1,0x3e5b1734,0x3e6196ae,0xbd05ddac,0x3dd02520,0x3cf9cb50,0x3e2464cf,0xbe7d2acc,0x3db92bca,
0xbdf650b4,0xbe5c6c48,0x3e966231,0xbda6d6fc,0x3d06415f,0xbd5c346b,0x3df6caa0,0xbe1c2b11,0xbda6c4ae,0x3de977e3,
0x3d4c5fbd,0x3e1a9bd6,0xbda5b35e,0x3e226fbe,0x3e203d1e,0x3e52bce3,0xbe32c270,0xbcfc9cd7,0xbd4cc5e3,0xbe1e6899,
0x3e9dfa6d,0xbd07dd65,0x3eee318d,0xbdb5507d,0xbe3bf87c,0x3e011f30,0x3e3b71c4,0x3eb78f33,0xbd0154ee,0x3e3651a9,
0xbcd81b0d,0xbd41dcdd,0x3de30d8e,0x3dbb4e6f,0x3e396692,0xbe40c7b3,0xbd8934aa,0xbd9af3bd,0xbcb6d8d0,0xbca3f372,
0xbb95adbc,0xbdcf9ec1,0xbdc27fc9,0x3db1d13a,0x3ddde20b,0x3dc8afc7,0xbc8257f0,0x3d6dd992,0x3d823d82,0xbdfe1a8a,
0x3ca3151b,0xbd5f9005,0x3d89e300,0xbc705c45,0x3de98f9f,0xbde109f5,0x3de3ebb5,0xbd961e19,0xbddf8f80,0x3b7b8636,
0xbdca2402,0x3d6111ca,0x3ce6786d,0x3d572c9c,0xbc850cc5,0x3e807332,0x3ddaf15b,0x3d9c844f,0x3d14424c,0xbdbbb7c1,
0xbda2cf39,0x3e0178df,0xbda73f53,0xbd93f74f,0xbbdb56c1,0x3e26a23e,0x3dff5b4a,0xbd9462eb,0xbdae7f5d,0x3d96580e,
0x3b355576,0x3c5cd464,0xbce60747,0x3d9e80ff,0x3da48bdf,0x3c586af9,0x3c2abc78,0xbcef207a,0x3eb34aef,0xbda3d781,
0xbdd7c802,0xbd251de5,0xbda37318,0x3c2743da,0xbd4c692d,0xbd63ee6b,0xbe52b983,0xbdd97f9d,0x3e4ceb27,0xbdc5827e,
0x3dac70b4,0x3d7b2045,0xbcc0479b,0x3e2e4eb1,0xbe4db655,0x3cf377ce,0x3de258a8,0xbd8d7642,0xbd3f42cd,0xbc9473cb,
0x3d6d5dd2,0xbb1c9900,0xbd2447b7,0x3df8428e,0xbdf2db48,0x3dd4f491,0x3e21389f,0xbbc8b538,0xbe970c3d,0xbbeefcbb,
0xbd9dfb3e,0xbc97311e,0xbc373cdd,0xbde276bf,0x3d04bca9,0x3da99b60,0xbca0f4ac,0x3d956287,0xbd7e929b,0x3c15380b,
0x3c97b036,0xbd374497,0x3d89c7dc,0x3d583495,0xbd0d6e0c,0xbe647b7d,0xbd735472,0x3e61c8c3,0xbb959b2d,0x3e13288c,
0xbd3b31b7,0xbddbcd13,0xbe202803,0xbe23cb1c,0x3d95a61b,0x3e01fe5b,0x3dfb57ee,0xbe05ddab,0x3b02a05a,0xbdd28ccf,
0xbd4d309a,0xbdec396d,0xbc5cd666,0x3dd00202,0x3e91b6b4,0x3bd3f4f4,0xbe16a567,0xbdf54402,0x3e274851,0x3d7b0edd,
0xbd8c97c4,0x3d946838,0xbe253c1f,0xbe3e1b7e,0x3da4d874,0xbd49f6e6,0xbd1056ed,0xbd83924f,0x3d78fd36,0xbe633c66,
0x3e3c58a0,0xbe3280d6,0xbddad8ae,0xbdd0a91e,0xbe457865,0xbd061f66,0xbd0734f3,0xbdbeb64c,0x3e86a760,0x3dae5321,
0x3d70e4f0,0xbc7a057d,0xbcfbb352,0xbe023270,0x3e32c76a,0x3e4b91ab,0x3d8fa8e8,0xbc2fd248,0xbd574786,0xbe33c831,
0xbd80b982,0x3c492541,0xbc2b5313,0xbe44be59,0xbd1ad070,0x3e0b7c94,0x3d1f19e6,0x3d670c1e,0xbd69e657,0x3e88d1a8,
0xbd571961,0x3dd68142,0x3dcb22d2,0xbe17b435,0xbcce27a6,0x3bb3ed43,0xbdbc97ed,0x3d04d9df,0xbd63ebc3,0xbdadb77d,
0x3e21f51c,0x3dad5c3b,0x3daed1cf,0xbe65229c,0xbd2ffab6,0x3ddb4688,0xbd0ffdf0,0xbe163dc8,0xbc6beec2,0xbd2c595f,
0x3d3e91eb,0x3e14b27f,0x3dacff10,0xbe09d9df,0xbb8eaa13,0xbc6b8f4e,0xbdcf8b43,0xbe13b1c8,0x3dff29e7,0xbd78a996,
0x3e81a383,0xbd164b27,0xbe27ea44,0x3d4d79d1,0xbd872a99,0xbdd59ae8,0x3cf34eee,0x3cb48036,0x3d922044,0xbd76231c,
0xbe8be7da,0xbe366438,0xbe07523e,0x3bdb2cee,0x3e0606dc,0xbd90de14,0x3e3f10cf,0x3db73362,0x3d4142c7,0x3cc6ac7e,
0x3b05220f,0xbc6ed3e4,0xbd985cfa,0xbd9702bd,0xbd8220f8,0xbe2b9858,0xbea1ffd8,0x3cec6426,0xbd236b92,0xbe3cd6ba,
0xbb932aa7,0xbe15ba7e,0x3c962a30,0xbd96a597,0xbdb45d56,0xbaed43b8,0x3cb0bfdd,0xbd0a2885,0x3d9625c0,0x3e519d3d,
0xbe7bb264,0x3c4ae98c,0x3e0113e7,0x3d9c2cd3,0xbe2f5a54,0x3ca0ce00,0x3e41921d,0xbccf96b2,0x3c973dbd,0xbe7acb15,
0x3c5cc518,0xbe132fb7,0x3de9a3a0,0xbd24355f,0xbd94e329,0xbca97a3c,0xbe78def5,0x3b80531e,0xbd602a8b,0xbdd35c6b,
0x3dd15c1c,0xbc21d2f6,0x3db18304,0x3e009785,0x3d1df15d,0x3cc2e410,0xbe40985a,0x3dd44ac5,0x3dfcad3c,0x3d2cd754,
0x3d0a39be,0xbd98d9f2,0xbca4cf2e,0xbac342b5,0xbbb223f7,0x3d33062d,0xbcd50383,0x3cb0c52d,0xbc78026a,0x3debbaff,
0x3cc5821b,0x3ccf35fd,0x3d59aaa6,0x3cbefa00,0x3c0d95d8,0x3d06e66b,0xbd956a98,0xbc0c0850,0x3d806942,0x3e25fb81,
0x3d8130f3,0x3caa80a4,0x3e155f35,0x3d103956,0xbe0a42ef,0xbcab9d0d,0x3d8ca0d0,0xbd3b19bf,0x3e33c851,0xbc7700f2,
0xbd9d7ab5,0x3de1c06b,0xbe4b7f58,0xbd34bc20,0x3e2d9c76,0x3ced05c9,0x3e514964,0xbc055a02,0x3e0a0db7,0x3e360940,
0x3da46a17,0xbc12b0cb,0x3c82e4c6,0xbe7398ce,0x3e0e2bae,0x3b49290f,0xbe08a24c,0x3e091eae,0x3e1b5918,0xbe403ec7,
0x3d815a95,0xbe412821,0x3e112fbb,0x3e1c92bd,0x3c082e04,0xbe69f484,0xbd7fdf10,0x3dc0d720,0x3d3c06ef,0x3c455e8c,
0xbd78d270,0x3d7c6112,0x3e31d912,0xbe214658,0x3c37a063,0x3d6b9b7e,0xbe653d36,0xbe6ebcdb,0xbc00648a,0x3d28dae2,
0xbd9df332,0xbe2efc8f,0xbdacc817,0xbe2643cd,0xbd8332c2,0xbdb6a33d,0x3dae695e,0x3db1547d,0xbe29b773,0xbd88769e,
0xbe4dc818,0x3e81a6b6,0x3cb2ef6a,0x3d59faa7,0x3d9b07ab,0x3e29018c,0xbdac9f3c,0xbe6f2c20,0x3e6f3087,0xbd7e25d2,
0x3b856c09,0xbe00298a,0x3d8ea0d9,0xbdf88abc,0xbe1c9302,0xbd8700af,0x3c9e7ec9,0x3d61bc07,0xbd8809ca,0xbd3aa17a,
0xbde184f2,0xbb28a389,0xbcd74244,0x3d9b9617,0xbd80553d,0x3d10f5b4,0x3da8af4a,0xbe2d01c7,0x3e0ce5d6,0xbba4b4ce,
0x3c7df3a0,0xbe8cf4ee,0xbd042890,0x3de7d485,0xbdfeec6e,0xbdbebec7,0xbb6eaa17,0x3dd78581,0x3cc6c2c9,0x3d37dfee,
0x3c84e9a1,0x3d31c3d2,0x3c8cfd0c,0xbbb7be88,0x3ce73682,0x3d8ac915,0x3e3e4e7e,0xbddb3a96,0xbdfb27b1,0x3c117089,
0x3b86de64,0x3c28274e,0x3d976030,0x3e09e701,0x3d3c2127,0xbd6a74a5,0xbd69cefe,0xbd7e41d7,0xbc7ec9b8,0xbc84f191,
0xbcd877c9,0xbdaa8d7a,0xbcf70b8d,0xbdbffc03,0xb9eb2c3b,0xbdd0ef5e,0xbd608800,0x3cce66e1,0x3dbe6cde,0xbe0774f1,
0xbc77d940,0x3d8ef788,0xbdecab69,0xbce6b846,0xbcd2960a,0x3d4c5edc,0xbd79478f,0xbcd10984,0xbcf66bb2,0xbdd3a7aa,
0xbdfa35ab,0xbe822fc4,0x3cbcbac8,0xbce9c5ae,0xbbda6fb8,0x3c92d219,0x3c405b11,0xbc5dbbfd,0x3ce8a714,0xbdbadd46,
0xbd483293,0xbca89d27,0x3d400ab4,0xbe1ea0ee,0xbcab4363,0x3d86684e,0xbd215a86,0xbd819c59,0xbd67f554,0x3c094372,
0xbc1ffd73,0xbcc64f15,0x3d06fcc7,0xbd98a052,0xbc665021,0xbe7aebbd,0x3b45e714,0x3c6b3785,0xbc9a4596,0x3da52106,
0xbd867723,0xbd0523ef,0xbc967835,0x3abd8575,0x3dccb711,0x3db96b99,0x3db5be97,0xbcdde09d,0xbe7b81ea,0xbd74d70b,
0xbd7ea4fc,0xbd1dc6dc,0x3b7888d7,0xbdb065a1,0xbc9c0e63,0x3d28541b,0x3db41bc3,0xbba87a6b,0x3dcd5e70,0x3d740527,
0x3d97b50f,0xbd384ea0,0x3d1a5486,0xbb9558fe,0x3d6fcc59,0x3d0eb30a,0x3cf4249a,0xbd6b3946,0xbd63180c,0xbe0a25cf,
0xbcd50917,0xbd124c67,0xbd1e7fc6,0x3daba8fc,0xbb283758,0x3e12e7c3,0xbd87af91,0x3d7377f8,0xbc5764e3,0x3ccb4d6f,
0x3da2dd88,0xbd0241f1,0xbd88464c,0xbd837ec7,0x3d07faf2,0xbc5c30e2,0x3e2e1730,0x3e20d9dd,0xbcb9e1ac,0xbc2ec959,
0xbdaaaee7,0xbd9e72ab,0xbdb7cbf0,0x3c351400,0x3d4939f2,0xbd2c6bbe,0xbcb5d0d4,0x3d84fb11,0xbde621e4,0xbd9c9dcb,
0xbe4a480a,0xbc52790b,0xbbdc14fd,0x3bfc13bf,0xbd5d3d54,0xbd99213b,0x3d716eda,0x3e3d2a56,0x3cfc7c9a,0x3d270e5e,
0x3d7b7683,0xbc25c265,0x3e07f1e8,0xbd000ebb,0x3b6a4624,0xbc9e85b1,0x3d22d2b4,0x3ddfa25a,0xbd3fb69c,0xbbe04e3f,
0x3c4251af,0x3b891b78,0xbdfaba85,0x3dd196fb,0xbd48437e,0x3d45b0df,0xbdc36710,0xbd7954d7,0xbc67581c,0x3d8ff19a,
0xba3924ce,0x3d7e783f,0xbdaf73d8,0x3bd0e613,0x3d619884,0xbe062a74,0xbdbf47d7,0x3ca8f7b7,0xbd60ab78,0xbd6c837b,
0xbd991d8e,0x3b6ee1f3,0xbdc1c254,0xbd183df5,0x3c540d77,0xbddd8013,0xbc6501b1,0xbd8961f9,0x3d808f9f,0x3da0f403,
0xbd75d414,0x3dbe1426,0x3d6ede89,0x3d89b78e,0xbda995b3,0x3e3e9c86,0xbdb7d5b4,0x3a9e05a7,0x3e09e0d8,0x3cec4750,
0x3d061f46,0xbe5fb193,0xbdeb47bd,0x3d2771ce,0xbd12ae01,0xbccca4b5,0xbc3406d3,0xbbc123a3,0x3e3ed1d2,0xbd523615,
0xbca1b283,0x3d278dd9,0xbd10c56d,0xbe1254de,0x3c9aa63a,0xbd44960a,0x3e1161d3,0xbd0f868f,0xbc2c5c5d,0x3e567f71,
0xbe3e8591,0x3dfb1be1,0xbe104b0e,0x3ddb272e,0xbe0fce0d,0xbcc7bd3d,0xbdcfebb6,0xbdb68026,0x3dbebb9f,0x3b71c4c4,
0x3caed0e0,0x3d078a92,0x3d5a850a,0xbcfac92a,0xbd1af5d1,0x3dc8e212,0xbda13fde,0x3e5728d3,0xbdd4a964,0x3d74765e,
0x3dc5dbbf,0x3d2f44f6,0xbe192328,0xbe3fd2f9,0x38d3b61d,0x3c48c41b,0xbe513f24,0x3df59dcd,0x3d6f5d05,0xbd46c740,
0x3c3fe386,0x3de47c37,0xbc47557f,0x3d843f95,0x3e44edac,0x3e64784b,0x3d547d1e,0x3d8c3f5c,0x3d92b13d,0x3dad4585,
0xbd44cfbe,0x3d202afb,0x3d976cb0,0xbe24f6b1,0xbdf9d278,0xbd66e4f5,0xbcb324a5,0x3ddd8c55,0x3d683cf0,0xbc0ad4de,
0x3e3f7d8d,0xbce47c9a,0x3d1bca58,0x3d850409,0x3d71ed1b,0x3df96527,0xbd8e0120,0x3da38f89,0xbc564d2c,0x3d6856e0,
0xbde3b0fd,0xbe1a3462,0x3dff0e91,0x3c8dc2cd,0x3d38a23a,0xbd5f12ff,0xbd9c3af9,0xbd79b65f,0x3dd5307b,0x3de70eff,
0x3e1290c0,0xbd4e5fae,0x3dce3d64,0xbd437bad,0xbc3f6e1e,0xbd9369c1,0xbd5f51f2,0x3d7e6011,0x3ca3a4f9,0xbcdcd34a,
0x3db4ef0a,0x3d601c7c,0xbe027213,0x3a87b026,0x3cabe2c3,0xbdc44f7f,0xbdbd4ed1,0xbca88f1a,0x3d92485e,0x3c82087b,
0xbd082508,0xbd09ef16,0x3d452741,0xbbb5c222,0x3d12da82,0x3d7a198b,0x3dd127e0,0x3d27c39b,0xbe53ca94,0xbe3b5109,
0x3dc4c9ab,0x3d5d2620,0x3e07ac88,0xbc82615b,0x3db35cbf,0x3c2f866e,0x3c72d9e5,0xbded497d,0xbdf3cdea,0xbd1e3bd6,
0x3d4752af,0x3e487b6c,0xbd85cc15,0x3e625f6d,0xbe2e3470,0xbd0a2744,0x3d7376ae,0x3e11b90b,0xbd231979,0x3caab8ce,
0x3c9e478d,0xbe377608,0x39625534,0xbdb090ce,0xbe805c0a,0xbe0bab56,0x3d1b0909,0xbd825499,0xbd9076c7,0x3d6fa6fc,
0xbcd31d95,0x3daa5951,0x3ce85672,0xbd49718e,0x3dd0d583,0x3e0ec65f,0xbd8804ae,0x3d7093e2,0x3cdb9235,0xbccf8c53,
0xbdbcf6f3,0xbe00410f,0x3c6641af,0x3caa2c39,0x3c293e5c,0xbcd99e97,0x3ddb7fbc,0xbc5324dc,0x3e5ca70f,0xbd52e81e,
0x3d180592,0xbdb3969c,0xbdee7edd,0xbe54ac84,0xbe1cfbcf,0xbd9e6084,0xbe825869,0x3e30ee07,0xbdadcac5,0xbdc7df6b,
0xbdcacbc6,0x3c8157fc,0x3d233b90,0xbe04ac41,0x3d41f58f,0x3db05f05,0x3dd99a75,0x3b9e297c,0x3e27af5d,0xbe09d596,
0x3e3b9051,0xbcc8b84b,0xbe57b278,0x3d447302,0xbcd35b4a,0xbc231866,0xbdaa4e99,0x3ce8c0a4,0x3d8dfb78,0x3e87f29e,
0x3cf2369c,0xbd295ceb,0xbd997e57,0xbe333de6,0x3d79f7a3,0x3da060ac,0xbd1dbccf,0xbbcf5941,0x3c9d6a20,0xbcbb2f45,
0x3da9cae4,0x3b48f4d2,0xbd4acb44,0x3e104ba9,0x3e419d70,0xbb75becb,0xbc90519f,0x3db09a5a,0x3e2dd045,0x3cd66e7e,
0x3dad3e30,0xbd72a7fb,0x3e29b7a6,0xbd8e7e13,0x3db35eff,0x3c642813,0x3e29ee5f,0x3e1d0a56,0x3cbf8865,0xbab452dc,
0x3d818100,0x3de57846,0xbd76068a,0xbcb81145,0xbe091910,0xbd439f4b,0xbd6bf299,0x3dfc3ee3,0xbae25fdf,0xbc9c9971,
0x3abcd1b0,0x3ca1d131,0x3d8c5fc8,0xbcb3f926,0x3df239e4,0x3c427d7d,0xbce59108,0xbdbaeea0,0x3ccb8950,0xbd090f9c,
0xbd1d5c5b,0xbc5d0cd0,0xbd9499b0,0x3d946588,0x3c1d5622,0x3ce554ed,0x3d8b638a,0xbba31c4a,0x3d9f0b60,0x3df627f2,
0xbda06e39,0xbe2baf10,0x3e623c3d,0xbc8802d3,0xbe4df9d5,0xbdb650c0,0xbdac3481,0xbdc7a61d,0xbcdeec95,0xbd6e4ad7,
0xbd1b789d,0xbde2353f,0xbc931cc7,0xbdaabc69,0xbd3aa01f,0xba5d9656,0x3dbeb7c0,0xbd01c10a,0x3dbec026,0x3c1a38d6,
0xbd21a7a3,0xbd5ba211,0x3d2d9214,0xbd3afe34,0xbcb61f98,0x3aa113af,0xbd5eaa83,0xbd2fa3f6,0xbd90a2af,0xbd818346,
0x3be0ae21,0x3e4177f7,0xbd1dd5e4,0xbb920c79,0x3d596a91,0x3c096a12,0x3d857edc,0x3ddbe6fd,0xbe0034ae,0xbcd3ebcb,
0x3d7cd9a5,0x3d90e2e2,0x3aed13af,0xbd3b7e4c,0xbb30c955,0x3db50a4c,0xbdebd6a2,0xbd9993b5,0xbdbfcb6f,0x3d04d769,
0xbde3651e,0xbd87c517,0xbd869b26,0x3c95b2cf,0x3b2e189f,0x3d811aad,0xbc6145ce,0x3d1e1b2a,0x3c9eb6fd,0x3d81a974,
0x3b76ace0,0x3da03246,0x3ca1d0a9,0x3cb809f4,0x3ba19939,0xbcada23c,0x3d82a7ee,0xbd3da7cb,0x3a8c2967,0xbc65919f,
0xbd1e2bbe,0x3d30b6de,0xbd2b193e,0xbcec0943,0xbd723396,0x3d8c35a0,0xbd65081e,0xbd29d88b,0xbc10e898,0x3d09f591,
0x3dade3cf,0x3de35de4,0xbd330959,0x3daa4029,0x3d4e7ab5,0xbd3e22f7,0x3dc3490d,0x3d373fb1,0x3bff7554,0x3b467cb6,
0x3d95f408,0x3d973fdb,0xbc8db2b4,0xbd45d247,0xbc64c288,0x3dcc18fb,0xbdab4d0a,0xbd854cf0,0xbd17b2ab,0x3ddfabfa,
0xbcfad336,0xbd77a3c8,0x3d6fb38d,0xbd1149a4,0xbc3d05e5,0x3bac6324,0x3da9217d,0xbd4ef948,0xbca98cbe,0xbce77aba,
0xbd48c887,0xbcdd4b06,0xbd4aafa5,0x3d52c9f4,0xbd4b2fc3,0x3d81ddc9,0x3d515e96,0xbb269847,0x3d1ced76,0x3d0af9f7,
0xbd699f51,0x3c16648b,0x3d3f54e5,0xbdb259cf,0x3d87042f,0xbd770fec,0x3cf5445a,0x3d17ca8e,0x3e0a341e,0xbe15b8ac,
0xbc89f102,0xbd028da4,0x3b8d0be2,0xbd7bf06a,0x3d2c4ce9,0x3d8f1765,0xbd7fbb0c,0xbdbf2372,0x3e1fcecc,0xbd9270f1,
0xbd128f7a,0x3c177a86,0x3d9ac598,0x3da06f03,0x3cbc7302,0x3d322524,0x3d104cbf,0x3c8cd905,0xbdd409d0,0xbd5bdc62,
0x3c1b446d,0x3c0d2966,0x3d7cfa20,0xbd559e4a,0x3e0dad28,0xbc4297b2,0xbcf9f49a,0xbe081b14,0x3d653e49,0x3d322f8f,
0xbc1905ce,0xbcc1f56e,0x3d6f0bd1,0xbbcb62c0,0x3b21b88f,0xbdde1d90,0x3d4aa4d9,0x3d539d5f,0xbe58eb66,0x3dd55a45,
0x3dc3121d,0x3d2af613,0xbc3645ab,0xbd076c53,0x3cab3fa7,0x3d06d778,0x3c49505c,0x3d39de29,0x3dce7515,0x3d9d254c,
0xbccf2286,0x3dd26647,0xbc6684c1,0xbb6dfaca,0xbe0d0ea2,0xbc3a64ba,0xbcb690d8,0x3cb271a6,0xbdcdf1c8,0xbd6e5888,
0xbda0354e,0xbd3fc7ce,0xbd671b8b,0xbcd85bc3,0x3b84a5cb,0x3da7f101,0xbd853712,0x3cfe27a3,0xbc9c30fd,0xbd04ccbf,
0x3e21af03,0xbbfe47de,0xbd97eb78,0xbcc2f109,0xbc32d17f,0xbce41fd2,0xbd9ce534,0xbd8bc895,0xbba8ac82,0xbda8f099,
0x3bc89c59,0xbd877f47,0xbe213e53,0x3d491b26,0xbd7eb0ce,0xbca3fe3b,};

