const static size_t backbone1_5_0_weight_size = 1152;
static unsigned backbone1_5_0_weight[]={
0x3d9a1dcf,0x3f0921cb,0x3eb17e4a,0xbe2b1e29,0xbfa96c7e,0xbbf38704,0x3e6632ad,0xbe55d4eb,0xbdc0aed5,0xbde73be6,
0xbe9d6daf,0x3ba2676c,0xbebeac18,0xbf71366d,0xbe565ad5,0xbe8751e5,0xbed7e70d,0xbdf5828e,0xbe24f8ff,0xbeb9fa13,
0xbdfc0441,0xbe5c6b16,0xbec7c592,0xbe55329a,0xbeae6263,0xbe9a5325,0xbdf057ff,0xbef37808,0xbf119683,0xbec80fc8,
0x3ef1cc2b,0x3fd79696,0xbe36dfc2,0x3c987f34,0x3e938c5e,0x3c6aed79,0xbf3a256b,0x3dbe5f67,0x3f3b324c,0x3d22e9f2,
0x3eeac627,0x3f2f04fc,0x3e06c5ed,0xbf167976,0x3df8a07a,0xbc0cd936,0x3cacea05,0x3dff83d5,0xbe0a1a31,0xbfb45a8a,
0x3ca3d817,0x3e59dd1e,0x3d2d1c24,0x3de2843c,0x3d000510,0x3eb2d8e5,0x3dadcd6b,0x3f10838f,0x3f570f2a,0x3e42dd07,
0x3ebc3b84,0x3dd91f37,0xbe00de1d,0xbdf979d5,0xbebe11e5,0xbde9a54d,0xbe0329eb,0xbf77f914,0xbe6fc05c,0x3cc8db28,
0x3e70a68c,0x3d9c7053,0x3ccd1c83,0xbf7e63a2,0x3d5fa6e9,0xbe4a7001,0x3fa57547,0x3d4df3a0,0xbf050176,0x3ea43613,
0x3e51a7c3,0xbc417d28,0x3e81f301,0x3e9fef10,0xbe2873f8,0x3f426021,0x3e780a07,0x3c11bdff,0x3e08c369,0xbdf95670,
0x3d63ea8b,0x3eb92c89,0x3e39e109,0x3e9a357e,0x3f87a2f3,0x3f066aa4,0x3e010fd7,0x3ea828ad,0x3e770338,0xbd3f236c,
0x3e795d43,0x3da7cc4b,0xbe0432dd,0x3f85e3fd,0xbdc67075,0x3c143d6a,0x3d692688,0xbd76de1a,0x3f076a33,0xbf15592f,
0xbe0b2f1f,0x3f8d7089,0xbeef890f,0xbebca426,0x3e5bec78,0x3f23fdbd,0x3e658344,0x3e86a827,0x3e9edf08,0x3daee22a,
0x3ea4a74d,0x3f66b126,0x3e6b293f,0x3ec1e7f0,0x3f1ba9be,0x3dc1d7fd,0x3ea5c417,0x3e10fb78,0xbe35c122,0x3e41baf9,
0x3f7a0c6a,0x3eb6a77f,0xbd615d45,0x3c623e28,0xbba59ce0,0x3e6725e6,0x3f0f4b6e,0x3e9e2ee2,0x3e14d42e,0x3eab8c98,
0x3e7e5db5,0x3ecdae51,0x3cad3657,0x3e2407bc,0xbe73544f,0xbd3154d7,0xbe515b3e,0x3e7f2cb9,0xbf8feb37,0xbf4c265d,
0x3e0c36a3,0x3e26fb53,0xbe348cf5,0xbdeefa4a,0x3e283b5f,0x3d758491,0x3ebe7a4f,0x3fbd45f8,0x3f260a69,0xbde5cc96,
0x3e66b1ae,0x3d8ed009,0x3e2ff1ba,0x3e455733,0xbd651009,0xbd070d42,0x3fc8e383,0xbcd3bc8d,0xbe00f8d7,0x3d1ec121,
0xbdcbd367,0x3ddb6f54,0xbea005d3,0x3dc0bf4e,0xbc4106df,0xbfbdaee1,0x3c534ec8,0xbe0c6f30,0xbd6a677a,0x3da7ae92,
0x3e8b3089,0x3f43b52b,0x3ebc6924,0x3db1fb24,0xbd9afb23,0xbeae02b4,0xbec231ed,0xbf22b7c3,0xbe9dbb4b,0x3deecd89,
0xbf13d81c,0x3cc52ab2,0x3f1dd44c,0xbf45d6a3,0xbecaf0a4,0x3df6fa41,0x3eab0e84,0x3e6810df,0x3dd22fe2,0xbf8be816,
0xbeef232d,0x3efa0a0e,0xbf4b08ca,0xbe97976d,0xbe73cf40,0x3e97e7be,0x3e08b5b4,0xbe31672e,0xbe870593,0xbde36c7b,
0xbeecb3a7,0xbed586ee,0xbefe0ad8,0xbe6911ea,0xbe95546e,0xbe4ee55c,0x3f4bba54,0x3e9c8941,0xbe6f8286,0x3f38477b,
0x3e94a82b,0xbe71ad37,0xbdf83a8f,0xbe50bb0b,0xbe56850e,0x3de0c3a2,0xbdc012f1,0xbed375e0,0x3e8c16de,0x3fbec165,
0xbbe1416a,0xbe42fd38,0x3ebabdb8,0xbdb45741,0x3f907f98,0x3f1f5dbb,0x3d8395ef,0x3e363736,0xbd8e33b4,0xbe884bfd,
0xbe29b7f7,0xbd9efd24,0xbd93819b,0xbf330f4e,0xbfb9858a,0x3d4260f3,0xbf23161d,0x3e6b54ff,0x3f16b020,0x3f5f5330,
0x3f94b676,0x3e7b5f81,0xbeb6f51c,0xbf3e071b,0xbead244c,0xbe86256b,0xbfcddc4c,0xbf867857,0xbdc0d347,0xbe5ca954,
0xbf0f72f3,0x3e99fbfd,0xbf42dc9a,0xbe15990a,0xbf7b6a5c,0xbfb32dd1,0x3f07db76,0xbeead908,0xbf8060b9,0x3f41373d,
0x3f5c49ec,0x3ebacdd9,0xbe7f098c,0x3f5fd98e,0xbf691b5d,0x3ea6908f,0xbf0d9f82,0xbf81d9fd,0xbe402674,0x3fb300ba,
0x3fb40de8,0xbdb8d2cd,0x3e9dd84d,0xbd7063aa,0xbf0d0658,0xbe88e176,0x3c7ef633,0xbeb43412,};

