const static size_t backbone1_9_1_weight_size = 14336;
static unsigned backbone1_9_1_weight[]={
0xbe861d7b,0x3e121b1d,0x3d1739fb,0xbb642948,0xbcc40f6b,0xbc33d916,0xbd4f8b16,0xbcea50ad,0xbcfb016f,0xbcaac634,
0xbbb3f9ab,0xbd473d07,0xbc87c194,0xbd9981af,0xbb192676,0xbd903338,0xbdd18e94,0x3dcdbc00,0x3d8b1fe2,0x3d2024c4,
0xbd3526e0,0xbd7078a7,0x3d896b83,0xbc5adcc7,0x3c678300,0x3d800f7f,0xbdcb5523,0xbaf05d1c,0x3c60d43c,0xbde913fc,
0x3d9a93a2,0xbaa6505c,0x3cc81500,0xbba787b3,0x3c747634,0xbe945cf7,0xbd33cb1e,0xbe435498,0xbe027a99,0xbd40be52,
0xbd2cb86a,0xbc651dd2,0x3dbae875,0xbdbee300,0xbe972f8d,0x3c3d83fe,0x3cc00041,0x3c67716e,0xbd4e38d5,0xbd019b1c,
0x3c7a80fa,0x3d08afc0,0x3eaaeb19,0xbc5c7dc0,0x3d9f470f,0xbe972358,0xbb8a5750,0xbd9a4eeb,0x3bff4475,0x3d90ca73,
0x3d4e234d,0x3e18f8b9,0x3e064d14,0xbcf457c9,0x3e131f1d,0xbdbf080d,0x3deff3e7,0x3c8f8778,0xbdaca6d4,0x3e0e7a4f,
0xbce29376,0x3d270d3d,0x3d8800af,0x3ded919b,0xbbf45abf,0x3d8a3e71,0x3e588b47,0x3e18204a,0xbe22732e,0x3c0db312,
0xbe40259b,0xbaa62b7d,0xbe2bb0e5,0x3c9b1a16,0x3d9fe95b,0xbe1037e6,0xbd7bad73,0xbd845aab,0x3c677308,0x3e23ce97,
0x3e08d129,0xbde7770f,0x3d02cd0c,0x3e1272d0,0xbe58021b,0xbe6cbed0,0xbd38f1bd,0x3cd06aee,0xbd428362,0x3d371b56,
0x3dab4d93,0x3c4094f1,0xbe19504a,0x3cd185bb,0x3e7dfb0d,0x3d0169ff,0x3eb736d1,0xbd25ddab,0x3e1b293d,0xbce549fe,
0xbda290a2,0xbe8f5b9a,0xbe123a7b,0x3df4a3b9,0xbef2bae5,0xbe0fa2bb,0x3cda2c3e,0x3c8be02f,0xbd373808,0xbb99cc75,
0x3c3d39e2,0xbda8d6c9,0xbda1df28,0x3ded44bd,0x3d426fd1,0xbd30d2f4,0x3bd5d7c6,0xbe3fe1b5,0x3d997d77,0x3d29fc7d,
0xbe8efbd0,0xbdd175a6,0xbe16c4a9,0xbda6c1d2,0xbcfd6881,0x3d93c681,0x3d1acc0e,0xbdf73deb,0xbd350139,0x3c6269ad,
0x3dac948a,0xbb80d189,0x3e3652af,0x3e851bcb,0x3e0fe4d9,0xbe490d19,0xbd33aaaa,0xbe03332d,0x3acd18b8,0x3d6a7826,
0x3e051b4e,0xbdc697b1,0x3e050e55,0xbc19aa12,0xbe2ad02e,0x3cb8054e,0xbe86df08,0xbe041c84,0x3c6f6c98,0x3b318258,
0xbc92067e,0xbe3a0529,0x3e30a9a9,0x3e337372,0xbe92fd94,0x3df8c9cb,0xbd2be50f,0x3dc81ea6,0x3d8a43b7,0xbe1ef19b,
0xbe150db6,0x3d3c712b,0x3d47c89c,0xbbb06e01,0x3e2d7387,0x3d95633d,0x3d7448b6,0xbb8db790,0xbdeae5ed,0x3c0baeac,
0x3d315f71,0x3d656572,0xbdde6ced,0xbea0ae5b,0xbd6b9c41,0xbd7ebb5f,0x3e067d45,0x3d968ebc,0xbbf0cd1e,0x3e12be1a,
0xbd57fd88,0x3d2e2bc9,0x3d153480,0xbe078fe6,0x3e2825f3,0x3dffc086,0xbc9e760c,0xbdaef1ad,0x3d25aeed,0x3d937e1c,
0xbb372d7f,0x3e3170a3,0xbd630ee7,0xbd8060a7,0x3df01929,0xbc8f6e9c,0xbe799da5,0x3c882081,0x3c9a9f6e,0x3c5724f2,
0xbcd66b65,0xbe06d69e,0xbd3c634b,0xbdbeb41a,0xbbd6edfd,0xbd5b8ff0,0x3d7b4558,0xbd78e781,0xbde96242,0x3dea4f85,
0xbdcac3f7,0x3c0828e8,0x3d27591e,0xbde2a888,0xbe0031cf,0xbe6690fd,0xbe14c892,0x3e017ca7,0x3ed12180,0xbddfe11a,
0x3dbbdc14,0x3eba021e,0xbdf89f5c,0xbe4ba43c,0xbe8d5996,0xbd3d932a,0x3dfd184c,0xbd13739c,0x3dffec27,0xbd757a80,
0x3dc96624,0xbda54e12,0xbc2f9c56,0xbe2b572d,0xbd2687f7,0xbd7df8ec,0xbe8159e3,0xbe710634,0x3e05514c,0x3df3c7f5,
0xbd6076e9,0x3d36e3d1,0x3bda7e57,0xbde2853d,0xbe468767,0x3e623c0b,0xbd4d544a,0x3a12f21e,0x3c5ad106,0x3d933619,
0xbd604755,0x3d63830f,0xbebcfc3b,0x3eeeedae,0xbbc1fef8,0xbeadc38b,0x3dfc9706,0xbe5ad080,0xbe597893,0xbeaaed9f,
0xbe60fee1,0xbe8af834,0xbcd1cf9f,0xbe5f9460,0xbc862ddd,0x3dbfe1f3,0x3c53b24a,0x3d9baf21,0x3be76b20,0x3dea1740,
0x3d0f87be,0x3e69a495,0xbd087d52,0xbd0ae6ea,0xbd140040,0xbb7e710d,0xbd7ea513,0x3db3f6ec,0x3e0c697e,0xbd342783,
0xbcfd830a,0x3a735c87,0x3d9ff8c8,0xbde5a287,0xbd1c286b,0xbc8b4c2e,0xbbda5787,0x3da0069b,0x3afb5e60,0xbe1d7cb4,
0xbda10332,0xbdb965ab,0xbbfc4f2a,0x3b8df01a,0xbd1e827b,0x3c9eb2ad,0x3d996884,0x3c029c9b,0x3d40c5f3,0xbd5c10d9,
0x3e91df34,0xbd884fda,0x3d6adec6,0xbd058057,0x3d19182c,0xbcba6fc1,0xbd23999a,0x3c04bee2,0xbe57e690,0xbe004345,
0xbe013aad,0x3db43ca3,0xbcc57f79,0x3e7984e3,0x3da59165,0xbd93b8e4,0xbd79720b,0x3d32029a,0xbc9f8504,0xbd79ba94,
0x3d16af0e,0xbbac4957,0x3d3838eb,0xbd0a1a4f,0x3ccd9cfe,0xbdae6f3c,0xbd90ee6e,0xbe097a53,0xbdab73e4,0x3d6c0fc6,
0x3d1808ab,0x3d778a02,0x3e73f858,0xbd5277cc,0x3e41493d,0x3cce00a3,0x3d2854c3,0xbdde7bed,0xbdaf20dc,0xbd94d806,
0x3d9e72c0,0xbd4a6168,0x3c3dd26a,0x3cba4f8d,0xbcd116eb,0xbd81132b,0x3d8b3aed,0xbd44b83c,0xbd8a061b,0xbe1128ff,
0x3e37d18f,0xbd64dd76,0x3dd7d0cb,0x3d4ab586,0x3abc237c,0xbd36e8c0,0xbd150d9b,0x3d48f172,0x3d830db1,0xbe4f3e72,
0xbc056800,0x3d592086,0x3e2d4cfd,0xbd2091a8,0x3d409c6a,0x3d58e8a5,0x3d56ecc7,0xbccdcfff,0x3def379b,0x3cefe541,
0x3bf657f3,0x3e8758ab,0x3cc968b6,0xbdad5839,0x3dd3f533,0x3c77c536,0x3e299b7a,0xbdcf5019,0xbd65f9f5,0xba8471e9,
0xbe6c463d,0xbd8e2d9d,0xbdd4d9a5,0xbd35b697,0xbc5ac626,0x3c6234be,0x3e2b66d3,0xbc7b1d89,0x3dcc7354,0x3da32f5f,
0xbd299ffa,0x3c341c67,0xbb5624cc,0x3ddd38ae,0x3c94aacd,0xbdc80fc9,0x3e061132,0xbd279a7e,0x3d124b9a,0xbdc4c360,
0xbde84453,0xbd50a715,0xbe109453,0x3e396bdc,0x3ce48aed,0x3d4913e3,0xbd9d23a0,0x3db1d300,0x3ebd3f77,0xbe360d88,
0x3dd484ce,0xbc9bf151,0x3de3ae98,0xbc4e6384,0x3e3436ee,0x3b2f2345,0xbe42136c,0xbc96c3cd,0x3d3ca7bb,0xbd4f03a7,
0x3d936445,0xbcf2fa5e,0x3d9517c0,0x3d14b82d,0xbc0e834e,0x3e48c945,0xbeb3a476,0x3e161ef7,0xbd0b1bfe,0x3e35b897,
0x3d40090f,0xbe762f0f,0x3de878a3,0x3d98fde6,0xbda96152,0x3dd97d39,0xbe4e0935,0x3e11dfd8,0xbe3213a9,0x3d098899,
0x3da459b8,0xbcaa99cd,0x3c0588b3,0x3d6a3f9c,0xbd1775c6,0x3b35bf4a,0x3d9936a4,0x3e23db3c,0xbd2c25e3,0xbe081c57,
0xbd0e8d1e,0xbd67f21b,0x3d721d3e,0x3d527d1b,0x3d3b48ed,0x3bb65593,0x3ea1d27e,0x3c890c97,0x3d301030,0xbd455625,
0xbd51974c,0xbcacfb45,0xbdf7dfd6,0x3e3e4792,0xbe31628f,0xbd098262,0xbbb264fe,0xbcf79567,0x3dc4db82,0xbdcf5f5d,
0xbc3186b7,0xbe05e7d8,0x3d994167,0xbc4fac2f,0xbcb92dae,0x3cce01fa,0x3d36ec2c,0x3c467932,0xba1e2c28,0xbd8cff2a,
0xb9d6c9e1,0xbde996fb,0xbd1df708,0xbe3960a3,0xbddf1edf,0xbe6b3bb9,0x3ded075d,0xbd448b20,0xbd8776d2,0xbe8227a7,
0x3e14462f,0x3e67d654,0x3c035f36,0xbd9b9a12,0x3cc13467,0x3d627e2a,0xbd23c08e,0xbc07bfcb,0x3d68446f,0x3dc9f935,
0x3ebadc42,0xbc0c649e,0xbd79060e,0x3ed91eff,0x3d9d1db8,0xbbfbca3d,0xbc0091b2,0x3e277146,0xbe938f22,0x3cb03089,
0xbd460b0b,0xbe691507,0xbc1c26df,0x3e4df10a,0xbb97fc3b,0x3d4d763f,0xbb483025,0x3d843cb5,0x3e1a3fb9,0xbddab5ba,
0x3d743c3c,0xbeff8d7c,0x3d7db041,0x3dcf009c,0x3bdcfd58,0x3e0a92d6,0xbe1547c8,0x3db730c1,0x3c8a3b3e,0xbd3f8e2c,
0x3d32d1f7,0x3cb8bbc9,0x3ddd2220,0xbdb25cf1,0x3df8b837,0x3e037201,0x3dbb4162,0x3e66ba20,0xbd2c0869,0xbe8305b9,
0x3e4dee0a,0x3c34ef0b,0x3e1234ed,0x3d9527f5,0x3dbb5c7c,0x3e5526be,0x3e1b07d5,0x3da3d16c,0xbd485e0f,0x3d606347,
0x3d9290d6,0xbda7335a,0xbd9c10fc,0xbe0ade55,0x3e83bfef,0x3e2ae247,0x3e0d3972,0x3e3e99ab,0xbd48c88f,0x3ebc0f0b,
0xbee92fc3,0xbbb6e877,0x3e22e55c,0xbc8e905c,0xbe89a9a5,0xbe3e96e2,0x3d99ec83,0xbca1c1cd,0xbdcc98e8,0x3e25e5d2,
0xbc873c73,0xbd1848bb,0xbda998ff,0x3d526f12,0xbe21698c,0xbec0bbf6,0x3bc27abe,0x3e298f43,0x3e0ca15f,0x3d560cc3,
0x3e02e9d9,0x3e3b6a0d,0xbdc26911,0xbe11acbf,0xbe61a43e,0xbdd011f2,0x3bbdb75d,0x3d885dc9,0xbe00d055,0x3d27f98a,
0xbdbd79d0,0x3d2bd165,0xbdbcded7,0xbde230d9,0x3e1b247e,0xbde2bfb5,0xbbf1834a,0xbe075b6c,0x3e1c1c4d,0x3cf37c5b,
0xbdcdf720,0xbdfa57c2,0x3d362c2d,0x3acba13b,0x3c9af0b3,0x3d9ecac1,0xbc13ada1,0xbc0d7166,0xbdb297b2,0xbe0c21ad,
0xbd32c017,0x3e5f3bc4,0x3dce42c2,0xbd92a4f9,0x3e0b4e31,0x3e088bf4,0xbd0ce140,0xbecbaee8,0x3e385d3d,0xbdabf9e5,
0xbb1a0f6b,0x3ea18740,0xbdc9586b,0xbdb13b4e,0xbd739b76,0xbe617bbd,0x3e00a4dc,0xbd580362,0xbdafb74c,0xbc383e2b,
0x3e2e38f9,0x3ce7a3cb,0x3db00573,0x3e4f84b5,0xbd94f8ab,0x3b32f527,0xbcab58d2,0xbdffb042,0x3e4b6f9b,0x3cb335c7,
0xbea61578,0xbc4504e2,0xbe86fc63,0xbe0c04c5,0xbe8019f3,0xbe91c470,0xbe0d1283,0xbdf40ebd,0xbe812b7f,0xbe622264,
0x3e45a73e,0xbdde9f37,0xbe1de979,0x3e2d0621,0xbe449c59,0x3ed7b88c,0x3deb35fd,0x3d329b4a,0xbe32bd47,0x3eb2a243,
0x3da173c0,0x3deed5b5,0xbca9ff2b,0xbe002369,0x3d342083,0x3d06395d,0x3cd64555,0x3d459900,0xbbeb62e4,0xbc685aa2,
0x3d5c3709,0x3ce7cd18,0x3c5758af,0xbe1f032a,0x3ea7b16f,0xbd95c129,0x3d06b092,0xbc77c23d,0xbd504ff2,0xbd11e07e,
0x3b6c725c,0x3d608507,0xbdad844d,0xbc98293d,0x3db88376,0x3d880af7,0xbcc6abbd,0xbc5bad84,0x3bf81bf3,0x3daf6fc5,
0x3cade270,0xbdd8f92f,0x3d7721d8,0xbd1e6fd0,0x3d5401b1,0xbd90e456,0xbbdc48b9,0xbe00e886,0xbd314d9d,0xbd0f8afb,
0xbd29a76c,0x3d90ac2f,0xbdceac53,0xbd05520f,0x3cf619a5,0x3ce1ed7c,0xbdc449b1,0xbe0b5b77,0xbdd65f21,0x3d10a7de,
0x3c346c9a,0x3d00cc06,0xbd2ff30f,0x3da1b175,0x3d8eba71,0xbe00ad21,0xbd9363bb,0xbda4686b,0xbcde9c3f,0xbd685def,
0xbdbf117a,0x3c1af4a5,0xbd6e8f09,0x3c17eae3,0x3d9042ea,0xbcd31b47,0xbd6d6630,0x3d7cf068,0x3d704e81,0x3de542fc,
0x3d02f40e,0xbeb295bc,0xbc616738,0xbd33d2db,0x3db128f1,0x3e47fbca,0xbe0f38c5,0x3dc93906,0x3d4a18b7,0x3ce1f3f2,
0x3dc8e0cd,0x3bf77553,0x3da673d5,0xbc1d6c93,0xbd49daf6,0xbcc4ad00,0x3dfed72e,0xba194d90,0xbd6e6cd3,0xbc6767c0,
0xbda9a08e,0xbd0b5d15,0x3d8b7bd8,0xbd489e0c,0x3c6ca02a,0xbaeea049,0xbbb70f40,0x3db30582,0xbca70fe7,0x3d3794f0,
0xbcae0c3d,0x3e24c3e0,0xbda39104,0xbdc3f5c5,0x3db225cb,0x3dde555d,0x3d4df36c,0xbe0206bf,0x3cde2c80,0xbde556d3,
0xbe097ca4,0x3dc0062c,0x3e6ba2bc,0xbdec46e2,0x3d05e7fe,0xbd825bdb,0x3d8e21b2,0x3da51b13,0xbc378137,0x3d11e041,
0xbced5155,0x3d0b546b,0xba79cfe9,0x3c206ff2,0x3d9b0eb9,0xbe45f970,0xbe3ac184,0x3bdca3c5,0xbecd9bfb,0x3c2e8d60,
0xbe1521e0,0xbdded891,0x3d9faff0,0xbe23a85f,0x3cc8dce9,0x3dbdff5c,0x3c781335,0xbe0853f5,0xbdd86d11,0x3dfa0f25,
0x3c397892,0x3db728f0,0xbc27779e,0x3c9c8ce1,0xbd8eaa86,0xbd57d860,0x3da9f91a,0xbdec1d78,0xbc7e625b,0xbe47cc47,
0x3dab30bc,0xbe016043,0x3da3ff05,0xbddb557f,0x3ca3cce0,0xbe0cc826,0x3e28c56a,0xbdde1bd4,0x3c09ed40,0x3d27ebb5,
0x3dd398d7,0x3e449f18,0x3d556ce6,0x3e1f068e,0x3d9a83f6,0x3d889a2c,0x3d503e81,0x3bd9548d,0xbdf4af93,0xbe2e2cd8,
0x3de23e26,0x3d7563a5,0xbdd74d7d,0x3dcc7d9a,0x3da10dff,0xbdcdb43a,0xbeba12ee,0x3e519cdb,0xbdb992fa,0x3e0677bf,
0x3d0fce35,0xbe5d2d2a,0xbdf4c02f,0x3ddba099,0x3e164904,0x3e809e68,0x3be863fb,0x3d9c35f6,0xbd371979,0xbd7cfed0,
0xbbcd898f,0x3e570d46,0xbe446f26,0x3d83fc1c,0x3e824ad0,0x3cdb0f24,0xbd55891b,0xbb2e64d1,0x3d037ec3,0x3ef9e32c,
0x3d86f5d4,0x3d494d57,0x3e7cae84,0x3b95b090,0xbe1ae1eb,0x3d833d9e,0x3e65f51d,0x3d859810,0xbde6a832,0xbba2d8c6,
0xbe3730d9,0x3dab7cb4,0x3d712c25,0x3d889985,0xbed90a47,0x3e18d70b,0x3d6b0315,0x3c40c2c5,0xbdb0e73b,0xbd7d1180,
0x3ea16709,0xbcc49b39,0x3eb6185c,0x3cb366ec,0xbe6e92fb,0xbd54f4a2,0x3dcfe446,0x3bd20065,0x3da40aba,0x3dfd3db9,
0x3c576ed9,0x3cbdab2c,0xbdcee8de,0x3e0c67ca,0x3c9eefe7,0x3e51050f,0x3af722f0,0x3de899f3,0xbe04d74a,0x3e5aad72,
0x3e3bde19,0xbe2cfc52,0x3ea14373,0xbe07b2d2,0x3e2358d3,0x3c347f50,0xbdd17a47,0xbe323a9e,0x3e6637bd,0x3e1b16c6,
0xbe851b77,0xbd7ba437,0xbd5b3f01,0xbd8b8880,0xbd5a7b3b,0xbc8ec9a9,0xbe4c4d01,0xbcb28c11,0x3e18da2a,0x3d9b8c8d,
0xbd6b0de0,0xbe629b08,0x3e67bfec,0xbbb4e712,0xbdc3dfcf,0xbdfe6c52,0xbe7d775f,0xbd3a4bde,0x3e6763f8,0xbd4e4989,
0xbed2b7b2,0x3cfe771e,0x3e11740e,0xbe601fcb,0xbdcac99f,0xbc69cd64,0xbe9fa76f,0x3b000480,0x3ce20268,0x3cab08a1,
0xbe8b0863,0xbe9426c7,0xbd15b466,0x3d91be5d,0x3dc85604,0x3d686023,0x3dac8fb9,0x3d5878d7,0x3d0069e2,0xbe13ec69,
0xbdc28fbe,0x3d2cf390,0xbda13ea3,0x3e147967,0xbc04228c,0xbdc05d4b,0x3de617ba,0x3e7f59af,0x3dc2e928,0xbe19fd74,
0xbe24d1b3,0xbcbed633,0x3e54251e,0x3e23ffb4,0xbe678c2d,0xbe3da9a3,0xbdc20a03,0xbc022e44,0xbe1a24ef,0xbdf64efe,
0xbe388c51,0x3e3dbcb9,0xbe0cadcd,0x3bc2da57,0xbdc68452,0x3db4d1b9,0xbca2d2ab,0x3d2d29b8,0xbdda8a2c,0x3d93cbdd,
0xbdf24f83,0xbd935dbc,0xbc01498e,0xbdf1ce8c,0xbe5378c8,0xbe2072d7,0xbd9fb670,0x3d625c1c,0x3e4afe9a,0x3bad4fb2,
0xbe2ffb51,0xbe979356,0xbe1e5c03,0xbdda0189,0x3dcc7727,0xbdcaec36,0xbe1faf9f,0xbdb8be6d,0x3e34d074,0x3df02c7b,
0xbd96821a,0xbde99e81,0x3d84bd6f,0xbd23e881,0x3e469449,0x3e6d6c63,0xbc1bec0f,0xbdff865e,0x3b148877,0x3e2b985c,
0xbba5e3cf,0x3e7bd91a,0xbdf41667,0x3e77365e,0x3cd4443d,0xbdccaa1a,0xbe9e70c6,0x3d9b1885,0x3e1a50c9,0x3d5d8935,
0x3c35a873,0xbd8d1305,0x3e1936af,0x3e09710b,0x3ce55e02,0xbd590b52,0x3e5bd74a,0x3cd53e06,0xbd3f30a7,0xbd141341,
0xbde15533,0xbdf72328,0xbd154582,0x3e10d4dd,0xbdf2a6ff,0x3dd18a18,0xbd48c608,0xbe636776,0x3b405a13,0x3cc83cc8,
0x3ddd55bc,0x3c7e0deb,0x3d379222,0xbc048b5b,0xbdb09468,0xbea71469,0x3db75b60,0xbd605a1e,0x3e089318,0x3ca6ae13,
0xbe0a7478,0xbe5e4252,0x3e7b706e,0x3e2c2ed5,0x3cd8b509,0xbc215ba1,0x3a84a618,0xbe1a08e4,0xbd654ee0,0xbcbfb08e,
0x3e1d64af,0xbe022a40,0xbe418b2f,0xbc8a7c59,0xbd414b71,0xbe3bcbf4,0xbd1e4f74,0xbdc81fb6,0xbe3e80c7,0x3d0e9db8,
0x3c835857,0xbdaab0ae,0x3de62490,0xbeb9047c,0x3dcc29a0,0xbc017549,0x3de85bf1,0x3da2fc76,0xbdb7c89d,0xbe34a8e0,
0x3cee4664,0x3d284ce8,0xbb57b10b,0x3d562fc1,0xbdc54aca,0xbc69ce06,0x3e071f84,0x3d2bcd80,0x3e0abfe4,0x3d2e6664,
0xbe8702b1,0xbc8f00c0,0x3d28e1b6,0x3e0e055f,0x3e064464,0xbcb3876e,0x3e51a053,0xbcd5736b,0xbd45a888,0x3cfe19cd,
0x3d573d64,0xbdfa7502,0xbc0d1251,0xbceaae9d,0xbd6b532c,0xbd46dd67,0x3d41d9f1,0x3d3bb33d,0xbd4f3852,0xbd99c559,
0xbc91b0c7,0xbcf84659,0xbc26b499,0xbddaa732,0xbd2eb104,0xbb343731,0xbdcda3cf,0xbc437e26,0xbe2c4f69,0xbc80ef42,
0xbc81612e,0xbe416e5b,0x3dd1ddf2,0xbd733dbc,0xbba264ff,0xbc812c86,0xbe021985,0x3e212bfa,0x3dfce1b5,0xbd8bf78b,
0x3f1efa8b,0x3b8f584f,0x3da2e721,0x3e37bbc8,0x3cc8b151,0xbd465c68,0x3d35b040,0xbdc3c035,0xbc8d3aa7,0x3d2ebb57,
0x3dd6fed3,0x3d388e5b,0xbafe0e0e,0x3e041809,0x3d054b83,0xbe195ed2,0xbd179669,0xbbac0d64,0xbde5a079,0x3d678af8,
0xbc9f4022,0x3e47abf7,0xbdc7d591,0x3a94f811,0xbd27e921,0xbd264048,0xbd0341a5,0xbcb91b8e,0x3df4bd1e,0xbd830250,
0x3ded1a51,0xbdc15981,0x3e1916f4,0x3d99c20c,0x3b4a5c5b,0x3d975804,0x3dd9c6c2,0x3d8ec1f5,0xbe1d1df6,0xbcd65839,
0x3da4f772,0x3dc7493f,0xbd1b60d3,0xbd9cd47f,0x3d593628,0x3d8e90f5,0xbda4eb3f,0xbd673747,0xbd28e2d0,0xbd930aa1,
0x3d638853,0xbd91da08,0xbd89c6ce,0xbd740756,0x3c6c7286,0x3e3f4ba6,0xbcb0b8da,0x3e1dd506,0x3ceac2ed,0x3d81b057,
0xbe0b8a95,0xbc6edb55,0xbc016be3,0x3e29ed95,0x3e0652f7,0x3a77d162,0x3db062b9,0x3cc5829c,0xbe5b87b3,0xbdd690ab,
0x3dbd027b,0xbd317144,0x3d718617,0x3e7b1238,0xbdf79341,0xbdd7c369,0xbec20f8b,0xbdaa0148,0xbd9667d0,0xbdf1ce6f,
0xbd772cd7,0xbdd60773,0xbcbb3343,0xbd1777fa,0xbd356c53,0xbd98e8b5,0x3dd70893,0xbd9e30f0,0x3d23f560,0x3da55c5d,
0x3cf48e19,0xbe2143f8,0xbe3049d0,0x3e04bcfc,0xbd935170,0x3d4438c5,0x3e122533,0xbdca5317,0x3ddbda73,0xbdea5648,
0xbdb6b7cb,0x3e18dff2,0x3d8d85cf,0x3be456bb,0x3e692d23,0x3d7e6dc9,0xbc461443,0xbdc66c6b,0x3db87fd1,0xbd892645,
0xbdc29af1,0x3e0f263f,0xbdf93204,0x3da4e920,0xbe1d2ab2,0xbd90e31b,0x3dd97bd8,0xbd5b4a5c,0xbb51f625,0x3dbee651,
0x3e0fe4d9,0xbe6ad0d5,0x3d437fa1,0x3d3c6150,0x3e0aa8c6,0x3e8de07b,0xbce8227e,0x3e3dd8a7,0xbe83e393,0x3cd4f90d,
0xbc501911,0xbd7ec7c1,0x3e78217a,0x3a15c875,0xbdcb9ef2,0x3e10dc81,0xbdfbed71,0x3d01abf5,0xbd6f98fb,0xbe76d02d,
0xbc8ed27f,0xbe4f8e9c,0xbde3d3b7,0xbd9bda27,0xbc486cce,0x3ea44c49,0xbe54d9a1,0xbe83382f,0xbc828444,0xbce885b9,
0x3cd9dc27,0x3d5d10ff,0xbde213b2,0x3e44e3bf,0x3cf209bc,0xbdb9f280,0x3d36ce0b,0xbbe97d00,0xbcfbd11f,0x3d298d15,
0xbd805b19,0xbb98cb25,0xbc72c448,0x3cde62c1,0x3d411c27,0xbdc39ac5,0x3b3f194d,0xbddab8c3,0x3e0322f3,0xbd4ad291,
0x3da03b12,0xbe143a36,0xbd31cc58,0x3cf30539,0x3b6fb570,0x3d07cd47,0xbdc4e014,0x3e541238,0x3d2b8af4,0xbcb90138,
0x3cd92da2,0xbdc23d7b,0xbde647ec,0xbc1a1815,0xbda4f871,0xbe3c1ada,0xbe25f711,0xbd7fc248,0xbd295a01,0xbe13d7d6,
0x3c6fd4ae,0xbe893250,0x3d12ea08,0xbcb0ef45,0xbdc8021f,0x3dac56d2,0xbd979556,0xbe5e38df,0xbdfc8dd2,0x3d34449e,
0xbd22fa7d,0x3e533aaa,0xbe87aacf,0xbe2770b7,0xbdf8ccd3,0xbe3671ca,0xbdcb44f1,0x3db4561d,0x3e2a2def,0xbdca2879,
0xbdc5c22b,0x3aa73ee8,0xbe5a7b48,0x3c9ffb33,0x3e4d9a2e,0x3dd06074,0xbd0d1fb0,0xbd5ae0ee,0x3e0a526d,0xbd0822cc,
0xbddfaa98,0xbdf21f87,0x3e998d2b,0xbe266423,0xbdcb1359,0xbc62ec6b,0x3dba8e00,0x3d6044a3,0xbd7fbca2,0xbd0a5979,
0xbdf24886,0xbdcfa627,0xbe482e64,0x3c47f2a1,0xbda0ddce,0xbe54aa8c,0xbea991e1,0xbdb142d1,0xbc19edd7,0x3e554fc9,
0x3ec3e1cf,0x3dcf2ddd,0xbdae5eaa,0xbd744d8e,0x3dfd0cee,0xbcf6bb4f,0xbe00d7fe,0xbf0894b1,0xbe5083b4,0xbe141169,
0x3e4c86f1,0x3c537537,0x3e2ef14d,0x3decf0b2,0x3e1c5a3c,0xbe764177,0x3db76b94,0xbe9e82cf,0x3ea07669,0x3e4058e2,
0xbd6cc785,0xbe16d708,0x3cc0a35f,0x3a978c1e,0x3d17f0d4,0xbe0eda72,0x3be6e6f5,0x3d4c1cf0,0xbe4e82bd,0xbd32d1c7,
0xbd7884af,0xbd0f848f,0x3c6a0c69,0xbb8b6b05,0xbe005d56,0xba21aa13,0x3d64f9ff,0xbdf5a942,0xbcb514af,0xbb8b0095,
0xbc19cf2d,0xbc8593dd,0x3d183f6c,0xbe0781e3,0xbe8dbedd,0x3db00a60,0xbcd895e8,0xbd872df6,0xbdeba399,0x3dcdd40f,
0x3d261c0f,0x3dab89cb,0x3de19dfb,0xbe403359,0xbe0476f2,0x3bba2d04,0x3bc915b3,0xbd642182,0xbcf1968c,0x3c1f62b2,
0x3daca323,0x3e2f6038,0xbcd606d9,0x3c6cfd43,0xbcd735e6,0xbd9a8fb4,0x3da53885,0x3e35f4ad,0xbdf23f3f,0x3df128d8,
0xbccbe313,0x3d877034,0x3d3c5a0e,0x3d7edc0c,0xbe623fd4,0xbdc8b507,0x3d32b694,0xbd52a341,0xbd92b619,0xbddad7f8,
0xbd0a7592,0xbd09dca9,0xbdac5d25,0x3d42276e,0xbdbc7d54,0x3dee69d5,0x3d70b006,0x3de9de10,0x3d4c4108,0xbc6baaa5,
0x3dd2e814,0xbcee7cc3,0x3cfafd36,0x3d2abd42,0x3d817568,0xbc1a43a5,0x3d44b531,0x3e2a5ab7,0x3dc52567,0xbd4d4abe,
0x3c8ffa80,0x3e2d9ba7,0x3e4042ee,0x3e3300b2,0x3cf6c578,0xbe1edd03,0x3e3fee3b,0x3c9bbece,0x3e1e6a32,0x3cc7160f,
0xbd017844,0x3cc76822,0x3d69c76b,0x3ba7d833,0x3d4fb8d1,0xbd5c1ca3,0xbdcd3cf2,0x3df35caf,0x3aa3b5ce,0x3d954f19,
0x3c57f763,0xbdf704ce,0xbe06c1a3,0x3dd1639f,0x3e4270c0,0xbd008c19,0x3e4a4dee,0xbd0174ba,0xbe311fca,0x3d280be1,
0xbc73f141,0x3df78552,0xbd8a02b1,0x3cff3f68,0xbd7405ea,0xbb30604e,0xbdf81e72,0x3b889801,0x3deb26ee,0xbda42720,
0xbde391d8,0xbdf0f694,0x3da18b48,0xbdbc9d5e,0x3d8a5a0d,0xbdbb876c,0xbd549372,0x3c2dede0,0x3b9f20ba,0x3cd69e49,
0xbc587216,0x3d90d864,0x3c0d01bf,0x3e008daf,0x3b91c945,0x3e3817b4,0xbd4727d3,0x3d1f181b,0xbc836af6,0xbe03aa15,
0xbe88d716,0xbce6810e,0x3cc5a024,0x3d70d34c,0xbcd0e781,0x3da11cd9,0xbe5226e0,0x3cd74266,0xbe1d2b85,0xbd20338c,
0xbe27b48b,0xbd773df1,0xbd06dd1f,0xbc7d60e9,0x3c7d2b79,0xbd393fab,0xbdfc1b87,0xbe00d9a5,0x3e2e4e6c,0xbe230f13,
0xbdad5de2,0xbdd84844,0xbd52a3a1,0x3ca68322,0xbca7c2e3,0xbd40a059,0xbdde4362,0x3d715017,0xbdbad5fb,0xbce6e9b5,
0x3c586d66,0x3e5a427f,0xbc0fac80,0x3d1b17ba,0x3e1b0d79,0xbd93391c,0xbdb04158,0x3d8c2a91,0x3d26a742,0xba9bf0bb,
0xbc3d29bb,0xbcab33e8,0xbd476b6a,0x3db4a639,0xbe1f83dd,0x3d9f54f0,0x3da9b884,0x3dcf3203,0x3d3c4ec8,0x3deb9ae9,
0xbda28764,0xbc9d48ba,0xbc775e6a,0x3bbfab3a,0x3d6a0f5e,0xbdcfc363,0x3e342b2c,0xbd1cb8f3,0xbd6f3de2,0x3ddf7038,
0xbd6da031,0xbda31b96,0x3d59c31c,0xbacddd0f,0x3d44147d,0x3cfa8546,0xbdae79de,0x3d989a5b,0x3dc615c8,0xbcc43041,
0x3d13927b,0x3da1249a,0xbd2b46fd,0xbd37992b,0x3e39017e,0xbdd4c9db,0xbe4a464d,0xbd1776ea,0x3d1eebe6,0x3dbbca2c,
0x3d973301,0xbdb3c0c0,0xbde64a1d,0x3d8bc304,0x3d318145,0xbd7384fe,0xbe2d9ff7,0xbe728a8e,0xbdb0696a,0x3dd9e00e,
0xbdb0b293,0x3e3b4fd7,0xbdec0168,0x3d517c4d,0xbe5aa048,0x3d881191,0x3d51f1bd,0x3e4fdc6b,0xbd873450,0x3c2a4bad,
0x3daa7289,0x3ddd814c,0xbdd8f867,0x3da62378,0x3c40266e,0xbdb1a28d,0xbdf15a50,0x3dcef2bd,0x3e17b745,0x3dcd2005,
0x3e824dbd,0xbdcc2332,0x3e004fd9,0x3df36101,0x3d656b34,0x3e47a60e,0x3c871393,0xbdd858fb,0xbc7d0581,0xbe09ffb4,
0xbc8e6c7e,0x3dd953fd,0x3d2c1186,0x3e7f9952,0xbd1c2535,0x39c49e06,0xbd8ced5f,0x3dd0e1ed,0x3e06a02e,0x3b90840c,
0xbd17e4c6,0xbd136214,0x3dd8e23f,0xbe3d9489,0x3dc20edc,0xbcb8d409,0xbda775fd,0x3d523217,0x3ec83a6a,0x3e4ec706,
0xbe385d2c,0x3e27dc18,0xbdb2cd11,0xbce32d56,0xbe2db35b,0x3cb9fb13,0xbc139eff,0xbdd6ca0d,0x3dfcddd3,0xbc30bfdd,
0x3ccff879,0x3d950878,0x3cc2190f,0xbdbfbb8c,0xbe2845bd,0x3c18c077,0xbd5e54ff,0x3cfc8142,0xbe00b154,0x3cebfb4d,
0x3d42e094,0x3d7a34af,0x3ca4eb42,0xbd8ffef5,0xbd9da9b2,0xbe412cd2,0xbd2d0fb1,0x3d45e2eb,0xbdd1546e,0xbd37ccfc,
0x3d9a056f,0x3b943cd8,0xbdbfc08f,0x3d0fdd07,0x3d20ac36,0xbccef729,0x3de1ae03,0x3e029f93,0x39d62d25,0x3d16983f,
0xbc1d2b43,0x3c3f010b,0xbe03d082,0x3d5586ae,0xbc514297,0xbca0ab77,0xbe09c0b1,0xbbcd24ab,0xbdd6516c,0x3e4fb63c,
0xbb9f8bfa,0x3d8116eb,0xbe3c8c47,0x3df6513e,0x3de6a98c,0xbc8a3e3c,0xbd9015bb,0x3de33fb6,0xbe1a406f,0x3c73beaf,
0xbda1fb64,0x3e2aa293,0xbdcb1be2,0xbc770ecb,0xbc460314,0xbceae2aa,0x3e6494d5,0xbcd615dd,0xbe26b06d,0xbda5f4d1,
0x3d3ff4f2,0x3ddab946,0xbd002836,0xbdbd28c8,0x3e083349,0x3c03b3e5,0x3e0940bf,0x3e1025f4,0xbcff3f77,0x3d863e70,
0x3c806888,0x3d7ebf9c,0xbe298943,0xbc1b9bce,0xbcf55575,0xbe27042a,0x3e5410ba,0x3ea14cc4,0x3e46f659,0xbc38ead7,
0xbe85007c,0xbe29516c,0x3e109148,0xbdf2e5ee,0xbdf7fcea,0xbe47a49f,0xbe222180,0xbdf858e9,0xbdc1a69d,0xbe1e42ae,
0xbe1432d5,0xbd78cdd6,0xbe2642d0,0xbd9c376f,0xbd7a5c1d,0xbe40f747,0x3e0036ae,0xbdb96ec7,0xbbeef222,0x3d37d14c,
0xbe11a5dd,0xbdfb9793,0xbd889c39,0x3c8b7805,0xbd682d32,0x3d56e60b,0x3dcfd19a,0xbc58a68b,0xbc14703a,0xbc7ee746,
0xbd488313,0xbdd6b716,0x3df635ec,0xbdafd2d2,0x3c8cc549,0xbce6eb58,0x3ceff79e,0x3cec873f,0x3d7d0769,0x3db5c9b2,
0x3e27cecb,0x3d2dea48,0x3cced43a,0x3cad54ba,0x3b8b26da,0x3d19f951,0xbdb12517,0xbcc2021c,0xbca4dc92,0x3be5b035,
0xbc71291d,0x3bdae754,0x3d3e7e42,0x3ded765f,0x3b9c7042,0xbdf3f512,0xbcb85b59,0xbcfb4356,0x3dc73023,0xbd498e81,
0xbda63bdf,0xbdedc63f,0xbd28d906,0x3b8caa4b,0x3d70e10e,0xbd957ebd,0xbe196074,0xbc8936f8,0x3d800654,0xbd8517a3,
0xbd1cb1d2,0xbd974886,0x3d9fdd2b,0xbdb6c322,0xbd061e92,0x3d8aac91,0x3dbc3966,0x3c8a12bb,0xbe2ce00b,0xbe04dbca,
0x3cd374fc,0xbd4aabf6,0x3e61c310,0x3e50afe0,0x3cd096bf,0xbd9b8621,0x3e3e8c17,0x3b792f5d,0x3d617963,0x3e1fbca5,
0x3dcc04b4,0xbd85e71a,0xbd10f5d3,0xbc88df05,0x3d56924e,0xbda80a0c,0xbe40ffea,0xbaf9942d,0x3d5fb5ac,0x3d9833d2,
0x3d01d98f,0xbc46af05,0x3c8456f6,0x3dd8ef2f,0x3d62aa5f,0x3d3d41ac,0xbe2fe36a,0xbceb5d96,0x3c3deb6d,0xbd0c0c91,
0x3e225211,0x3e35cc86,0xbe1ea95e,0x3cfabc7b,0xbe0b433b,0x3d29a105,0x3dbd4c54,0xbd408122,0x3e84eb0a,0xbe526be4,
0xbe6a49a1,0x3d67e270,0xbdea9148,0x3e2b3935,0xbea7a8b4,0xbdb1137e,0x3d8a01de,0x3e4fa749,0x3e77fc95,0x3dad8479,
0xbece4778,0x3e5e95d1,0xbecab128,0xbd3f68ea,0x3c8eb1c4,0x3df969d6,0x3e08ea07,0x3d1426f3,0x3c4d8e46,0x3c397914,
0x3cfe7f55,0xbb3db6bf,0x3e0e52d2,0xbdca69f3,0x3cba2489,0x3d577180,0x3d4fa955,0xbccb99a1,0xbd9655f9,0xbd79ee2f,
0xbda81412,0xbe583cbe,0xbdb3b906,0xbdbc40b5,0x3d254460,0x3ce8fc14,0xbdd02628,0xbd34f446,0xbcb0238c,0x3a0d474c,
0xbd39899c,0xbd605756,0xbc9d5770,0x3d72b28b,0xbe641009,0x3de802ab,0x3dc0691d,0x3ce51784,0x3e08c5b9,0xbc69f2be,
0x3dbcc2ce,0xbd371c24,0x3d9ac2b8,0x3c8b0a5c,0x3d13054c,0xbd5792a6,0xbe4d4236,0xbd797ec3,0xbd9d5371,0xbe24c089,
0x3e48c255,0xbbd964e1,0xbd981796,0x3d9e68c5,0xbe0ec51e,0x3d31c487,0xbd74e926,0x3c58642f,0xbe485dcc,0x3d7cebd0,
0x3d65de41,0x3e13713a,0xbe315788,0x3d4b8178,0xbd54305a,0xbe30e189,0x3dd91ea5,0x3cb00b2d,0x3d50af2e,0xbe46a72b,
0x3dc946b2,0xbd971eb8,0xbe088a2b,0xbd89a227,0x3c9fbe57,0xbe570f52,0xbce7dd3a,0x3d4f1ebe,0x3c84eb2c,0xbdf8c083,
0xbcd4169f,0xbd5de201,0xbc14fc57,0xbe317205,0x3e010674,0x3d3e5f0f,0xbe46c9f8,0x3d1eb7b6,0x3e566139,0xbe3326d1,
0x3d72f400,0xbe1ce887,0x3e3228e7,0xbbec26c0,0x3e067b46,0x3db60a4b,0x3e16ce62,0xbd043de7,0xbd70182b,0x3da9abea,
0xbd44867a,0xbe394aeb,0xbd155fcc,0x3cd0cccf,0x3d376d9b,0xbb29ad02,0xbc4e105b,0xbc51e044,0x3e68413b,0xbe764df9,
0xbdd31d90,0xbeae5ffe,0xbd387d80,0x3e70a9c4,0xbdef8b5a,0x3d9eaf2a,0xbb73a67e,0xbe444dd1,0x3c8c84e6,0xbd8e7751,
0xbcb00fa1,0xbce585bc,0xbd3afd68,0x3debfb56,0xbd863d20,0xbdd27b32,0x3e037ce4,0x3d0c8386,0x3d18b4b9,0x3caaf35c,
0x3de11d4e,0xbdbd5e92,0xbe06b53a,0x3d846896,0x3ba9edfb,0x3dd212a7,0xbd467e41,0xbe4d4239,0x3c9683ad,0x3b4488bf,
0xbb160701,0xbc895edf,0x3d85a6be,0x3da6ea9c,0x3db26828,0x3d3dba2a,0xbda02816,0x3c0c23be,0x3e11a29d,0xbd7034e2,
0xbd28d4a6,0xbd964831,0xbe3e7d0d,0x3d502e39,0xbcbed9c5,0x3e4595b1,0xbd256061,0x3d5b86e2,0xbd6e89e2,0xbc9f31bd,
0x3c244da5,0xbdfadba6,0xbdcdcd37,0xbd103c3c,0x3df4c407,0xbd0fc5c5,0xbd4dccfd,0x3dde9e23,0x3d16bffc,0x3d2c00a4,
0x3e160964,0x3d072f54,0xbbe62456,0xbbccb950,0xbe1a5344,0x3cb62252,0xbcd4dad2,0x3dbb9edf,0x3c0cd271,0xbd7542c2,
0xbc32e0a7,0xbbf70bbd,0xbd14e794,0xbd1605ec,0x3d018785,0x3d2c2fb2,0x3d822055,0x3a925a97,0x3d414662,0x3e038d43,
0x3d8b3e10,0x3da3e6cd,0x3e0069bf,0x3c715085,0x3dbede3d,0xbd8fef7c,0x3d8c62c0,0xbe150e25,0x3dc29dd3,0x3d09cf2d,
0xbdce4f12,0x3d86a064,0xbd21d66b,0x3d753976,0xbc908c01,0x3dddaeea,0x3da7276a,0xbe156f0a,0x3dc4fdc5,0x3f1dd4e8,
0xbca7b5cd,0xbba23918,0x3dd988ad,0xbc6569b0,0xbd6feff9,0x3d03a471,0xbe147624,0xbdf12a09,0xbd48374c,0xbd5fa916,
0xbcb62cff,0x3d624042,0x3ceafc1f,0xbb863dca,0xbd0b8caf,0xbd21edcf,0x3e4ce198,0xba9c6901,0x3c929bc1,0x3c42b07c,
0x3d302928,0x3db41bdd,0x3d409dc5,0xbcd620c8,0x3d1bede5,0x3da18224,0x3d2f597d,0x3db1a141,0xbc8347e5,0xbcd4865b,
0x3d72b2d3,0xbbbcc130,0xbd30f9b1,0xbd605b27,0x3d866388,0x3df5148e,0x3c3b4370,0x3c33a232,0xbd6dca02,0x3c079437,
0x3daa59d5,0x3d279336,0x3b929087,0xbdab1ffc,0xbe825601,0x3d8189d4,0xbd80802d,0xbce701bb,0x3c1d9a50,0x3b515444,
0x3dfbc7f2,0x3c8475ca,0x3da2d1ab,0xbd9e4d92,0x3cc05e2b,0xbd69a153,0xbdb8a085,0xbc970ee5,0xbccb9a41,0x3b364890,
0x3d26278e,0xbb1e8648,0x3d1480dd,0x3d48b4fc,0x3c72fe8b,0x3c34d651,0x3dd609dc,0x3d7eb847,0x3df64369,0xbdb652a8,
0x3dbf6e06,0x3e890495,0x3d840e01,0xbe421917,0xbdc12ac3,0x3c9825b7,0xbcea49dc,0x3d3d23e5,0x3d03bea7,0x3dc4d079,
0x3d902401,0xbcb282ea,0x3dad1513,0xbbe00ac2,0xbca8fd95,0x3e29d0c1,0x3dc78db7,0xbc71fad7,0xbdacf617,0x3ea8f452,
0xbe73a8c1,0xbdbb9d6a,0x3dfdf3f5,0xbdb04280,0x3d65fc47,0x3e0ca92e,0xbe413de2,0x3d98f54f,0xbd8d09ff,0xbd8d9461,
0x3cc4633b,0xbe8086b3,0xbd26e8b9,0x3e2f5612,0x3d7ef49f,0x3d4d95a5,0xbe08f522,0x3d4ec56f,0x3da40e6d,0xbd975ed5,
0xbd225082,0xbc9708ed,0xbe29881e,0xbc93abf2,0x3dd99494,0x3e8ded7c,0xbc5361e0,0x3d8763b1,0xbc832564,0xbdb79080,
0x3e8489ec,0xbeaa2b98,0x3dee26e3,0xbe569873,0x3e237da4,0xbc8fb42d,0x3e00460c,0x3ee0332f,0xbe01b40c,0xbd4e9b45,
0x3dbc05eb,0xbb8dfd98,0xbdadd239,0xbd8ed985,0x3d5850a3,0x3dce2542,0xbcac390e,0xbdba5ed4,0x3da0b109,0x3bdd9afb,
0x3da68fa0,0xbe29380f,0x3cb9b3d5,0xbca8f166,0xbe1a95c2,0xbcf6bf3b,0xbe84b571,0xbd63a73a,0xbd248894,0xbc3a5c34,
0xbe473a2f,0xbdbc5012,0x3d694797,0x3c42d555,0x3e77f1c8,0x3c8cf4c4,0x3accb5cf,0xbe6c9598,0x3c40b2a6,0x3cd7bff5,
0x3deeaa9c,0xbc95cce0,0xbda9e617,0xbdf6c06c,0xbccbf11b,0xbd579626,0x3b482951,0x3c7c98f8,0x3d8c3a19,0x3d08cae2,
0x3df28311,0x3d88cc6b,0xbd46d7d7,0x3e28ba44,0xbe04dcd7,0x3d5e0bd6,0xbd84b3f2,0x3da64487,0x3e41a3ee,0x3d8a03b1,
0x3e0c2e8e,0xbc6c2682,0x3e0e84be,0x3cacc7a9,0xbe5b2092,0xbdf31a43,0x3b1ef991,0xbd25c583,0xbda99491,0x3dd545ce,
0x3e462990,0xbd72b715,0x3be99fe3,0xbb0ab6fb,0xbd9b77ae,0x3d3930d6,0xbc3fd42c,0x3a2327ac,0xbd2a6549,0x3d0072db,
0x3d2befbd,0xbde7c8e1,0x3b092dd1,0xbd9f82f4,0xbceb4fe7,0x3dcfa3be,0x3df3a4c4,0x3de15968,0xbddf990d,0xbd84af1c,
0xbd989fc6,0x3cbabee9,0xbd7ff3a4,0x3b6cb985,0xbe071078,0xbd178422,0xbd315edb,0xbe1fa0c0,0xbca21ffa,0x3e6de51a,
0xbceac692,0x3e287f9d,0x3d8bd8ce,0xbd419130,0xbe322168,0xbdf725d7,0x3d22d835,0xbea75708,0xbc4cf01d,0x3d86754f,
0xbc4e7343,0xbdf221a9,0x3db1283f,0xbd988245,0xbd74c999,0x3da7a283,0x3e095035,0xbd715577,0xbd3b153a,0xbd88e3eb,
0x3bf3d78f,0x3d94e0f2,0xbc86437f,0xbe11337f,0xbd40eb87,0xbd74e1f0,0x3dc54db4,0xbe098407,0x3dfc5bca,0x3dca58db,
0xbddd2163,0x3dc45b00,0x3ce614cb,0x3de4621b,0x3e055b3e,0x3d6dfeff,0x3dd6b67b,0x3b833476,0x3da5bd29,0xbd9fa613,
0x3d3fa913,0x3d54b174,0xbd603f2f,0x3d74f346,0xbd9d0c32,0x3db33554,0x3dcd4b10,0x3d8d29f8,0xbe19c398,0x3c7c7ca8,
0xbd0b92df,0xbd123853,0xbc126ddf,0x3d928d83,0xbd33dda4,0xbdb4d163,0xbc7279c8,0x3d68f1f5,0xbd9b6568,0xbcc0c417,
0xbc6dce66,0xbdf705bd,0x3e34e80e,0x3cd48b68,0xbe9ec1d8,0xbca6e51a,0xbdcc76c5,0x3dd8bb15,0x3d220c1e,0x3ca4695a,
0xbd3d551b,0x3e07fadd,0xbd28c12a,0xbc71c891,0x3d146d40,0xbda53092,0x3ce3609a,0x3d4df2bb,0x3d76b102,0xbc3ad462,
0xbda03255,0x3da7d944,0x3d779b7b,0x3da9db74,0x3d58326e,0xbd8d264b,0x3d6f4dff,0xbb264db1,0xbe084d8c,0xbd0185c7,
0xbd5f5daf,0x3c588bc3,0xbc1fe438,0xbc99ddec,0xbd36a633,0xbc98c7dd,0xbc7e1f9c,0x3d4ba274,0x3d9cfdaf,0x3dddab44,
0x3c2cc1dc,0x3e348bf1,0xbde270c7,0xbd6c5197,0x3cfd3b23,0x3c5b6de6,0x3d36257b,0xbc0e2039,0x3d0fe850,0xbd8860cc,
0x3c5e054c,0xbcf1bb57,0x3d52f9fa,0xbbb5dd2f,0x3cdd69b9,0xbc8c034f,0x3d03db45,0x3d96cc52,0xbd469eba,0x3c8b2f5d,
0xbde381dc,0xbdfea5df,0xbc19121a,0xbd5895b8,0x3d92374a,0x3bd2a9f4,0x3df180a2,0x3c4cfecf,0x3e03042d,0x3df8c122,
0xbcec1b4a,0xbe23cee8,0xbda65849,0xbe2bcff8,0xbd0d1554,0xbd13f9eb,0x3d2e1761,0xbd3dab12,0xbd2903d7,0x3d243cd2,
0xbcf618e1,0xbd23204f,0xbdc6cff6,0x3d32ab61,0x3ba522de,0xbd1b99a3,0x3d692974,0xbda64d2b,0xbbd91a8e,0x3b9a20a0,
0xbc486bab,0x3d7f4e5f,0xbe2a6ce4,0x3dce06d8,0xbc0e8154,0x3d82aa93,0x3dbb69c7,0xbc3b27cd,0x3b396725,0xbdab9a1b,
0xbd0303e7,0x3c9a54c8,0x3ca8a347,0xbd1155de,0x3d721740,0xbd96d73e,0xbcce8ba0,0x3dc2b4a9,0xbc7de785,0x3cbf7c9e,
0x3d0c3cd7,0x3a062843,0x3d8b3158,0xbd35df28,0xbd92f112,0xbcaa0c95,0xbd8488d2,0x3db8d2dd,0xbd924043,0x3ca97ce0,
0xbd7babad,0x3db81410,0x3dce8da7,0xbcbd0ea3,0x3e04b769,0x3ca8a5b0,0xbc3a6970,0xbcb91aa0,0x3d98d3d3,0x3c233c62,
0xbe238ea0,0x3de92c5b,0x3d462d94,0xbd8bbba9,0x3dab9228,0xbdcb16e9,0xbdbc91d9,0xbdad1224,0xbba2f2d2,0xbd1c9bde,
0x3daa217b,0xbdac6833,0xbe30c93b,0x3d1b1578,0xbc7a9306,0xbe09aebf,0x3a345aa2,0x3e139f0e,0xbd14c7b0,0xbd78fad4,
0xbd3a2f52,0x3db083a7,0xbd5b9e90,0xbb6f5bb6,0x3d021dac,0x3d6c4aba,0x3c396cba,0xbdc39850,0x3dc9f5e3,0xbdec4da3,
0x3cde9d72,0xbd95a170,0x3c155e4e,0xbdeabb30,0xbd1bcf52,0xbe338f3e,0x3bf2fe2b,0x3986b0dd,0x3ac290cd,0xbdf21c5c,
0xbe4a12da,0xbab25d55,0xbe345029,0xbd24fecb,0xbe01664b,0xbe6e539d,0x3d9498a6,0xbcc2309a,0x3c5dc353,0xbe681c95,
0xbdc9ef64,0x3d0bb5f4,0x3d886586,0xbddecfd3,0x3d6403f5,0xbcbe3ad8,0xbdb228cd,0x3ca96df2,0x3d42b952,0x3b9f9e36,
0xbd79fc8f,0xbd088ac7,0xbe28267b,0x3da503c0,0xbe16f66c,0x3dd13b87,0x3ce0ee34,0x3dfa710b,0xbcbe3f78,0xbc605288,
0x3d930867,0x3d4dc08c,0x3e28cf26,0xbe0523ba,0xbce1a251,0x3d1597d8,0x3dd48d7e,0x3da651fa,0x3e3b51fb,0x3bf4b940,
0x3da24825,0x3d823ccf,0x3c458cd3,0xbc1a25e7,0x3d803aa9,0xbd899a53,0x3d8d93a3,0xbd266137,0xbd459a27,0x3cae790a,
0x3dd6ef88,0xbb71c732,0x3cd9bb13,0x3d0d129a,0xbda15913,0x3bbdc4ef,0xbe05546f,0x3dc9839a,0xbd5c0950,0x3e6fd194,
0xbdd17104,0xbdd3ce75,0xbd7e8578,0xbcb8df46,0xbcd0aab7,0xbe15e1c7,0xbc200c10,0x3dbee97d,0xbdb009ee,0xbd1ae2af,
0x3cbf74e7,0x3e285cc2,0x3c6f462f,0xbd8977ec,0xbd150648,0xbe12e897,0x3ae30d5b,0xbdeaf40b,0x3b9949ac,0x3d1fe32a,
0xbd8c8828,0x3dc2b509,0xbd030d01,0x3d678eb9,0x3da36004,0x3d863faf,0x3e1113a0,0xbcd5638d,0xbd310a2b,0x3c8a9187,
0x3d1ca414,0xbc4ab979,0xbdc86783,0xbc6ef280,0x3d64d99c,0xbe313829,0xbb25618b,0x3a13f71e,0xbcfe1786,0x3d227193,
0x3e101f82,0xbd6ae42a,0xbd05d179,0xba60a5de,0x3dc45c10,0xbcc5808a,0xbd131837,0xbd34ebce,0xbbac9313,0x3c0bb382,
0xbc1585a5,0x3d86d757,0xbcc8a327,0xbd97f7f8,0xbc6b7fa1,0x3dbfe380,0x3d903f5c,0xbd2b0eae,0xbcb7e13a,0xbd894ad7,
0x3d56c96d,0x3d5ee2e2,0xbd0216cf,0xbc8ee912,0xbd15762b,0xbd932e31,0x3d4b56cb,0xbb810418,0xbd2c9a76,0xbe376e20,
0xbc0818fe,0x3d03fa90,0xbd987414,0xbd84c5b5,0xbdc0c20a,0xbc9dcf39,0x3bd39d21,0x3d930f6f,0xbc0c658a,0x3c61fc8a,
0x3dd3b019,0x3d97f647,0xbc6606fc,0x3de51ba0,0x3d4f0ca8,0xbdd2d017,0xbdb2ec9d,0xbd825c1c,0xbcbaee98,0xbd07831c,
0x3d8c8ff7,0x3ca3d960,0xbd1b1b00,0x3d7f6d46,0x3dda0638,0x3c90eefa,0x3d853f5c,0x3d844a62,0x3ce11049,0x3d0603e0,
0x3de5824a,0x3d9a6a86,0x3c299652,0x3e823c3e,0xbd99ffe4,0xbba3dcab,0xbe187718,0x3c583d69,0xbe194379,0xbd3a22d3,
0x3dd87069,0xbc0f4175,0xbd9e48c2,0x3c545b7d,0x3b08b596,0xbd305b9f,0x3e654cb1,0x3d8ed4f3,0xbd3ee162,0x3e0e17e6,
0xbe94179a,0x3d3950f2,0x3d68060e,0x3cd5a466,0x3de55392,0xbcec6e55,0xbd56f6cc,0xbd2ee449,0xbcce9669,0xbd488dd4,
0x3d94d01a,0x3d66c390,0xbc126f63,0x3d1f1191,0x39c63a54,0x3c97df70,0x3b89c484,0x3b428620,0x3cc01ace,0xbdec9627,
0xbccb1b43,0xbc188e5d,0xbc54e1fc,0xbc6eea58,0xbb3e3b99,0xbdb321e0,0x3d662f0d,0x3d758c16,0xbd438dbf,0xbde8ac03,
0xbc4fb61f,0xbc9a5579,0x3bc91b16,0xbd4ae74d,0xbcafd544,0xba8893aa,0x3d88ef0a,0x3ddb7b06,0x3d797958,0xbdb85da1,
0x3c8b977a,0xbd3ecbec,0xbceb98cf,0xbbdaf7ff,0x3b84b109,0x3cc7938a,0x3c13ee95,0x3d74dce6,0xbd5d7b49,0xbd4bd205,
0xbdbc1311,0xbc4cfff4,0xbc7fbd51,0xbdeb4dc1,0xbe5b5a1a,0x3de22ae5,0xbd477ced,0x3d664495,0xbdff87a7,0xbde8b39e,
0xbd074109,0x3d132834,0xbd70ce8e,0xbd828f22,0x3d612c8c,0x3cf6199b,0xbd1b810b,0x3b801b32,0xbd45ca7a,0xbc0c3edf,
0x3cf0539c,0x3d4b396b,0xbe2bf71b,0x3d6ff7b4,0xbd16e073,0xbe242c9b,0x3cf10437,0xbc663128,0xbda58e10,0x3bdfacf9,
0xbcc6f260,0x3cec1477,0xbd47b458,0xbdb9fe11,0x3ab37c03,0xbe079d5b,0xbd5905a2,0xbc6e2822,0x3d9dc5ec,0xbd82c027,
0xbd33811e,0x3e1b4c80,0x3c9398de,0xbdbc6bf6,0xbdcc7b2a,0xbd55bd9c,0xbd8125c7,0xbceca3e3,0xbda0345b,0xbda8bb53,
0x3d3868df,0xbc86dcd1,0x3db16520,0xbb02e989,0xbc7a70ed,0xbd8fa69e,0xbde6372a,0xbcd9bf07,0x3c9cab40,0xbdea0f18,
0xbdc2d5e3,0xbe766b23,0xbda4e393,0xbcef3477,0x3df3550c,0x3d12555f,0x3cc42c58,0x3db4565d,0x3d4e91c1,0xbe0766ad,
0x3caf7398,0xbcbd6fef,0xbd3d5b30,0x3e0b9fc7,0x3a00eac1,0xbd52f95a,0x3c916e60,0xbc852f64,0xba8d5d30,0x3d43af6d,
0xbd8b08b3,0x3cf37f5d,0x3cc76055,0xba83c955,0x3b0d2c79,0x3bf7c0bc,0xbd4e3b6f,0xbe73916f,0x3d4971bb,0xbd4f7b7b,
0xbdcac123,0xbd4cf475,0x3dad169f,0x3cb52363,0x3d8cc2e4,0x3e10bd79,0xbe0b9e9d,0xbd78cfec,0xbd39765c,0x3d401f78,
0xbdcf1bd7,0xbd0d4d77,0xbbaea2fa,0x3c84db6f,0xbd257d14,0xbd348386,0x3bb01742,0x3e28a447,0x3d0d4e92,0xbdd4d360,
0xbd0b62b8,0x3e03c9cc,0xbd1794c2,0xbdfd9a04,0x3ddd2ff8,0x3da6cbe4,0xbde2b601,0x3e059369,0x3d89d538,0x3e08b341,
0xbdb88c81,0xbcef2bc1,0xbd443b09,0x3e161686,0xbd962cc4,0x3dfe4c0c,0x3d100656,0x3c124da6,0xbc1abdf2,0x3d43046f,
0x3e1dafe2,0xbd570d67,0xbdd1ae45,0x3d493f3e,0xbd35b46f,0xbe622e0a,0xbe22b4be,0x3dc4fb9e,0xbdd4af69,0xbe4331a9,
0x3e282c1b,0xbe34b7fb,0xbd61b57a,0x3da22fd4,0x3e294cef,0xbb66f7b3,0x3c66c053,0xbccca83c,0xbd9dad16,0xbe0bfbe2,
0x3d8d837c,0x3c489027,0xbe26d356,0xbc9b8a46,0x3b8da474,0x3c9bb5e8,0x3da5878c,0x3e05ed57,0x3d97f08c,0xbe81c3db,
0x3bba2136,0xbdfd6b08,0x3cb19a7f,0x3e3be193,0xbdd94aa7,0x3d623d4e,0x3d2baaec,0x3dedfbba,0x3d48b134,0x3d0499c1,
0xbd72bed2,0xbe4cd512,0xbbc77233,0x3cee6db6,0xbd237af3,0xbe24f1f1,0xbeb21c73,0x3e0a45ef,0xbd10fb63,0xbb9dc678,
0xbd4cf5b2,0xbd89834a,0x3d52e426,0x3d8612f6,0xbdd2b857,0xbe02171b,0x3e7007be,0xbcec5077,0xbe65636d,0x3d8a68b9,
0xbc84dec6,0xbc93f98a,0x3da81633,0x3cb6a626,0x3d7ef63e,0xbdbc570d,0xbd653d86,0xbc101508,0xbd9097ff,0x3dc3a9fc,
0x3e840743,0x3dd7c94e,0x3d0304db,0xbd33b63e,0x3d83ebda,0x3c503d11,0x3b288b3d,0x3d729179,0x3dab2e03,0x3db66d13,
0xbe0538e3,0xbd89b68f,0x3d5fb7dc,0x3d38a467,0xbdc9067a,0x3cf748d4,0x3dceab7d,0x3d088734,0xbbb80e3b,0x3df35383,
0xbe052864,0x3e09fced,0xbd503211,0x3db57c8e,0xbd63f204,0x3d0969d0,0xbd31c235,0xbdb03b8f,0x3d2bfe09,0xbd05c0b3,
0xbc571961,0xbd742a13,0x3b0a6192,0x3e182018,0xbbbeb222,0x3cfa0fd4,0xbd1965e0,0x3d589f6b,0xbd8b8d2b,0x3deccb9a,
0x3c183f6a,0x3e1bdc75,0x3d069e27,0xbd85b8b1,0x3e13a4b3,0xbd89e711,0x3cecb80b,0x3c357d64,0xbcc17646,0xbd35b0ea,
0xbd39f674,0xbd7ada2b,0x3c2409b9,0xbc0066c6,0x3d72c170,0x3d1db58d,0x3d9b1eac,0xbd871002,0xbd94b185,0xbcc99f6d,
0x3e225835,0x3c0aa1ff,0x3c964c3f,0x3d8ff14a,0x3ce81c39,0x3d01e58b,0xbbcbf628,0x3dfe8197,0xbd8203f0,0x3c2d1eb4,
0x3c3f1d56,0x3d4cc6ff,0xbd583305,0xbd7cc52b,0x3d2420e1,0xbd9af046,0x3db24227,0x3dd4db65,0xbba365dd,0x3dd3c870,
0xbce0c900,0x3b8b0fe2,0xbd527311,0xbbf9f2ce,0x3debadd4,0xbd816790,0x3c3da63a,0xbbbf50ca,0xbda15fd8,0x3c8d76d5,
0xbc8b6cfd,0x3d76843a,0xbb9b2914,0xbc160abd,0x3d9a3585,0xbdd82fe6,0xbd3ea71f,0xbe1e9034,0x3c84cf20,0x3c83ae57,
0xbe0f438b,0xbc3901b3,0x3c67329f,0xbd540dd6,0x3dc8f8b1,0x3dd5f953,0x3dbd465e,0xbb93e93c,0x3db31972,0xbd85081c,
0xba071818,0xbcf47e45,0xbd82e991,0xbb1427e8,0x3cfbb01c,0x3d3a34bd,0x3d954739,0x3c8073f7,0xbd1190bf,0x3ddd84da,
0x3d8e08a9,0xbd38d39c,0x3e0b619e,0xbdbc96bf,0xbdf3d3bf,0xbd35fdf3,0xbe269655,0xbb8d249d,0xbdf732bd,0x3d05b5d4,
0xbde0f2f1,0x3da8bc45,0xbcde5575,0xbd745474,0xbd5b7ec8,0x3b876fe6,0x3ce63db2,0xbcc0bf91,0xbd27be5d,0x3d7f9f08,
0xbe24e94d,0xbcbd638e,0xbd9222eb,0x3caf3806,0x3d63ea63,0xbe09eb2e,0xbe4f4c7f,0x3d93e651,0x3d597fc6,0xbdc465fd,
0x3e0ed7a0,0xbb5df5d1,0xbca6e4a7,0xba00e859,0x3d643c17,0x3ca1c80d,0xbbeeb275,0xbd8067c9,0x3d5a3ed0,0x3dacb047,
0x3d37f451,0xbd47b901,0x3d74d068,0xbdd901c8,0x3d18c60f,0xbd3359c1,0x3bbf762d,0x3d8614f1,0xbca3b704,0xbdb17789,
0xbca86e48,0xbd7ec632,0xbb16dcaa,0x3cee1820,0x3c38e887,0xbd8abafd,0x3d28006f,0x3d8c4720,0xbd59d26c,0xbce29890,
0xbd60e365,0x3d59f484,0xbded5889,0x3d14f0f4,0xbd24c984,0x3d326c76,0x3d4d029b,0xbd7c1a86,0x3d962ba4,0x3bf6fb05,
0xbcb924f9,0xbd498d82,0xbe145887,0xbdffdeca,0xbc147930,0x3ce2774d,0xbd2f6485,0xbd517f28,0xbdb467f3,0x3c6a9d43,
0xbdab859c,0xbd60dbfc,0x3ce2db17,0x3cabdf29,0x3d95b37a,0xbdd1f559,0xbba3c0e7,0xbcddf54f,0x3ddae244,0xbc97509f,
0xbd42d527,0xbc4a19c2,0x3d63dab6,0xbb3d2216,0x3e00241a,0xbdb3bfe2,0xbb144810,0xbcc5456e,0xbd77285e,0xbdf5d5c8,
0x3d4ac0dd,0x3b6b7471,0xbb433815,0x3c98b50d,0x3abc44b7,0x3caf62d7,0x3d8b1f67,0xbd036577,0xbd8257a8,0x3d9f0012,
0xbd9ca5f8,0x3d7f8a81,0xbdb553ea,0xba93b2db,0xbc7cf31a,0xbd7b36f9,0xbc0d3391,0x3c594f5c,0x3d6af7a1,0x3e2a37ae,
0x3d46444c,0xbdfb7786,0x3d7318ee,0xbc7216de,0xbe13ab84,0xbd8dccae,0xbd4bb8c0,0x3ca9b8e9,0x3da1c31b,0xbbcc2588,
0x3e17e41f,0x3d3935dc,0x3dece394,0x3dc5785f,0xbd3a5924,0xbd08a0ab,0xbd7bd3f7,0xbd822bb1,0x3dbdbba7,0xbd7db8ea,
0x3caaa9cd,0xbd954c51,0x3d74a2ac,0xbc4aa783,0x3d57c366,0xbbdc9576,0x3da79278,0xbd70a67e,0x3d5dd24b,0xbd0bdce1,
0x3d84db85,0x3d770c6e,0xbd1f0ece,0x3ca3ff24,0x3d1010fc,0x3cfce284,0xbc637d6d,0xbcb38329,0x3d8f1254,0xbcb2ad24,
0xbcbff354,0x3d41363b,0x3aeea120,0x3d034dea,0x3d63071e,0x3d14a874,0xbd383def,0xbcd5c789,0x3d72ef49,0x3d029f17,
0xbcb38444,0xbd9bb0fc,0xbca6111b,0x3d8fca14,0xbdb73eb3,0xbd6651c1,0x3df65c47,0xbde220f8,0x3de240e6,0x3c1f8bf7,
0xbc8b632d,0xbb90f775,0xbc3b6e35,0x3d886937,0xbdb631c9,0x3cdd6961,0x3d92ab62,0x3da0b3ea,0x3cacacc3,0x3d0b1bbb,
0xbcd6f763,0xbd21bfa2,0x3d32432a,0x3aea1b8a,0xbd1a739d,0x3d437eb1,0x3e0d20d9,0x3da4160d,0x3cadb9bb,0xbdfd6b4d,
0xbdc4269c,0xbdce4849,0xbd6f83ff,0x3ba09672,0xbddd7d8b,0xbd322b38,0x3d600eb9,0xbd831be8,0x3d82aa52,0xbb2be745,
0x3dc35626,0x3d8f97c2,0xbd3415a6,0x3d22593c,0x3cac5f72,0xbd619436,0xbd4f68ac,0x3d10decc,0x3e27d525,0x3dc1a791,
0xbe0d4fb0,0x3e2c9086,0xbdc1a0bf,0xbe1a6dd6,0x3c214793,0xbd969ebf,0xbdad4fa4,0x3dff7c3d,0x3e17055d,0x3dfc1dbf,
0x3d781d0f,0x3da49996,0xbd94b5e9,0xbd0e1de4,0xbd3c24b2,0xbb410ee1,0xbcea643e,0xbcb7f0ff,0xbd13ca6f,0x3d1a168f,
0x3ca42dc2,0xbcc88757,0x3df0017f,0x3d08cffd,0xbdaf7a3d,0x3d4ab031,0xbcff1317,0x3ce7c79f,0x3e108b74,0x3d6b9b96,
0xbc82e317,0xbc2d98cc,0x3d4e5592,0xbc5e7a29,0xbc3e1ce8,0xbc77b7cb,0x3ca713c3,0xbd854afa,0xbc913a69,0xbcea9b5c,
0xbd055383,0x3ca8ae24,0xbd620121,0x3c05014e,0x3da1935b,0xbc8d71b6,0x3cf35037,0x3d0890ac,0xbc54eb3c,0xbc1a522c,
0xbcf413cb,0x3c1ae630,0x3abe84b9,0xbcb87855,0x3d949486,0x3cf2fd42,0x3af64f21,0xbc3ce491,0x3cba70aa,0xbd4e4531,
0xbd1681ca,0x3c283a0b,0xbd6a254b,0x3c0d18fd,0x3d82c6cb,0x3cf90d65,0xbc86c53d,0xba6e19e9,0x3d495fb7,0x3d5c7ead,
0xbd3a28a3,0xbd3e92ad,0xbd2082b3,0xbc0d71cc,0x3e06250d,0xbd624408,0xbd899c9a,0x3d358888,0xbc4bb896,0xbc124235,
0x3da28bd3,0x3df01636,0x3c80e98e,0xbe01aa77,0x3cec296c,0x3d857289,0xbd0cac1b,0xbd70ebf2,0xbd55be5b,0xbd2c563c,
0x3cb94b97,0x3d1e7e14,0x3d39dcd1,0xbdba40d2,0x3deb297a,0x3d752e88,0xbda09af4,0x3b90295f,0x3d9dede4,0xbc600dba,
0x3dbf04d9,0x3dd779b8,0x3ddf17c4,0xbe1e5c9d,0x3e27e414,0xbd31bd33,0xbddf7e76,0x3dd38853,0xbdb471b1,0x3d7d8f07,
0xbcb41e6e,0xbd387e3e,0x3dad147e,0xbceccbb5,0xbd272af0,0xbd0d56e2,0x3ab58546,0xbd89f0ba,0x3bd91bd3,0xbd9b022b,
0xbd93aaa2,0x3d42fc91,0xbce8ed72,0xbdb8b722,0xbe0b154d,0xbd097d94,0xbc98c4c8,0xbe0c1fd0,0xbe4738fc,0x3dbfe8e0,
0xbc94260c,0x3d4103e2,0x3e038093,0xbd39aa66,0x3e7a17dd,0x3d0f0464,0x3e264d88,0xbe4a6b0f,0xbe368f3f,0xbc633f5c,
0xbe62d9fa,0x3db084e5,0x3b036883,0xbd079535,0xbc370f1a,0x3d709bac,0xbce8b92b,0x3c54d04c,0xbc405b53,0x3d693a93,
0xbc20d87d,0xbccd58af,0x3c819eef,0x3ca780a8,0x3b8e403b,0x3d28922b,0x3bfa8b53,0x3c9de762,0xbb1dfb73,0xbd0d83f8,
0xbc87e737,0x3cde3d01,0x3cb3516c,0x3ce715ac,0xbba3826d,0x3d37eaf0,0xbcfda14c,0xbc80b467,0xbcffcde7,0x3c84da61,
0x3c08ac94,0x3d1893e6,0x3b89428a,0x3d50464f,0x3d29ee51,0xbcea03c6,0xbb962509,0xbd9ce9b1,0xbcc8d653,0xbc8256a7,
0xbc2c40c4,0xbd06288e,0x3c905953,0x3ca70486,0xbcbc3465,0xbc4fe98f,0x3ac215c1,0x3c147849,0xbcd71bb3,0x3c21a5e5,
0xbcb91757,0xbce1c67f,0xba7a3fcb,0xbaf9290f,0x3c59f6ab,0x3d1b3e72,0x3b308d8b,0xbc95dbdb,0xbd42c83e,0xbd691309,
0xbc9bf80f,0x3d315776,0x3d0199b0,0x3ca9aa9d,0x3d0d2354,0x3c97c453,0x3c8deaa9,0x3c89dd60,0x3d76250e,0x3d085988,
0x3d826dc1,0x3cca0a48,0xbd9c143b,0x3c00d080,0x3d265bae,0xbd64629a,0xbcc21606,0x3da96d9c,0x3b522d62,0x3dba2462,
0x3c9f9a0e,0xbcdb0831,0xbd19b7f3,0xbd35a1fc,0xbbe615ec,0x3cd6dc13,0x3cff0908,0xbd3b459e,0xbd689c87,0xbd276c3d,
0xbd1c0e5a,0xbc490b28,0xbca28b75,0x3d78ef2b,0x3cd44b67,0xbb96e430,0xbcfed195,0xbcfb6141,0x3d120219,0xbdc2ad25,
0x3ce87618,0xbd10099e,0x3d3b909a,0xbdab0df4,0xbd55ad0a,0xbd8516ea,0x3d075744,0x3d974327,0x3d9c8160,0xbd84d11e,
0xbdb2ed4e,0x3c122b85,0xbd28761d,0x3d3b32cb,};

