const static size_t backbone1_10_0_weight_size = 2304;
static unsigned backbone1_10_0_weight[]={
0xbeed5876,0xbf3e034a,0xbe2a0186,0xbd0c8edd,0xbe093774,0xbed43200,0x3e8fd129,0x3e9a0c4b,0xbe489969,0x3f064f78,
0xbd85bbee,0xbecd08fc,0x3efc635f,0xbf0e416c,0xbd59b2cb,0x3ef81332,0x3dff6c72,0x3e999ab7,0x3f2874fa,0x3f1a7167,
0x3cadc273,0x3f3fdf4c,0xbe70a8d2,0xbe62069e,0xbd47c309,0xbe39ff57,0x3c02efe8,0x3e88db50,0x3f30ea20,0x3ec8df61,
0x3dc8eb71,0xbef9b192,0x3ed04c44,0x3e4e565c,0xbf07f178,0xbe025c96,0x3e77a13e,0x3d264228,0xbeb58af1,0xbd47b4ee,
0xbf76042b,0xbea07a9c,0xbed8baf4,0xbe14d026,0xbdab4818,0xbeb2d728,0xbf19d9fd,0x3eb0ce16,0xbe9baa2a,0xbde655ef,
0x3c007b75,0x3ed57259,0x3ec9f763,0x3de321cb,0x3dc5c0e7,0x3b1ba8d2,0xbd922bb2,0xbeb41296,0x3f9ddb61,0xbe217982,
0xbdaf0c9b,0x3dfe985e,0x3dd0c6b2,0x3e51dc17,0x3de98b3a,0xbedf3936,0x3f0bb686,0x3f10f5a7,0xbeb19cba,0x3de71db8,
0x3da75058,0xbe3037a1,0x3e9c36a1,0xbe4152e6,0xbf1a0dcc,0xbdb43e4e,0x3ecb28d2,0xbeb9f9c7,0x3e83c006,0x3d640592,
0xbdd16e3c,0x3eb0f968,0x3f07b324,0x3e9600d0,0x3ef756fe,0x3f2156ae,0xbe676bce,0x3ead2970,0xbf2680fd,0xbf66b410,
0xbd280b64,0xbe64226a,0xbe66dd35,0xbe2ec9bf,0xbf21e47c,0xbd88caa7,0xbe971434,0x3f5f4e85,0x3f3eb3d9,0xbc8fd499,
0xbe47f51c,0xbd96b19a,0xbeae7669,0x3f508662,0xbd9075c3,0x3e8a6abc,0x3f06bf22,0x3ebd546f,0x3e4dd6a4,0x3da9fd2f,
0x3e6647b4,0x3f9bcf48,0xbf0e42e0,0x3dce712a,0x3ef25bd6,0x3eb83630,0xbe385310,0x3e298cfb,0xbf30afaa,0xbeea1a29,
0x3f12f56f,0x3f1baca6,0xbea0cbf3,0x3ea06163,0x3f15425d,0x3eb88f57,0xbe9b608e,0xbdb04b15,0x3e11441b,0xbf0c470c,
0x3e4b3e0e,0x3e844d71,0xbe807382,0x3ea56cbd,0x3ed1344e,0xbe321f72,0xbe0e560f,0xbe2d18fa,0xbd0573d8,0x3d8fd38a,
0xbf0f0998,0xbcc77628,0xbea08b1c,0xbf3f5dde,0x3e50e56c,0xbe2e8422,0x3cc6609b,0x3f066f9c,0x3f1f5a57,0x3e6e9fc1,
0xbd987bce,0x3f1ce788,0x3eaea5c6,0x3f69a477,0x3f4a90b1,0x3e6e3894,0x3f0ef0a7,0xbe68c84e,0x3d8c4f81,0xbc99bbf5,
0xbdf6b328,0x3ddd52ec,0x3eaadeae,0x3e64e2ed,0x3dbb79a6,0x3dfb890e,0xbf0c6bae,0xbce2c676,0xbf61ca56,0xbf67f7c7,
0xbef94e0a,0xbdd06593,0x3e16db28,0x3dcb098b,0xbe927ba8,0x3f1311e4,0x3eb54161,0xbf1b9d0d,0xbf33cbaf,0xbe7c991f,
0x3f2062a4,0x3ea88ee6,0xbdfca4ef,0x3f115b78,0xbf84bcc4,0xbe35e7de,0x3e13b82b,0x3e67925a,0x3d7d1135,0x3eb56ffb,
0x3dcb6510,0xbeeba0cd,0x3ec55d9a,0x3f474e91,0xbe81e371,0x3f2ec3cb,0x3f31e191,0xbded258e,0xbe82796e,0x3cab1048,
0x3dc497d3,0xbf4625c6,0xbebab9d3,0x3d176e1b,0xbf35e9fa,0xbe7849e6,0xbdeebc0e,0xbf1ea27a,0x3cb856f7,0x3e0deb00,
0xbea9870c,0x3f13bbdd,0x3e71bd14,0xbe1f4641,0xbefb60ab,0xbeb45fae,0x3f159dd2,0x3f8761d5,0x3ea7ad03,0x3e902ba5,
0x3e11e3c0,0x3d891722,0xbe8a6168,0xbeb0e77d,0xbba1e5b0,0x3e9c158f,0x3caf0c38,0xbdcd67a1,0x3ef0164a,0x3f8f023e,
0x3e130c81,0xbd04e422,0x3e93d83f,0x3f07acaf,0x3ec5cb4a,0xbdd9280e,0xbd0cf73e,0x3f0a94d6,0xbf98a3bf,0xbed19767,
0x3f11c137,0xbe903248,0xbe61bcb3,0xbe001013,0xbf31f575,0xbee9a621,0xbf3a72ec,0xbf22cc45,0x3dc3fabc,0xbf11bfe4,
0x3e6a6d96,0x3e71e637,0x3e55b729,0xbf3cdcd7,0xbf144b2c,0x3f082878,0x3ee440d4,0xbd6908d9,0xbe50489c,0x3d476c48,
0x3dbbb8f3,0xbf5920bc,0xbe81d983,0xbe87c994,0xbf69bdc3,0xbeccc181,0xbe10a69f,0xbf4a3c67,0xbebd498f,0xbdfe4fcd,
0x3d53e0c1,0xbd70f4c1,0xbd8a4663,0xbdf3936a,0xbf7c6263,0xbd122e5f,0x3d9a1ffd,0x3ea7a0a2,0x3f236a42,0x3e5a5bde,
0x3f0dae10,0x3eb8a7a8,0x3f09cd4a,0x3efa6418,0x3ef66d1c,0x3ec00325,0x3ee63ab9,0x3e8248c3,0xbeaed208,0x3e957630,
0x3f495f9d,0xbf265cc7,0x3f12d611,0x3ed83774,0xbef9bf29,0xbe83e666,0x3e779076,0xbe53f061,0x3eda2428,0x3f69c93b,
0xbe957317,0xbd35d147,0x3f8867f0,0x3e2ca63c,0x3e0f61b4,0x3ede00aa,0x3e1ba4a4,0x3e81b7f6,0xbe48bf90,0x3ba0d0fd,
0xbfaf3942,0xbea014c8,0xbe614955,0xbe578c60,0x3e0bf570,0x3dea501b,0xbea2c90b,0xbe4c1258,0x3efcea45,0xbe9c35f9,
0xbd900739,0x3f869359,0x3e959cc3,0x3e605483,0x3f30171e,0x3f888497,0x3f4230e1,0x3e467ff7,0xbddda8b1,0xbe76e2d9,
0x3dea7995,0xbe8779b4,0xbd05a035,0x3eb77aeb,0x3f100582,0x3d4d17e3,0x3ec4e633,0x3f65713d,0x3beb04b3,0x3edb3265,
0x3d890be3,0x3e242466,0xbf7e407a,0xbe4c9840,0x3e21c513,0xbf4e5cf3,0x3f565761,0x3dce0f06,0xbee8e05a,0xbdeb0ff4,
0xbef80be0,0xbb24fecc,0xbea6443d,0xbf51168a,0xbe4e98fe,0x3d49839b,0xbf179af0,0xbe0f9e68,0xbe058b5d,0xbec4a56a,
0xbe1dfc7e,0xbefba61b,0xbeaba55b,0xbee0014a,0xbe2c0ec4,0xbe1e2445,0xbea344ab,0xbf064170,0xbe9fb733,0xbf35f810,
0xbe2813e5,0xbe56ebb1,0x3e11bcd1,0x3f7562a7,0xbd933752,0x3e0f45a0,0x3f5980ff,0x3e6f3e19,0xbf00148e,0x3eab1fe5,
0x3f7337cb,0xbe602fa4,0x3db1c703,0x3f46fa14,0x3d441984,0xbd2e7e15,0x3e38c5e8,0xbea51c94,0x3ddf330d,0xbe5b7c03,
0xbfc932f1,0xbecce5d4,0x3c49b3e2,0xbeb95c6e,0xbd4b1eba,0xbd2fea70,0x3ea77afd,0xbdd8477a,0x3d5fcebc,0x3edd9efd,
0xbdff064a,0xbedbfa6b,0x3f9da0dc,0x3e9e6093,0xbf809555,0x3f3dffdb,0x3f4da99d,0xbe898ad7,0x3e75904f,0xbf6027c5,
0xbf53da30,0xbef777e8,0xbf18b721,0x3d5d5990,0x3df795e1,0xbf22627d,0xbe9628e2,0x3ebcd94d,0x3f8c6152,0x3e83dd50,
0x3eeb513a,0x3f46f40d,0x3eab7031,0x3e767484,0x3d215473,0xbee301b5,0x3f165158,0x3fd65a6a,0xbee67183,0xbe01c749,
0x3f03e816,0x3e152211,0x3f929768,0x3f9641de,0x3f0f6a63,0xbdf2cfd5,0x3b20f2dd,0x3d3d6676,0xbe586b70,0xbe531cb7,
0xbc51ba38,0xbe9d8a4a,0xbecd1f4b,0xbe58cd49,0xbf6a67b4,0x3d655cd2,0x3e09be8a,0xbfa8c034,0x3e811344,0x3efa98cd,
0xbfa78fb8,0xbf708aef,0x3b9cbb5c,0xbf8d9d7b,0xbbc6d7f1,0xbd954a4d,0x3dea8321,0xbeb59f86,0xbe733d5b,0xbf8103b3,
0xbf44aa52,0xbf80c409,0xbeca0483,0xbf315b20,0xbeade230,0xbeac492c,0x3e09b5c5,0xbe363806,0x3ecb81d4,0x3f1f8485,
0xbd0b4271,0x3f09b032,0x3fbb1fd3,0xbeaade03,0xbdefbacc,0xbe1c0ec7,0xbd733be9,0x3d8c2dfc,0x3eb61a33,0xbd24f27e,
0xbe824e0c,0x3f16d253,0xbdfc9293,0xbf2bf096,0xbf6d3751,0xbf11f7a6,0xbf860f93,0xbf1443c9,0x3e696623,0xbf9f11e5,
0xbf4a6a69,0x3d0370ce,0xbf91b53c,0xbe66e5f7,0xbecde2c8,0xbdb0071b,0xbe5ab0ce,0xbf0bd5e4,0xbec73906,0xbf6f216e,
0xbecdfdfa,0xbeb47bb7,0xbf637261,0xbf62db7a,0x3f943a1c,0x3fbf7453,0x3f89c34a,0x3f31a5f2,0x3db09779,0x3f110fc2,
0x3f4bf412,0xbe15cd29,0x3f1a94d7,0xbf584c33,0xbf30b414,0x3e84a12a,0xbfdb7394,0xbf6cef1f,0x3beffa01,0xbf032f66,
0xbe66e3cd,0xbf1384bb,0x3f3c55e9,0x3fc31e99,0x3fa13ce4,0x3f09d7e7,0x3f338cd7,0x3f8dfe1d,0x3f23ca5e,0x3eec9907,
0x3f3f1db5,0x3ec03ada,0x3ec86da1,0x3fa682fd,0x3e064b56,0x3f457902,0x3fc49dbb,0xbc28c0db,0x3f0a8f3a,0x3f7fe3f2,
0xbe04b9d1,0x3dd39d06,0x3f106528,0x3dd82d17,0x3e40f153,0x3f17a3d8,0x3f7eea2b,0x3f7593ba,0x3ffb7ebf,0xbeb1c975,
0x3f20ba25,0x3fbf7ce7,0xbeb31d48,0xbd84c590,0x3f363be4,0xbf27b049,0xbd3f9054,0x3eaf70b6,0x3f860a4d,0x3fe2131a,
0x3fa29923,0x3d694651,0x3ec8c720,0x3f55e1f1,0x3f04efd0,0xbe8c24d8,0x3d66b172,0x3f12905c,0x3fa4fb0a,0x3f929559,
0x3f26ca47,0x3b1057fb,0xbe58a261,0x3ea1044c,0xbe8c80c2,0xbfd2fdeb,};

