const static size_t backbone2_1_0_weight_size = 3456;
static unsigned backbone2_1_0_weight[]={
0xbc2199f2,0xbee41252,0x3ee6f910,0x3dc36514,0x3e13a7f0,0x3ee089a1,0x3e248eb9,0x3e9da93a,0xbd03470a,0xbea4dffe,
0xbe9429df,0x3d85a33b,0x3ef41d93,0xbe8395df,0xbe73f135,0x3e3d73fb,0xbd8777f5,0xbe0e1186,0x3eace44d,0x3f44d96e,
0x3ea2e7af,0xbd3e9edb,0xbf628915,0xbd30f5b4,0xbd1aea16,0x3df3900f,0x3d3a9a27,0x3e2ce9e7,0xbed65896,0xbeae3d36,
0xbe22c072,0x3f238e65,0x3e473c88,0xbed1f911,0x3ebb56cc,0x3e7d3bbf,0x3e616713,0x3e814a4a,0x3ef13501,0xbe7eb205,
0xbf4df34b,0x3e739425,0x3e37c4b6,0xbedbaa9c,0xbe00d606,0x3e178957,0xbe77fa02,0xbe0e0b54,0x3e276ee8,0xbf4cde6f,
0xbf0b8231,0x3eaf9186,0x3e9f1ac0,0x3e44e382,0xbe67dcb4,0x3d384d5c,0xbf01c511,0x3ce15654,0xbf368f9c,0x3dd42a76,
0xbe1a3487,0x3e9b9ec1,0x3eb11580,0x3ee29c44,0xbed3bfed,0xbf093012,0x3e89f5fd,0x3ee71b60,0xbd8e8869,0x3e7fc5e5,
0x3ea2077f,0x3dce265a,0xbe794d65,0x3edf32e0,0x3f1ab85a,0xbdfbd3d4,0xbe0b07ae,0xbe357b59,0x3e041aa7,0x3ea40e87,
0xbe580b50,0x3e924764,0x3ed21839,0x391277df,0xbc9db1ab,0x3ea0fc3f,0x3b5fb5ba,0xbe938cdf,0xbf45d2cc,0xbea96c35,
0xbd3a3ce7,0x3def2212,0xbdad2459,0x3e04014e,0xbf59b11e,0xbed5edc6,0x3f13de1d,0x3eb6ab8f,0xbe992cc5,0x3efd0360,
0x3d8901c9,0xbeab5c7c,0x3cd3a138,0xbf455f7f,0xbe7c1989,0xbc1473af,0x3d14f2f0,0x3eacc04d,0xbf545326,0xbe7beab9,
0x3e8204aa,0x3e976d84,0x3f1527bb,0xbce97c4a,0xbe0631fa,0xbdd78d89,0xbe8536bf,0x3df8d065,0xbeddd481,0xbf0f230e,
0xbddce1ec,0xbf2c8757,0xbe84ba06,0xbe770636,0xbe80cfa8,0x3cc9dc60,0x3d0cc812,0x3d8e3fa2,0x3dc9ea4f,0x3d9caf62,
0xbee0232b,0xbf1304e4,0x3e4b09d8,0xbef3f9cc,0xbeaaa7b5,0x3de02a01,0xbecf3f64,0xbaf949cf,0xbbe13a4f,0x3e1f3bb7,
0x3f006121,0xbe92acf0,0xbf0b6116,0xbd258645,0x3cdf176b,0x3f49e6fe,0x3ee3be0b,0xbe1539e2,0x3eb8faca,0xbd928116,
0xbed9a8fc,0xbd96452e,0xbdbb8b50,0x3df72dfe,0x3e87ce8d,0x3ebf4524,0xbea86682,0x3e54d940,0x3eb6636a,0xbeb0d850,
0xbcaf6cf7,0xbc81b7b2,0xbc8fb588,0xbe38e123,0x3de416fc,0xbeeeae7a,0xbf828e68,0xba71dfab,0xbb899de0,0x3e5b48b8,
0x3d4e7c4a,0x3e9385ce,0xbe8124c8,0x3ec668e8,0x3de54fd2,0xbf19b9bc,0x3e2a95a0,0x3df1278b,0x3cd8591e,0x3da01adf,
0xbc65a72a,0x3f358005,0xbf1a7977,0xbd558bde,0x3e01dd17,0x3f03c22e,0x3eec0343,0x3e5295bc,0x3e4e3340,0x3dbeda3d,
0xbdc06026,0x3e9961c4,0x3f5997b7,0x3e036d48,0x3dbe2b64,0xbc5da93f,0x3e34954a,0x3e5fd2f4,0x3e41cb78,0xbe8acc25,
0xbec02647,0x3d999992,0xbe98d3e3,0xbe1daecc,0xbe6d8c6c,0xbe33691f,0xbceb8535,0x3ded1725,0xbe2aac5b,0xbe4a2ca3,
0x3b1e174c,0x3ec64780,0x3e3f024c,0xbbb6adde,0x3e8d60f4,0x3ecb7ac8,0xbf196041,0x3e724200,0xbdd25be0,0xbf1cdf18,
0x3e06d86c,0xbeb8bf7b,0xbe24c301,0xbd32abb3,0x3cf39934,0x3f09bf9e,0x3db890aa,0xbd745fc6,0x3b48603f,0x3ee6334f,
0xbe513eaf,0xbe8c9d9c,0xbf1e6b27,0xbef193a2,0xbe7c2888,0x3e0ce862,0xbf767cd9,0xbea485e2,0x3eac03b7,0xbf0eb9f1,
0xbdcf2548,0x3d887a8d,0xbc3e9208,0xbeee0064,0x3e6dc830,0x3ea262ef,0xbf13d29a,0x3f10c1c7,0x3f017906,0xbed11649,
0xbe06d010,0xbdecf564,0x3d27cad4,0x3ed51875,0x3f13cf6d,0x3d8c8c15,0x3d4f6f0f,0x3e8dcafa,0x3d54645e,0xbd24b5b7,
0x3d9b9785,0xbe569ce5,0xbf0ca139,0xbf12960b,0xbcac6b81,0xbf823a49,0x3e3c7ccd,0x3e96fbee,0x3e2bd17d,0x3f0444cb,
0x3d1a65e1,0xbe27c623,0xbe6ac63f,0xbea8af76,0x3ce28cfa,0xbd249188,0xbee8ea37,0xbf05f3b6,0x3d67d2ed,0xbf3b5878,
0xbee5c3df,0x3e68182b,0xbdabb5d0,0x3e23b3ff,0xbd1f55f9,0x3ed5431d,0x3f09004f,0x3e726abc,0xbdbace67,0xbe8e763b,
0xbe5ffe65,0x3e26744a,0x3e8b4d0a,0x3e81b714,0x3f03762d,0xbefc0592,0x3e795c9d,0x3eb3a790,0xbdd31561,0x3f445984,
0x3da9dd12,0xbdc2db44,0x3db2172f,0x3e03273b,0x3d1cdcc9,0xbe49f2af,0xbeaf2d45,0x3e82f5d5,0x3d992f20,0xbd471eab,
0xbf2b0629,0xbe557946,0xbe5504cd,0xbea9579a,0xbe909e8a,0x3e37dd68,0xbf07c402,0xbf2ac9d4,0xbd1fea8e,0x3efa7530,
0xbe03059c,0x3e009364,0x3e0df0a0,0x3dcf2246,0x3f2746d9,0x3f6e60cd,0x3efd56d1,0x3f2fb92b,0x3cd2a61b,0x3e4908f5,
0x3e9ac059,0xbee129bc,0xbe0fadd3,0x3e4364f2,0xbe39155c,0xbef52fd0,0x3f1b560e,0xbf6d8897,0xbd9d3b97,0x3e4a0892,
0xbe401e5a,0xbe082265,0x3d474458,0x3e732b08,0x3e7705ce,0xbf9f5080,0x3da9381e,0x3f331567,0x3f04c7b6,0x3dd72571,
0xbc4aa474,0xbdfe29eb,0x3e27fe3c,0x3ee03233,0xbe712418,0xbf696f1c,0x3e14ecbf,0x3dad6097,0x3d8e3a6d,0x3da388fe,
0xbeddb88d,0x3da6a6b9,0x3e9a506a,0xbed310aa,0xbe86505f,0xbe4dcccc,0xbe95fe36,0xbeb87fdc,0xbea3b567,0x3e01a8b5,
0xbc887e15,0xbf1ba796,0x3e6fd30d,0xbf0a036c,0xbf2b35ba,0xbd942f1a,0xbc48dd99,0xbe391f62,0xbe893325,0x3e97224e,
0x3ed06d9c,0x3e348116,0x3f2793e1,0xbe1c6d16,0xbe358aac,0xbe9b0266,0xbe43c4f4,0x3f20973f,0x3f006404,0x3e74248a,
0x3ef00107,0x3da5fd0f,0xbe282d8a,0xbea2bad5,0x3d9bbe43,0x3e4dc265,0xbd807c03,0xbf9438e4,0x3e110ba3,0xbe78be43,
0xbddf0934,0xbdfd1d43,0x3e57cb21,0x3f40436f,0xbe3f7689,0x3f4e8bab,0x3f0d388d,0xbe1f7fc3,0xbce13a03,0x3f14bbb0,
0x3e0fb612,0xbdbe2595,0x3c9e75ed,0xbe032d6b,0xbdad316d,0x3deb3061,0x3c88fe9c,0xbdd0e8e8,0x3fa020e6,0x3f10762a,
0x3e007b9b,0x3f3287b4,0x3ec60cc6,0xbea81a65,0x3dc9e4bf,0x3e9a82db,0xbec41bd3,0x3d373ca4,0x3d99f8eb,0xbf0683b1,
0xbef170e5,0xbf03adcb,0x3c144d2d,0x3ed32a6e,0x3f25b0df,0xbe36a8c2,0xbc6a9e86,0x3f2ef7d9,0xbe4f96f4,0x3e1676c2,
0x3eec34d1,0xbeb4f500,0xbe2a8e52,0x3f0371a7,0xbef84f54,0xbf2149bb,0x3f33242c,0xbe5dcfce,0x3e6649b2,0x3ef05a1a,
0x3f6e040b,0xbcde3bd7,0x3d8f3c4c,0x3ece67c1,0xbf15ad15,0x3e0356e9,0x3ec6b283,0x3d7a4c26,0x3d3421dd,0xbfa27469,
0xbf11c2b0,0x3f203057,0xbf32d498,0x3d4b3f87,0x3e83f0bc,0x3e934c2e,0x3e69891c,0xbea92c9d,0xbdf208af,0x3cb1f1b5,
0x3e5fb106,0x3e41d57e,0x3fab3bce,0x3dec49ba,0x3e34ff5b,0x3e9d2ae4,0x3cedaa7f,0x3f06014e,0xbe4961a8,0xbe83aab1,
0x3eae127a,0xbf399b96,0xbe2bc1bb,0xbe308162,0xbd3c6a26,0x3e60383a,0xbe9d634d,0x3e4401f9,0x3dfa141f,0xbe979bf7,
0x3f6840e6,0x3f157409,0xbe9254d3,0xbea15fdf,0xbe0529a2,0xbeae18c0,0xbf48e0e1,0x3e805a57,0xbeec283c,0xbf5df11f,
0x3ed49ff9,0xbf17296c,0x3df9873f,0xbde412d2,0x3eb4b72e,0x3e96dcf4,0x3e0c7415,0x3f2027c0,0x3f1ae91b,0x3df4a55c,
0x3eb52be2,0x3eebe1af,0x3e3a19bc,0x3eb0535d,0x3d5bb694,0xbea7de9d,0xbb3c127a,0x3f4dee70,0x3e9e85ac,0x3d502db0,
0x3d1fb7b9,0x3e4968e1,0x3f3518cb,0x3f32b5a6,0x3e406f74,0x3f61dd07,0x3f1db11e,0xbf33d053,0x3f20a84d,0x3da4bcb0,
0xbe6d11f7,0xbcd64f6a,0xbf95d5cf,0xbf233295,0xbf5168c1,0x3e2d1147,0x3db0199f,0xbf2e5db8,0x3e6b4a81,0xbe0e4ec4,
0xbf0a0df9,0xbf1d0899,0x3e9df034,0xbf3c2905,0xbf51c603,0x3ec43be6,0xbe305257,0x3ed7e5a3,0x3ed58a0a,0x3f1217b8,
0x3da48c29,0xbe950199,0x3ef5bea2,0x3f17f317,0x3e7ef9ec,0x3e086bd0,0x3e7246c6,0xbe0c93fe,0x3ed91f51,0x3f37883a,
0x3e80d441,0xbdea89a9,0xbef795be,0x3ed4aa48,0x3f304929,0x3f04ac6d,0x3e84cd58,0x3ec9fd13,0x3f393a9a,0x3f286368,
0x3d97b476,0x3f379ac1,0xbcf81174,0xbef5b997,0xbeb2bab6,0xbee8cd9c,0x3f0f9b39,0x3ebcef4d,0x3ec3fb79,0x3f9b75e9,
0x3e097457,0xbeae8ade,0x3fb8508c,0x3f7ab057,0x3f2e8372,0xbe6b6f79,0x3db05a7f,0xbea8331a,0xbf77b185,0x3f240216,
0xbd784f2c,0xbf0f72e7,0xbe7fd625,0xbe38ffbf,0x3e563e5b,0x3dfeb92e,0x3ef27a61,0xbdfc13c4,0xbf4b56f7,0x3f558a10,
0x3f234e2b,0x3f72a8c0,0x3f80b423,0xbdf5e0dd,0x3d90aa33,0xbe644961,0xbeca7587,0x3fa9a65a,0x3ebcb842,0xbe58f24e,
0x3e97de83,0x3e0653b9,0x3febd53e,0x3f540375,0x3f37fc13,0x3f53b0d9,0x3f169a21,0xbf1f5d64,0x3e3c4592,0x3ea51692,
0x3e0034af,0x3e2ea27d,0xbf0d92d7,0xbf3dac79,0xbef68d11,0x3e98a1c1,0x3d8b3fe5,0xbf57a515,0xbea47745,0xbd92f837,
0x3f126f00,0xbefa6981,0x3ed01571,0x3f6c1889,0xbfd6b649,0x3ee81a1b,0x3f14b444,0x3f763296,0x3f48b273,0x3f92a5f9,
0xbe682268,0xbf50c24d,0x3ec69669,0x3f20acbc,0xbe97e047,0xbf05e176,0xbebad5de,0xbe7d5469,0x3da6ff2a,0xbe824808,
0xbf99b799,0x3d678c10,0xbd7f804c,0xbf97e94d,0x3ebb5e0d,0x3e708d5d,0xbf43607f,0xbef7b557,0xbeff409a,0xbe4b2e3c,
0x3f6fd03a,0xbd026f78,0xbecff976,0x3f68ec1a,0x3f4f346a,0x3f0dc356,0x3ecc2128,0x3f09d3d1,0x3d37e2e1,0xbf2d8303,
0x3da5d213,0x3f308d8f,0xbf0f7fc4,0xbe9362b8,0x3e048252,0xbe5179e6,0xbf07f24a,0x3ec9d8f8,0x3d6db97b,0xbf660386,
0x3e980bdb,0x3ee17a49,0x3ea633bb,0x3f6e45e0,0x3f3251e8,0x3da99e6d,0xbf1cf9d7,0xbea5c1d6,0xbf9df36f,0xbf874eb6,
0xbe687958,0x3db5ed11,0xbe11e812,0x3e289223,0x3f27fad8,0x3e890e39,0xbf3baab3,0x3f371fd7,0x3f376c1c,0xbde1a1a5,
0xbec98ef7,0xbe0d65ce,0xbe5bc40a,0x3bf2d586,0x3c674b31,0xbf9fd4e7,0x3dc5856a,0x3f178c10,0xbf633481,0x3f032736,
0x3f22144e,0xbea35d4c,0xbf553b4a,0x3c8d36c9,0x3d9801ea,0xbfb0b214,0xbf162837,0xbd98979a,0x3cb5ddbd,0x3e2fc015,
0x3fa5b562,0xbebaf92e,0xbf03bcf1,0xbd69c0bb,0x3c490815,0x3f1bdba2,0xbed5c3d8,0xbe7edac2,0x3e850014,0x3f97e031,
0x3dd48184,0x3f3dd9a5,0x3f5100d6,0x3ed3f6f5,0x3f37d143,0x3e8f0e6f,0xbe70c8e9,0xbe65efdd,0x3fa7fc6b,0x3f6830f7,
0x3f2377db,0x3ee92ffe,0x3f01c2bf,0x3f4007d6,0x3eba9771,0x3e9c1c1c,0x3e391c54,0x3f3a1717,0xbe8d6917,0xbe99e748,
0xbe13beaa,0xbed25407,0xbf9e79b3,0xbf255631,0xbf44409e,0xbeb3425f,0x3da244d7,0xbf0356d2,0xbf0ae8ba,0x3d3522ac,
0x3e76af8e,0xbfa8a293,0xbf7af12f,0xbf82cdc7,0x3e7a9fc3,0xbe79991e,0xbf21b6bd,0xbf3106cd,0xbd8529cb,0x3f6b5e3d,
0x3f40c36c,0xbf7416e2,0x3f368818,0x3f1ca948,0x3f6808cf,0x3c25c3f4,0x3eb288a2,0xbf11ecef,0x3f4e55fe,0x3fb0dbcd,
0xbe8e02e3,0xbe6adca0,0x3f898c81,0xc010b41d,0xbf319671,0xbba77fdf,0xbf813f68,0xbf371e87,0xbed1853f,0xbd0deff0,
0x3c286289,0xbecacd0d,0xbf5dd6d4,0xbf682555,0xbf8ced69,0x3e79252f,0x3e5f115a,0xbf7040b6,0x3f70bcc0,0x3f7aeac0,
0x3eadabef,0xbce9eeda,0xbe2c735a,0xbedd73c5,0xbfc6c967,0xbd55aec3,0x3e594406,0xc00eaac3,0xbf8f4105,0x3ddf0269,
0x3f553073,0x3f2e90b4,0xbe9e61b3,0x3f90b031,0x3f007c1c,0xbeaeeb3f,0x3f118cf7,0xbf4c5d05,0xbf9611d5,0xbfa04e71,
0xbf5a4b99,0x3f5fdb50,0x3dacf285,0xbf6c61f9,0x3f45de9f,0x3fa9f690,0x3f400fc2,0x3f2762e0,0x3d0ea7c4,0xbf5a2775,
0x3f817669,0x3f052cbc,0xbe83f703,0x3ec6c68a,0xbe3e8442,0xbf6248fc,0xbf7f098b,0x3fa9523c,0x3f519495,0x3f47e2da,
0x3eee6457,0x3e979224,0x3f902378,0xbddf44e4,0x3daa760f,0x3fc5ab09,0x3e35ed10,0xbf350404,0xc013d07b,0x3eb12e89,
0x3edac11d,0xbe0fb0f1,0x3eee41f7,0x3f23221a,0x3ec81257,0x3f13843a,0xbf92506d,0xc0198281,0x3f931f29,0x3ed6f2d4,
0xbfb41456,0x3e8ddaaa,0x3e901228,0xbe299d9a,};

