const static size_t backbone2_2_0_weight_size = 3456;
static unsigned backbone2_2_0_weight[]={
0xbea3a9c8,0xbedc9d56,0x3e11416f,0xbe3da9db,0x3ec608a3,0xbe09eb56,0x3ea43f2c,0xbc1de649,0x3df1e7de,0x3ef7503b,
0x3c2c40cc,0xbb82b465,0x3eb37565,0xbf73eee0,0x3de503e7,0xbae118a5,0xbdff9755,0xbdfee015,0xbe4769a8,0xbf0bdf5e,
0xbee00a45,0x3cfb6ee4,0xbfa48661,0xbeaea794,0x3eb8844b,0x3e08ec31,0x3c99fc89,0x3e7deecc,0x3c8532c1,0x3eb82756,
0xbe357b3c,0xbfa159ac,0x3e894e7f,0x3d7b8630,0xbdf9d2f2,0xbe715c49,0x3ede15fa,0x3ea301c8,0x3e9c46e4,0x3efcaef8,
0xbf5590a4,0xbf2bf7a9,0x3df0d2ec,0x3cc1324a,0xbec78681,0xbe67e984,0xbda09e20,0x3cdc635e,0xbf056ff8,0x3f531411,
0xbe90ae80,0x3e87a373,0x3e330488,0x37d6dd60,0x3e86889f,0xbdc904d1,0xbe58115d,0xbd7839ff,0xbf0ae0d2,0xbf10bb6f,
0x3e9c1d1a,0x3e72b2dd,0xbe8b3eb2,0x3de8f2ea,0x3ee06796,0xbeb6871c,0x3d4e00c7,0x3e130dc4,0xbf32dadb,0x3db45ed9,
0xbe687215,0xbe896a23,0x3e7e87e6,0x3e86c7f6,0xbe39e6e5,0xbe0ffc8f,0x3d82acae,0xbe7ec461,0x3f07ccce,0x3cc3d4f9,
0xbd712be9,0xbddb71f7,0xbe9b0bdb,0xbe966ddd,0x3f4c736f,0xbefbfbda,0x3da4c306,0x3f24ffc1,0xbee6e324,0xbdb5507d,
0xbe19f7dd,0xbee15d37,0xbe0d49cf,0x3e7aeaae,0xbf903cd4,0xbde272d6,0xbf005c4a,0xbe467aef,0x3e131f7e,0x3e1abb9f,
0xbec2bdc5,0x3e2fc7e1,0x3dd10cba,0xbf80c6c7,0x3e02b5ac,0x3e0b40d2,0x3e052955,0x3eb98a37,0x3e172d41,0x3ec522b7,
0x3de09bc1,0xbdc5cc98,0x3f40694a,0xbe0c5cb4,0xbcf7067e,0x3e6d23d3,0x3d44e4e2,0x3e871087,0x3cf7c9f1,0xbe3845f0,
0x3efd73ac,0x3f26375a,0xbdd7321c,0x3ee4710e,0xbb481ecf,0xbf38622d,0xbcb54890,0xbdba2ec8,0xbea495c9,0xbe6263c1,
0x3f65c7a4,0xbd5e07b4,0xbebf9c8d,0xbf3b9e12,0xbe91fc68,0xbe18f4ee,0xbeba9fae,0xbedae8c6,0xbd92455f,0x3e8209e1,
0xbed83f03,0x3e50099e,0xbe197f90,0xbe2753d0,0x3e33b999,0xbef3ec49,0xbe5ac643,0xbdb281a5,0x3e8897b8,0xbe30f0d8,
0xbece2c91,0xbdc49c0c,0x3ebb41d5,0x3ed0eb98,0x3d06f4dd,0xbe99d0da,0x3ef65d17,0x3ea8d4db,0xbdb749c3,0x3f1166cd,
0x3e9f00b5,0xbe957a09,0x3dc94f22,0x3d552af7,0x3e3eb954,0xbedd6c3f,0xbf0bf7b9,0xbe4edab8,0xbe8a3591,0xbee18b45,
0xbe949862,0x3da29bc4,0xbe112bd3,0xbd77aa61,0x3e02d05a,0x3f068e69,0xbeb632c4,0x3e7c81a2,0xbf06d8ef,0xbec88ad8,
0x3f006d17,0xbe69ef04,0xbdfc4bd3,0x3f19b7bb,0xbf15ff71,0xbe46e864,0x3ddcb598,0xbdcc8276,0x3d2380c1,0xbe670ade,
0xbe163fca,0x3d0be407,0x3dbf103e,0x3f3812ff,0xbe9b9a63,0xbe4b4c4a,0xbeaf4bc6,0xbf06b9db,0x3b50189c,0xbc63fc98,
0x3e0c5dfd,0xbef8ed19,0xbf760956,0x3e340525,0xbe912fef,0xbd9f3c63,0x3e0a6bfe,0xbde620d5,0xbe81e35c,0xbe17f7db,
0xbe4cfbcc,0xbde8f471,0xbecb8953,0xbee4d6bc,0xbe626411,0x3e4c87d4,0x3eafdb2b,0x3d86cae9,0x3de273ff,0x3e411680,
0x3d324b99,0xbeb1afcf,0xbe463b0d,0xbeec67fb,0xbe619208,0xbeae371c,0xbd9fa083,0xbe7bf04d,0xbea1b45f,0xbe81f507,
0xbef29941,0xbef766f8,0xbeb3a086,0xbec712d3,0xbbc1907a,0xbe20ddb1,0x3e99f932,0xbf5133f6,0x3dc5e6b4,0xbc0c011e,
0xbf4580b7,0xbd0fd2ee,0x3d810e16,0xbc0318ed,0xbee3c47b,0xbf4d9596,0xbd7ef0dc,0xbdfcef2e,0xbf046f6a,0xbd82d6d7,
0x3ea64d45,0xbd28d6cd,0xbe30d383,0xbee148d5,0xbe706442,0xbc7b5c0b,0xbf690bb0,0x3cb9a5f9,0x3eedbb5a,0x3c98ed81,
0x3c3e1cca,0x3d0b163f,0xbf36a931,0xbe4cacaf,0xbecb0b15,0xbf166560,0xbf08c21a,0xbed69a6a,0xbf1533e8,0xbf0daa22,
0xbf0555a0,0xbf144724,0xbe98e6c9,0xbc9117a2,0xbc3458b0,0xbe2264ed,0x3da049ec,0x3ee8f320,0x3e84b947,0x3e04948a,
0xbdfe2889,0x3ead1836,0x3f1765a5,0x3e876d87,0x3d2f3a83,0x3ce9e9a6,0xbe8b1173,0xbf432ccc,0x3e09e7b3,0xbe532bc7,
0xbe0eb4fa,0x3f23ee09,0xbf13f60e,0xbe4191b9,0xbedf4025,0xbe87d0e3,0xbe016c25,0xbe9629c0,0x3e7933e8,0x3cd3a453,
0x3e055d46,0x3f039428,0xbf1b9e8a,0x3e4a68ba,0xbd90ce6c,0xbf0dd535,0xbe838ab5,0xbec505fb,0xbbf22ae2,0xbd913620,
0x3f193f3b,0xbd788dc1,0x3ce38f51,0xbdff53ee,0xbee6a597,0xbe82545d,0xbe5f4ef8,0xbdc13b53,0xbf240e5e,0x3f06b995,
0xbe4b31ab,0xbe1afa7b,0x3dab5c3c,0xbdd854bc,0xbdf41ff1,0x3c4ec4bd,0xbe4aefa8,0xbf80bae8,0xbf894c50,0xbf300cb8,
0x3dae186b,0xbe63d4b8,0xbe895b9f,0xbf8d9c61,0x3d89bf97,0x3f35682e,0xbf09dabc,0xbea1904e,0xbc4b7472,0x3d7aa7c9,
0xbf0be769,0xbe2ad981,0xbea5fd5d,0xbe68491d,0xbdfa99d5,0xbd405df5,0x3fb1d9e3,0x3e4dddbf,0x3d5d8e43,0xbcb45129,
0x3e27e690,0xbf3eeac0,0x3e5b3120,0x3dc95174,0xbe68e661,0xbd906ed6,0x3e3f247c,0x3d034d97,0xbe29b00c,0xbed5199f,
0xbeab1415,0xbe9ca32c,0xbef88808,0xbded5a3a,0xbe4e0e36,0xbd5de67d,0x3ebe4ca4,0x3e9168ac,0x3e894973,0xbede82d3,
0x3dc860ea,0x3e8246bd,0xbe7731db,0xbf4f018d,0xbd379ab8,0xbe972e41,0xbe9a435a,0xbd429d89,0xbeb0c307,0xbe9a72ec,
0xbdfa70b4,0xbef953f7,0x3ee039af,0x3e9b0c08,0xbed2bd19,0xbd88c324,0xbefed906,0x3e95a1a2,0xbeb3031e,0x3ec2d972,
0x3e8f7f14,0xbe9fe6d6,0xbe8f0076,0xbdb948aa,0xbe651f48,0xbf4ba441,0xbf5b6b84,0xbe268917,0x3f189d1c,0xbf58fcb4,
0xbf181407,0x3f02614c,0x3e9e1b52,0xbed78a4b,0xbf057d03,0xbe1b2434,0x3f3df299,0x3eec4c46,0x3ca72ea8,0x3f1c4890,
0x3eb195ab,0x3e838eb8,0x3e5553c8,0x3d3f821f,0xbef00fb8,0xbf3b46e4,0x3d941f92,0xbf1b71c0,0xbf8d3065,0x3f620ae6,
0xbe93c1ad,0x3e9ef713,0x3f0a9feb,0x3e00eded,0x3e947085,0x3ea26ba5,0x3e0ecd5a,0x3f2a0ac8,0xbe72fd31,0xbdbb7a6d,
0xbe27deca,0xbf659d40,0x3e05b907,0xbe2ab260,0x3f005d0e,0x3e2d212f,0x3f28e177,0x3f3fe3ed,0x3efa1637,0x3f48ea65,
0x3f397dcb,0x3f13d88e,0x3f30635a,0x3f61eda2,0xbc9eabe8,0x3df00203,0x3ea45864,0xbe77a0b3,0xbf0bff5d,0x3dc522ef,
0x3f15980e,0xbdd1db9c,0xbf460725,0xbd4e0877,0x3f1f904c,0xbe8bb212,0xbd5fff59,0x3dd62736,0x3e4e730d,0xbec11ed0,
0x3e931538,0xbe1dc080,0xbe57c7eb,0x3fd51652,0xbf1b526b,0xbd874755,0xbeb43f41,0xbedc9138,0xbf0e2658,0x3e52fbb8,
0x3d9b614f,0xbea6833e,0x3f298a31,0x3f00ee3f,0xbedf6215,0xbf73c90f,0xbf3176b1,0x3cf52d9c,0x3f11f61f,0xbdeee039,
0x3e48ba2a,0x3f5c85be,0xbeb84e7f,0xbed0154f,0xbe54d8c8,0x3afa3ee2,0x3e7dab8d,0xbef67f81,0xbec82cc7,0x3edd56dd,
0xbf9ff359,0xbf29e33d,0xbe1f99f9,0x3e165067,0x3e0ebd87,0xbf256094,0xbf9caac3,0xbdfbbf0a,0xbf1af126,0xbf95ed8e,
0xbea38c25,0xbe06d393,0xbf3820c2,0xbe9fa225,0x3eddd88b,0x3e95913f,0x3ed8a66d,0xbd17c17f,0xbf85d0d7,0x3d58041e,
0xbe741613,0xbec5aa7c,0xbe533de7,0x3ee40c74,0x3ec71d1a,0xbe862e66,0x3d9e567d,0x3f3a1a67,0xbe5e23a5,0xbe1c8a10,
0xbe547696,0xbe426fe0,0x3f7ffe84,0x3f5dcc82,0x3f5a88a3,0x3dd93856,0x3e82448b,0x3f10b06a,0x3ecdb06d,0x3e4cd9e8,
0xbd017eff,0xbf22b644,0xbdc7a0a6,0xbecfa3ca,0x3e8c5f1d,0xbf3a2c1f,0xbf2c8131,0x3eec9284,0x3ef64469,0xbecb9c49,
0xbe5636eb,0xbf0801ad,0xbf16a752,0x3eb5752b,0x3f48c98f,0xbf8047a8,0x3ddf6749,0x3ee5f23e,0xbe98285a,0xbf06f12c,
0xbe4b739c,0xbf247124,0x3e1705e3,0xbd953d81,0xbf4ce459,0xbe644343,0xbe903c56,0xbe905a02,0xbe4a8593,0xbf1d98a2,
0xbe233fed,0x3f1f191c,0x3fbeae46,0xbeabe40c,0xbd263b6e,0xbc01ebcd,0x3cdd1cc6,0xbd879f46,0xbe8cb824,0xbf0daabe,
0xbefc1574,0xbf824ab5,0xbeb5d01a,0x3e90895a,0xbcb99239,0xbe5e45c9,0x3f836595,0x3f0815f6,0xbd06db4a,0x3f7f6e17,
0x3f28ad2c,0xbed4ec74,0x3f72733a,0xbd489893,0xbf014918,0x3eb5becf,0x3d94e5f4,0xbe2e3c76,0xbf1bebbd,0x3ef1b42f,
0x3d4e0627,0x3de1c71a,0x3f4e53df,0xbdf30fb1,0xbe01d458,0xbf4f05b1,0xbf21de34,0xbde2a30e,0xbef61190,0x3e872072,
0x3f0e8d6c,0x3f1fe51e,0x3f4924d6,0xbedddc38,0xbe9a9f95,0xbec2f385,0x3dcc3225,0x3fb60c40,0x3f02a208,0xbebe0512,
0x3eed93ac,0xbc1b0664,0x3f62ead8,0x3f65730f,0x3fe94cfc,0x3ece250b,0x3f4d5712,0x3ed2d4e1,0xbd54e8ba,0x3e67eac3,
0xbe95a4a4,0xbefd7512,0x3e8360c7,0x3e7a7fd1,0xbf51f161,0x3f4d77eb,0x3ee2d6bb,0xbef8d2e8,0x3d6b9914,0x3eae4165,
0x3fb4fe5b,0x3f3dc170,0x3e61d840,0x3f981b90,0x3e33e20c,0xbe8a12aa,0x3f5392cd,0xbdf9fac9,0xbda25044,0xbe0ed1b4,
0x3d39f64d,0x3f0cb1ec,0xbea3409f,0x3f4349cc,0x3fae5610,0x3e421064,0x3f588c6c,0x3f44782e,0xbf49a0a2,0xbf421a12,
0x3e1f9fad,0xbe61e650,0xbf23d70c,0xbdf93188,0x3c801358,0xbe125896,0xbe4299f2,0x3f5cd1c4,0x3f87693d,0x3ef1ce39,
0x3f07562e,0x3ed13cc5,0x3eddd51c,0x3f19896c,0x3e751699,0x3f02da69,0xbd7e139b,0xbe62021b,0x3efce409,0x3f1748cd,
0x3f116c12,0xbe806803,0xbf401e98,0xbe090cc6,0xbe3f1ed5,0x3eecd8fe,0x3f41dea9,0x3e6fd978,0x3fa94d7e,0x3ea0626f,
0x3d683f8e,0x3f1015f6,0x3ea52cdd,0x3efca6a3,0xbe9711a8,0xbe6f81a1,0xbeeb6022,0xbef36a4f,0x3f528fb8,0x3e01d3cb,
0xbfbdd8c8,0xbf8928df,0xbf022aca,0xbf3884f4,0x3dde9091,0x3f07382f,0x3e25a6da,0x3ef14909,0x3e472b6f,0x3e94f0ab,
0x3e562a1b,0xbf0c8f0b,0xbf4b8c1a,0xbede5b39,0xbf1790fa,0xbf2690be,0xbf865674,0xbfcebe4f,0xbe851cb0,0xbe9efbbd,
0xbf5ca6ad,0x3f180cfd,0x3e5a7762,0x3c412e02,0x3f492b55,0x3f984b68,0xbe5bfdc2,0xbf3dc74b,0xbebd0deb,0xbf391737,
0x3ee2727a,0xbe2650df,0x3f462c20,0x3eaafe92,0x3e080950,0xbe559a3e,0xbd6d38ac,0x3f586065,0xbdb2c4a9,0x3f734d03,
0xbc874e61,0xbca9afda,0x3f85d2e0,0x3f043352,0x3cafad53,0x3e9ca981,0x3f134013,0x3ec54c30,0xbf22300a,0xbf22c1b3,
0xbe8a82e2,0x3de183b6,0xbf4b0b68,0x3e331bcd,0x3f81b0df,0xbdbfe8a1,0x3e7399e9,0x3ed6bf75,0x3e34f247,0x3f3b34f7,
0xbeae31a7,0xbe28f8de,0x3f9530d2,0xbf39d1e9,0x3eb3768b,0x3f1c6db0,0xbf9d6b99,0xbf4044d2,0x3ebc7b33,0xbe8626ce,
0x3eb0dbb0,0x3f5adef7,0xbd7d6e45,0x3ee8b9e2,0x3f37b97c,0xbedfa9f7,0xbe36f9ee,0x3e7625fb,0xbff5c928,0xbe7ce7fb,
0x3f1c9df2,0xbecf6c32,0xbeeed9cf,0x3e26173b,0xbf4d82ea,0xbf4d2599,0xbfcc03b7,0x3f3f278a,0x3d3d1441,0xbf672c7d,
0x3e85f3df,0x3dc72fed,0x3d1c54c4,0x3d5deaea,0x3dd848a4,0xbea0aa00,0xbf54a722,0xc011e5ff,0xbf9ea2ba,0xbf82d569,
0xbfa17dce,0xbf69f4b3,0xbf494071,0xbf275c50,0x3d941e9b,0xbf82f9ca,0xbe5af7a6,0x3ce38812,0xbefb93cc,0xbf094571,
0xbef744de,0xbd98eb1d,0x3f1082c2,0x3f691e19,0xbf37ca43,0xbcb55a36,0x3f4a6f4f,0xbeb6870f,0xbf19e3d0,0xbccc7b68,
0xbed8aff9,0xbfbe1e6d,0xbef012f7,0xbf4dad38,0xbf8db53d,0xbf72a86f,0x3e185e50,0xbe64b1f7,0xbedc1654,0x3f724e77,
0xbeab4a6d,0xbee731d7,0x3f205760,0xbf3779bb,0xbf67cbfc,0x3eb06ef0,0xbe854965,0xbf0a2c7c,0xbf57451f,0xbd8bc770,
0xbea13fd0,0xc001807c,0xbf30757f,0x3e968ddd,0xbf524c44,0xbf8d3cf9,0xbe78b30f,0x3e188350,0xbdca8e84,0x3f1e789e,
0x3f600d33,0x3e9ebd6e,0x3e5664a2,0x3f862a1d,0x3fc24b24,0x3f83698b,0xbf3ea984,0xbf892015,0xbf1f92c2,0xbeb25ad6,
0xbd966c0c,0x3f2238c1,0xbd2456ad,0x3efcadc8,0x3f292174,0x3ee41c8f,0xbccc8c99,0x3e00c747,0x3e02c4f6,0x3e682520,
0x3c8f4a4d,0xbfab52ad,0xbf8ff90a,0xbfb50063,};

