const static size_t backbone1_6_0_weight_size = 1296;
static unsigned backbone1_6_0_weight[]={
0x3e1a2c05,0xbe82fd49,0xbf090a64,0xbeb58fe4,0xbf0a8d41,0xbe44f35b,0xbee7eb9e,0xbd6fe6ef,0x3eec1810,0xbf0fa37e,
0xbec1bc02,0x3f23e66c,0xbeda01c0,0xbe465ecc,0x3f1fbfda,0x3dd4e262,0x3f0f84ad,0x3ec8e654,0xbe821bd7,0xbead15a8,
0x3e87bdcf,0xbeed37f3,0xbde54b85,0x3f605a52,0xbe724f23,0xbea98d69,0x3eba0683,0xbe52cdec,0x3f433742,0x3ebf32ab,
0xbdc1e1c4,0x3f82f098,0x3e702adf,0xbe8dceab,0xbf255cce,0xbe82c58e,0x3ed4c608,0x3f3491e7,0xbe75118f,0x3e08ab15,
0x3f53298e,0xbea60eba,0x3c0daa57,0x3e24fbd5,0xbd1a10fb,0x3e1d5cfb,0x3f2fa8ab,0x3ed20cb4,0xbf4475d1,0xbf19538e,
0x3f3455e6,0xbe94cafb,0xbf251e53,0xbde43305,0x3da2966b,0x3e75c9e7,0x3dddf191,0xbd4883f6,0x3fb704f5,0x3dbe4e32,
0xbd83714b,0x3dc97820,0x3dd27433,0x3e398cd3,0xbdff3257,0xbeabad86,0x3ebf1bad,0x3f1dfdc9,0xbf3600e0,0x3e9cca41,
0x3dcce5bb,0xbe7e5ceb,0x3e5e95f6,0x3cb18f3b,0xbe17792b,0x3e008de9,0xbf0d9150,0xbf04622d,0xbdb1d7e4,0xbf4e8ac1,
0xbed5fc95,0x3e343772,0x3f02cf33,0x3ebcff0c,0x3e47d865,0x3f66e339,0x3f35685f,0xbd078f83,0x3de88689,0x3e3ce493,
0xbe1f17a9,0x3ef0b7ae,0x3f050c08,0xbf19f954,0xbf31075c,0x3f03fd71,0xbeb984ed,0xbe91d4c3,0xbe2acbd6,0xbdc46b15,
0xbe7ecd68,0xbe35daeb,0xbd329c24,0x3fa958c6,0xbe058745,0xbcb986f0,0x3decdb42,0xbd8839a6,0xbebdb96c,0x3e603b08,
0x3efee1b4,0xbf0c8f7d,0xbf8d9ca1,0x3d391a1d,0xbe0b5d24,0xbf115bc7,0xbe15889a,0xbd9e4ea4,0x3e76a6ed,0x3b96f972,
0x3e243e50,0x3fbdea82,0x3eb346b8,0xbdeb61e5,0xbdaebaec,0xbe8fca54,0x3e0448f3,0x3e7659a1,0x3e82e339,0x3e51c003,
0x3f9f44b9,0x3e0ae23d,0xba2aa8ab,0x3e1b841a,0x3d224c18,0x3e21cca8,0x3f037bc3,0x3dcc0e32,0xbe0ce55a,0x3f18bb15,
0x3ea496b1,0xbe96fc9b,0x3e67b046,0x3ea426e7,0xbefcfb17,0xbd22d242,0x3e21aeac,0xbf362b70,0x3f3824f5,0x3f640b62,
0x39af7e26,0x3e1f4415,0x3eae3f5a,0xbf0d60f4,0xbf0bd65c,0xbd041113,0xbf8d5586,0xbf8ed9c5,0xbf2e997f,0xbec4b85a,
0xbea708f7,0x3dc4543b,0xbeb6c2f4,0xbf351ce4,0x3e81a2a8,0xbf44b451,0x3d7c5879,0x3f7bf042,0x3dfa4954,0x3ee78ee5,
0xbd59dc4e,0x39042caa,0xbf6c05ba,0x3d6ac480,0xbe597694,0xbe79029a,0x3f118599,0x3eed1978,0x3f6b880c,0x3efe30e3,
0xbc0863f8,0xbe8a0642,0xbe66c4f5,0xbd3a2255,0xbf53a168,0x3e1a5f01,0xbd4c11b9,0xbf0f8b80,0xbe4391a4,0x3d891467,
0xbe855f98,0xbf038a03,0xbcc0f1fe,0xbf8d352a,0xbede8731,0xbd8f2f07,0x3e1c63af,0xbe1872c2,0x3eeb7adf,0x3ecb250b,
0xbe90d4f3,0x3f1adb6d,0x3fb09018,0x3d1ed8fe,0xbea3464d,0xbcf4eeaf,0x3dc01722,0xbe5c2f22,0xbf40ba4a,0xbf5702cc,
0x3e973654,0xbeb1a4b7,0xbef69fcc,0x3e7d4a96,0xbec51052,0xbddef087,0x3a0c83b4,0xbee425a5,0xbe83e777,0x3e2baf2e,
0xbf37572e,0xbf2c57f1,0x3e405736,0x3ca7ba81,0xbea58da3,0xbe082770,0x3d0183e1,0x3e81cd22,0x3f16e16f,0x3f6fb27c,
0x3de2c0ad,0x3f0aa70f,0xbd9ff8a2,0xbeaee28c,0xbde20fcd,0x3f0544a4,0x3ea8f1c3,0xbeead040,0x3d715f79,0x3daf3039,
0xbe887ac0,0xbf0a131b,0xbf10e93f,0xbe76092e,0x3f0cd1fb,0x3f2eed21,0xbf04f91c,0x3d4bc906,0x3f175bf1,0xbdc9612d,
0xbf0478c8,0xbf148d38,0xbe88706b,0x3f960e72,0x3f685c6b,0xbf620d40,0xbf33dd87,0x3ea07968,0xbeb799be,0xbf2f2d13,
0xbeadd72b,0xbcfe7dcb,0xbf490eba,0xbef82cea,0xbe88e6f4,0xbf5a71fc,0xbd6d927b,0x3eb9b761,0x3e7090dc,0x3f2107ad,
0xbef09913,0x3ef058ca,0x3e58dca2,0xbf931287,0xbeee5271,0x3f28b7a9,0xbf0b5190,0xbdba2c74,0x3f6ac7c1,0xbf17912a,
0xbf6eb00b,0xbedf723d,0xbe817b48,0x3f2771b8,0x3e8376c3,0x3ead973d,0x3f30654b,0x3f1588b1,0x3f18ccf4,0x3edacca5,
0x3f7ab899,0x3ebf8b86,0x3f1d0b12,0x3f8d5baa,0x3d7bbcf4,0x3f0de97c,0x3ef98bd9,0x3f20517f,0x3f4987b5,0xbe3b7403,
0x3f71243a,0x3f3fbaba,0xbf047cee,0x3e0a8059,0x3ea9e823,0x3e99c344,0x3f395d73,0x3f732078,0x3f812b7c,0x3eb5b2e5,
0x3fa2d805,0x3f99d676,0x3e91921d,0x3e9c9c36,0x3f0d514e,0x3f4c5f7b,0x3f736001,0x3f2507ce,0x3f7db586,0x3fb6c2ec,
0x3ee3d4ec,0x3f2578c3,0x3f0e480f,0x3f1ff354,};

