const static size_t regressor_16_weight_size = 36864;
static unsigned regressor_16_weight[]={
0xbd8c8cbe,0x3cddd8ac,0xbe84358f,0xbe334025,0xbdcb18f8,0x3d8239c8,0xbe17d6ef,0x3c871b8c,0x3ed2234a,0xbe855d36,
0xbd807b2c,0x3e076031,0x3e197901,0xbe028fe9,0x3d63410f,0xbddd4a2c,0x3b532cb5,0xbd7ce536,0xbe0c7e99,0x3d8cc5bb,
0xbcc5edd6,0x3d596edd,0xbcce5d4e,0xbc96dfb0,0xbe35c699,0xbbc7c2a2,0xbe10adad,0xbe02097a,0x3ded4168,0x3e466ce2,
0xbdb409ed,0x3da45c8a,0x3e494a78,0xbe28c1b1,0xbd208a20,0xbd820360,0xbb38d6d0,0xbdd8be6a,0xbdf2f60a,0x3e5372b4,
0xbdf60dc8,0xbafeb53b,0x3e1b5193,0x3d74b90b,0x3d0a88d3,0x3d08cf7a,0xbe56b6a8,0xbd4af3e7,0x3e399a03,0x3d50571a,
0x3e08c24d,0xbd82952c,0x3e192e3e,0xbd84d1cd,0xbe8830b0,0xbf245939,0x3a6e6fca,0xbb521bbb,0x3d91d50c,0x3d9dbff2,
0x3e7b8ee1,0x3c87d96d,0x3e9b459e,0x3ec03b8e,0xbdcf9ef0,0xbe31d34c,0x3c4f84a5,0xbe4e3f9d,0xbe0c775e,0x3dde5608,
0xbe03a3e8,0x3e306657,0xbdf7f308,0x3e27ad55,0xbd854d74,0x3dcffc40,0x3dec2cf5,0xbc277790,0xbdfbff63,0xbdb6e73a,
0x3db7360d,0x3e9a4ff0,0x3e54dbc1,0x3d49a8cf,0xbcd6fafd,0x3dfc2f12,0x3e3d4abe,0x3dd78a46,0x3e343612,0x3e29c8b9,
0xbccc95dc,0xbddc43e8,0xbe2e4c41,0x3dbb87f5,0xbe36f94f,0x3e415a5c,0x3bb634e6,0x3e80ecbc,0xbd83bdec,0xbec274f6,
0x3e005451,0x3d036c4d,0x3d25e0da,0x3c664f3f,0xbd15e80b,0xbe1d2b06,0x3d868c4b,0x3d9b09e4,0xbd816c69,0x3d86df9f,
0xbe841f31,0xbca8d5dd,0x3c493066,0x3e0ba283,0xbe259e7d,0xbe4fffd0,0x3e11fabb,0xbcf8f080,0xbe0b80ec,0x3bedb6d1,
0x3e064e34,0xbdd79199,0x3c4e8bb5,0x3d36917c,0x3e16d91e,0x3e6afab7,0x3d81700e,0x3e59f3ae,0xbdde92bb,0x3e1da479,
0xbdb02579,0xbccbef65,0x3e6d3baf,0x3e2038c3,0xbd9a9efe,0xbb8abf4d,0xbd84b220,0x3dcae64c,0x3e5cce4a,0xbde97b6d,
0x3a2fbe34,0xbe6fb88b,0x3dd4d384,0x3d295493,0x3cdae185,0xbd850e55,0x3eb29ecd,0xbdd59c56,0xbe48a2a0,0x3db25a4a,
0x3df10461,0x3e1c020c,0x3b41149b,0x3d9ca074,0xbe5f693c,0x3d04f168,0xbdda6669,0x3d7a55c6,0x3bd0e668,0xbedd40a0,
0x3e4d3041,0xbeb7ecef,0x3db12af7,0x3e3c74a4,0xbe23c35f,0xbcb5b641,0x3d80d9c7,0xbd9a74fb,0x3c72e8c8,0x3d0ff1a2,
0x3bd70a04,0x3df8b0d9,0x3e3c358c,0x3e325899,0xbe97ceb5,0x3d36971d,0x3d8483b6,0xbe2f23ea,0xbe923608,0x3d875720,
0x3d880145,0x3d754e15,0xbde682c1,0x3e05f942,0x3dc2f9c1,0xbd8b44ac,0x3d7a2fe6,0xbed92a90,0xbd94a57c,0x3c25f8de,
0x3e6fa94e,0x3af4a61b,0x3dc6fb9e,0xbe8fc418,0x3f143780,0x3c0330fa,0x3e906795,0x3f1d172f,0x3de2eef5,0x3d4d8eb5,
0x3eda619f,0xbdf7b83f,0x3eb41b7d,0x3ea1ef50,0xbe217303,0x3eac0db9,0x3e8c2753,0x3c77228c,0xbd0467e6,0xbe5b9b16,
0x3e7f2507,0xbdc8d595,0x3e030ad6,0xbe1fe8de,0x3f4fc527,0xbd966e55,0x3fd5da34,0x3f85df3a,0x3e30557a,0x3ea63102,
0x3ec35e94,0x3d721005,0x3cb099a8,0x3e808ba0,0x3e453c54,0xbd5d7b72,0xbdbb2329,0x3c95a12f,0x3eac29dc,0x3eef25c0,
0x3d8d4a9b,0x3f0858ad,0x3d944d60,0x3e05c04c,0x3f558f9f,0x3f298e0e,0x3f6462a5,0x3e207946,0x3f010aa0,0x3de39773,
0x3e7090d0,0x3c97bf4f,0x3e467063,0x3e38236c,0x3ef98f7b,0xbd21f70c,0x3dde62ef,0x3e9a8cca,0x3e239893,0xbe46468c,
0xbdaaa09d,0x3e2c2d1e,0x3ef50fca,0xbe65fba3,0x3e13d9b4,0x3eb42f03,0x3e136486,0x3eeb9d3a,0x3df50f35,0x3eb1d3f8,
0xb8f829dd,0x3e19a1c6,0x3e8c7388,0xbd5a11af,0x3e996072,0x3ec8d19a,0x3e36122a,0x3f15557b,0x3e9aa03e,0x3e028df1,
0x3e18836e,0x3e01b07d,0xbee79d0e,0x3f07e189,0x3eca509b,0xbd2e2cc2,0x3e4ccbf0,0x3f1cba32,0x3d8dc45e,0x3f0fd646,
0xbcba2841,0x3e250df2,0x3f383d33,0x3f21cf1b,0x3f0030c5,0x3dd38a8a,0x3dee6a41,0x3f567f51,0x3dc6ed87,0xbe8fc995,
0x3f1453e3,0x3c06840b,0x3e9057fd,0x3f1d43df,0x3de317d9,0x3d4e037c,0x3edaa8f7,0xbdf7a1d1,0x3eb4319e,0x3ea1fdc4,
0xbe21797b,0x3eac1faf,0x3e8c252a,0x3c794188,0xbd0482c7,0xbe5bd19a,0x3e7f586b,0xbdc8e947,0x3e03267c,0xbe1ffc64,
0x3f4feb22,0xbd96b8ed,0x3fd6103a,0x3f85f792,0x3e305ebe,0x3ea66e72,0x3ec36e13,0x3d726646,0x3cb1ea33,0x3e807799,
0x3e459e59,0xbd5eb42e,0xbdbadc09,0x3c94207d,0x3eac3d0e,0x3eef6578,0x3d8d5255,0x3f087550,0x3d94c57a,0x3e05f69a,
0x3f55ab6e,0x3f29a772,0x3f649250,0x3e20ff54,0x3f0119b7,0x3de3a8a1,0x3e70c7ab,0x3c97444a,0x3e46cb90,0x3e386d1b,
0x3ef9a05e,0xbd21a8cc,0x3ddeafe2,0x3e9ab20d,0x3e23c20c,0xbe4636f7,0xbdaa99b9,0x3e2c4d8c,0x3ef55f92,0xbe65f587,
0x3e13e6b4,0x3eb435fa,0x3e13a955,0x3eebc8d3,0x3df521a0,0x3eb1c097,0xb95641cf,0x3e19c3ee,0x3e8cc1c6,0xbd59829d,
0x3e998367,0x3ec90d60,0x3e3641db,0x3f155af2,0x3e9aa663,0x3e0297d6,0x3e18bd5b,0x3e014850,0xbee7b804,0x3f07fc61,
0x3eca6990,0xbd2e216a,0x3e4cd070,0x3f1cda1d,0x3d8e4240,0x3f0ff1b5,0xbcb98ac1,0x3e250528,0x3f385aec,0x3f21d0ad,
0x3f0046c1,0x3dd3bac7,0x3deee805,0x3f568dd9,0xbceeea49,0x3da43954,0xbe950124,0xbe328de0,0xbeceb121,0xbee88c60,
0xbeda82b1,0x3ad8a634,0x3e4ed6a1,0xbe1c720a,0xbdc0ce1d,0xbd968a8a,0xbe42583f,0x3dc65a8e,0x3cb9e8e3,0x3ba683e1,
0xbb651e9a,0x3ee1eb17,0xbf00eb23,0x3d9e3319,0xbdf30359,0x3ed2829a,0xbecc55ed,0xbb542f5a,0xbebb78f2,0x3d0da24d,
0x3e97a30a,0xbe772a89,0x3de1ddf3,0xbdbde2b9,0xbc21e31b,0x3cd27f9d,0x3e3ceeaf,0xbeacbbae,0x3cbcb3fe,0x3daef060,
0xbc72c1aa,0xbe562f76,0xbe2bf6a0,0x3f1c0595,0x3dca07ab,0x3e6a84f6,0xbe96007d,0x3c58bcca,0xbe0336f2,0xbde10021,
0x3d81fcf5,0xbc99c707,0x3da8d876,0xbdaa1783,0x3dba06d8,0x3dfefa8d,0x3eb4f7a8,0xbbf4634a,0xbec37bb4,0xbebc3d28,
0x3ec527e9,0x3dc01d4b,0x3d9f4fff,0x3e224e08,0x3d16798c,0x3d959f1f,0x3e454846,0x3e6b4ec2,0xbea23e92,0xbe30db11,
0x3e05658a,0xbe9e56cd,0xbd4b52e6,0xbcbdb146,0xbe4783a9,0x3b5edca3,0xbebd2742,0x3ebfedf8,0x3d9db7a3,0xbc95d1ac,
0x3da660df,0x3c326baa,0x3dfb1c44,0xbe14f422,0x3cdcbed3,0x3d8e0187,0x3c6e2e06,0x3cca4e3a,0xbd3d235c,0x3ddfc832,
0x3ced1969,0x3ea4052c,0x3ec23e43,0xbb33f11c,0xbeacfead,0xbee06533,0xbd6e51e9,0x3de078d0,0xbd9891c6,0xbd2850fb,
0x3c11cac1,0xbd265664,0xbea74bd4,0xbe8a1766,0x3ec83ee9,0xbeb91797,0xbd8480d3,0x3b9139f5,0xbe2a17ac,0xbd96abfa,
0xbdc03b17,0xbc19de42,0x3d90c54a,0x3df8d44e,0xbe5884ec,0x3d59a085,0xbba16af3,0xbcdb5821,0xbe10c137,0xbd3b3180,
0x3e309002,0xbe28d1f3,0x3edf906e,0xbc09a010,0xbe9828b3,0xbeed2e28,0xbcb86f80,0xbe17b793,0xbc8a9bd7,0x3db524b3,
0x3e6a1964,0xbbc95a53,0xbe48e361,0x3cc47e32,0xbd71b56f,0xbe4a1630,0x3ddeccb5,0x3bb9b721,0xbedb04af,0x3e7bf139,
0xbdac2271,0xbd4067a0,0x3f05ba1b,0x3e138a73,0xbe45743b,0x3e2affd9,0xbbedec65,0x3c2ad0ad,0x3db74532,0x3ecfb229,
0x3e85f274,0xbe601d1a,0xbef56b64,0x3cba9661,0x3e99a5fc,0x3abf9e19,0x3cfa39f0,0x3e357f22,0xbe061ab4,0xbd985b7c,
0xbd1c48c9,0x3d09a661,0x3d5eda8f,0xbd735191,0x3e7cb8c6,0xbf0c6388,0x3c721684,0xbda235c6,0xbc0e719b,0x3d2d8b0f,
0xbc601e09,0x3e869ca3,0xbd793499,0x3db218ff,0xbf0bfd10,0x3cbd1b0a,0x3dbc01c5,0x3de143e4,0xbe935a7b,0xbe44165a,
0x3e948992,0xbeb10c22,0xbeee27ad,0x3b863999,0xbcc32a5b,0xbd36c217,0xbdfd5d52,0xbe101dc2,0x3eac15eb,0xbd1e5e85,
0xbe26d2bd,0xbe272657,0x3e335ee7,0x3e36c5ba,0x3dcfd5e3,0xbe77ee8e,0xbceb3bee,0x3e28c941,0xbe1c0005,0xbe40ac4d,
0xbe1bb296,0x3eb40ada,0xbefebb85,0xbc5c23cc,0x3e2ee4a7,0xbe5ed7a0,0xbb216f7c,0x3e1632e7,0xbe7d7a1f,0xbd64b1cc,
0x3d96a065,0xbd7711e2,0xbca599dc,0xbeaf2d17,0xbeebf904,0x3e0bb1a6,0xbd975b7b,0x3e905afd,0x3d7cee90,0x3bb7c234,
0x3efb6728,0x3ebc1ce8,0x3dee48cd,0xbeb1971f,0x3e821421,0x3e11bfb1,0xbdcc5377,0x3deb9cda,0x3e4159f0,0xbea00061,
0xbd84e86a,0x3d62f112,0x3d991e4d,0xbf0097bf,0x3b2ee8c4,0x3eff52da,0xbe398112,0x3e857e77,0xbed3cbac,0xbe9163a4,
0x3e674688,0xbe1b3394,0x3b198a6d,0x3d0fb5e7,0x3d338881,0x3dddf855,0x3dc69fd2,0x3e5122f0,0x3eebae0d,0xbdb92147,
0xbee69e78,0xbea20f66,0xbe4d87d8,0xbcbbae35,0x3db21270,0x3e76f234,0x3e74b3e7,0xbcdf9658,0x3e75bd59,0x3eceaf3b,
0xbea5cefe,0xbe78f35a,0x3e43df1f,0x3d3c07a5,0xbc902036,0xbd900be7,0xbd884606,0xbd11b08b,0xbe926135,0x3e2133a5,
0x3dcf32e9,0x3d8bff9e,0x3e4929f3,0x3cfd8f67,0x3d98da83,0x3ea4ed05,0xbd3d5711,0xbe0b4434,0x3e41a4b7,0xbc114e78,
0x3cd14707,0x3d89c117,0xbc9b8fe2,0x3f0504a4,0x3ea5b724,0x3da75286,0xbe93ced5,0xbe89acae,0xbe1a1c06,0x3d71abac,
0xbd987cc1,0x3e9693cd,0xbbdb59a8,0x3d2fd997,0x3e0738b9,0xbe9de16e,0x3d7d7962,0xbe693447,0x3e4e3faf,0xba3e90d6,
0xbdd9a767,0xbdfbdbea,0xbe01f7b3,0xbe951412,0x3ea8a200,0x3e0cdff4,0xbd2ed65b,0x3d40a403,0x3c4ecca0,0x3efa58de,
0xbf019c8c,0xbd388d49,0x3e7b5b4a,0xbd05ba2b,0xbee6580e,0x3d0fa398,0xbebcb4c6,0xbecee3a8,0xbcf0dad3,0xbdd2aadd,
0x3e1fb2a9,0x3c0c6796,0x3d8b9491,0xbd08e4e6,0xbe01f1c0,0xbe2ea1de,0xbd8d0780,0xbe319d79,0x3dc6a570,0xbe7d123d,
0xbe152749,0x3ee93c71,0xbef0880d,0x3e1efd66,0x3e181ed7,0x3db4a760,0xbe0b8690,0x3e4ba5e3,0x3dd6cb5c,0x3c7dc32f,
0xbe11612a,0x3e9f9a3b,0x3e9062f3,0x3e9e1587,0xbdf37fe5,0x3d98b635,0x3e591bbb,0x3cf7a52c,0xbe78e838,0x3e36cb26,
0xbe032f73,0x3c3ff531,0xbed30fc6,0x3a4db73d,0x3ced858b,0xbf16a12f,0x3d051b86,0xbf02083f,0x3d101be1,0x3d45c34c,
0xbc8665bd,0xbd60a8f5,0xbd62ab58,0x3d39a336,0xbe4b8149,0x3e7eb95d,0xbea98328,0x3d152b90,0x3e4c8746,0x3e20bc05,
0x3c5e00c3,0xbe8fd736,0x3dc87765,0xbe3b3868,0xbed8c5ef,0xbc1c38fd,0xbd6216a3,0xbe0c920d,0xbddf53a3,0x3f0c0181,
0x3e17d621,0xbccab612,0xbe08b1d1,0xbf025b13,0x3e5f06d3,0x3d828010,0x3e293dc2,0xbe52fee5,0x3a542965,0x3e0ea045,
0xbf1b8ad0,0xbe41acaa,0xbe04631d,0xbe8dc2db,0xbf0c3c71,0xbbc73307,0xbe0b2466,0xbda40134,0xbb3b80ad,0x3eb9bf83,
0xbe5267df,0xbd44edac,0xbd78acca,0xbc54a330,0xbc05ecfa,0x3ba15ef2,0xbf1eaa00,0x3db85820,0xbe5a009f,0x3ee8b33d,
0x3e451893,0xbca6ebb6,0x3ed30095,0x3eafa0e3,0x3ea2e6f6,0xbd40f978,0xbd45f727,0xbd9b2ef0,0xbd73a286,0x3d31b83c,
0x3e58333f,0xbf0ac84a,0xbcc8075d,0x3e1f2622,0x3d884bba,0xbe176120,0xbd4032d3,0x3eae69d3,0xbebaba10,0x3ea464f0,
0xbde44873,0xbd954069,0x3c54b2d3,0xbc098680,0xbe269b4f,0x3da6f9df,0xbe57eabe,0xbe083ea3,0x3dd8e628,0xbe42893e,
0x3e9b9408,0xbd51dc8b,0xbee516b1,0x3b8c2e8a,0x3c0c7467,0x3d0108a9,0x3cdacdd5,0x3e77e74b,0x3ed795d1,0x3e571962,
0x3e1a28bc,0x3f18cb9c,0xbe9ee5d3,0xbebf41a7,0x3e844242,0xbe1b26e3,0x3d280881,0xbdd2b9b8,0xbdf8e3fd,0x3dcd403f,
0xbf130420,0x3e96fc6d,0x3e65281b,0x3da9f393,0x3e6456c1,0x3c61b764,0xbc17853e,0x3e836016,0x3cd86312,0x3e4ab1b9,
0xbd9695a3,0xbd0245d5,0xbbb18bfb,0x3cede3cc,0xbe3454cc,0x3e091ba3,0x3ed93ae0,0xbc5182b2,0xbf061066,0xbda580f7,
0xbdb5b355,0x3e3ee670,0xbd0389a8,0xbaa9a2a1,0x3d6ae629,0xbd91fb44,0x3db84e78,0xbe6a3627,0x3ecb24a1,0xbeb57754,
0xbdebe8a3,0xbbdb39f5,0xbc8acc32,0xbda1c09e,0xbdb825ba,0xbe0186cd,0x3e46ca0d,0x3e19bb26,0x3cc9c11a,0xbc43fff2,
0x3b79eb06,0x3b50057a,0xbea87532,0xbd17aa75,0x3eafa213,0xbe3d3efe,0x3dedd315,0xbcc291e2,0x3eca6224,0xbe161588,
0x3c74204f,0xbea2e45b,0xbd4f17bf,0xbe286a94,0xbe253316,0x3dd99e14,0xbe253f8f,0xbda2f2ac,0xbd78e2b8,0xbe8f20fc,
0x3e3a1b3b,0x3e7a5ae2,0xbeaa205f,0xbe161c85,0xbeea85b7,0x3d81389b,0xbd493c78,0x3e0a2b61,0x3e01d205,0xbe4f9f8c,
0xbc72163e,0xbd8e66fe,0xbddbb3a1,0x3f33b451,0x3e9d0524,0x3c42888c,0xbe701e14,0xbd094dbe,0x3eb7b7cb,0xb9a1671e,
0x3d9d8a54,0x3e0454da,0xbdc3d170,0xbcece298,0xbdd13cad,0xbe623fed,0x3e22314a,0xbe8da273,0x3e2bc6d4,0xbf2624e4,
0x3bfc066c,0x3d7b4483,0x3d937684,0xbd6fc693,0x3d2f1334,0x3dec805d,0xbdf9b46a,0x3e7dac32,0xbf61aa0b,0x3e29cef2,
0x3e96a6a8,0x3e39b5db,0x3b7f4eaf,0xbe8a89d8,0x3e764aa6,0xbe6943d6,0xbe82a3bb,0xbdb174ac,0xbb92c22b,0xbe52faf2,
0xbd7c00ec,0x3ee23392,0x3e6ef4ca,0x3dcb5f2a,0x3d75e45b,0xbdedd286,0x3e0c27e0,0x3e23fd1e,0x3d72cd6f,0xbdc2be86,
0xbcb347f0,0x3d53a9a7,0xbf45a18d,0xbe5fd913,0x3dd4efa8,0xbeaaa5a3,0xbe8098c8,0x3c56e9ed,0xbe0196f5,0xbd8ba094,
0x3c92cd97,0x3f03a485,0xbcb0c9fe,0xbe8e9516,0xbd04a702,0xbd7927ba,0x3c440709,0xbc46e4c0,0xbe837623,0xbc2b06d5,
0xbe8db5cf,0x3ea9e766,0x3edfe3c4,0xbd2ebae1,0x3ec119c3,0x3e654bd4,0x3e1a8a2a,0x3e36c811,0xbdda2526,0x3df8d021,
0xbd8c11dd,0x3d9d37ca,0x3e42b4dc,0xbe5c1549,0xbc6f1ccd,0x3da47b74,0x3db94e9b,0x3e7600c5,0xbdf03035,0xbe3acb81,
0xbef4e82d,0x3e154d8a,0x3de14c32,0x3e166036,0xbc085a96,0x3e7c89e1,0xbe4d34c7,0xbd600ea0,0xbe341b95,0xbd1579d1,
0x3dc46940,0xbe935d78,0xbce54c8f,0xbd3544fd,0xbe9834b3,0xbca1bf38,0xbe390057,0x3d55d881,0x3d106145,0x3e20df93,
0x3f235a6e,0xbbed88bb,0x3e61fd29,0x3f57c1ef,0xbe23918a,0xbebde4df,0x3e91e815,0xbe6da1ca,0xbc1df04a,0x3d67d3d2,
0xbdf1bed5,0x3dbc4f01,0xbf18ad35,0x3d74bf9a,0x3e25c4a9,0x3d9b0d87,0x3e689e20,0x3cf81905,0xbe3b719f,0x3e80769e,
0x3d32fad1,0x3e9bd58e,0xbd1f16be,0xbc9f3762,0x3d948158,0x3e03be35,0xbe0f59e5,0xbe613af7,0x3e95c759,0x3d2c4ce9,
0xbec1f182,0x3d2f935b,0xbd4a87d4,0x3e2498a6,0xbe11646c,0xbe1f0442,0x3ce1cb6b,0x3c5cc830,0x3e0b9c0b,0xbea5cb41,
0x3ed87803,0xbd30d546,0xbe0385b8,0xbcef7a18,0x3dadd492,0xbe30f6aa,0x3d495b9e,0x3db5e633,0x3c0eef44,0x3df7c466,
0xbdd4380f,0xbd6d1cef,0xbc850b32,0xbe4af76e,0xbe2c029d,0xbdfc2819,0x3e961a21,0xbe19ed5b,0x3d9b4137,0xbbefe50a,
0x3f3ca18c,0x3d8c8b61,0x3d5b2830,0xbe3bd8b2,0xbc425ac9,0x3d628065,0xbea2460d,0x3ea5bc52,0xbe0efe03,0x3d13d60c,
0xbdffc494,0xbe3d9e13,0x3e89622a,0x3ed0673d,0xbda306d2,0xbefec644,0xbe55fabb,0x3db2d62b,0xbe49a121,0x3d832f63,
0x3e80bd10,0xbf05ebac,0x3dfbace4,0xbc85676a,0x3c9b780d,0x3ebdaacb,0x3eba065e,0x3c2a306b,0xbdfccc62,0xbd06b51d,
0x3e9dbb11,0x3e431916,0x3da18606,0x3d37ec62,0xbe2879b6,0x3d1f7ad6,0x3cd05a6e,0xbd66c405,0x3de79e53,0xbe9735bb,
0x3e4cfead,0xbf0e627c,0x3d81a04f,0x3e2cc1f6,0xbd392988,0xbcfd19f9,0x3ddeb13b,0x3d08a7db,0x3c7c33f4,0x3e6a7cfa,
0xbf09915a,0x3e4e37f2,0x3eba92c6,0x3e313ac2,0xbdac4146,0xbd06c17a,0x3e5df95c,0xbcb37644,0xbdf7e331,0xbd877c32,
0x3dc80d98,0xbe8fe42a,0xbd237ffb,0x3ee31b9d,0x3e1eb382,0x3d5552a2,0x3e65780d,0xbdbe5688,0x3d026d2a,0x3df71a16,
0x3e17ebf3,0x3e288df3,0xbd297901,0xbc37fb8c,0xbeaee1df,0xbe408484,0xbeb9bc63,0xbf39f39d,0x3e0cd68f,0x3c854406,
0x3f062ca5,0xbe6a369f,0xbdb6639d,0xbdaf792b,0x3e22a960,0xbdf2f7ff,0x3a74d3f6,0xbd7b82b1,0xbd10920e,0x3f7d351c,
0xbe58cf90,0xbc889841,0xbd3c8e22,0x3d96f769,0xbf0ff749,0xbc31c384,0xbf8884ea,0xbec6ffdf,0xbe9a47eb,0xbe2ead34,
0x3ea0bfd4,0xbdb13b4b,0xbebbcff3,0x3de42157,0x3e0d903e,0xbe2af575,0x3d4a42be,0xbd86315f,0xbcce9e02,0x3f3cdbbe,
0xbed6c9dc,0x3e3c7c76,0x3f1c5384,0xbe0e06b5,0xbd7e54de,0x3eaa8f7f,0xbeaa74fe,0x3f0e7fa3,0x3e942dab,0xbdf0e215,
0x3e53337c,0xbd422ef9,0x3d93778a,0x3e573808,0x3e433a81,0x3d7cb87c,0xbe43150b,0xbf474930,0x3e29863b,0x3da31b15,
0x3ddb9b70,0x3b89bcf9,0xbc87d423,0x3c82dfa8,0x3eb95ed5,0x3bc0be45,0xbe166a5f,0x3d8f3ddf,0xbca56b60,0xbf008262,
0xbe587afb,0x3da41889,0xbe84f2b7,0x3d08270b,0xbe5e560a,0x3e25a995,0xbdb848c3,0xbdf9a0eb,0xbd4f25bf,0xbcb7b612,
0xbd7a749e,0xbebdcd29,0xbcebddcc,0xbe4e58cf,0x3d84626b,0x3d7b6d47,0xbd5f93a7,0x3e719f3f,0x3e46dd5d,0xbdf296e1,
0x3e0b4d36,0x3d6abf09,0x3c677840,0xbea25e87,0x398e370b,0x3d96c597,0xbe89a5ea,0xbe4e7f90,0xbc205ae7,0x3e140102,
0xbeeda505,0xbeac43eb,0x3f030200,0xbe810511,0x3e296396,0x3cae7acc,0xbd173553,0xbe4e8fd6,0x3d7f47df,0x3f00958f,
0xbe9fb1af,0xbe5ce9de,0xbe86a640,0xbdba930f,0x3be617f5,0xbefcb905,0x3d1518d2,0xbe9af936,0x3c32a9f9,0xbe09a131,
0x3f6d952b,0xbb0f9de0,0xbe81be48,0xbf0a88cb,0xbdf8732f,0x3eefc452,0x3eace8b2,0x3eb7eb62,0x3f273fce,0x3e81acd2,
0xbe51907e,0x3e253051,0xbd5aed10,0xbdc5b938,0x3e4aa644,0xbe95515c,0xbedbacf4,0x3e1d2cad,0x3f66cf36,0xbe08018b,
0x3f49723d,0xbdc7f638,0xbe7ddf57,0x3e168910,0x3de8851b,0x3cc2798e,0x3daa1814,0xbe986631,0x3ec7c880,0xbee7c149,
0xbf19baef,0x3daaf7f7,0x3e5c8463,0x3e961a68,0xbe7454ab,0x3d469c9a,0xbe6ee2d4,0xbd46367c,0x3ea37cc2,0x3e2cacec,
0xbd5a2aac,0x3dfa96d8,0x3ec4681f,0xbe5f707a,0x3e0256b4,0xbdedfb9d,0xbe38d0e7,0x3e420128,0xbbb4f39b,0x3ea890c2,
0xbcf94e49,0xbebf91b8,0x3d9f2648,0x3d80aff2,0x3dc684fb,0x3dca14a0,0xbf3aa858,0xbe0b5cea,0x3dc6e371,0x3e4ea1a0,
0xbee71e25,0xbd17498d,0xbd67fc60,0x3dc865fc,0xbd9f90d3,0xbf034a3a,0x3e386f81,0xbd845fe8,0x3d06d86d,0xbd88240e,
0xbdff544a,0x3e03837e,0x3e39e7e9,0xbe2f4711,0xbd8d163e,0x3cb43a9f,0xbe0352ac,0xbe56759a,0x3c03e8fb,0x3f6f2fe6,
0x3e4e7f4f,0x3a6ac30e,0x3efc7fca,0xbea37c18,0x3d44579d,0x3e00c264,0x3e694376,0xbea4c836,0x3ddca7e9,0xbe58539b,
0xbd2dff86,0xbf001a50,0xbda34309,0x3dbc4432,0x3caedd22,0xbc004cbe,0x3f1f3aa7,0x3c39cbed,0x3f027a28,0x3e653d36,
0xbeaf936d,0xbefce0e1,0x3efa7def,0x3ecf6008,0xbf01d8a3,0x3e8ec94d,0x3e294b2c,0x3a9ad14d,0xbd750e19,0xbd2e916c,
0x3df526a3,0x3b81ffd3,0x3d4ad8cd,0xbe464b40,0x3d1d5315,0x3c8202a3,0xbed04b59,0xbdaf427d,0x3ec66f69,0x3e703323,
0x3e55c8bb,0xbd48bb1a,0x3e9aefb3,0x3e61fb3b,0x3e1a1d05,0x3e5409db,0x3e9c51f7,0xbdbae938,0xbe84e89c,0xbf0f90f5,
0xbf925d35,0xbdd07a2e,0x3df9fd40,0x3e52c444,0x3ebbedb4,0xbdf386ae,0x3ee8a38e,0x3eb8b1b2,0xbe3fb449,0xbc3af76d,
0x3e08444b,0x3da63119,0xbe002e52,0xbcafbe97,0x3cd51d12,0xbdb6ba18,0x3e336fa8,0xbcc6f1c6,0xbc0c502b,0x3e1f5d67,
0x3e3c3a63,0x3d60ac84,0xbdbdc4dc,0x3ee75243,0xbe124726,0xbf06b52b,0x3ef3c0c6,0x3defaede,0x3e01e694,0x3e7590fc,
0x3e497d4f,0x3e8cc55c,0x3d7083b8,0x3e57b1a9,0x3e8f4c41,0xbe6d3091,0xbe362dd2,0xbc66bf53,0xbe2c64c3,0x3ecf2435,
0xbc8792ec,0x3e394816,0x3ed56132,0xbed613bf,0xbde31af8,0x3e36cca3,0x3efdc42c,0xbd2f765d,0x3e40cfe6,0xbe801ecb,
0xbc6599a8,0xbe209c8a,0xbe9f7069,0x3d204e7e,0xbd3bff3d,0xbd30efdb,0x3b9b1968,0x3f279f0c,0xbf07f853,0xbe6a66c8,
0x3e806daf,0x3dcb4bb6,0xbf866965,0x3cdf9e11,0xbeeac1d7,0xbddfef69,0x3c145ca4,0x3f2c939f,0x3f182b19,0x3e30e4cf,
0x3e669820,0x3e9d080e,0xbd269e2e,0xbe5d45a7,0xbdb78cae,0xbbbeb69f,0x3e35755e,0xbf477531,0xbd924c49,0x3f2b9146,
0x3e129fed,0x3e5187cd,0x3e1e0848,0xbea0104d,0xbe0a76c3,0x3e915ddb,0x3eacca1f,0x3e5368c3,0xbe149868,0xbe971407,
0x3ebd7808,0x3f1d547c,0x3d934c86,0x3e1cdd88,0xbda9e0e2,0x3e4805ee,0xbf753da8,0x3d03b63b,0xbe61cbf4,0x3da42e2a,
0xbf00ac47,0x3e8ec0dd,0xbd968d27,0xbf600d80,0xbcd52540,0xbdb95e75,0x3da871bd,0x3c928685,0xbe361615,0xbdb711b6,
0x3cb382ec,0xbe002fd1,0xbcaed9d1,0x3d00862a,0x3e42da48,0x3da177cd,0x3e4b2715,0x3e22356b,0xbd975d02,0xbef0329b,
0xbe756269,0x3edd2b2a,0xbecae1fe,0xbca32876,0xbd3c5c50,0x3d8fac26,0xbb12e91b,0x3f3100fe,0xbc175238,0xbda88922,
0xbd5fdd73,0xbf1664f3,0x3b42220c,0x3cf7a5e0,0x3e8d7d25,0xbd127c8d,0xbd8e714a,0xbc94cb3e,0xbe7468ad,0xbe286a3b,
0xbe1eb43e,0x3d5893fc,0xbde0d1ff,0xbc4dfd66,0x3ecc5b28,0xbe2a36c3,0xbd88269e,0x3e26eff0,0x3dfe8bc7,0xbe2c1418,
0x3db14530,0xbd6156e1,0xbbcfa48d,0xbd9da133,0xbe0bb03c,0x3ac64ff4,0xbd885ecb,0x3d3c67d4,0xbd501e4d,0xbbf794da,
0xbe117709,0xbb48c6ff,0xbe1d32a4,0xbe5c337e,0x3db723eb,0x3e660ed5,0xbdb4f4cf,0x3e136408,0x3e584f83,0xbe727d07,
0xbd83a626,0xbcb7326d,0xbc605485,0xbd873853,0xbde5013c,0x3e5b1471,0xbdd6b74a,0x3b92f20b,0x3e14dbff,0x3d615211,
0x3d0a4605,0x3d9a2f79,0xbe7a46d4,0xbd6b2bb6,0x3e755af6,0x3db76ad5,0x3dd831b3,0x3d6a145b,0x3e42c297,0xbdbb175c,
0xbe8e3378,0xbf2f6f7d,0xb9cdf826,0xbd993af9,0x3d0534cc,0x3db74594,0x3e7070ce,0xbda433ed,0x3ea25802,0x3eca5f79,
0xbdb7a27a,0xbe3b406d,0xbc796efc,0xbea560db,0xbdef6846,0x3df201e2,0xbdc77f2b,0x3e1a8252,0xbdd480be,0x3de93ffd,
0xbda3f38f,0x3dea51fc,0x3e178075,0xbac59635,0xbe0720ca,0x3d8d76ee,0x3e09869b,0x3ebf483e,0x3e50fae2,0xbd08bd4a,
0xbd3cb56e,0x3e0f497c,0x3e3c9a5a,0x3db3c812,0x3e4028b2,0x3e1a19aa,0xbd5bbcfb,0xbe4315d7,0xbe31c105,0x3dbc34a9,
0xbe1deb4b,0x3e4b92c0,0xbbdd9644,0x3e88ef0f,0xbd9331b9,0xbec4f76f,0x3e2a77ad,0x3ba069fd,0x3c64403f,0xbc3e8c05,
0xbd1c3f04,0xbdd3cb6a,0x3d89f120,0x3d3934e5,0x3ca17901,0x3d001ad2,0xbe94ee6a,0x3c96d5c7,0x3c9e7b4e,0x3e113b85,
0xbe280988,0xbdee408d,0x3e51005b,0xbca99507,0xbdeca706,0xbb53fde2,0x3ddc8572,0xbd8d2fe0,0x3bbfe2f3,0x3c918f54,
0x3e2472e4,0x3e868380,0x3d419138,0x3eb92365,0xbdd8be41,0x3d359d73,0x3c066ee1,0xbe0060ab,0x3e6846e7,0x3e0799bc,
0xbd4d9dfb,0x3cd8e2bc,0xbdfee98a,0x3db56db7,0x3e5933b6,0xbded6f11,0xbaec4140,0xbea32655,0x3dedaeaf,0x3d268401,
0x3d007dee,0xbdd6d741,0x3eade13b,0xbe0f6be9,0xbe8b4f40,0x3da9cdf9,0x3dfcb0f0,0x3e4eb79f,0x3ce0d689,0x3d7d44c7,
0xbe77b49c,0x3d056c6c,0xbde3cb45,0xbd770c42,0x3bd5142f,0xbef6f341,0x3e446e1d,0xbeaeafe5,0x3dca4253,0x3e2ba69a,
0xbe26cfad,0x3b441e48,0x3ceec062,0xbdff963a,0x3c0f6325,0x3d267651,0x3d2ed96b,0x3ddf8f3b,0x3e769135,0x3e09335d,
0xbe943c10,0xbe02a060,0x3e40531a,0xbe52aa85,0xbe87742e,0xbced816c,0x3d6790be,0x3dc69296,0xbe01c84a,0x3e264437,
0x3deb8b1d,0xbd8c060a,0x3d9dd0c7,0xbee30f89,0xbdb4f28e,0x3d02f99e,0x3e6290b7,0x3bd5d326,0x3cbd7b7d,0xbe8c808c,
0x3f1b6dfa,0x3d977b89,0x3ea4c298,0x3f2bfa36,0x3de55c2e,0x3e18dbdf,0x3ef42ccc,0x3c7d8ca5,0x3ea1e7c0,0x3eaaecd4,
0xbe28a478,0x3ef335e0,0x3ed89152,0x3d17f814,0xbd30f3bb,0xbdbbd89b,0x3e3e4f69,0x3e003bb5,0x3dd944af,0xbe4898b9,
0x3f4eef69,0xbdb8eee1,0x40075c31,0x3f46463c,0x3e31a216,0x3e825624,0x3f137e22,0xbaa1a705,0xbbce0bb3,0x3f3db2cd,
0x3e677ee7,0x3e926157,0x3d5baf04,0x3db63656,0x3e88beb8,0x3f0a3177,0x3d68fcea,0x3ef3c328,0x3d79d152,0x3e3266fb,
0x3f618988,0x3f16b2c3,0x3f64ced8,0x3e21385b,0x3ee7a083,0x3dc968d6,0x3e68f13b,0xbc9401c1,0x3e435331,0x3e8d85a0,
0x3f01cabf,0x3dbd4643,0x3ceb4e1c,0x3e53f18e,0x3dd619c9,0x3d46bb7b,0xbcb9b344,0x3dedc353,0x3f028709,0x3e1e411f,
0x3deab31c,0x3eb93335,0x3e0ccca1,0x3ef970d4,0x3df75f88,0x3ee8902a,0xbe1e9528,0x3df5e523,0x3f08680f,0x3d7045f2,
0x3ea1f4a9,0x3eb3ded4,0x3e532647,0x3efedc79,0x3eec7bd2,0x3d8387fa,0x3e0dad33,0x3f01308e,0xbea5fc87,0x3f230de0,
0x3e58a177,0xbdc02c67,0x3e2ffda1,0x3f0d1fa1,0x3d53d975,0x3f17562e,0xbdb63c36,0x3dc6ec68,0x3f3b5fc3,0x3f37ae80,
0x3efc85a5,0x3d97350d,0x3d217345,0x3f5e8842,0x3cbd6c14,0xbe8c829e,0x3f1b7650,0x3d979f2b,0x3ea4c0fa,0x3f2c069b,
0x3de56a66,0x3e18e446,0x3ef44104,0x3c7dd6fe,0x3ea1eeec,0x3eaaf1a1,0xbe28a4be,0x3ef33aac,0x3ed88fda,0x3d182323,
0xbd30fb0e,0xbdbbe33c,0x3e3e5be9,0x3e0032d8,0x3dd95a60,0xbe489c81,0x3f4efb19,0xbdb90120,0x40076347,0x3f464fed,
0x3e31a5d3,0x3e82623d,0x3f138129,0xbaa07ae4,0xbbcd022f,0x3f3db1ac,0x3e67994e,0x3e9257a4,0x3d5be44a,0x3db62b60,
0x3e88c43f,0x3f0a390a,0x3d690263,0x3ef3d15f,0x3d79f758,0x3e3279a1,0x3f619136,0x3f16b940,0x3f64dc95,0x3e215584,
0x3ee7a9ff,0x3dc96e74,0x3e68faec,0xbc944ade,0x3e43741e,0x3e8d8ae6,0x3f01cdf7,0x3dbd5541,0x3ceba391,0x3e54087a,
0x3dd62ce8,0x3d46d136,0xbcb97e67,0x3dedd3b4,0x3f029210,0x3e1e3f17,0x3deabb50,0x3eb936f8,0x3e0ce13b,0x3ef97bb8,
0x3df76811,0x3ee88d34,0xbe1e9bf0,0x3df5f859,0x3f0872be,0x3d706c72,0x3ea1fdf6,0x3eb3ef7d,0x3e53367b,0x3efee06a,
0x3eec7b7f,0x3d838b1e,0x3e0dbd6a,0x3f012c17,0xbea60170,0x3f231706,0x3e58b42c,0xbdc024d1,0x3e300220,0x3f0d2923,
0x3d541f3f,0x3f175e9c,0xbdb6344b,0x3dc6eee3,0x3f3b681f,0x3f37af5b,0x3efc929f,0x3d9744ad,0x3d21bce0,0x3f5e8c3d,
0xbd02724a,0x3d4948b0,0xbe8ff6d9,0xbe102183,0xbee638a0,0xbef13559,0xbee5233d,0x3c313c69,0x3e5cce27,0xbdb8258f,
0xbda5cf7f,0xbd88dc45,0xbe5000be,0x3dd59cfe,0x3cca3154,0x3d14af44,0x3ba07eda,0x3efb821a,0xbf03aa15,0xbe86d084,
0xbe05cfc7,0x3ed865b4,0xbecce2a8,0x3c433859,0xbecd7edf,0x3d05a6ea,0x3e8912bb,0xbe89362d,0x3e36f9f7,0xbde2b634,
0xbde3e8e2,0x3c4c30a4,0x3e2b0d0c,0xbee801e6,0x3d1b7b29,0x3e046af7,0xbb6398f7,0xbe4fa10e,0xbe4957f3,0x3f2c8265,
0x3dd5052d,0x3e726500,0xbea874f5,0x3d091759,0xbe0b4d50,0xbd953266,0x3d904f45,0xbca3b520,0x3d938eef,0xbda47d75,
0x3da905f6,0x3dd913cf,0x3ecbb215,0xbc62f3d6,0xbeb17ec7,0xbeb45a03,0x3ec3c8c2,0xbd1eb624,0x3d9665fe,0x3e3873fb,
0x3cee5611,0xbb786209,0x3e456971,0x3e6753b2,0xbea4a820,0xbe374936,0x3dfc939c,0xbe9e77e0,0xbd2b465c,0xbbc64509,
0xbe3ec867,0xbd03c566,0xbeda9460,0x3ecab897,0x3d91df31,0x3c84a045,0x3da86ec8,0x3c666977,0x3e005cec,0x38a1bc02,
0x3e86ca08,0x3dc878df,0x3ca88e22,0xbcdc27d5,0xbd19c088,0x3dd2c13f,0x3d18a202,0x3e9b8e8a,0x3ec57406,0x389cb6a6,
0xbeacb57a,0xbee9d568,0xbd700a03,0x3e0057da,0xbd84f61d,0xbd13769d,0x3c8fc063,0xbdfda44a,0xbea2f13a,0xbe8d2a63,
0x3eca91f5,0xbec5f559,0xbddfe95e,0x3bd3bd98,0xbe33598f,0xbd0240df,0xbdb3493e,0xbcbbec04,0x3dda2efd,0x3d9e12d1,
0xbe5d71ec,0x3d656a66,0xbc2fcc49,0xbd6e38c6,0xbe1c0da5,0x3cee1d41,0x3e5496ea,0xbe50e444,0x3eeb0003,0xbb935014,
0xbec1259e,0xbec5d7d1,0xbcf40621,0xbe0c6d97,0xbc5f93d8,0x3dbfb4b3,0x3e694f8c,0x3d8246bf,0xbe3d0357,0xbd241f48,
0xbcbcf8ba,0xbe8ac46e,0x3df9a7e2,0x3cd032ee,0xbeef5ea8,0x3e8ce15a,0xbe0b1c8a,0xbd1e61b6,0x3f09d77e,0x3e09e2cf,
0xbe4cc52c,0x3e0187c4,0x3c288235,0x38c7eb9e,0x3dbfc54c,0x3eb92423,0x3e87e6d7,0xbe9b08d2,0xbf06ffc9,0x3c8ff089,
0x3eab058e,0x3c71caa5,0x3d84566c,0x3c877ade,0xbe02da34,0xbd91ac43,0xbd68a7f1,0xbe2ea2f8,0x3d6d22a6,0xbd2b82dc,
0x3e7cd398,0xbf0c18b1,0x3cd77195,0xbd543652,0x3c6569fa,0x3d00b18a,0xbceba996,0x3e8ed3d7,0xbdbf0ab6,0x3db2796f,
0xbf04059d,0x3cb209e6,0x3e181210,0x3ddf2cc8,0xbe99fb96,0xbea713c6,0x3ee90cb3,0xbecbf0f3,0xbeea38f4,0xbd2d80c7,
0xbcb3e69e,0xbd0c1845,0xbe06d7a7,0xbdfc65a3,0x3eb15e5a,0xbcaf7365,0xbe2f197a,0xbe2b875e,0x3e3b97de,0x3e3450f8,
0x3dd1dd54,0xbe6531a5,0xbd08784e,0xbd203be0,0xbe227c13,0xbe3115ea,0xbe32463f,0x3eb8b5df,0xbf0ad53f,0xbd0c29bd,
0x3e31a87d,0xbdb8604e,0xbc45d884,0x3e140e9a,0xbe82146d,0xbd4617ec,0x3d9c4476,0xbd37eb3b,0xbc66e284,0xbeadb68e,
0xbef67794,0xbd1c1085,0xbd8e9384,0x3e9a0ff2,0x3d8e1983,0x3c9d9524,0x3f067614,0x3e8c4dd7,0x3dec5548,0xbea8b3c9,
0x3e92f9f0,0x3e2b06fb,0xbe20de20,0x3e206f88,0x3e46b24e,0xbec17c58,0xbce6f2a3,0x3dea91f0,0x3d7e871d,0xbf07e955,
0x3ab28d9a,0x3f0adb78,0xbe2626a5,0x3e7b9b2a,0xbeeac282,0xbe922d76,0x3e66c5cd,0xbda099a5,0xbbea5f1f,0x3cc0911c,
0x3c9fd10e,0x3ddf3e17,0x3dccc1c7,0x3e839b8c,0x3ef4f3d8,0xbde62762,0xbef422e9,0xbe9b6cbd,0xbe6a2c9e,0xbabd5ad1,
0x3d88b165,0x3e7f469d,0x3e7937d1,0xbc632ffc,0x3e7a18aa,0x3ebdb9ce,0xbeaaf4ba,0xbe785c01,0x3e437224,0x3cc50ecd,
0xbc9b7a9f,0xbd57bc6c,0xbd7f7c73,0xbd2e7f48,0xbe845895,0x3e2a956b,0x3dc943a8,0x3d525249,0x3e73d295,0x3ca1e575,
0x3d9fb173,0x3ef73176,0x3e19f74a,0xbe025ac9,0x3e55fbea,0xbda1af6b,0x3c99e2e2,0x3d6e4229,0xbbcc1212,0x3f038722,
0x3eab8410,0x3d908130,0xbe8de886,0xbe8d6417,0xbe2804a8,0x3d625d77,0xbd739345,0x3e9093e2,0xbb4b43e4,0xbdb6f118,
0x3e0cc973,0xbe9ce59f,0x3d4ee0e1,0xbe80881a,0x3e260462,0xbc1454a9,0xbdbbc6dc,0xbdb26d29,0xbdf50a5b,0xbea93923,
0x3eb3792b,0x3e11a1c8,0xbd3e1fd9,0x3d889bf5,0x3bce49ae,0x3f182b01,0xbf03cc64,0x3d386f4f,0x3e9890ef,0xbd1a6110,
0xbeda22ac,0x3cf07fb2,0xbeec34cb,0xbeb0e3c8,0xbcdf4532,0xbdddc01d,0x3e74a91c,0x3ce60932,0x3ba5bfd1,0x3a07c9a8,
0xbdec6b91,0xbe7068f1,0xbc5dccb5,0xbe83a2ac,0x3de7ea8c,0xbe897afa,0xbe1ac75a,0x3efdb56f,0xbf10ff59,0x3e123d2b,
0x3e1e6b8a,0x3dde2684,0xbe185b20,0x3e341d76,0x3def1378,0x3c598a69,0xbe30bf86,0x3e969737,0x3e907ab2,0x3e8c277a,
0xbe36263f,0x3d9c1854,0x3e7825a1,0x3d7efc0c,0xbe921e7d,0xbad12280,0xbe05e680,0x3c8da633,0xbed31309,0xbe270f20,
0x3d339d59,0xbf1feb51,0x3cc1e4c4,0xbf004f77,0x3d0d821d,0x3d35f353,0x3a9c7798,0xbd38a1af,0xbd90790c,0xbc68ca48,
0xbe69c824,0x3e981b84,0xbe9fd2a8,0x3d164f38,0x3e6d396d,0x3e1edbd8,0x3c6ff147,0xbec1e649,0x3e94e6b7,0xbe4e2bc9,
0xbecf61cf,0xbd51240e,0xbd1e0fea,0xbe052f00,0xbdd82c76,0x3f09feab,0x3e31cc4d,0xbc5926b2,0xbde75a80,0xbf088dc8,
0x3e593097,0x3da784b4,0x3e1b135d,0xbe4987a2,0xbb9ccf99,0x3d47c29d,0xbf1d7541,0xbe1a0fe5,0xbe273e42,0xbe8fa9a0,
0xbf1ecdf6,0x3b1ec410,0xbdeec050,0x3c1ee683,0xba5c3c27,0x3eb9ff84,0xbe63a188,0xbd65781d,0xbd9a2b2b,0x3b21f380,
0x3c16559e,0xbc5e77e1,0xbf269e86,0xbe688da3,0xbe632f32,0x3efac3f3,0x3e6bd6bd,0x3c3285ab,0x3ec38824,0x3e8209ec,
0x3eac9b97,0xbce3af26,0xbde91aa1,0xbd90af5f,0xbde17a5c,0x3d81feb3,0x3e45c11d,0xbf184b77,0xbc2e1d40,0x3e698d3b,
0x3d60c6fa,0xbe0e0432,0xbd5de091,0x3ec13fdb,0xbec2edcd,0x3e986509,0xbdc8af9a,0xbdab86d5,0x3c50e725,0x3db56ae8,
0xbe1c95e5,0x3dae4f2f,0xbe8f9625,0xbe00cae4,0x3ded96ef,0xbe857bc2,0x3e9ec8c8,0xbd35380f,0xbedef20c,0x3d2b4441,
0xbc87b84e,0x3b1f07fc,0x3c9a0903,0x3e8375bb,0x3ed7f250,0x3d9834e4,0x3e134cb4,0x3f15c1b0,0xbea75fae,0xbec7ae71,
0x3e8ca64d,0xbde6a77d,0x3cfc3749,0xbddc067d,0xbe13b4fd,0x3e0e032d,0xbf1af5f5,0x3eabe73e,0x3e64fa7b,0x3d981367,
0x3e6b6179,0xbc05b525,0xbc3bd452,0x3ec81187,0x3e9413b6,0x3e4bf885,0xbd13639b,0xbdaae2f6,0x3c0492e2,0x3d361355,
0xbe25b5be,0x3e0b8187,0x3edbf1fe,0xbc80e21e,0xbeff80c0,0xbd963683,0xbdcc654c,0x3e366809,0xbbef24bc,0xbbceba76,
0x3d499c27,0xbe80079b,0x3dc5a1f1,0xbe55ad5e,0x3ec6bc17,0xbeadf9f0,0xbdf822dd,0x3c191ccc,0x3c26fa7f,0xbc1f850d,
0xbdd2c9e4,0xbdf8eab2,0x3e34f361,0x3e4505ac,0x3db76fb7,0xbd2fa668,0xbc5bac98,0xbc882d29,0xbeb14bc2,0x3e83d781,
0x3ebf892a,0xbe6a2e54,0x3df065a0,0xbb81c95b,0x3ed5570f,0xbe0daaa9,0x3ca6d73c,0xbe68689d,0xbd84630a,0xbe4398dc,
0xbe595b54,0x3e10007b,0xbe1cf4d0,0xbd86e7f7,0x3b36ece8,0xbec9e5ba,0x3e2fa453,0x3e91f3ec,0xbeb1c2ab,0xbe08e875,
0xbee470ac,0x3db1aeb7,0xbdce08fa,0x3e054a32,0x3de51628,0xbe655e53,0xbd4708cd,0xbd85555a,0xbdc39add,0x3f349f7b,
0x3e9df070,0x3be0f6a0,0xbe8495a8,0xbd8cb591,0x3ec7ad06,0xbcba6b51,0x3d6d1d5a,0x3c2ce386,0xbd9e96e1,0xbd178c41,
0xbdbaf3d2,0xbdddc128,0x3e2487a0,0xbe86f6ec,0x3e30b401,0xbf2fb492,0x3c26b33d,0x3dc5fede,0x3d62ab84,0xbd9d65c4,
0x3de9a9bc,0x3e097b83,0xbe2a5e39,0x3e775184,0xbf652883,0x3e07e2f6,0x3ed3f63f,0x3e38caae,0xbbd99fb7,0xbe8b6668,
0x3ef9eeca,0xbe7f57ca,0xbe9678e6,0xbdf89ef1,0xbb33b856,0xbe57b2b6,0xbd89a98d,0x3edfc28f,0x3e6d2884,0x3da3d8b3,
0x3d78936f,0xbddb931a,0x3dfb551b,0x3e17050b,0x3ce00009,0xbd880f1f,0xbccbff7e,0xbc797a86,0xbf44e0b5,0xbe4943be,
0x3da512d3,0xbea7516b,0xbe99b5e7,0x3c86834c,0xbdf48d13,0x3d474b92,0x3c790ced,0x3f09aa44,0xbd1eb07f,0xbea971bd,
0xbd02b225,0xbd29e6b2,0x3ca51d72,0xbdaa7ef2,0xbe8d894a,0xbe937f2b,0xbe9c9124,0x3eb095f5,0x3ee3bd50,0xbc75de02,
0x3ebb1551,0x3e15114e,0x3e3242e7,0x3e66fbc8,0xbe482c13,0x3df9d040,0xbd28eca6,0x3dc3adb0,0x3e409077,0xbe9075ad,
0xbc8954b7,0x3e0f9ecf,0x3d9ebda2,0x3e89a97e,0xbe237ada,0xbe31bf60,0xbf09c129,0x3e0b0e01,0x3df82cbc,0x3e03de59,
0xbbfcd133,0x3eb14a72,0xbe40042e,0xbd5d0e16,0xbe3fb123,0xbd02a3e6,0x3de69729,0xbeb93752,0xbd18e611,0xbd367d20,
0xbe88c573,0xbc38f5bf,0xbe35b0a8,0x3cd8e7b6,0x3cf0d30a,0x3e274cde,0x3f20c4f6,0xbc4ac978,0x3e668db8,0x3f626c31,
0xbe233b45,0xbec830e3,0x3e923c90,0xbe6785f9,0xbc29eaba,0x3d819b8d,0xbe0708c8,0x3de6888d,0xbf1f9051,0x3d55af18,
0x3e2c0e40,0x3d96bbf0,0x3e60cde3,0x3c0776b2,0xbe3b8713,0x3ebb306c,0x3e718332,0x3e9ff1cd,0xbcbcc0a3,0xbd7e16a7,
0x3d8cd2a2,0x3e166521,0xbe0b5c50,0xbe50a96d,0x3e9c1529,0x3ceb94ad,0xbebcdea9,0x3d2e17aa,0xbd10aaf9,0x3e1dce6b,
0xbe032106,0xbe164ffb,0x3800c373,0xbe43f2de,0x3e0bf63c,0xbea9f9f2,0x3ed9c88e,0xbd334662,0xbe134b78,0xbd2e1f02,
0x3de3cb8d,0xbdb63c51,0x3cd224ab,0x3dae120f,0x3d424d18,0x3e305285,0xbdad8dec,0xbd89aa41,0xbc732d8b,0xbe63f3b2,
0xbe3026ed,0x3e4d2c1b,0x3eb2019d,0xbe311e87,0x3db8841a,0xbbda7015,0x3f57dec3,0x3d6a8324,0x3d361444,0xbdc303ed,
0xbd5eb26c,0x3d00edc4,0xbebd0b7a,0x3ee0b022,0xbe1673d7,0x3d2b2880,0x3b90946d,0xbe97f430,0x3e7ea17d,0x3ed3ae38,
0xbcf92c5e,0xbef66fa7,0xbe34661c,0x3db7133c,0xbe6fc85b,0x3d892bd0,0x3e7ec018,0xbf0ee7d7,0x3ddcc3d6,0xbb268c41,
0x3d40df73,0x3eadafcd,0x3eba9c13,0xbb83bc82,0xbe1d49b1,0xbd543666,0x3ea56d29,0x3e3f1dde,0x3d3b9ab4,0x3d0e0af7,
0xbe2852c8,0x3cd7571d,0x3d1313a3,0x3d2e7597,0x3dd3d53f,0xbe9d41db,0x3e4f083d,0xbf0cd0d3,0x3d9c2b60,0x3e2f2ca0,
0xbd9b70b1,0xbcfbf34c,0x3e10c1aa,0x3d3c9bf4,0xbb603389,0x3e72f12b,0xbf0a31f4,0x3e1ac3dc,0x3ef0ea0a,0x3e05689a,
0xbd934a8e,0xbda0d557,0x3ef4e160,0xbcf87f88,0xbe1cfe64,0xbe08eacd,0x3da12329,0xbe9af1ae,0xbd6ff927,0x3ee6f011,
0x3e1a8c52,0x3d0679f2,0x3e6de389,0xbde36d87,0x3c4fe529,0x3dda6126,0x3df22fdb,0x3e2e3d1d,0xbd09de60,0x3e076da1,
0xbe9f49f7,0xbe27d1f3,0xbedcca66,0xbf467090,0x3e497fd5,0x3a1259a5,0x3f082c52,0xbe5cfe73,0xbd89e73b,0xbd56a504,
0x3e0a4d7f,0xbe32709f,0x3c876593,0xbcfd3450,0xbd5389a3,0x3f83b4fb,0xbe64ba0f,0xbe91211e,0xbdabbf32,0x3d8ece7c,
0xbf0ff6e4,0x3a6b3c29,0xbf88cb71,0xbe9bed9e,0xbeaf433e,0xbe467348,0x3edeb5db,0xbdfc16d3,0xbee3f815,0x3d8e19f3,
0x3dd739f7,0xbea2997c,0x3cb2cfdb,0xba400060,0xbc971877,0x3f4c9f1d,0xbf0a428f,0x3e5dc895,0x3f2497bc,0xbddf6fd9,
0xbdd41b69,0x3ec48601,0xbeaf6343,0x3f086224,0x3e8cb696,0xbdedc178,0x3e976c0e,0xbd1a9f49,0x3d4a794b,0x3e50b08e,
0x3e7ea4cd,0x3d94cb0f,0xbe068f41,0xbf4b8567,0x3e450201,0xbe24dbdb,0x3dd52f9a,0x3c69cf34,0xbd7b0147,0xbcbb7dd3,
0x3ecb04c1,0x3d35edde,0xbe149c74,0x3d86b306,0xbd421c94,0xbf1e0fa0,0xbe404c6b,0x3db4b112,0xbe70983a,0xbd2453f8,
0xbe85fab9,0x3e01f26a,0xbd9b55f4,0xbd8b9941,0xbd2c3781,0xbb20e278,0xbd72e76a,0xbe894745,0x3c2ba67a,0xbe6457d2,
0x3d69aa72,0xbac7bd57,0xbd909e52,0x3e7d169e,0x3e3bea30,0xbdf56773,0x3e19765e,0x3d3f5337,0xbaa5076e,0xbec9be1c,
0x3ad228a2,0x3da1c21e,0xbe83b976,0xbe2da317,0xbb3fd86d,0x3e393186,0xbee82879,0xbeb7d6a1,0x3f071bf4,0xbe897270,
0x3e026023,0x3c4126db,0xbd880673,0xbdf38433,0x3da0bac9,0x3f003f26,0xbe8614e3,0xbea8dad6,0xbe96c8ba,0xbd9fa4bf,
0xbc85e6df,0xbf10c2b1,0x3cd8709e,0xbe4eb9ae,0x3d3e743a,0xbe26ad19,0x3f67cbeb,0xbcafcc7a,0xbe892d76,0xbeeeafec,
0xbdee7048,0x3eec88ad,0x3e9e566f,0x3ebf856b,0x3f4419d9,0x3ec12ed4,0xbe56d416,0x3c2365ac,0xbd05936c,0xbe209094,
0x3e55127c,0xbe8b23ba,0xbee9d7cf,0x3e6536fd,0x3f6b18b9,0xbe10417e,0x3f633a7f,0xbe0abd86,0xbe731bd7,0x3e2a1e1a,
0x3e248638,0x3c9e1805,0x3e071c4b,0xbea2443b,0x3ec9b95b,0xbf0282f8,0xbf316874,0x3d56a8ad,0x3e649aa5,0x3e941dde,
0xbe615931,0xbdeb595e,0xbe7414de,0xbd5c393f,0x3e913e0c,0xbe435ea9,0xbd177be0,0x3e33e960,0x3ec4a6df,0xbe72717f,
0x3e0c7e21,0xbdc31f13,0xbe252499,0x3e35cba9,0xbd194467,0x3ebc71a8,0xbd012b77,0xbed20abf,0x3de26090,0x3d34e807,
0x3e08ca26,0x3d85dc6a,0xbf3e9e90,0xbebf721f,0x3e161372,0x3e2d0738,0xbede4543,0xbdb91a2a,0xbd852fb3,0x3da52848,
0xbdbdd93d,0xbef85971,0x3e503ae7,0xbd831d85,0x3c0284b3,0xbd93724e,0xbe1039af,0x3e07bd82,0x3e2f1cab,0xbe3f1ad7,
0xbd917767,0xbe388abe,0xbe087561,0xbe3e2e2c,0x3c8059ec,0x3f75d4c8,0x3e758ef2,0xbd1d7b8f,0x3efa91f6,0xbe0fd21b,
0x3d306625,0x3e27d927,0x3e7bc35e,0xbebeea3a,0x3e0b6130,0xbe37c27b,0xbd332c2a,0xbefae38a,0xbddce805,0x3dd75f21,
0xbc358a25,0x3b4a3398,0x3f1dc2cc,0x3b25f7ea,0x3f162bc3,0x3e2f5636,0xbeb61178,0xbeef118b,0x3f0f2413,0x3edfc998,
0xbf019936,0x3ec10874,0x3e3b944f,0xbd212613,0xbbec6eec,0x3bdd8993,0x3dc542c5,0x3b84fee4,0x3d1a5f4d,0xbe5216eb,
0x3db1d9a4,0x3cc333f5,0xbef51241,0xbd91afa6,0x3ec4683b,0x3e802f55,0x3e3c6b03,0xbd7febd5,0x3ebf88c4,0x3e7784c4,
0x3e107da9,0x3e99cbb3,0x3ea1c495,0xbdef3a4d,0xbe8c0683,0xbf14594c,0xbf9a63a9,0x3c9ea567,0x3dc3ef7b,0x3e5744da,
0x3eb67629,0xbd3f7865,0x3ef05799,0x3eb98568,0xbe46b622,0xbc236fc1,0x3df26743,0xbcf627d2,0xbde8004f,0xbc1c8734,
0x3d500440,0xbdfbf6f2,0x3e6157cc,0xbd9231ee,0xbca9265f,0x3e004fa1,0x3e7f5abe,0x3d332291,0xbdcbf8e4,0x3f26a734,
0xbe077eac,0xbf103a47,0x3eeee174,0xbbc44e8c,0x3db0c570,0x3e79e333,0x3e476877,0x3e9064e1,0x3d9b96ed,0x3e3c2405,
0x3e7f59a0,0xbe88450c,0xbe4a65b3,0xbd387d04,0xbe0adbb5,0x3ed6e173,0xbc87369d,0x3e49b24d,0x3ed0eeb7,0xbee5456c,
0xbdd20b30,0x3e1bf2e2,0x3ee556de,0xbd9f2cf3,0x3e4e3fef,0xbe4a826a,0xbc215cb1,0xbe4d233c,0xbe9a23ea,0x3ce4f84e,
0xbd8de991,0xbb4ad13b,0xbc8c4a48,0x3f567353,0xbf0908ef,0xbe1137db,0x3ea29df3,0x3e067236,0xbf830fbb,0xbab4c62e,
0xbf083ff7,0xbd66ed1f,0x3b50bcdb,0x3f2a4aaf,0x3f45d379,0x3e674a82,0x3e447f86,0x3eb738ee,0xbceea75a,0xbecb622d,
0xbd0e4d8f,0xbde1864d,0x3e3fefb6,0xbf59343e,0xbd212371,0x3f3ba669,0x3d8e3186,0x3e28f63a,0x3e7bf57e,0xbe97a7c2,
0xbe074a1a,0x3e9ecda4,0x3eb9a973,0x3e476f62,0xbe217ec0,0xbe8ea001,0x3eb876c7,0x3f295ea3,0xbc206e8a,0x3dfbad4f,
0xbded00ef,0x3e74d922,0xbf86c8f1,0xbe158231,0xbe619ce4,0x3db98486,0xbf036272,0xbdcbde96,0xbd57ab67,0xbf6f9292,
0xbd601bbb,0xbd58f822,0x3dcb3e77,0x3c3c6290,0xbe1f890d,0xbdb2266a,0x3ba07e16,0xbe616473,0xbb990988,0x3d850a6b,
0x3e5432be,0x3d80dde4,0x3e6bd7ca,0x3e172d4b,0xbd9e9283,0xbf005be9,0xbe2513e8,0x3ee7887f,0xbebd0b42,0xbd15a316,
0xbce9e48a,0x3d0ca2ea,0x3c3ec907,0x3f2d3df3,0x3c4c9238,0xbdb65c33,0xbcd8c479,0xbf2129cb,0xbca550e6,0x3d4cdc50,
0x3e7cd308,0xbd7c7af7,0xbd3ef106,0xbe23d3ad,0xbe385fcc,0xbe091331,0xbe37a30a,0x3cc8ae50,0xbc6412ee,0xbd42cfbe,
0x3eb762b5,0x3dc9c976,0xbd909f69,0x3dfbb02d,0x3ce379cc,0xbe44c80d,0x3dcd6c2c,0x3b763cd9,0xbd19f904,0xbd2863b3,
0xbe16efa5,0xbe008ba6,0xbda6f8a5,0x3d305de0,0xbd37d593,0x3ba6f045,0xbd2cbbcd,0x3cc5967d,0xbe234b92,0xbed9580f,
0x3b0dcaac,0x3e768374,0xbd8258bc,0x3e2a6c07,0x3e75907a,0xbe6ca479,0xbc6090ed,0x3c7617ad,0xbc7623d1,0x3d48839a,
0xbe030b2f,0x3e585f98,0xbdcd2ebc,0x3c81b431,0x3e3d4a40,0x3b9537c5,0x3d2fd3ba,0x3e3e3dad,0xbe95baba,0xbd346c89,
0x3e9b0399,0x3e02c137,0x3d861dfd,0x3e60636f,0x3e661388,0xbe4741ae,0xbe92b7b4,0xbf3763a6,0xbc9f775d,0xbdb09dee,
0xbc3b4268,0x3dc988ea,0x3e5396b6,0xbda9c2a1,0x3eac43df,0x3eafc81c,0xbda1e779,0xbe46bdf4,0xbd197a4c,0xbec6b7d0,
0xbdd6bf91,0x3e0329c7,0xbe2e652c,0x3d783f9a,0xbdc52174,0x3c6a2277,0xbdbe3c7b,0x3dd610f5,0x3e12d2b8,0x3c66bfe0,
0xbe18a37c,0x3e201955,0x3e36dd93,0x3ef6411d,0x3e38f135,0xbdf878b5,0xbd161041,0x3e18cf8b,0x3e6a2024,0x3db6464d,
0x3e500a46,0x3dd648c1,0xbd860e32,0xbe893685,0xbe26c696,0x3da8a281,0xbdfc2410,0x3e02878f,0xbc9b5558,0x3e152abe,
0xbdae046a,0xbee33035,0x3e3aa66b,0xbd4db9ca,0xbc97e23f,0xbd9078c6,0x3c273d67,0x3c7d1eeb,0x3d8bf17b,0xbb078aeb,
0x3e2d46e8,0xbd154c7e,0xbe99e645,0x3e157595,0x3c5a41d1,0x3d82f74e,0xbe1d2e14,0x3ceead05,0x3e8308ed,0xbca9dd9d,
0xbd969c44,0xbcdac734,0x3d703887,0xbc877db2,0xbca8dcb8,0xbab33c78,0x3e14814b,0x3e9ac94d,0xbc0ae749,0x3ef29f3c,
0xbdb71fe3,0xbd9d3a63,0x3daa20d0,0xbe76b546,0x3e560840,0x3d91527d,0xbbd63b6e,0x3db58f4c,0xbe5bd532,0x3d6743ce,
0x3e4a4472,0xbe0693c0,0xbc3fa6e8,0xbec29013,0x3e007022,0x3d211300,0x3d2271a3,0xbe1ac8b7,0x3e9da4e7,0xbe276212,
0xbe9ea111,0x3dcfedd1,0x3dfffc55,0x3e8d38ae,0x3dc6e633,0x3d2f6612,0xbe8b3e35,0x3cc7d55e,0xbe0c5ff2,0xbdc4bac5,
0xbc56368c,0xbee70ccf,0x3e1815dd,0xbe80d492,0x3de01725,0x3e11a9a2,0xbe26e943,0x3d116550,0x3cb32ef3,0xbe04598a,
0xbc8c0ae4,0x3d391f0f,0x3dacab46,0x3dbf354b,0x3e985b66,0x3da0b153,0xbe73cc96,0xbe2f60a6,0x3eaeef2e,0xbe83f74f,
0xbe85e91b,0xbd45eaf3,0x3d211af0,0x3decf30e,0xbe1a985f,0x3e33b009,0x3df83f3e,0xbd648ee0,0x3dd3793a,0xbecd8556,
0xbdcf4b48,0x3d8c43b1,0x3e4e60b3,0x3d2afd10,0xbd8637fd,0xbe9a18ee,0x3f23405c,0x3e6f6359,0x3e8d7519,0x3f3b6f4d,
0x3d80fe75,0x3e8674d3,0x3f21a2f3,0x3e8af809,0x3e8cd689,0x3eb9d4e5,0xbdf6488f,0x3eff28d4,0x3ebefac2,0x3e2eebba,
0xbcab3a5f,0x3de6704a,0x3e3f6fd9,0x3e96a19d,0x3dc6086a,0xbe5e2bbd,0x3f4870eb,0xbe345ebe,0x4018918c,0x3f0e5272,
0x3dd92a3e,0xbdf5210e,0x3f516be8,0xbcbf9314,0x3d42a445,0x3f780750,0x3e67d6a2,0x3e972c01,0x3e5e8894,0x3df9c144,
0x3e4f5c8d,0x3f37e7c9,0x3e3e8992,0x3eba40a2,0xbd4ee21a,0x3e9eb929,0x3f674c40,0x3ee5e769,0x3f874993,0x3e8c8435,
0x3ecaa1b9,0x3df09a23,0x3e3ecdda,0xbd8019ed,0x3ed70aa0,0x3e857f27,0x3f04ff33,0x3e5cea67,0xbd224930,0x3e9716f9,
0x3e1fe932,0x3f1c805f,0x3e091504,0x3de1f3b2,0x3f485971,0x3f34e2f8,0x3dcb7566,0x3eafdfe9,0x3e692a9c,0x3ed30c68,
0x3e137b15,0x3eb4d76c,0xbe8a54e2,0x3e0a82c2,0x3f87c98a,0x3e46c9e4,0x3ed8f3aa,0x3ebe676c,0x3e4749f1,0x3e864d4c,
0x3ef54ca5,0xbce6848c,0x3e2a4a10,0x3f067ebb,0xbda11a39,0x3f598d90,0x3e4ca924,0xbc5bc936,0x3e0677aa,0x3f482eaa,
0x3e88ced2,0x3f278119,0xbe234766,0x3ce39e89,0x3f344baf,0x3f1a8d63,0x3f258232,0x3d828b7c,0x3dd843c3,0x3f3a9c51,
0xbd8637b0,0xbe9a2854,0x3f2338f1,0x3e6f4e81,0x3e8d74ca,0x3f3b68ea,0x3d80e108,0x3e8672e0,0x3f2199f5,0x3e8afbd1,
0x3e8cceb4,0x3eb9d49f,0xbdf63bc6,0x3eff2849,0x3ebefd09,0x3e2ed8b3,0xbcab220b,0x3de67599,0x3e3f708b,0x3e96a452,
0x3dc5f336,0xbe5e2ac9,0x3f485b49,0xbe345fea,0x401891a4,0x3f0e50c8,0x3dd91212,0xbdf51ddc,0x3f516aba,0xbcbfdb2a,
0x3d427df8,0x3f780751,0x3e67c66d,0x3e972e8f,0x3e5e77f5,0x3df9c0ba,0x3e4f5189,0x3f37e71b,0x3e3e718f,0x3eba392d,
0xbd4ee198,0x3e9eafd3,0x3f674a2f,0x3ee5dbbb,0x3f8744a9,0x3e8c7e20,0x3eca9f5a,0x3df0a458,0x3e3ec7ca,0xbd800cf3,
0x3ed6f66c,0x3e858310,0x3f04fa4c,0x3e5cdd8a,0xbd228727,0x3e97039c,0x3e1fd4a4,0x3f1c8165,0x3e0909e4,0x3de1d7b6,
0x3f484fe3,0x3f34e2e2,0x3dcb560e,0x3eafdb58,0x3e691f35,0x3ed30795,0x3e136e5f,0x3eb4d7c1,0xbe8a5444,0x3e0a84f3,
0x3f87c3e3,0x3e46c6c7,0x3ed8ed60,0x3ebe5df2,0x3e473da4,0x3e864d58,0x3ef5482a,0xbce65875,0x3e2a3cd0,0x3f067c5c,
0xbda1170a,0x3f598856,0x3e4c80e9,0xbc5be235,0x3e06711e,0x3f4823fe,0x3e88c5aa,0x3f2777ee,0xbe234ce8,0x3ce38ea8,
0x3f344428,0x3f1a89f4,0x3f257d5c,0x3d828c28,0x3dd81c76,0x3f3a931b,0xbcee7830,0xbe1226d2,0xbe83dd00,0xbdd367fd,
0xbef42480,0xbf00456c,0xbefdf7df,0x3bf10bc4,0x3e5cc92c,0xbc9bef6c,0xbd833b28,0xbd5ff450,0xbe8522e4,0x3e053b8a,
0x3bf5e204,0xbc506212,0xbb8bac0b,0x3ea2e5db,0xbf01c454,0xbeda4381,0xbdd01eef,0x3ee3db3c,0xbed1c266,0x3ceea697,
0xbec858a1,0x3d0e2293,0x3e7b417f,0xbe773552,0x3e84da7f,0xbe0e2ada,0xbe8c5aca,0x3c1d877c,0x3e327de2,0xbee84b94,
0x3e38a9fd,0x3e31c6b2,0x3c1bd58c,0xbe0ecab1,0xbe711651,0x3f5807ef,0x3e0ffa16,0x3e4fbd2d,0xbea8db66,0x3d610710,
0xbe0a745d,0x3e105636,0x3dac664a,0xbc9dabec,0x3d1bdf17,0xbd9da137,0x3d9bb290,0x3dd66b3e,0x3ede8831,0xbc1d1b2c,
0xbe97dbcf,0xbea518b9,0x3ebb0e20,0xbed69ba4,0x3cd47734,0x3e48f113,0xbac3a7a9,0xbcaf7a3b,0x3e44c8bd,0x3e4bd0f0,
0xbea29187,0xbe317095,0x3deb48de,0xbe99776c,0xbd2c1252,0x3c8745e5,0xbea2a440,0xbdc2ea0e,0xbeecfe9a,0x3ecf313f,
0x3d6567ea,0x3d5e888f,0x3d53e54d,0x3c23fd7a,0x3e0551b7,0x3d93ae4a,0x3f08336e,0x3e0e5fc2,0x3d774971,0xbd959955,
0xbd142a5a,0x3d16573d,0x3da55d95,0x3e8e2759,0x3ebb6992,0xba655462,0xbeb48965,0xbef19991,0xbd3cf1fa,0x3e004cfe,
0xbd3e7544,0xbca62ee5,0x3c73db39,0xbe269bf0,0xbea01442,0xbe9d7fe2,0x3ec89ad8,0xbedba5bd,0xbe445bde,0x3cb6d83d,
0xbe30cc91,0x3d936f8c,0xbdb0337e,0xbd2d2f53,0x3e218a4f,0xbc06f011,0xbe5222bb,0x3dd7c1f5,0xbcfa7215,0xbe05cf39,
0xbe2ef67f,0x3e32c9f3,0x3e85f828,0xbe698a56,0x3f05f9d0,0x3c9b0e29,0xbef0f3dd,0xbe8d5e77,0xbd2cefc7,0xbdee87f7,
0x3c4c9d06,0x3d8b9f15,0x3e7267d2,0x3db3bf3c,0xbe34a31e,0xbd96ca7b,0xbd92bdba,0xbeac58bf,0x3e0be4c5,0x3c510888,
0xbef07f9f,0x3eb408d9,0xbe5e9630,0xbda2d77e,0x3f150467,0x3e20c3d1,0xbe6a9dbe,0xbbce3e30,0x3c80c9fd,0xbcb279a7,
0x3e07bbf5,0x3e925e13,0x3e728a22,0xbeb92757,0xbf13ecbc,0x3d14c7b4,0x3eb73828,0x3d02405e,0x3e2da6ee,0xbf25861d,
0xbe1a0df2,0xbd6ff51d,0xbdc41d37,0xbe3084e1,0x3d772c70,0xbce74469,0x3e71edb2,0xbeff97f0,0x3d10509d,0xbca110cc,
0x3d2cc37c,0x3c869daf,0xbd857d8b,0x3e8fd018,0xbe0c064b,0x3daefcc2,0xbef45abb,0x3d22e1a9,0x3e515986,0x3de93e9f,
0xbe8ceecc,0xbea79f5e,0x3f24b7ad,0xbf028260,0xbef20ca8,0xbdd91c6e,0xbd266b52,0xbc4757fb,0xbe2f202a,0xbde00189,
0x3eb7c807,0xbbe3962b,0xbe2cdbc5,0xbe1d56ca,0x3e11e5f1,0x3e343766,0x3db3ed73,0xbe284b33,0xbcc89287,0xbe9109da,
0xbe1ca6c8,0xbe09978a,0xbe314cf2,0x3ec1cbdd,0xbf09d20b,0xbcd1f8a5,0x3e1fcc47,0x3e543df5,0xbca081d5,0x3dfe2139,
0xbe65cca0,0x3b3ae480,0x3db365b2,0xbdef7fe8,0xbcc619f3,0xbe122d72,0xbf01b188,0xbe17eab1,0xbd6ee1c0,0x3e9d471a,
0x3d8d4f16,0x3cbb1506,0x3f12d83c,0x3e25d2df,0x3de2647a,0xbea8c295,0x3eb249ba,0x3e41b919,0xbe73619a,0x3e31004e,
0x3e7c3642,0xbeb88e2d,0x3dfd714b,0x3e1c758d,0x3d4f4465,0xbf093aab,0x3c818830,0x3f16e787,0xbe0ed1ef,0x3e8bd301,
0xbf060481,0xbea9bf12,0x3e72e51e,0x3d1d4fce,0xbcf20931,0x3cbd6039,0xbd09d039,0x3dd42e57,0x3df1293b,0x3e97e856,
0x3ef5fe68,0xbe2d46a7,0xbef63e44,0xbe91500f,0xbe9d2017,0x3e6877b6,0x3d0bffaa,0x3e7cd2a5,0x3e8956e8,0xbcb3a06d,
0x3e7cd472,0x3ea532dc,0xbeaed9c3,0xbe735c0f,0x3e4e15ab,0xbc21e966,0xbcc5047e,0xbccbecbf,0xbdd9aa5d,0xbd1a2c4a,
0xbe5df61e,0x3e14738e,0x3dc4d5c4,0x3cd887fd,0x3e6b5652,0xbb1b14fe,0x3d9372b1,0x3f055b56,0x3e9400ed,0xbdb25cee,
0x3e5c4174,0xbe16b444,0x3cc7f215,0x3d0055f7,0x3d899807,0x3f044d50,0x3ea728f8,0x3d658f70,0xbe8995c7,0xbe988dc0,
0xbe27c33b,0x3d43c17a,0xbcf1b4f9,0x3e769471,0x3c188413,0xbe84446e,0x3dfe13a4,0xbea7c5fc,0x3d1d280d,0xbe93244b,
0x3e015e83,0xbbcc1c58,0xbd9ab7a6,0xbd3531a2,0xbde0aa89,0xbebc7c47,0x3e91e1bd,0x3e1fb799,0xbd4cb6c4,0x3d97601f,
0xbcb4d309,0x3f201afb,0xbf0a88a7,0x3e1f0976,0x3eb30c5d,0xbc63e336,0xbeb037e7,0x3cd42130,0xbf0d650a,0xbe8a0f4f,
0xbd0cefb5,0xbd9de74c,0x3ec8438f,0x3ca9285b,0xbdd74ae6,0x3b950a1e,0xbde66cc8,0xbe415cbe,0x3d9200bc,0xbea0b94f,
0x3dea7b8f,0xbe8facda,0xbdef5d99,0x3f18fee7,0xbf35e14e,0x3df2b344,0x3e590075,0x3e1940f2,0xbe32f85b,0x3d8cdce1,
0x3dd09f86,0x3c61b8b1,0xbe2badde,0x3e8c834c,0x3e8bc0d5,0x3e6e05b4,0xbe5c2475,0x3e108a41,0x3e809afa,0x3da61d7b,
0xbe942e0f,0xbf08b92e,0xbe167641,0x3d1cb3ef,0xbeea6085,0xbe289568,0x3d4b4ca7,0xbf2088a7,0xbc0574ae,0xbeeaad6a,
0x3d12e840,0x3d0454f9,0x3cc36408,0xbd5dd08f,0xbde908ed,0xbddf556d,0xbe804f55,0x3e9e5655,0xbe9bf71f,0x3d7e5331,
0x3e87e4b0,0x3e1b0880,0x3d635553,0xbec58dce,0x3f08cd2c,0xbe7e5937,0xbec78eeb,0xbd98d6be,0xbd37a145,0xbe19c343,
0xbdee0162,0x3f074666,0x3e332172,0xbc75dfd5,0xbd9371cd,0xbf0a8428,0x3e867e56,0x3da78004,0x3e0a4fb0,0xbe1adde8,
0xbb075699,0xbe637da9,0xbf22beea,0xbdc54644,0xbe4a73a2,0xbe968403,0xbf35e785,0x3d01b2b8,0xbd94904d,0x3e0aa405,
0xbc0f47da,0x3ec2a1ab,0xbe62f115,0xbce0d538,0xbd980363,0x3cdb25f6,0x3c2b6a13,0xbde95077,0xbf2bc50f,0xbec99763,
0xbe4cdf39,0x3f02c4b3,0x3e7fc4bc,0x3cc8186e,0x3ea9cf6d,0x3dfb3aef,0x3eb9b6af,0xbb26292e,0xbe2f28e5,0xbd99ffda,
0xbe5b1682,0x3d7b277b,0x3e37c410,0xbf1206f6,0x3dc5c7f5,0x3e8da1c1,0x3d4deb95,0xbe0627bc,0xbd307002,0x3ee76fee,
0xbee0beee,0x3e840a0c,0xbd844937,0xbd9e42a5,0x3c9f50ae,0x3eb47601,0xbe2b1c13,0x3db90f4f,0xbeb7ba2e,0xbdf6b6bc,
0x3e07ab5d,0xbe9b8ec8,0x3ea23b1b,0xbd0879ce,0xbecbdd21,0x3ddf8c29,0xbdffd831,0xbe46b599,0x3c900150,0x3e8a61d7,
0x3ed89385,0xbb5e4c73,0x3e136de3,0x3f19cd53,0xbeabbd38,0xbec67d40,0x3e967611,0xbd9f44c0,0x3ce89604,0xbdd4b40e,
0xbe55cc75,0x3e391890,0xbf1e7f94,0x3ed12341,0x3e6c0e00,0x3d7cb5d1,0x3e42d122,0xbd23da6b,0xbd0544fd,0x3ecfde8b,
0x3f17ff87,0x3e7c6fda,0x3c684cf7,0xbdf4a99e,0x3cc964b6,0x3c4fe8af,0xbdf92f86,0x3e071a00,0x3edb6fe9,0xbc95a530,
0xbeefa981,0xbdab7b5d,0xbe2a244e,0x3e4a3565,0x3c49d73d,0x3c049912,0x3cf70c66,0xbe4fc379,0x3da9cc5c,0xbe2385fb,
0x3eb2e10f,0xbe9ff063,0xbe041537,0x3d476192,0x3d256c15,0x3e0ff1ae,0xbdf6083d,0xbde8ec3e,0x3e22b57d,0x3e7b2241,
0x3da92958,0xbdbb828c,0xbd156140,0x3dea2d82,0xbebc818e,0x3efc4767,0x3edd65a6,0xbe628d1a,0x3e13fc1c,0x3cabb7c1,
0x3ec99e13,0xbddc30bf,0x3c3a7e2c,0xbde96b63,0xbdf13765,0xbe6a52b7,0xbe6717da,0x3df92497,0xbe0642ec,0xbbbeaced,
0x3dc2f5fb,0xbef36ae9,0x3e344903,0x3ea80593,0xbe9529b4,0xbe29ffb0,0xbed7ae93,0x3de8ca9f,0xbe3c7230,0x3e0c618a,
0x3df376c4,0xbea8ef41,0xbd87027f,0xbd46ed63,0xbd97a2d2,0x3f31f44b,0x3ea49ef1,0xbb936983,0xbe96e6b2,0xbe220fcd,
0x3ecdac44,0xbbffbf1d,0x3daaad7e,0xbf0a5456,0xbd389f01,0xbc80f96f,0xbd342148,0x3db4a9ac,0x3e2f1b77,0xbe98770f,
0x3e571485,0xbf45da71,0x3c5e9c72,0x3d756185,0x3d89e0b5,0xbdc861b4,0x3e433d45,0x3e1d4788,0xbe368445,0x3e6215ed,
0xbf6da7b3,0x3dd1966d,0x3eeef860,0x3e46a6a4,0x3c5ce368,0xbe84c4ea,0x3f504da9,0xbe8e1cfe,0xbe98cc03,0xbe3ad780,
0xbca18a4f,0xbe20a264,0xbcacbb53,0x3ed91b87,0x3e67fdc1,0x3d828c07,0x3d7effba,0xbe1cb0e2,0x3e020de7,0x3e075a30,
0x3c8a2e11,0xbd818134,0xbd008899,0xbe3bfa75,0xbf45b8c4,0xbe338d3e,0x3d6745dc,0xbeaaf9f7,0xbebd23d8,0x3d5e809e,
0xbdd0d011,0x3e5d27a8,0xbb215bcc,0x3f106d09,0xbcd835c0,0xbeb6c59d,0xbd03ef45,0x3d4a8204,0x3c84ce53,0xbe3c0320,
0xbe933236,0xbee7974a,0xbe9d2c47,0x3ea7fc64,0x3ee88fbb,0x3ca12b89,0x3eaa99a5,0x3d660d3b,0x3e5319f4,0x3e72af2d,
0xbe92b8b6,0x3dcc6367,0xbc8f7444,0x3db198f5,0x3e422b2b,0xbea437bd,0xbcc0f88a,0x3e27e63f,0x3d9879e7,0x3e9a017a,
0xbe38ec6e,0xbe32ed37,0xbf34e726,0x3dd0b709,0x3dfed312,0x3ded483a,0xbb4dfb77,0x3f1c32ba,0xbe319f80,0xbd557795,
0xbe2dc587,0xbd6644ed,0x3e089b79,0xbee1171f,0xbd1abadf,0xbdda560c,0xbe464392,0x3b46940c,0xbe8e167b,0xbe45c366,
0x3ca86f87,0x3e2a36cc,0x3f1a8079,0xbd20b706,0x3e785cff,0x3f6e4aba,0xbe130fdc,0xbece0ee1,0x3e93b2bf,0xbe357351,
0xbb93d7b2,0x3daa2478,0xbe24ffe3,0x3e1c0b05,0xbf29bce8,0x3da2fb5d,0x3e3cd248,0x3d61b2fb,0x3e454540,0xbc09c73a,
0xbe3b802d,0x3eb86ae8,0x3eeaf586,0x3ecc6f16,0xbb926cb0,0xbdf7feb9,0x3d70d543,0x3e2aeb14,0xbdff1a72,0xbe43ef88,
0x3e9e178b,0x3c6668e4,0xbeb51de5,0x3d10cba9,0xbd7d8fed,0x3e277763,0xbddbcd80,0xbdeaf34c,0xbd1c6964,0xbe5beb3c,
0x3e0d2d3f,0xbeaff7c0,0x3ed2b759,0xbd40f24e,0xbe00d6bc,0xbcf8c838,0x3e298f96,0x3ddf2a95,0xbc54b31e,0x3d7ed8fb,
0x3e13d9a1,0x3e61909c,0xbde94799,0xbd2b93d0,0xbc3f6f37,0x3c7a1ebc,0xbe2e4732,0x3ec77ba5,0x3ed0de1d,0xbe317e35,
0x3e0474eb,0xbc5d9d52,0x3f61c5bd,0x3cb8325f,0x3c929713,0xbcb6dbe7,0xbe1c8132,0x3bb57fc2,0xbeb82376,0x3f01ddc9,
0xbdffc994,0x3c5dc0f6,0x3dc9ddf2,0xbec3f96e,0x3e6d4368,0x3ed5669b,0x3d9021e4,0xbf0f1fea,0xbe0faab8,0x3dd5b3cd,
0xbe9f8861,0x3d5fe58d,0x3e8d5675,0xbf2f7db4,0x3df089a7,0x3cbbb46e,0x3d550ae2,0x3e98a8e3,0x3ebd143f,0xbd198d27,
0xbe220b2b,0xbdf79415,0x3ea994f0,0x3e735f9e,0x3d4a688d,0xbc9d21e6,0xbe0a773a,0x3c9c9dba,0x3dddd6ed,0x3e1160fa,
0x3dc97d3b,0xbeaaa530,0x3e6703d4,0xbf101ad0,0x3dd34daf,0x3dc60a34,0xbdbe95c2,0xbceceea5,0x3e82c1dc,0x3d8e5f7f,
0xbc32ccdd,0x3e7d43c0,0xbf0d2671,0x3dae457f,0x3f0805ef,0x3daf3a7e,0xbcd51807,0xbdc030c3,0x3f3b8f6c,0xbd2bb5d4,
0xbe26874d,0xbe261f68,0x3d8dcbc9,0xbe93b35a,0xbd0059a2,0x3ee94150,0x3e0f8a2a,0x3ca95750,0x3e7a14ea,0xbe05a862,
0xbaf5dbf4,0x3ddc7610,0x3dc514d8,0x3e32593f,0xbd712e16,0x3de3cf8a,0xbe83e5c2,0xbe1280d9,0xbf01130e,0xbf5c2f04,
0x3e5a6078,0xbcc8a7c7,0x3f074f51,0xbdc6095c,0xbd8251dd,0xbd7a242f,0xbae9dd00,0xbe6022b5,0xbc74c92e,0xbc25a5e1,
0xbdbc888f,0x3f2593cb,0xbe69847a,0xbeeaf975,0xbdbc885b,0x3dbf2760,0xbf09387c,0x3cfc990a,0xbf7a558f,0xbe82b408,
0xbebf148d,0xbdec308a,0x3f0d6eca,0xbe2a1522,0xbf0deb6a,0x3d93c447,0x3db53b72,0xbeba0b73,0x3d508f68,0x3d916fd8,
0xbc935cd1,0x3f6d3b8d,0xbf2d7403,0x3eb76f65,0x3f2b5b4a,0xbe1767a1,0xbda47f51,0x3ef1ba3c,0xbeb52b68,0x3f1980b5,
0x3eb3422f,0xbdf0fb9f,0x3eba4703,0xbd1cbd59,0x3cbbce24,0x3e3c1d8e,0x3e97a51b,0x3d6b0c40,0xbd0f1887,0xbf3f06b1,
0x3e441781,0xbf41d8e3,0x3d52a0df,0x3ca6013a,0xbe243f0d,0x3c9a1a6f,0x3edaa6de,0x3c2b0457,0xbe1048ca,0x3dacc0e8,
0xbd947a6f,0xbf21e0d7,0xbe2b23a1,0x3dcf4247,0xbee2ba73,0xbe2bffcf,0xbe994cb4,0x3e05e2d4,0xbd71411b,0xbd51c1e3,
0xbd712698,0x3d13b9ac,0xbd11ac82,0xbe3bcc7b,0x3e16a34b,0xbe979f20,0x3de2b6df,0xbd4a989b,0xbd96f0f1,0x3e563ad6,
0x3e5a82b0,0xbe133ee4,0x3e140f0b,0x3cfe2da1,0xbb5be207,0xbef633e0,0xbc592ec0,0x3cefaf46,0xbe459ac9,0xbe1f1eea,
0xba98f12f,0x3e4bafcd,0xbededbf0,0xbeee83ab,0x3f0f646a,0xbe9f2923,0x3da738f6,0x3c150139,0xbd6866a1,0x3e0d1333,
0x3dc1c3ae,0x3ee88ca0,0xbdbf6e19,0xbee96477,0xbe985b74,0x3d9a2796,0xbd3869c0,0xbf48e69d,0x3d0960c6,0x3c2d418d,
0x3dcfde86,0xbe476c50,0x3f6a6655,0xbcb49e50,0xbea91dbd,0xbe834922,0xbdefc7de,0x3ea86fa9,0x3e9aeaed,0x3eb947ed,
0x3f5571ac,0x3eee94ae,0xbe5cdf04,0xbdae9219,0xbd9c1308,0xbe735f37,0x3e5ea8e2,0xbe946b22,0xbed4ede6,0x3eba6cf1,
0x3f5d44a0,0xbe532b7f,0x3f86182c,0xbe40fc19,0xbe8582cc,0x3dd05505,0x3e450ce7,0xbc3415ec,0x3e5e2f73,0xbeac0314,
0x3eb8d453,0xbf0b1654,0xbf45a20c,0x3da959ab,0x3e3d72b4,0x3e905263,0xbe60449d,0xbf5623bb,0xbe8fcd62,0xbd81e49f,
0x3e6f1c04,0xbe772d29,0xbd2562a8,0x3e87350c,0x3eb9b830,0xbe27acf6,0x3e128ca0,0xbd84f495,0xbe15d409,0x3e130b98,
0xbd4513db,0x3ec37106,0xbd5aa955,0xbee23c7f,0x3df646b6,0x3c3bf9ba,0x3e4abd2f,0x3c52afd5,0xbf42583e,0xbecfebca,
0x3e68582c,0x3dfd55b5,0xbeebf62f,0xbe041f65,0xbd91e3bb,0x3e200590,0xbe000060,0xbef270fb,0x3e606388,0xbd8893bb,
0xbd20d387,0xbca26ed7,0xbe7d9adc,0x3e27cf1f,0x3e103816,0xbdf27b9e,0xbd5ae16f,0xbe758b56,0xbdf5404e,0xbe1b414d,
0x3c817c2c,0x3f7b93fe,0x3e8b37b6,0xbd0e02b6,0x3ed7d54d,0x3eb8be16,0x3d3a47f2,0x3e2a04d5,0x3e8d4455,0xbed35f5f,
0x3e1e8ad2,0xbdde614a,0xbdb3e24e,0xbd9c57a3,0xbe13a5da,0xbcb906ad,0xbd4d980f,0xbc93996f,0x3f1410e3,0x3b8c12e8,
0x3f33f3a9,0x3dd791cc,0xbec80303,0xbece89b5,0x3f217aab,0x3f063246,0xbef1af47,0x3ed788a6,0x3e8bb6f6,0xbdd9000e,
0x3d9f9041,0x3d57be11,0x3d882b87,0x3db1a55b,0xbc8d3744,0xbe95aa3e,0x3e3a4ad9,0x3e1205b5,0xbf19a791,0xbe11f402,
0x3ec30810,0x3e838988,0x3e2e9479,0xbd5ebb4f,0x3ed1346d,0x3e874b6f,0x3e1c6229,0x3ebd5bc5,0x3e93cc0f,0xbe87bfd0,
0xbe8169bd,0xbf18673f,0xbfab5709,0x3f198679,0x3d9297c5,0x3e50de15,0x3eba913a,0xbc57ad98,0x3f000a5f,0x3e89eb4b,
0xbe4ad09f,0xbc85ac3e,0x3dc91544,0xbd88a651,0xbdac942a,0x3ac55896,0x3cffa626,0xbdee5577,0x3e79c5f5,0xbdf6d105,
0xbbc4cb4d,0x3d2826e6,0x3e8970e4,0x3d38524d,0xbdd15ed0,0x3f3b28f1,0xbe61df43,0xbf22a9fe,0x3edd75c5,0xbdcd374c,
0x3d65c572,0x3e8aa3eb,0x3e9148fe,0x3e976585,0x3da379df,0x3e1e13e7,0x3e72daaf,0xbe8e908a,0xbe5be243,0xbdb3bf8f,
0xbd6883ea,0x3ec00230,0xbc9b6227,0xbd26e988,0x3ece5280,0xbf082f62,0xbd99906f,0x3dc56986,0x3efbbd49,0xbdb264bc,
0x3e7b4fca,0xbd980748,0xbabbe778,0xbe914886,0xbe9d049e,0x3cec7036,0xbd9c708d,0x3daf03bf,0xbd33b591,0x3f4fd5be,
0xbf103c8e,0xbce4381e,0x3eb7f778,0x3e343c11,0xbf5aac23,0xbcc5e537,0xbf27644d,0x3bfea07d,0xbc947e1e,0x3f14b6d6,
0x3f82957e,0x3e792746,0x3d257b64,0x3ec22f1c,0xbd6f063a,0xbec5071a,0x3df18699,0xbe626e82,0x3e39f756,0xbf750d15,
0x3d611423,0x3f66bd02,0xbd61414d,0x3dede20a,0x3ed037fc,0xbe9bba89,0xbe137f49,0x3eb61759,0x3ea76908,0x3e26d30e,
0xbe15205e,0xbe82c257,0x3ea7c9f3,0x3f2cffe5,0xbcd8a8b9,0x3e4f16c9,0xbe399c20,0x3e8cf5af,0xbf922b49,0xbf0df084,
0xbe656ae2,0x3ddddbae,0xbf132c3e,0xbe2cbdea,0xbd9e7311,0xbf668535,0xbe1b4078,0x3d06a0b9,0x3e0579dc,0xbb490f73,
0xbe19be51,0xbe07865e,0x3cc53adc,0xbec079bf,0xbc9aa9a6,0x3cc16f80,0x3e5ae94c,0x3d60d807,0x3e9a1657,0x3deb8f46,
0xbd8bbfbb,0xbefc4575,0xbc367b28,0x3efcc412,0xbea69a86,0x3b370b9f,0xbca49721,0xbca76e7c,0x3bf357eb,0x3f32b778,
0xbb3faa0e,0xbde06c4e,0x3c831ead,0xbf244a97,0xbbbb1ed2,0x3d22cab5,0x3e500c96,0xbd0e6ea3,0xbbc0deae,0xbe5822fc,
0xbdf39b31,0xbddfbf86,0xbe34b5e3,0xbcf7563d,0x3d79cef7,0xbd717f24,0x3eb54781,0x3e55cffc,0xbd91f0d0,0x3dd3b3e3,
0xbd7219fb,0xbe7a8c6f,0x3da6c050,0xbd67822a,0xbd6cd104,0xbc1f1747,0xbe3fe038,0xbe13f01a,0xbda0b5d7,0x3cf4c6ee,
0xbc3ea9e3,0x3c40e574,0x3d86d1a2,0x3c886aa0,0xbe3692e1,0xbee96415,0xbdc25602,0x3e69b2f3,0xbd658be0,0x3e0e95f7,
0x3e833c69,0xbe2d51f0,0x3d75581a,0x3d2818b9,0xbcc49c5e,0x3e0e31b5,0xbe338ac2,0x3e9331fa,0xbe298be7,0x3cc5e833,
0x3e6fb7f7,0xbd0ce702,0x3d1e1dcd,0x3ea1a261,0xbea426cb,0xbcc93bd7,0x3eaed621,0x3de7e013,0x3d80916a,0x3ea2d4b5,
0x3e7c5d8e,0xbea5c7c9,0xbe945753,0xbf34fc48,0xbc6095dd,0xbe021a88,0xbce316d5,0x3dc8a1a8,0x3e49e465,0xbd70a326,
0x3ea97cc8,0x3e8e99f3,0xbdb18619,0xbe2e1508,0xbd1efcf9,0xbecdc981,0xbda086b7,0x3de94ca8,0xbeb8e92b,0xbcdb203a,
0xbde44945,0xbc582192,0xbd97711d,0x3ddd2cc2,0x3dbd8e1c,0x3d11eddd,0xbe287cef,0x3e4b5d34,0x3e6a10c7,0x3f00d3bd,
0x3e363f1d,0xbe3e3503,0xbd06c37d,0x3db06d50,0x3eae55bb,0x3debdea4,0x3e64805b,0x3da7924f,0xbd3ab87a,0xbeae66ef,
0xbe24c56a,0x3d8fb273,0xbdb2ebc9,0x3d968b32,0xbd236bb8,0x3c2c8b96,0xbdccf23b,0xbf01edec,0x3e334f4c,0xbd8bbe70,
0xbcd43693,0xbd7bbbb4,0x3bc5b2a4,0x3d746763,0x3d36b2cc,0xbd5fb3ee,0x3e809047,0xbda1d1ed,0xbe9e1f99,0x3e8b8638,
0xbb9a3351,0x3d067b1c,0xbe2ef7b1,0x3dc8dc5c,0x3e845f2d,0xbd1e8d00,0xbc14a788,0xbcfdae41,0xbb680052,0xbd49d55a,
0xbd2831f4,0x3d56364a,0x3c8e30e4,0x3ea440ec,0xbdc6db46,0x3f0bc05e,0xbd621413,0xbe03dba0,0x3dd213df,0xbe99e7cd,
0x3e1788c1,0x3c40226a,0x3cd0f7f3,0x3e11c537,0xbe13ba5c,0x3ace7cf1,0x3e583124,0xbde2d857,0x3c11e9a6,0xbedac8a7,
0x3e242e48,0x3cba09de,0x3d555e42,0xbe2b7397,0x3e9b4a58,0xbe032851,0xbea4f1da,0x3e2837bd,0x3dfc3999,0x3eb431ec,
0x3e1f052e,0xbd205474,0xbe866d98,0x3d007a9b,0xbe421a84,0xbe0aae0d,0xbd00b8bc,0xbec4432c,0x3df1df72,0xbe3e76fc,
0x3de33689,0x3df524f6,0xbe319136,0x3d06f370,0x3dc24391,0xbe1b25bd,0xbd563144,0x3d8a2d8b,0x3decb747,0x3d87fe60,
0x3ea6a98a,0x3d296926,0xbe52e8a1,0xbe3a24ea,0x3ee43e72,0xbe926408,0xbe92f4b6,0xbd81255a,0x3cdaec1f,0x3dcb8704,
0xbe00f71a,0x3e2d8944,0x3db64a4f,0xbd46d369,0x3dcadad6,0xbea5bc5a,0xbdf02c79,0x3ddaf2be,0x3e3a301c,0x3de69c00,
0xbdf5fb9b,0xbdd2fbee,0x3f28857a,0x3ea1ecd3,0x3e5e568e,0x3f488456,0x3ce8a812,0x3e1e3af8,0x3f4c0670,0x3eafe49f,
0x3ebc6e3d,0x3ebb315e,0x3c9d11d4,0x3ed128a2,0x3e87cc16,0x3edb6358,0xbd8308d5,0x3e2545c0,0x3e913645,0x3e2e22f8,
0x3df90f03,0xbe1695a4,0x3f4fee4a,0xbe5bd0ba,0x40154e79,0x3f3b39d6,0x3d69a098,0xbe631b43,0x3f61a0ea,0xbaaa359e,
0x3d08c49b,0x3f833ebe,0x3e897830,0x3e436461,0x3e4cb1b6,0x3d8139c8,0x3e7488f8,0x3f710e0b,0x3ef3cfb5,0x3ef719aa,
0x3d156544,0x3e9b9290,0x3f692d0a,0x3ec5ade1,0x3fa28288,0x3ea854da,0x3ea117a3,0x3def4e3c,0x3e1c42af,0xbdc024a2,
0x3f289b4c,0x3e445bf0,0x3eea3a77,0x3eda75dd,0x3c5c9be5,0x3ef4ca5a,0x3e974b7c,0x3f6a08f0,0x3e84d24f,0x3e20bc6d,
0x3f974a32,0x3f80bd7f,0x3e154842,0x3e84a513,0x3eac678a,0x3e71fdd6,0x3e36eee9,0x3e7e2add,0xbe894358,0x3e4d74c0,
0x3fab4706,0x3ea71a16,0x3f0e44b4,0x3eddc2a5,0x3dc952be,0x3e0401ea,0x3ef1323a,0xbdebf624,0x3e5b01ee,0x3f146f12,
0x3d06850f,0x3f79ba8c,0x3eb4bc36,0x3d810518,0x3de0a509,0x3fb3074a,0x3ea5f726,0x3f392197,0xbe4d0115,0x3d403700,
0x3f31a497,0x3eca21f7,0x3f58743f,0x3d7236ec,0x3e81363e,0x3f1f69a5,0xbdf5e037,0xbdd2b5ba,0x3f28886c,0x3ea1dc71,
0x3e5e2832,0x3f485c0f,0x3cea94e5,0x3e1e334b,0x3f4c09ad,0x3eafd95b,0x3ebc7b96,0x3ebb2416,0x3c9c6a81,0x3ed119c0,
0x3e87c32b,0x3edb6662,0xbd833cf8,0x3e2569ac,0x3e910986,0x3e2e0416,0x3df93c7c,0xbe167b62,0x3f502bf9,0xbe5b95b3,
0x401527c9,0x3f3b16bb,0x3d6a55ca,0xbe630d0f,0x3f619304,0xba9c9f9c,0x3d098792,0x3f833fcc,0x3e896a42,0x3e43a159,
0x3e4cc10d,0x3d811d14,0x3e747703,0x3f7100be,0x3ef3ea4f,0x3ef6f825,0x3d144956,0x3e9bac49,0x3f6902a2,0x3ec593aa,
0x3fa2723b,0x3ea82d7a,0x3ea0d3da,0x3deed883,0x3e1c527b,0xbdbff932,0x3f289b67,0x3e443707,0x3eea3049,0x3eda5325,
0x3c5cef64,0x3ef4cc5e,0x3e976d0c,0x3f6a13f0,0x3e84e9d8,0x3e20e901,0x3f974091,0x3f80c06a,0x3e156633,0x3e848cc3,
0x3eac751d,0x3e71c09d,0x3e36f1ed,0x3e7e6a7a,0xbe8936f7,0x3e4d3b4f,0x3fab4073,0x3ea70b05,0x3f0e3f2b,0x3edda6f8,
0x3dc93382,0x3e03c25e,0x3ef1416e,0xbdec6538,0x3e5ad563,0x3f148948,0x3d064fff,0x3f79a30e,0x3eb4f446,0x3d80efc9,
0x3de03f52,0x3fb3063d,0x3ea606d2,0x3f391e2f,0xbe4cf03c,0x3d3fe960,0x3f318b43,0x3eca3828,0x3f586062,0x3d71404c,
0x3e81448e,0x3f1f99a3,0xbbaf8807,0xbeca9990,0xbe7163b6,0xbdac29f5,0xbefd643a,0xbf0b2557,0xbeff9525,0x3b88ec25,
0x3e479a8a,0xbcdc53da,0xbd3eea11,0xbd0a934a,0xbeaa7bbf,0x3e30030b,0xbbae9e26,0xbde50b83,0xbb6f89b2,0x3e05d710,
0xbeffd664,0xbeda8070,0xbda2aabe,0x3eeb8901,0xbee4182b,0x3d10bf46,0xbeba5863,0x3c835cd8,0x3e707448,0xbe226569,
0x3e9f9ed7,0xbe1e7799,0xbecc6701,0x3c8070b9,0x3e4116c0,0xbed4b4fa,0x3ea26ebc,0x3e4015f2,0x3c567c81,0xbd8c75aa,
0xbe8963a6,0x3f8af4f1,0x3d847e78,0x3e077b9d,0xbea6bd79,0x3dcf02f0,0xbe129c58,0x3f0776fd,0x3da314cb,0xbccf82ae,
0x3c1657e5,0xbd977662,0x3d586146,0x3e0762e0,0x3eecf8f5,0xbcfb5cb7,0xbe9a5a7d,0xbe926b9d,0x3eb47043,0xbeeaa51d,
0xbaa0df78,0x3e4739cf,0xbd7385f9,0xbccbe127,0x3e417b6a,0x3e357603,0xbea0bd9d,0xbe2acbd6,0x3dd636f8,0xbe94b802,
0xbd336565,0x3c9ad37e,0xbf08f5ac,0xbe0d84db,0xbef6fe7b,0x3ed08b1f,0x3d4a7b77,0x3db28d1c,0x3d19ca0c,0x3d182fe0,
0x3df2c21d,0x3dc920a7,0x3f1273ec,0x3df0501a,0x3dc0c817,0xbe0145c1,0xbd05104f,0xbd59568b,0x3e0e4776,0x3e82efd1,
0x3eb5b121,0x3b6e53ca,0xbeb9cfd4,0xbefb150d,0xbd9571f0,0x3dd802b2,0xbcece5bc,0xbc8732f2,0x3c586cdd,0xbde898c8,
0xbea295a9,0xbeb3caa0,0x3ec9bd13,0xbee1cf56,0xbe852e02,0x3d8f85fd,0xbe2a3f12,0x3dab0c05,0xbdc0423e,0xbd3518ab,
0x3e2d3037,0xbd8218a1,0xbe43ff84,0x3e30d62d,0xbd21f8ff,0xbe2bbccc,0xbe3a7fd5,0x3e83bc98,0x3e9737dd,0xbe854fe0,
0x3f1005d1,0x3d1810cd,0xbefe881e,0xbe669ee6,0xbd23ba6b,0xbdb806fa,0x3a54eef5,0x3d33d83f,0x3e480a82,0x3db62bb7,
0xbe25aec5,0xbd1e93f7,0xbe83cb4f,0xbeba8ef4,0x3de854a0,0xbc9c4520,0xbee5b320,0x3edb0d15,0xbe80eeeb,0xbe0060fe,
0x3f228e94,0x3e4ef014,0xbe790456,0xbe2b18be,0x3ca6350c,0xbd2f787a,0x3e15a46a,0x3e7ee41f,0x3e62415e,0xbeb9b20c,
0xbf1d45f2,0x3d223ffe,0x3ec3ddbf,0x3d0acce5,0x3e938246,0xbf426bcb,0xbe3a5574,0xbd0c92aa,0xbdf1db97,0xbe468703,
0x3d3139c7,0xbbdda5f5,0x3e4c82b8,0xbee47650,0x3cacdb46,0xbc2a167b,0x3d1f1fda,0xbb8ee288,0xbd987d8f,0x3e81bcf3,
0xbe35ed08,0x3da6ce65,0xbeef3794,0x3d74af94,0x3e6438ce,0x3dc5fa39,0xbe7e303a,0xbea5a087,0x3f4fd5af,0xbf1a6fc1,
0xbf0604ea,0xbe25f491,0xbd6fddac,0x3d287ccc,0xbe4bb6dc,0xbdea6c04,0x3eafa745,0xbcf348b9,0xbe29ec3b,0xbe1f114e,
0x3dafc6ea,0x3e35838c,0x3d705d7f,0xbdec9bc2,0x3b4b1929,0xbe897933,0xbe09e1d8,0xbdb4e45b,0xbe370de4,0x3ecdc460,
0xbefeccad,0xbc65b0a3,0x3ddf3e60,0x3e8511b3,0xbc87092d,0x3e0106b9,0xbe1ce3b2,0x3d45b813,0x3d929e3a,0xbe96177e,
0xbd270e28,0x3b24b39b,0xbf035493,0xbe4581db,0xbd603a96,0x3ea7c7ef,0x3d9e818a,0x3ca7eafd,0x3f138ad4,0x3db44bab,
0x3ddf002d,0xbe9e6d4b,0x3ece47ec,0x3e4391ee,0xbe9cb529,0x3e183d38,0x3e950253,0xbeb9da10,0x3eb6cbbd,0x3e4473b9,
0x3d25dcd4,0xbf0911c0,0x3d171c54,0x3f19cea7,0xbe0e64e6,0x3ea75889,0xbf0d9a5f,0xbec03772,0x3e7df42c,0x3e23a0aa,
0xbd22d7bd,0x3c8d89b2,0xbd7cdee6,0x3dda75c5,0x3e25c297,0x3e9a2baa,0x3ef72184,0xbe54e3f0,0xbef2f3c7,0xbe8c7b15,
0xbedc53a0,0x3e852a3b,0x3b717882,0x3e7f91c1,0x3ea18293,0xbc469f76,0x3e8ab1ed,0x3e817174,0xbeab3515,0xbe73f4e5,
0x3e547fcb,0xbcac34ab,0xbc772077,0xbc4a2fde,0xbe58d3a0,0xbccf8808,0xbe4cd3ce,0x3e08103a,0x3dc5a2a5,0x3cefed27,
0x3e437757,0xbb801ed2,0x3d286a02,0x3f0a5c88,0x3edc92a8,0xbcccbc8c,0x3e6e4549,0xbe4d9ad0,0x3d03eb88,0xbc77dd02,
0x3e50bca6,0x3f05f89b,0x3e9f7d47,0x3d2341fa,0xbe8a0774,0xbea7796d,0xbe1ccde7,0x3d2de26c,0x3b9fb470,0x3e6af51f,
0x3c42b3a8,0xbe53f2ab,0x3de4e9a4,0xbebb1f8f,0x3d002727,0xbe9d86d2,0x3dc5c1fa,0x3d225231,0xbd971bf2,0xbd6c1bc0,
0xbdec8398,0xbec715a8,0x3e2974ed,0x3e3ad708,0xbd34ad23,0x3d46d870,0xbd2c5ae3,0x3f217d2b,0xbf0e669c,0x3e442ab0,
0x3ec8f940,0x3c4975d7,0xbe88bdd9,0x3cd539ca,0xbf1b94f8,0xbe7cd343,0xbd1cdb56,0xbc58564f,0x3ee89b02,0x3ada170b,
0xbe8f255e,0x3b319ab4,0xbdfe3171,0xbe13b476,0x3d4967b7,0xbeb6b12a,0x3db43e3d,0xbe94d0d6,0xbdce8e7c,0x3f40ba20,
0xbf3de7d9,0x3e0967df,0x3e8b2a8d,0x3e449e0c,0xbe3f9347,0xbdbe9988,0x3d888c8f,0x3c0ae543,0xbe1d7455,0x3e86e7bf,
0x3e845ef3,0x3e6895a7,0xbe6ad70a,0x3e829951,0x3e819525,0x3dbe14c0,0xbe810b06,0xbf1df680,0xbe0487f7,0x3d5fbf0d,
0xbf01e97e,0xbe27b206,0x3d2b232d,0xbf1c5dd8,0xbd4c884b,0xbed997d7,0x3cc6de40,0x3c6f2c4d,0x3c954bcb,0xbdb73dfd,
0xbde2f4d2,0xbe2ded95,0xbe82f8e9,0x3e885ac8,0xbe9bca07,0x3daccc22,0x3e91ca65,0x3e218ea2,0x3dc5bc55,0xbec000e3,
0x3f240ce4,0xbe97810a,0xbed2a2f2,0xbda3ec88,0xbd660a27,0xbe386e26,0xbe0371d1,0x3f0632ff,0x3e20023f,0xbd19f378,
0xbd5cdaec,0xbf0cbbbc,0x3e8ed4ba,0x3d9553c3,0x3dbb132f,0xbdce4344,0x3cc80028,0xbecb2fa1,0xbf276358,0xbd176eae,
0xbe58842c,0xbe9bd173,0xbf42a2ce,0x3ce33363,0xbd6daaee,0x3dc8192f,0xbbd9c547,0x3ecb0b4d,0xbe547196,0x3bf1dd8d,
0xbd91f203,0x3c48ecc8,0x3bf8cc31,0xbe1b2795,0xbf28a621,0xbee36a08,0xbe5ab09d,0x3f041540,0x3e7d801f,0x3cbc38f0,
0x3e88802d,0x3d26608b,0x3ec7bb88,0x3d11e997,0xbe563a15,0xbda38b44,0xbe92efb1,0x3d8ca624,0x3e289574,0xbf0bac21,
0x3e8ad64a,0x3e9fa198,0x3d3efc28,0xbddfb13f,0xbc8cc17b,0x3ed1cb89,0xbef6d6c0,0x3e8e1fe6,0xbce2b2a9,0xbd7b4b86,
0x3c363d08,0x3f3594b2,0xbe44f030,0x3d967e9e,0xbed67a18,0xbdd42aa5,0x3e085284,0xbe8b9c3f,0x3e95d60e,0xbdc09039,
0xbeb3fd5b,0x3e1b72db,0xbe7e97c3,0xbe4741f2,0x3d303fb3,0x3e9085fa,0x3ec98ba0,0xbcb2ce7a,0x3e27cbda,0x3f246a7c,
0xbea0f926,0xbed437d1,0x3e97eb82,0xbd8b6a6e,0x3ce62d7c,0xbdd12d29,0xbe7c2847,0x3e2d45a3,0xbf24a200,0x3ef9dc14,
0x3e7986d1,0x3d669b27,0x3e3fe6bf,0xbd464373,0xbd8d09a9,0x3ed3d5f5,0x3f4b03aa,0x3e872fa1,0x3d779438,0xbe3df464,
0x3d2c3f74,0x3d0c0584,0xbe03ff09,0x3df75552,0x3ed1fbb4,0xbcc49b74,0xbee83f82,0xbde05b3a,0xbe7ecef9,0x3e6131f5,
0x3d1e61e5,0x3d081da7,0x3caff2dc,0xbd872ff4,0x3d852669,0xbde449bc,0x3ead1f32,0xbe8f3077,0xbd86aa54,0x3dcdb0d0,
0x3dbc8110,0x3e2949cc,0xbdbfaffe,0xbdf8aae6,0x3e33e94b,0x3e9a4031,0x3d6be90d,0xbd9b9c9b,0xbd7a78ac,0x3e4ef1fd,
0xbeb58d19,0x3f015235,0x3f01bdcf,0xbe33b67e,0x3e563078,0x3d052afe,0x3eb11db5,0x3c649d61,0x3c3bc949,0xbd57593e,
0xbe557d86,0xbe8b1f21,0xbe7a2aa8,0x3db2afb0,0xbdebab7e,0x3cc351af,0xbbd8be48,0xbf11b9ec,0x3e3beeff,0x3e9deca7,
0xbe52199a,0xbe11fc9b,0xbeef8c8c,0x3d887b04,0xbe8c5faa,0x3e305f02,0x3e0d8756,0xbedbe649,0xbd874f4b,0xbd141536,
0xbd8aae7e,0x3f29a258,0x3eb28b9b,0xbd2a7d3e,0xbea8d94e,0xbe8c15ad,0x3eec81e8,0x3b89f6de,0x3df1c1b2,0xbf039b00,
0xbc5a5e32,0x3bc34009,0x3d1c908a,0x3e49c338,0x3e4c0288,0xbea48823,0x3e6e76b8,0xbf52e6bc,0x3c3e4eac,0x3cb0a019,
0x3d9d4667,0xbddf506b,0x3e59f3a5,0x3e20942d,0xbe2b5e15,0x3e49fdb6,0xbf7b5b89,0x3e03309e,0x3ef62a18,0x3e3a8564,
0x3d541eec,0xbe765c0f,0x3f84ab07,0xbe9f84ff,0xbe985b00,0xbe6e2e28,0xbd08314e,0xbd5946b4,0x3c1b8a13,0x3ed50be9,
0x3e6082ca,0x3d400a51,0x3d908b7c,0xbe783b0e,0x3e3522d9,0x3df28125,0x3cf679f2,0xbd70ab7d,0xbcaa54b0,0xbe95a2ab,
0xbf4af3b3,0xbe0e72cc,0x3d18d377,0xbeac6f4e,0xbed26aba,0x3d83af03,0xbdb2ca25,0x3e5135dd,0xbc7d6229,0x3f15817f,
0x3c3edb17,0xbeb13813,0xbd0c0a68,0x3dfe1d21,0x3cd03f08,0xbe85425c,0xbe8db52b,0xbef00825,0xbea27744,0x3e96da20,
0x3ee68e19,0x3d0efe3d,0x3ea87110,0xbcca9fa9,0x3e60772a,0x3e2f5fbe,0xbec624a9,0x3d9b1725,0x3d039841,0x3dc77467,
0x3e33a553,0xbea6d1a9,0x3d9b21c9,0x3e3e760e,0x3d6f7555,0x3e966264,0xbe33755e,0xbe3f6125,0xbf58b906,0x3d372708,
0x3e17452b,0x3e05e165,0x3b3bf45e,0x3f55525b,0xbe23c6f3,0xbd7978ae,0xbe3e8482,0xbd9999dc,0x3e20f4e1,0xbee44313,
0xbd4328f6,0xbe614621,0xbe17f7e4,0xbaae1e94,0xbeb702b7,0xbe57b9bd,0x3caa00fc,0x3e2d5df6,0x3f124333,0xbd72ccdb,
0x3e85120d,0x3f7ce828,0xbdd8e753,0xbec9691b,0x3e8f7e07,0xbe11cfe1,0xba935fba,0x3dc332cb,0xbe461c23,0x3e27ef10,
0xbf34976d,0x3e0222fd,0x3e4e74c7,0x3d58b1e2,0x3e408130,0xbc6e8cfb,0xbe458d98,0x3eb26cd5,0x3f1942cd,0x3f048591,
0x3c533112,0xbe490d33,0x3d7d4afa,0x3e293274,0xbdc92912,0xbe4a1172,0x3e972ad9,0x3c337482,0xbeaad8c8,0x3c375070,
0xbdc6b2f8,0x3e4514c3,0xbd812507,0xbdbf8183,0xbd8731d9,0xbc92e8ec,0x3e103dd6,0xbe9e46ae,0x3ec9950f,0xbd1254b4,
0xbd1623dc,0xbc0505bc,0x3e5bd677,0x3e22da63,0xbcb2b1e2,0x3ca43417,0x3e7c5121,0x3e6cf44a,0xbe332cab,0x3c1c36ca,
0xbd105da1,0x3e0e481d,0xbe257f90,0x3ebf19b6,0x3ee61898,0xbe0c47bc,0x3e630264,0xbc9336d9,0x3f554f3f,0x3c9bac71,
0x3ad57571,0x3d056f89,0xbe820ebc,0xbce59061,0xbe856a9b,0x3f082381,0xbd9e69b7,0xbca6c9d0,0x3dd977b5,0xbef088b6,
0x3e4c42ce,0x3ed1caae,0x3e318ea7,0xbf1a6bbd,0xbe2356b5,0x3d2ed95a,0xbec4487d,0x3d7ca11e,0x3eab2d43,0xbf410a5d,
0x3e168c21,0x3d079c0d,0x3d4c80f0,0x3e85e574,0x3ed4469c,0xbdb02f10,0xbe36102e,0xbe52730a,0x3ebc6a16,0x3e98d9d9,
0x3d8c92da,0x3cc428f3,0xbdd8cdcc,0x3cc5a024,0x3e6e8798,0x3e7b9e5e,0x3dffba3f,0xbeb78504,0x3e8b7bb9,0xbf0f53ec,
0x3dfbfbf0,0x3d5240c6,0xbda8ec18,0xbcb427c1,0x3ec3b4f1,0x3d315029,0xbaddec5f,0x3e8e2ec6,0xbf104f00,0x3d613074,
0x3f0ad13d,0x3d104894,0x3c41a7a7,0xbd8c239a,0x3f680bb2,0xbd99a593,0xbe0f8c85,0xbe58d414,0x3d62152c,0xbe8ae736,
0x3cca4509,0x3eee1300,0x3df11c21,0x3cdf4d50,0x3e740c70,0xbe3a175e,0x3d699986,0x3df3a5b9,0x3dd8fe10,0x3e563f7b,
0xbd6a76e2,0xbea4a771,0xbe8102a8,0xbe14ff9a,0xbf0c7f8c,0xbf75e125,0x3e45921a,0xbc371bbd,0x3f040b51,0xbca1c673,
0xbd856a6f,0xbd149e29,0xbe62f6e4,0xbe58df31,0xbd45a841,0xbc782e27,0xbda2e850,0x3e85e36b,0xbe762c3d,0xbed0dc70,
0xbd820e9d,0x3e08b1a0,0xbf068f68,0x3d516368,0xbf4be16f,0xbea5e031,0xbed49df7,0xbd4ccbfe,0x3f2e5dba,0xbe60ca2f,
0xbf08abbf,0x3d9dc58b,0x3da017f6,0xbeaed3c3,0x3cb39e1c,0x3d9b4a91,0xbd257ce2,0x3f855e5d,0xbf3bba97,0x3f3bc67b,
0x3eed634d,0xbe7d85cb,0xbd824375,0x3f197564,0xbebe0c4a,0x3f2535e9,0x3ed36fdd,0xbe0135bb,0x3ecae8f1,0xbd9d42b2,
0xbce10fdb,0x3e1167b4,0x3ea74b68,0xbd2618ce,0x3cb3976c,0xbf3d8ea1,0x3e7da4e1,0xbf5102f0,0xbc0865e0,0x3b9792f7,
0xbe92893f,0x3c93ccbb,0x3ed3b6d5,0xbd051a89,0xbe14398f,0x3e036431,0xbdc617be,0xbf19958a,0xbe09c812,0x3de76999,
0xbf48d842,0xbe83d7f8,0xbea3ad49,0x3e0f3f67,0xbd564efb,0xbd253f68,0xbda98b6c,0x3dae9632,0x3c6c7076,0xbe2dbc0f,
0x3de3bd8b,0xbecc73d1,0x3e1bea4c,0xbd578f3f,0xbdd21c4e,0x3e138c64,0x3ea7f144,0xbe1981c2,0x3e0a5b34,0x3d3e1299,
0x3cd070f2,0xbf0ee2ad,0xbd98de12,0xbc6699a7,0xbdccd199,0xbe17e9ee,0xbc8bbb12,0x3e529b5f,0xbec4534c,0xbf196b69,
0x3f154bb5,0xbea82f94,0x3d8fc517,0x3dcd1a03,0xbd1ffa1d,0x3e2fdfb9,0x3dbdea27,0x3eced5a0,0x3d987873,0xbf10b70b,
0xbe961620,0x3ea5b05d,0xbd338660,0xbf6197f8,0x3c93650c,0x3e153839,0x3db42d21,0xbe76fcca,0x3f75c0a8,0xbc3448f6,
0xbeaec2fd,0xbe4906ed,0xbde09f2f,0x3e8864ff,0x3e9537e2,0x3ea47708,0x3f423076,0x3efa8181,0xbe6ec43f,0xbd92c0df,
0xbea7edd7,0xbe9004c4,0x3e3760d1,0xbeb26259,0xbebc261d,0x3f04dbcd,0x3f29e21d,0xbe95e39d,0x3f9a6ca4,0xbe4486bb,
0xbe9674a0,0x3d5ecaab,0x3e7d46a7,0xbd703b7d,0x3e8122e0,0xbeb23650,0x3ec32e81,0xbf0db339,0xbf54759d,0x3e0d2a80,
0x3e33c852,0x3e8b5fd5,0xbe06cd29,0xbf761605,0xbea33249,0xbd816c38,0x3e47cb3a,0xbe9b64fd,0xbd91fdd1,0x3ebd3c50,
0x3ea567a0,0xbd969dcc,0x3e0e2ca2,0xbd8fb29d,0xbe48e6f8,0x3dde09c4,0x3d8fecb4,0x3ea90a36,0xbdf245d7,0xbedeceef,
0x3df449ef,0xbcae2826,0x3e6c9bdc,0xbd98ecba,0xbf423e24,0xbecc09ad,0x3eded830,0x3d1828f3,0xbf0411fe,0xbe4b19a8,
0xbd9a1e99,0x3e978d7f,0xbe08cff5,0xbee9b5a5,0x3e3b2c03,0xbdde0db7,0xbd7c88d6,0x3d2d2818,0xbed0482e,0x3e5fd9b1,
0x3db68cb6,0xbd3d9e02,0xbd088b93,0xbbe837e0,0xbe17e68b,0xbdb43e5b,0xbc51e782,0x3f87aa74,0x3e8189e4,0x3beb3828,
0x3ea03ccb,0x3f120a94,0x3d43e09a,0x3e643700,0x3e81e9f5,0xbef82a14,0x3e154e41,0xbe4823ed,0xbe1b6d18,0x3e020156,
0xbe3dc5ed,0xbcb2e2e6,0xbdaa9d57,0x3b7b3afd,0x3f13b30c,0x3b48abe1,0x3f4a20eb,0x3d822528,0xbedc81ac,0xbed48a54,
0x3f371059,0x3f10a937,0xbeadffc1,0x3eb9d928,0x3ec1d9c4,0xbe224300,0x3e8f3199,0x3d79b6a0,0x3cc6868b,0x3e3d1caf,
0xbce79a1c,0xbea69a37,0x3e9f960b,0x3e72b98f,0xbf31b9b6,0xbe3fff66,0x3ecafc07,0x3e23070a,0x3e3079b4,0xbd60b9ed,
0x3ed5e44d,0x3e8b4564,0x3e7c6484,0x3ebf024e,0x3e7a4c47,0xbea3f3c8,0xbe6d3448,0xbf211dac,0xbfb9a224,0x3f2494c4,
0xbc5b2f64,0x3e6ac96a,0x3ed8e859,0xbd16e7e5,0x3f049222,0x3dc02208,0xbe24ffd0,0xbcc389b2,0x3da886b0,0xbd236f8d,
0xbda917d4,0x3c14f4a9,0xbd21c573,0xbdae8f17,0x3e690e17,0xbe006cd7,0xbaccaa54,0xbc8ae2f4,0x3e508be3,0x3d705f3c,
0xbd9ec6ed,0x3f3f2a48,0xbdb57446,0xbf171180,0x3ed80d9b,0xbe0df1c8,0x3ca81d7d,0x3e7ace88,0x3f044739,0x3ea57626,
0x3d2a8688,0x3de0c2ee,0x3e80dc2e,0xbe8ea174,0xbe424a6c,0xbdd9a513,0x3d82861e,0x3eb6e877,0xbcc16047,0x3d377189,
0x3ed92f4c,0xbf22580e,0xbd987532,0x3d02aead,0x3f04570a,0x3c73269a,0x3e814685,0xbd9b5164,0x3b97eabf,0xbeb95db8,
0xbe808bf2,0x3d631f8a,0xbd904857,0x3e6121c5,0xbd4ff5bd,0x3f4f00bf,0xbf1bc2ef,0x3c813a03,0x3eb98854,0x3e6efd87,
0xbf277c65,0xbceacd8f,0xbf3feaba,0xbcf4abe9,0xbce1eb62,0x3ef99a9b,0x3f94b44e,0x3e5d4b21,0xbe7faa76,0x3eca634b,
0xbdb0d1ca,0xbea857f0,0x3df68751,0xbe9b062c,0x3e14358c,0xbf87eb90,0x3dee78e8,0x3f8b74a4,0xbda71041,0x3e01445c,
0x3f10a58e,0xbea3496e,0xbe2f31a0,0x3e96d93b,0x3e90d395,0x3dfe9634,0xbdf5e36b,0xbe803335,0x3eb33f87,0x3f2bc7f2,
0xbccb9f8c,0x3f02471f,0xbe833468,0x3e9e472a,0xbf937eb3,0xbf254729,0xbe56f3a7,0x3dfcb2fe,0xbf25d7a6,0xbe534cf5,
0xbded53a6,0xbf512463,0xbe6cdb4f,0x3db52e0f,0x3e115223,0xbcd75775,0xbe4d64f9,0xbe586449,0x3de173db,0xbeefb258,
0xbd22cbb9,0xbd8b8236,0x3e69020f,0x3d1266bc,0x3ead93cf,0x3da29301,0xbd007407,0xbef31a78,0x3e0fa0ad,0x3eea3818,
0xbea37abb,0xbc81017b,0xbcca8806,0xbd34a803,0x3c0a6cec,0x3f3e3d92,0xbd8d1c73,0xbe0e1a17,0x3d352b7c,0xbf1b9313,
0xbce3af93,0x3cff9306,0x3e222b3f,0x3d0cc9c7,0x3cc467c3,0xbe4fa43a,0xbdabb0b4,0xbd653c92,0xbe26d9c4,0xbd8be84d,
0x3da8c5d5,0xbd95bc7d,0x3e96a7a4,0x3e8b6bad,0xbd77525b,0x3df64bbc,0xbe35c347,0xbe7e1f47,0x3d725d03,0xbe0ec110,
0xbd778639,0x3cd88ec3,0xbe71111f,0xbdf99b01,0xbdcc6619,0x3d186adf,0xbc4953b1,0x3cddc327,0x3e27651a,0x3bc63edf,
0xbe49deb4,0xbed7f96f,0xbe67a311,0x3e5fb458,0xbdffe14c,0x3df281f5,0x3e839964,0xbdd62f22,0x3e18d089,0x3d20b18c,
0xbd3f818b,0x3e7493af,0xbe5705d4,0x3ea5c24e,0xbe32b750,0x3c80c4d1,0x3e9c1663,0xbc95235c,0x3d106c3c,0x3f000f54,
0xbe67fb1d,0xbc9992a5,0x3ebd2d73,0x3da1b4ff,0x3d8deb72,0x3eb38fa9,0x3e84d3b1,0xbf0b6366,0xbe940b66,0xbf2ca094,
0xbdbd0e2b,0xbe2789ee,0xbdaa5f69,0x3daca0c3,0x3e5e1619,0xbcd2b9a9,0x3eb13a0e,0x3e63252a,0xbdbdc28c,0xbdf34e08,
0xbd18dc51,0xbec65eaf,0xbd4455d1,0x3dc9e5b8,0xbeec16cc,0xbdf56385,0xbe1757b4,0xbbf84d44,0xbd55c3ef,0x3db12aa4,
0x3d6e872a,0x3d9c09f1,0xbe460981,0x3e5d318e,0x3e8bdbdc,0x3eece4cb,0x3e30a248,0xbe854c06,0xbd2f6f65,0xbbd1da0a,
0x3f0cad30,0x3e0f9f35,0x3e57e76a,0x3db90c44,0xbc1f8cb9,0xbed2306f,0xbe22c18c,0x3d2ba277,0xbb04b155,0x3cd9b86f,
0xbdad4200,0xbde50f12,0xbdac2cd1,0xbf10bdf5,0x3e18d1f1,0xbd9e33e5,0xbcede868,0xbd0940f0,0xbca22726,0x3d9d0c63,
0xbcd945b1,0xbe083a09,0x3e9cb308,0xbe10e98d,0xbe9f0604,0x3eb73d70,0xbd7aa345,0x3daa0e5f,0xbe33ee38,0x3e2385e1,
0x3e5b9a57,0xbd3b05c3,0x3dc08004,0xbd28d44e,0xbdad4e52,0xbdf4699a,0xbda8ef27,0x3dc279a1,0xbdd23f0a,0x3eac516a,
0xbdf815c9,0x3f1f33c0,0x3cb2dc7b,0xbe1114bf,0x3e0050a4,0xbeba9c58,0x3d8e3c61,0xbd462019,0x3d26950f,0x3e20d156,
0xbd0aee48,0x3cc0b630,0x3e7771b3,0xbd9723ea,0x3dec0187,0xbeeb0699,0x3e45cd01,0xb8e0758d,0x3d94e8f9,0xbe198f59,
0x3e9a5850,0xbd998160,0xbea88ae5,0x3e91e361,0x3dc61059,0x3ee266cd,0x3e31cec6,0xbe1c9026,0xbe897cdb,0x3d4baf8a,
0xbe53797b,0xbe2d0c39,0xbd86b8b8,0xbea616ed,0x3d85b19d,0xbe1f51bc,0x3de62026,0x3d99e34b,0xbe85891b,0x3bf1692f,
0x3e42c896,0xbe2ab9dc,0xbdadf029,0x3de3c82b,0x3e31e94c,0xbc9f2d9d,0x3ea42476,0xbc92f1c7,0xbe0b4ca0,0xbe213941,
0x3f116cda,0xbe875220,0xbeaeff02,0xbdf39818,0x3d31f141,0x3d8c0f64,0xbd3b7b96,0x3e2b6777,0x3d2952b8,0xbdfd7f81,
0x3da2a186,0xbe786dd1,0xbe210eef,0x3df283c4,0x3e1c4d02,0x3e31f76a,0xbe799a78,0x3e6a7853,0x3f2f0c5a,0x3eb5d144,
0x3e5f8517,0x3f5fb29a,0x3e6381d4,0x3c8e149a,0x3f6d7f22,0x3e86be74,0x3f0dab7f,0x3eaaa318,0x3d9bbd1d,0x3e78a75a,
0x3e4659e9,0x3f4c00a7,0xbd85fba6,0x3e3c3db1,0x3ed47335,0xbd31e7fc,0x3e5c0f5f,0xbdd92e44,0x3f557692,0xbe148e81,
0x400d8f74,0x3f7e6461,0x3d7e4c26,0xbe20464b,0x3f61c2e3,0x3d87fee4,0xbe0402a6,0x3f6bb168,0x3ea091ca,0x3c62aae3,
0x3e2215a6,0x3ca7e6c1,0x3ecda807,0x3f853ce1,0x3f5eaba7,0x3f5cc14f,0x3ba9be82,0x3e8980ab,0x3f57efe5,0x3ec2ba7b,
0x3fd8c12d,0x3df37944,0x3ea92e88,0x3da9831b,0x3e34e605,0xbe03e854,0x3f5ea5f2,0x3e152c74,0x3eb891c3,0x3f117682,
0x3e507735,0x3f1dcbe6,0x3ed8cadf,0x3f8754c0,0x3eb71318,0x3e299b5e,0x3fdbf449,0x3f79075e,0x3e71e1d1,0x3e826baa,
0x3f1bdada,0x3d9df7db,0x3e8a4d3f,0x3e38b945,0xbe56c818,0x3e90aa39,0x3fd72e0e,0x3eb83226,0x3f1d2602,0x3f005cc9,
0xbd5202d6,0x3deb04a5,0x3f057b86,0xbe8c1968,0x3e89eaad,0x3f1e7796,0x3e87f12d,0x3f6f769d,0x3eeef582,0x3eaff2b5,
0x3dc74d03,0x40243e2d,0x3e7f15f0,0x3f44983b,0xbe4095aa,0x3d85ade7,0x3f208dea,0x3ea90da4,0x3f43dae8,0x3d286fae,
0x3ed5d580,0x3f1f5a73,0xbe79b0b1,0x3e691232,0x3f2e61a1,0x3eb671ec,0x3e61b7a4,0x3f6056cb,0x3e62545c,0x3c916045,
0x3f6d3c04,0x3e871e70,0x3f0d7b21,0x3eab4f35,0x3d9e0735,0x3e78f6f4,0x3e4782b0,0x3f4b9fa4,0xbd84d41f,0x3e3b09c3,
0x3ed578df,0xbd2ef50b,0x3e5bbee4,0xbdda4a57,0x3f535bf2,0xbe157820,0x400def29,0x3f7e30ab,0x3d7908ae,0xbe1f9ad9,
0x3f620286,0x3d87a81c,0xbe04ccb0,0x3f6b78f4,0x3ea0a6d8,0x3c549c2e,0x3e23a4dc,0x3cad4a9b,0x3ecd537b,0x3f8558b7,
0x3f5f6a98,0x3f5cdf9b,0x3bc19a38,0x3e8a7daa,0x3f583d27,0x3ec2de3f,0x3fd8ecac,0x3deed914,0x3eaa0b07,0x3daac5e1,
0x3e337755,0xbe034a73,0x3f5ea1b7,0x3e158dfc,0x3eb87f21,0x3f12089a,0x3e508694,0x3f1de044,0x3ed82445,0x3f872e2a,
0x3eb5f22d,0x3e28cf3d,0x3fdbf45b,0x3f78beb6,0x3e711607,0x3e83ee14,0x3f1b67df,0x3d9f47db,0x3e8a22ed,0x3e364fb3,
0xbe5681eb,0x3e91166c,0x3fd72ad2,0x3eb80395,0x3f1d06d2,0x3f00a5e6,0xbd57fb31,0x3df04a44,0x3f054fd0,0xbe8bb0c8,
0x3e89b26a,0x3f1db36a,0x3e8844ed,0x3f6f3b69,0x3eed3028,0x3eb01cba,0x3dc830e5,0x40244f10,0x3e7e7b52,0x3f4404f4,
0xbe41b7e9,0x3d859dd6,0x3f20995b,0x3ea8b5da,0x3f440f6d,0x3d2b5d47,0x3ed5982f,0x3f1eb43c,0x3d2b4f96,0xbefcafd4,
0xbe66eb41,0xbda15961,0xbefec13e,0xbf16172f,0xbeea6af3,0x3bfc648e,0x3e146c70,0xbd506ee4,0xbcfb7612,0xbcd3db0b,
0xbed94852,0x3e8654b3,0xbc58de44,0xbe50494a,0x3c4b4c16,0xbc87c298,0xbf06ba91,0xbecf3b8e,0xbd984e44,0x3ef8a4c9,
0xbef735a9,0x3d6588d9,0xbeb16e10,0x3a688646,0x3e6b443b,0xbe0037a5,0x3ebb191f,0xbe32abeb,0xbf02c3d2,0x3d444c24,
0x3e50b30c,0xbeb94b2c,0x3ecddc0f,0x3e36b6cc,0xbc43d721,0x3c93d957,0xbe98fcab,0x3fa370f8,0xbe208815,0x3dd3ae49,
0xbe9f3124,0x3e071a0c,0xbdeec6e7,0x3f60383c,0x3dd9e263,0xbd021238,0x3c335f70,0xbd99fa4f,0xbbb64701,0x3deff243,
0x3ef0246c,0xbcd70a38,0xbeab32c2,0xbe833e07,0x3e78f76b,0xbee1bb3d,0xbba90fda,0x3e46c25d,0xbe3508c9,0xbcaed833,
0x3e6465e7,0x3e277e68,0xbeacd284,0xbe13ec81,0x3d9efcdc,0xbe8a73d9,0xbd280e47,0x3c70bbeb,0xbf3ecddc,0xbe2e9d5a,
0xbefbcadd,0x3ed6a989,0x3d123b79,0x3dc3006f,0x3d376149,0x3d84eafe,0x3da846b0,0x3dfbfee8,0x3f0919ed,0x3d9989bc,
0x3dd902cc,0xbe1da427,0xbcff5baa,0xbdd8c4c1,0x3e6ae201,0x3e6e8246,0x3eaab3a0,0x3ca3afd3,0xbec4c676,0xbeff1242,
0xbdf76c6f,0x3db33396,0x3d4dc6c6,0xbc3aab19,0x3c9bb300,0xbd649885,0xbe996b7d,0xbecaaad2,0x3ece39d2,0xbee47cdb,
0xbe8bc025,0x3e01568e,0xbe186280,0x3dc3fc51,0xbde1e046,0xbd1851a8,0x3e2f0949,0xbdf6a863,0xbe3190cf,0x3e8409af,
0xbd45b848,0xbe2e63ce,0xbe43a829,0x3e979393,0x3e9043d6,0xbe926f12,0x3f13100e,0x3d396834,0xbf0e109a,0xbe36b17c,
0xbd0b2607,0xbd82d1b5,0x3ca52c0f,0x3d06673c,0x3dffc563,0x3dd762d6,0xbe2191c8,0x3d65d09d,0xbeaaad55,0xbeda9cfd,
0x3d90f859,0xbd833128,0xbee927bb,0x3e929d9e,0xbe9e87a3,0xbe29d9e1,0x3f24fa11,0x3e8362d3,0xbe6b019d,0xbee38c1b,
0xbcfb7962,0xbd5a47ac,0x3e1ab3af,0x3e816a59,0x3e5bc01a,0xbeb1298f,0xbf208819,0x3d3eb71e,0x3ed5934a,0x3da3c02d,
0x3e9e2c61,0xbf45e113,0xbe535df5,0xbb99b324,0xbd7d3173,0xbe495419,0x3ca03968,0x3cd83bdf,0x3e04b134,0xbec87762,
0xbbc8d1da,0xbc9a24a2,0xbc7e2d0e,0xbccfad64,0xbd96ac9b,0x3e71b711,0xbe733e15,0x3d976c2e,0xbeedc14d,0x3d773a82,
0x3e603440,0x3d8e007b,0xbe4ff181,0xbe9b7fa9,0x3f6d466b,0xbf15049e,0xbf14f8cb,0xbe98d5a1,0xbd79f76c,0x3dc19152,
0xbe40cec0,0xbdeadd64,0x3eaa70d6,0xbdc5d672,0xbe25a019,0xbe188c99,0x3d9d61b6,0x3e2acab9,0x3c0ad1b7,0xbdb6eefc,
0x3c4708af,0xbe7edaa4,0xbdba5c8c,0xbdbad593,0xbe482593,0x3edd3de5,0xbeea3035,0xbda156f7,0x3d811872,0x3e6d789e,
0x3bb1dbc8,0x3e1eaa77,0xbdaa01c1,0x3dc3e122,0x3d2d8483,0xbf01d96f,0xbda53ba1,0x3e14dd35,0xbf05e08a,0xbe4d56a5,
0xbd92ff3a,0x3ebabbec,0x3db15f3f,0x3d309d23,0x3f0c34d2,0x3d3e9e3d,0x3df03d69,0xbe82b717,0x3ed10dc9,0x3e3c8119,
0xbeb8a03a,0x3e141749,0x3eae069a,0xbebf4ee0,0x3ef3d48d,0x3e740e5b,0x3cd8d067,0xbeff1257,0x3da682da,0x3efa03e7,
0xbe0ed954,0x3e8da2cf,0xbf1e3694,0xbed24d07,0x3e841f40,0x3f09ca9d,0xbbf6696c,0x3b70fd5a,0xbd9d9e92,0x3dc0c2e7,
0x3e586864,0x3e947e30,0x3eed41dc,0xbe84c085,0xbefc9070,0xbe879aec,0xbef1301e,0x3e820c07,0xbca8bf9f,0x3e788b08,
0x3e996e2c,0xba12f0f5,0x3eb48f45,0x3e435e24,0xbe8511dd,0xbe804e12,0x3e60badc,0xbc90b059,0x3c58657e,0xbb317d73,
0xbe96a62d,0xbcc05da9,0xbe420e91,0x3e0501ea,0x3dbdf319,0x3cb1885c,0x3e38ef43,0xbd4f1163,0xbce47f1e,0x3f10672f,
0x3f0a9a30,0xbd2eb280,0x3e90e950,0xbe7a8408,0x3cfce02f,0x3c4db9ab,0x3eb5855f,0x3f09104a,0x3e919e01,0x3d4ebafb,
0xbe8adc98,0xbeb034d7,0xbde24bbe,0x3d460341,0x3dec733e,0x3e68d84d,0x3cf01bf4,0xbe416149,0x3de9b36b,0xbed0af48,
0x3d2ce0e4,0xbea38bfe,0x3ccceeea,0x3d6bb8f8,0xbd5ccf7e,0xbd097459,0xbe11bd4c,0xbed21c21,0x3d579209,0x3e4c7ef7,
0xbd0e8cd3,0x3d99a149,0xbd90c434,0x3f02d221,0xbf130ceb,0x3e64c62b,0x3ec84168,0x3cdb3362,0xbe440026,0x3cdcc376,
0xbf358d49,0xbe514be1,0xbd29014d,0x3c9a1751,0x3ef6abc5,0xbc3b1edb,0xbef95e17,0x3cf1c433,0xbdfac348,0xbd539855,
0x3c814820,0xbec91e60,0x3d090d0f,0xbeb28c1a,0xbde79dca,0x3f309060,0xbf23e47c,0x3e1b6d5b,0x3e9e5580,0x3e48ebe9,
0xbe313e14,0xbec1b003,0x3cb54d9f,0x3c92dde1,0xbe13f71c,0x3e913538,0x3e70deda,0x3e725721,0xbe6d95d2,0x3f0aa150,
0x3e71bc99,0x3df868bc,0xbde5bef9,0xbf1f996a,0xbdf66d7d,0x3db206f5,0xbefe109d,0xbe1c98b3,0x3cfe2a84,0xbf1c1ab9,
0xbdf97274,0xbecfd2e3,0xbc14c417,0xbcc22d65,0xbd1e1fb6,0xbe0fe298,0xbe09fe60,0xbe3efced,0xbe80c927,0x3e92885a,
0xbe9ed1f7,0x3dbe6d1b,0x3e8ee4cd,0x3e409608,0x3e13afda,0xbeacaa75,0x3f2a0d4a,0xbebd7772,0xbee043be,0xbe07dc76,
0xbd3ac93f,0xbe1794ff,0xbde8634f,0x3f021fb2,0x3e19480f,0xbdc9e6e6,0xbd1bbe70,0xbf0a9e8a,0x3ea69eea,0x3d8dc59c,
0x3d8f8d7a,0xbd8a873b,0x3d39fe05,0xbeceaf54,0xbf247de1,0xbc9a9ad0,0xbe713e8b,0xbea49633,0xbf5323f2,0x3d069bdb,
0xbd467fa8,0x3c568fb7,0xbc386726,0x3ecd4a26,0xbe321151,0x3d26fd4c,0xbd82e876,0xbba6c93d,0x391d246f,0xbdee947f,
0xbf28f5e5,0xbeede3ed,0xbe657a33,0x3f081f9e,0x3e77c62a,0x3ce2ca73,0x3e5157df,0xbad6e979,0x3ed9bd71,0x3da7681a,
0xbe96a426,0xbdd83854,0xbea52201,0x3db5b5f0,0x3e30de90,0xbefc608b,0x3e9127e3,0x3eae0780,0x3d2d7cd1,0xbdb0c6ec,
0x3bd04180,0x3ea36f26,0xbf18bc40,0x3e83d477,0xbd0b210b,0xbcd7f9be,0xbccdc9b0,0x3f8850a7,0xbe4a32ce,0x3d5ab5cb,
0xbedef1bf,0xbdbfe493,0x3dee9b24,0xbe758f33,0x3e8386ad,0xbe4a0bdb,0xbeb2760d,0x3e4d8a04,0xbee0cdd6,0xbe2a0d16,
0x3dff33d8,0x3e92f67c,0x3e9e0ed2,0xbd103acb,0x3e60a6fc,0x3f330354,0xbe62329d,0xbee8561a,0x3e96a735,0xbd8675ff,
0x3d3a466c,0xbda31432,0xbeb1e1c8,0x3e173cc9,0xbf21f87d,0x3f02392a,0x3e7b7377,0x3d423090,0x3e5f38b5,0xbe092bf0,
0xbde3a1ab,0x3eddbd5a,0x3f73d186,0x3ea7b944,0x3da166ac,0xbe823577,0x3d68dfcf,0x3db0b36c,0xbe190f51,0x3df80f76,
0x3ec4a6e7,0xbd2a47ff,0xbef17fcc,0xbe0f6dad,0xbeaec5ca,0x3e7d31d5,0x3e003df5,0x3d82fe91,0x3a7c0e34,0x3dc7e83a,
0x3d916126,0xbd96dbc3,0x3ecc7732,0xbe5ec860,0x3c805f97,0x3e04d94b,0x3e15530f,0x3e1160e1,0xbd28c59e,0xbe17f2d4,
0x3db8d124,0x3ea3ed6e,0x3cfed6e5,0xbda77384,0xbd83a063,0x3e97cfe7,0xbea6f820,0x3eef6228,0x3f0e00fc,0xbe1122ff,
0x3e796e6d,0x3d8f7528,0x3e8b738f,0x3e646ebc,0x3d10c0de,0xbc03aa42,0xbe83e9e3,0xbe9fe1be,0xbea69ab2,0x3d1df463,
0xbe00f390,0x3d8d92a9,0xbe39e2d0,0xbf2ef053,0x3e3dd71c,0x3e967828,0xbe011c90,0xbdca7fd8,0xbf043942,0x3c5e2957,
0xbec1268e,0x3e5d10a3,0x3e20032f,0xbf11f29c,0xbd8e71a5,0xbcc022fc,0xbd869944,0x3f234bca,0x3ec6f01b,0xbdf22298,
0xbebc72f1,0xbeb6376b,0x3f114005,0x3af71096,0x3e83edd9,0xbec27979,0xbcdea288,0x3c0be49a,0x3e378094,0x3e6a018e,
0x3e8737bc,0xbea60827,0x3e74dcb6,0xbf5fb413,0x3cada7e0,0xbb8df65c,0x3db22047,0xbde8ef22,0x3ebf51ea,0x3e150b79,
0xbe388ffb,0x3e249474,0xbf8b0974,0x3e28a411,0x3efe635d,0x3e1e4f07,0x3dca7047,0xbe53e7cf,0x3f9effd9,0xbe98c438,
0xbe96c27e,0xbe99d577,0xbd4fff3a,0x3e452037,0x3db795f7,0x3ed3d5da,0x3e52132d,0x3d06fd30,0x3d6fa9af,0xbe96fef1,
0x3e83be69,0x3deae4d7,0x3da97f52,0xbcca72fe,0xbcae39d1,0xbe831456,0xbf50c06d,0xbddbcffa,0x3c7a067b,0xbeb84e0e,
0xbefbeb3b,0x3ddc0380,0xbdda557c,0x3e1ae007,0xbcfdb19e,0x3f16a86e,0xbb378a3e,0xbe955af4,0xbcb9defe,0x3e079cb8,
0x3cee1b15,0xbe92f732,0xbe83c50c,0xbee27202,0xbea764a7,0x3e82197b,0x3ee41822,0x3d4e98e7,0x3ea385be,0xbdaaa222,
0x3e614c99,0x3e197fe5,0xbf051ddc,0x3d45c263,0x3d9ec622,0x3dd2d64c,0x3e3775e5,0xbe9b9c3e,0x3d99904e,0x3e43ee89,
0x3d0b95c8,0x3e959a6b,0xbe20abf3,0xbe6ee607,0xbf5e5d3a,0x3c6a128a,0x3e249956,0x3e14e50a,0xbcea363d,0x3f7bf961,
0xbe212557,0xbd8399ab,0xbe409d76,0xbda49a59,0x3e218277,0xbee4f790,0xbd41e48e,0xbedb4187,0xbe09f675,0x3ce6961d,
0xbf043feb,0xbe590f19,0x3d1836aa,0x3e294bd6,0x3f118580,0xbda10cdf,0x3e933ce6,0x3f85dfee,0xbd1eeb1e,0xbec1aa10,
0x3e8e0c41,0xbe02c4a5,0x3c86edf6,0x3df2c30d,0xbe7b08e7,0x3e36646b,0xbf3b3187,0x3e129755,0x3e5ab692,0x3d44b88c,
0x3e45b662,0xbd67625d,0xbe554be8,0x3eb3bf41,0x3f4b41fe,0x3f2df458,0x3c83dd5c,0xbe99f5da,0x3d87af41,0x3db7fc27,
0xbd8a56db,0xbe420bf9,0x3e8c9374,0xbb8f7109,0xbea199fc,0xbd21cf24,0xbe1f8222,0x3e5f15ee,0x3d57f5ce,0xbda500b2,
0xbde8f557,0x3e287803,0x3e0eb18b,0xbe6dd787,0x3ecc7870,0x3ce92d35,0x3dd54f4c,0x3b64d7a2,0x3e7f1f5c,0x3e14db50,
0xbbe9b826,0xbd7d2c88,0x3e85f18e,0x3e348db0,0xbe8b3a82,0x3c220c9f,0xbd9f4810,0x3e93f73b,0xbe00f4c8,0x3eb6e2f6,
0x3ee68e0c,0xbdc4ca85,0x3e9a7d72,0xbc8bd54b,0x3f4c1ee6,0x3c7989b6,0xbc8c59b1,0x3da571ac,0xbea69676,0xbd47a709,
0xbe7316e9,0x3f062a90,0xbc9cc51d,0xbd7ee76d,0xbb9a3808,0xbf0ce5ee,0x3e2ef942,0x3ed673f1,0x3e9dba6f,0xbefe79fd,
0xbe55a5f5,0xbd10d55b,0xbec8e6df,0x3dab624f,0x3ef9b792,0xbf3ee30c,0x3e3e6ae0,0x3cc1772f,0x3d2d49c4,0x3e6d8ea1,
0x3eeb118a,0xbe1b8ad7,0xbe5925d7,0xbe6a84e6,0x3ed855da,0x3ea382b5,0x3e2ad598,0x3d65eaa7,0xbddc3bb0,0x3c370de7,
0x3ec4d3ac,0x3e9d04e6,0x3e3a916b,0xbeb2f3e4,0x3eab571f,0xbf147f06,0x3e23daf2,0x3ce58dfa,0xbd9ce65c,0xbc319816,
0x3f1734c9,0xbc67f8da,0xbcdf5ab2,0x3e919923,0xbf141800,0x3ca92337,0x3f0e6922,0xbda10099,0x3db422a1,0xbcf31366,
0x3f8dc6a6,0xbe258678,0xbdf402cf,0xbe8744a2,0x3d4d1bf5,0xbe2cf61b,0x3df05581,0x3ef0d888,0x3dc26683,0x3bbc91c3,
0x3e5c5e4d,0xbe695d13,0x3dee2623,0x3e093c47,0x3e1d2bae,0x3e7d01ef,0x3b926e94,0xbf1795a1,0xbe90e96a,0xbe1f645f,
0xbf022189,0xbf87ce59,0x3e2c03a5,0x3ca85438,0x3ebc52e7,0x3d57988c,0xbd88bb3a,0xbd567ade,0xbf033302,0xbdeeac09,
0xbd88835d,0x3c57e6cf,0xbc5df589,0xbdeb7b4f,0xbe867c5c,0xbea416ca,0xbd87f46e,0x3e345eb8,0xbf144160,0x3da3ced9,
0xbf1c62e2,0xbecd051e,0xbeeb2915,0xbdcfebeb,0x3f5fc5c8,0xbe9508fb,0xbee56a6e,0x3df59c5c,0x3dca9d38,0xbe8272e2,
0x3e18c526,0x3c97ba2c,0xbdc85687,0x3f963dec,0xbf3db7ce,0x3f85c395,0x3c834961,0xbe74af4f,0xbd230c91,0x3f2c4539,
0xbec21529,0x3efe2a45,0x3f0133cb,0xbe0282e8,0x3edc8534,0xbde43891,0xbdfc0195,0x3dca4551,0x3eae4401,0xbe38177c,
0x3d1cd09c,0xbf427fae,0x3db7292b,0xbf3e5ad4,0xbe38c363,0xbcb95fe4,0xbe980279,0x3d13b1f8,0x3edec2a0,0xbde07391,
0xbe3b2175,0x3e5decf8,0xbdfac5f4,0xbf1527b9,0xbd9a19e4,0x3e0305e8,0xbf7b586a,0xbead1925,0xbeb5e9c4,0x3e06b638,
0xbd8c3139,0xbd0bc074,0xbdc1d488,0x3e140379,0x3d7ce713,0xbe355991,0x3d08872d,0xbedea53e,0x3e205c19,0xbc9c9614,
0xbdec6432,0x3d346177,0x3efdb281,0xbe39ca3e,0x3de897b5,0x3d89cfd4,0x3cb13d19,0xbf225f68,0xbe18aa33,0xbd3d50ba,
0x3d112f8b,0xbe2818e8,0xbd0bce9d,0x3e3dee35,0xbea5a736,0xbf39c3a4,0x3f13d175,0xbea745fe,0x3e5e0ec2,0x3e74e0bb,
0xbcb3e4c2,0x3e2a3a9b,0x3d82a88b,0x3ebfe8f6,0x3e5a38aa,0xbf398dd2,0xbeac2dcf,0x3f2428c0,0xbd35a8f7,0xbf4484de,
0x3c1fc2f4,0x3e380294,0x3be43b86,0xbe750921,0x3f7f2475,0xbccc306b,0xbebad9cd,0xbe6fdf2f,0xbdc04f05,0x3e953cdd,
0x3eae8abb,0x3e86fa57,0x3f243f6a,0x3f02da55,0xbe8ef7c4,0xbc60c3fb,0xbf0e1251,0xbeaf25b9,0x3db8abf1,0xbeb5ce25,
0xbec18adc,0x3edecab4,0x3e3f7d1e,0xbec228ab,0x3faa771f,0xbe268953,0xbeb88a1a,0xbe808511,0x3e4c0084,0xbd9ef8b2,
0x3e85ea41,0xbeabe664,0x3eec91a8,0xbf0a7aa7,0xbf59a7cd,0x3e440e8a,0x3e3eaaf9,0x3eb24942,0xbd11b0a3,0xbf7ab2fb,
0xbe9a7203,0xbd992f15,0x3e5b0909,0xbe8509a5,0xbdd02bbe,0x3ef33ad1,0x3ea4ceb2,0x3cf9b46b,0x3e0c0777,0xbdcc2cf9,
0xbe90a791,0x3d9de80d,0x3e7fa6ac,0x3e7d5e72,0xbe61158f,0xbeef92be,0x3e0c2780,0xbdc10cdb,0x3e70d6a5,0xbe48b1de,
0xbf2e2dce,0xbebf0422,0x3f23e883,0x3c0c73b0,0xbf068e02,0xbeb66809,0xbd8b9820,0x3f09d735,0xbd410de0,0xbecf8085,
0x3dfcb870,0xbe24d604,0xbd2532ff,0x3d5ed40d,0xbefac086,0x3e8df61b,0x3d8b0991,0x3c3e6c67,0xbd290d82,0x3e0e6c86,
0xbe43d3ac,0xbd81be2c,0x3cb169c0,0x3f9278c6,0x3e511e70,0xbd8d6c4a,0x3ddfeba5,0x3f204284,0x3d6ac509,0x3e942275,
0x3e4b2c58,0xbf06e8de,0x3e2a220f,0xbf017825,0xbe5aef81,0x3e90e7bc,0xbe3817bd,0x3d069514,0xbe054e08,0x3c2cbe6b,
0x3effa759,0x3d0cc53f,0x3f655530,0x3b6f2b73,0xbeeab7fa,0xbee06bc2,0x3f44e8c7,0x3f1e0d74,0xbe69ec61,0x3e9c291a,
0x3ef5e341,0xbe712b36,0x3ed12360,0x3d5655fe,0x3ab86254,0x3ea1b4d2,0x3d2f59e5,0xbe742cfd,0x3eda8e9d,0x3e7244b8,
0xbf546fb5,0xbe307b0e,0x3ecdff9b,0x3e4126c3,0x3e83a6de,0xbd98921f,0x3ecbeaa4,0x3e8b1014,0x3eb4b03d,0x3ed0471f,
0x3e447be9,0xbee0e082,0xbe6dfc50,0xbf2c2e7e,0xbf95b0cb,0x3f150d3a,0xbe54e55d,0x3e6cdbbb,0x3f0168ba,0xbe0dcd08,
0x3f0fb1e7,0xbd9ebe9f,0xbd9fcf73,0x3c610b59,0x3ddb7379,0xbc0bf025,0xbda04b03,0x3cb185dd,0xbd51f74b,0xbd6f378f,
0x3e3e84b0,0xbe5e43f4,0xbc598435,0xbd9efbc7,0x3e015c1c,0x3d84582b,0xbd720f5e,0x3f41fb79,0x3e1e43f8,0xbed35f8f,
0x3ede30ac,0xbe41898a,0xbc016693,0x3e184a39,0x3f4f8a22,0x3eb18780,0xba9699e8,0x3dc6e047,0x3e8dfa4a,0xbe801687,
0xbe032182,0xbdbe6d75,0x3e880301,0x3ea175f6,0xba16bc23,0xbdff6509,0x3ee9a9b8,0xbf3d257d,0xbdf4ded1,0xbcd37943,
0x3f01acd9,0x3d9217e7,0x3e88f552,0xbd9d4e18,0xbc881abc,0xbee2bf01,0xbe3c1f8a,0x3d2337f1,0xbde25fa6,0x3e87c033,
0xbdaf194d,0x3f1dfcf3,0xbf2324c5,0x3d81767b,0x3ea53c9c,0x3e9946e4,0xbefe5d45,0xbd4c1e23,0xbf46011b,0xbe07fdae,
0xbcaaee1e,0x3ec7026b,0x3fa80d69,0x3e21281c,0xbf103059,0x3eddf0bf,0xbdd94d53,0xbe751512,0x3d615b68,0xbe950342,
0x3d89c5ed,0xbf954db9,0x3db84114,0x3f8b907c,0xbe043536,0x3dd03aa4,0x3f3527e3,0xbed9afba,0xbe54b5e6,0x3ded2357,
0x3e95463f,0x3df97343,0xbde8bcac,0xbe69a6f0,0x3ecb2cdf,0x3f2427cb,0xbcc24914,0x3f8a6e29,0xbebc5802,0x3eb50b84,
0xbf31cecf,0xbf26ef42,0xbe0d0762,0x3def1d08,0xbf29e882,0xbe22850b,0xbdffe814,0xbf43073b,0xbe78d9bb,0x3e10bd0e,
0x3df7ac4b,0xbd96a5a4,0xbe90b63a,0xbe60cdec,0x3e210da4,0xbf026479,0xbd599f6b,0xbda50628,0x3e81b1c0,0xbce2e81d,
0x3eac078c,0x3def61ff,0x3d2cb21e,0xbed82b85,0x3e7fd7d1,0x3d3cbc52,0xbe8c8509,0xbd4a58ac,0xbc602e13,0x3da3e731,
0x3d99d30d,0x3f4612e7,0xbddf69d4,0xbe2051ca,0x3dbcbe7f,0xbf2389e4,0xbcd44f62,0x3d870edf,0x3e43831e,0x3dae7a47,
0x3d418888,0xbe44baa8,0xbdfc43bc,0xbb77373b,0xbe25e6e1,0xbd935366,0x3dce5972,0xbdc46715,0x3e2f999e,0x3e97e8fd,
0xbd8ecb4d,0x3e0f8efc,0xbe673c39,0xbe69abde,0x3d465567,0xbe7a0640,0xbd8b737b,0x3d2dd22f,0xbe953bf6,0xbdca9d4c,
0xbdf8c8ed,0x3daffe5b,0xbce23fec,0x3d56203e,0x3e8db645,0xbd0e94e5,0xbe74b86d,0xbecdba8e,0xbe8dde83,0x3e495951,
0xbe30ce65,0x3dd02222,0x3e88241b,0xbdc14619,0x3e5955ed,0x3d0e3845,0xbda975f5,0x3eb6984b,0xbe4f0349,0x3e832c58,
0xbe12c056,0x3c958d7a,0x3ec98fd3,0x3d7464c1,0x3dc07cf7,0x3f1edc0a,0xbdbd9080,0xbccc0dd8,0x3ec907d9,0x3d559d6e,
0x3db5db1e,0x3ea79ad7,0x3e7f11a5,0xbf3cec8e,0xbe9c003c,0xbf29f64a,0xbe568acf,0xbe3330ee,0xbe469cea,0x3db723d5,
0x3e2bd0b7,0xbceb3fc3,0x3ec51b74,0x3e3228f2,0xbd951275,0xbd559ebb,0xbd2f39ee,0xbead857f,0xbcba55b6,0x3d93b7a9,
0xbee02769,0xbe48e4af,0xbe329113,0xbd4cc441,0xbc604376,0x3d501951,0x3c88b3c6,0x3d920430,0xbe58ff6c,0x3e52898b,
0x3eb1715e,0x3eb202d6,0x3e1774e8,0xbeac2ffc,0xbd890f7a,0xbc31d465,0x3f3315e9,0x3e28e323,0x3e2e63cc,0x3dc9c4ff,
0x3c4380cb,0xbee828e9,0xbe05e4bf,0x3d207b08,0x3e2875e4,0xbbcaf391,0xbde88b47,0xbe6364f5,0xbd8a54c5,0xbf11b161,
0x3e08a43e,0xbd2d5f59,0x3c811e53,0xbd068348,0xbd591cae,0x3db67726,0xbe15f78a,0xbe5cd204,0x3eb00ebc,0xbe45f851,
0xbeabb67f,0x3eed448e,0xbde74a26,0x3e00ec67,0xbe394af0,0x3e4291a1,0x3e0a7434,0xbd46fd66,0x3e58a18f,0xbd204876,
0xbe238e95,0xbe007cb8,0xbdcac0f5,0x3e05d6c9,0xbde53537,0x3eae34e2,0xbdc2d225,0x3f2cf786,0x3d79595e,0xbdf12b86,
0x3cadc2ae,0xbecf00dd,0x3cbfb6da,0xbe0a4f8f,0x3d594865,0x3e14854e,0xbb91cd17,0x3d5d78e9,0x3e492fd7,0x3d186ab7,
0x3e86b4c9,0xbedf04d8,0x3e309fd4,0x3bf5046e,0x3d9e64a4,0xbe1d5c2d,0x3e989fe6,0xbc7cc2b0,0xbeacdfca,0x3edcb757,
0x3d9d735e,0x3eefe314,0x3e698c95,0xbe6e54a8,0xbe6d798a,0x3d803e44,0xbe15f21f,0xbe36ff0a,0xbd8a4964,0xbe9bb84e,
0x3d0f585d,0xbe0d7afa,0x3e056d6c,0x3d0970fd,0xbec516b7,0xbce9d2e9,0x3e9eb190,0xbe3d13ce,0xbe161d30,0x3e1534cd,
0x3e59714e,0xbd9c69d7,0x3e982de3,0xbe02377e,0xbdb9e2f4,0xbdf87ce5,0x3f2d5e56,0xbe74e586,0xbeaed870,0xbe751e9c,
0x3d951a62,0xbbb0b7d3,0x3d3e1265,0x3e2b06bb,0x3c14bc47,0xbe91b6e9,0x3db9e05a,0xbe47ff8d,0xbe1b9676,0x3df9e7dc,
0x3e1ede3a,0x3e4dc750,0xbe978f79,0x3f2700dd,0x3f332882,0x3f03831b,0x3eb65182,0x3f6aeea9,0x3eb0baa1,0xbbd9745f,
0x3f6e6e3c,0x3e13c0ee,0x3f3b8b06,0x3e9b2a2d,0x3dcba482,0x3dd8098b,0x3e186022,0x3f87dc07,0xbdc40f16,0x3e35e896,
0x3edccbdd,0xbe1de0a9,0x3e921fa5,0xbdd6114b,0x3f53bf1d,0xbdbb8e70,0x4007f69a,0x3f90b1c2,0x3e04be92,0xbe5ec9cb,
0x3f6daed8,0x3e1d3f9b,0xbe6cd165,0x3f3ab306,0x3ed14309,0xbd88b383,0x3e4e23d1,0x3d31c287,0x3f2be67c,0x3f719d2f,
0x3f962bb8,0x3f3eada2,0xbd9924b8,0x3e9572fc,0x3f3a6c00,0x3f01c5c9,0x4013c9db,0x3eb7583b,0x3ed5b1e9,0x3d737c81,
0x3e806d9d,0xbe1be48c,0x3f88df96,0x3e41fa70,0x3e8920b4,0x3f1b8f98,0x3ed46761,0x3f410180,0x3f02c2fd,0x3f84970f,
0x3ec9c71d,0x3defc700,0x400166f0,0x3f4baf1b,0x3ef0ae36,0x3ecb33c9,0x3f615048,0x3dee260f,0x3ec31810,0x3e07c44d,
0xbb1fa4da,0x3ea37c1b,0x3ff76220,0x3eaa59f4,0x3f2aecc5,0x3f182b40,0xbdeba3e5,0x3e49e19e,0x3f0c4f7f,0xbeeed80b,
0x3e921a47,0x3f20d298,0x3ef3c470,0x3f26861d,0x3f0e2563,0x3f07e4ef,0x3e15ef84,0x40558d58,0x3ebab7b1,0x3f514c5c,
0xbe083af5,0x3da15322,0x3f0c7ddd,0x3ecbe91d,0x3f146ca2,0x3cea4187,0x3f375738,0x3f29c91f,0xbe995e22,0x3f24dd11,
0x3f3283eb,0x3f03fe68,0x3eb64d7b,0x3f6ae26e,0x3eaf3b77,0xbc1149f7,0x3f6e1103,0x3e140f84,0x3f3bc439,0x3e9ab3d7,
0x3dcda843,0x3dd906e0,0x3e14c3b3,0x3f87c02c,0xbdc306f3,0x3e32d048,0x3edc616a,0xbe1fc47e,0x3e9376f8,0xbdd8c6d3,
0x3f54b28b,0xbdbc07fe,0x40086a2d,0x3f910f58,0x3e067d1e,0xbe5adf2d,0x3f6deb87,0x3e1d4c14,0xbe6e5926,0x3f3a930b,
0x3ed09684,0xbd834261,0x3e4ba3b1,0x3d2ce49a,0x3f2bdbce,0x3f708dd6,0x3f94fdf0,0x3f40b108,0xbd992fa6,0x3e985989,
0x3f3a60f3,0x3f029baf,0x40137383,0x3ec0967e,0x3ed650c2,0x3d749815,0x3e8073a5,0xbe1d88db,0x3f887206,0x3e45014f,
0x3e88dcea,0x3f1ca7e0,0x3ed45963,0x3f3f796e,0x3f022553,0x3f84e59e,0x3ec90ec5,0x3dee055b,0x40013c18,0x3f4b86eb,
0x3ef0519c,0x3ecb2ea9,0x3f61aa0a,0x3df02b87,0x3ec19181,0x3e0c0984,0xbb93e457,0x3ea3142a,0x3ff84c10,0x3ea83bde,
0x3f2a5327,0x3f178502,0xbded3ece,0x3e47ace5,0x3f0c99fa,0xbeee98ad,0x3e953c13,0x3f214375,0x3ef0ee6a,0x3f26f35b,
0x3f0e3cb3,0x3f07c846,0x3e130b45,0x40553405,0x3ebabb9b,0x3f50c9e9,0xbe077383,0x3da5dab4,0x3f0c6148,0x3ecd4243,
0x3f13e257,0x3cfcc97a,0x3f36d43c,0x3f2b280e,0x3dd3b34c,0xbeed52e2,0xbe78800d,0xbd1fa786,0xbf01b0b8,0xbf25e3d1,
0xbee1cc6a,0x3caeb528,0x3d177ce0,0xbd932b58,0xbd11a90b,0xbd03a124,0xbee17a26,0x3eb71564,0x3cef0669,0xbe9f2d08,
0x3ca3fc07,0xbd555d4a,0xbf11e1a8,0xbec137d4,0xbd8b6891,0x3f04da4e,0xbf070b66,0x3d90f93d,0xbea4fc0c,0xbd47734f,
0x3e5a3cda,0xbdeec129,0x3eee11aa,0xbe5567bd,0xbf010a8e,0x3dbf122f,0x3e76cdc8,0xbeacc395,0x3ea93b48,0x3e3dc80b,
0xbd786d18,0x3d8b5b75,0xbea61004,0x3f8d525a,0xbe8519af,0x3e15559c,0xbe6cdeaf,0x3e000439,0xbcac03e6,0x3f8030da,
0x3e18348f,0xbd19455f,0x3d074ca2,0xbd998ea9,0xbd33e0d5,0x3de97367,0x3ee5f55a,0xbd66ef41,0xbecd0fb9,0xbe6f94f0,
0xbdbbc9f7,0xbed92a74,0xbd11223a,0x3e44c933,0xbea0136b,0xbd2afe1b,0x3e9c63e7,0x3e2c9dde,0xbebe45c1,0xbe01d031,
0x3d3d6972,0xbe809f0d,0xbd2b7443,0xbc19269c,0xbf63b4b4,0xbe51b78b,0xbef7470b,0x3ee85244,0x3d2bd220,0x3de587d6,
0x3d69b388,0x3d8fedca,0x3ca1d5f4,0x3e123376,0x3f0495ec,0x3db0452a,0x3d740641,0xbe421ec2,0xbcfad834,0xbe2336a7,
0x3e932704,0x3e46593c,0x3e92e9c4,0x3ca11676,0xbed029bb,0xbefaa3f1,0xbe239121,0x3d85545e,0x3e1ffe38,0xbcc1c773,
0x3cd6e8e8,0xbdc6894f,0xbe86681d,0xbeccbb41,0x3ec8007e,0xbef8a911,0xbe81ffc5,0x3e1dc888,0xbe19fae6,0x3dca5d97,
0xbe2843f8,0xbd213ebe,0x3e3f7f4c,0xbe10eeb5,0xbe163020,0x3ee11370,0xbd1ea79f,0xbe1eabd0,0xbe2f4b9a,0x3e95c5e1,
0x3e73e00e,0xbe93acb5,0x3f1443c8,0x3d61f78a,0xbf203332,0xbdeba266,0xbd13783b,0x3cc4e4fd,0xbbae3465,0x3c6eb742,
0x3a9d12d4,0x3e18fc2b,0xbe1bdbcd,0x3e0b2f00,0xbec3c71d,0xbf0008f6,0x3b5e459c,0xbdc9927e,0xbef88a8b,0x3e2def48,
0xbe8d7300,0xbe539bc9,0x3f22e531,0x3eb8676a,0xbe474c83,0xbf4930b4,0xbdad59f5,0xbd355c74,0x3e21c2a0,0x3e891bc1,
0x3e542dfc,0xbeaa3fdd,0xbf1d4ec9,0x3d95f83d,0x3ef5837d,0x3dd80ffa,0x3e4bbc8e,0xbf428f71,0xbe64326d,0x3c18fa8e,
0xbd16e511,0xbe4eb1ba,0xbb294c3d,0x3d4877ad,0x3d78186e,0xbec94768,0xbd01e993,0xbcbe39fb,0xbdf8261d,0xbd318026,
0xbdb782a9,0x3e500a8c,0xbe9dfd48,0x3cb6107e,0xbef44859,0x3d8975d7,0x3e5f36bc,0xbc30a90f,0xbe05d60b,0xbe885a19,
0x3f740cd7,0xbecaa73d,0xbf233215,0xbee70201,0xbd47b466,0x3e165ca7,0xbdeabc1e,0xbdf4da18,0x3ea5118c,0xbe34e05c,
0xbe2070f8,0xbdfe0b18,0x3dbe21ec,0x3e22e480,0xbd32ccf9,0xbdac088c,0x3cbad349,0xbe06ca7c,0xbda79d3d,0xbda32316,
0xbe492dbc,0x3ef67c3d,0xbec76d74,0xbdd1b118,0xbc5244d4,0x3e528816,0x3c7f7d49,0x3e39dd50,0xbd0b68eb,0x3e06afeb,
0x3c48dc36,0xbf3216d1,0xbe039dd3,0x3e5e742e,0xbf0a9dbf,0xbe621a47,0xbdb42cb4,0x3ed37194,0x3db75a87,0x3d7c6494,
0x3f138665,0xbc020f1d,0x3df95cc2,0xbe77ec36,0x3ed3e4e4,0x3e35f091,0xbec6a260,0x3e0efc8d,0x3ec7c479,0xbecd85c0,
0x3ed57194,0x3e8b7ff9,0x3bb33d8e,0xbee978ea,0x3dd18da8,0x3eaac94a,0xbe319478,0x3e887863,0xbf24e33a,0xbecd4071,
0x3e9caa61,0x3f6579e4,0x3d544830,0x3ae7b487,0xbda76221,0x3d8c5d5d,0x3e6966d3,0x3e89c636,0x3ed49d8e,0xbea38294,
0xbf104a4c,0xbe8995f7,0xbeac581b,0x3e727b66,0xbcb7c745,0x3e772378,0x3e8506d7,0x3b6c33fa,0x3eecf6ff,0x3e19c7d8,
0xbe3af3e9,0xbe50458e,0x3e5f6c21,0xbbac3bfd,0x3cfdc3b7,0xbc1ce80e,0xbe90f7f1,0xbd03f20f,0xbe417f09,0x3dbc4f97,
0x3dde7279,0xbc975954,0x3e34109b,0xbe176546,0xbda0bb41,0x3f143467,0x3f25941c,0xbda62f64,0x3e9dfc3f,0xbea35a2e,
0x3d0456c4,0x3c9b4204,0x3ee4b5ca,0x3f0e2e64,0x3e4bf4b0,0x3d8dd483,0xbe7f401f,0xbebf295e,0xbca699a9,0x3d816aaa,
0x3eb28430,0x3e56d2cd,0x3d8d058c,0xbe766bfc,0x3e0102ad,0xbedb2a53,0x3cc4769e,0xbed0c40a,0xbc5ab3f7,0x3d8b3fa8,
0xbd195bc9,0xbc9fe586,0xbe52ec93,0xbed9e909,0x3be0c0d6,0x3e64150e,0x3bcf959a,0x3e03ac62,0xbd9a8042,0x3ecdf4ba,
0xbf0e1512,0x3e69f2f2,0x3ecb0bfc,0x3cfe65c9,0xbe0b81ce,0x3cf2901d,0xbf49a84e,0xbe2427fa,0xbd3080c4,0x3c967d07,
0x3f15feca,0xbce82fa1,0xbf195a46,0x3dd15cdc,0xbe13cae7,0x3c5ddaf7,0xbd6ed9fc,0xbed94509,0xbc5e2fe1,0xbee03d5c,
0xbe392789,0x3ed68d7e,0xbf01d87e,0x3e086fa6,0x3ea52575,0x3df57944,0xbe0d8e8c,0xbefc957a,0xbc738edd,0x3d2828f6,
0xbddcdc9f,0x3e9aa586,0x3e40ca16,0x3e77572f,0xbe5a73c4,0x3f39c9b7,0x3e5ef196,0x3e0a6a1f,0x3da886d9,0xbf181965,
0xbd8b3910,0x3dbff814,0xbf03d6a9,0xbe242fff,0x3d5d4e02,0xbf17b999,0xbe4e1476,0xbedd6cba,0xbd641e28,0xbd03d13b,
0xbe000fb6,0xbe2d195c,0xbe4ae44f,0xbe4bb266,0xbe7e41b9,0x3ea56993,0xbea7b13f,0x3dba97ef,0x3e8e6399,0x3e3703e2,
0x3e54f09a,0xbe956ae5,0x3f29f1be,0xbec89ad8,0xbef9976b,0xbe403ec1,0xbd3ca4f0,0xbde35c1c,0xbdc9d3bb,0x3ef75f8f,
0x3e0e9888,0xbe3565b0,0xbd2127bf,0xbefefa7a,0x3ea280c0,0x3db8cbbd,0x3cdd5f0b,0xbd266a0c,0x3d9ce420,0xbe84f0a0,
0xbf1b92cf,0x3ca585a5,0xbe789a49,0xbea08619,0xbf4b529c,0x3db03fc9,0xbde549d0,0xbd17b0f3,0xbc04920d,0x3ec930a1,
0xbe002d6a,0x3d48a869,0xbd601aa6,0xbe0a40f1,0xbccde9d9,0xbde3b329,0xbf2259d0,0xbef4da9e,0xbe7f7883,0x3f066fd1,
0x3e5757fd,0x3cd90385,0x3e4a2c22,0xbd4cdcba,0x3ef48b30,0x3dbad191,0xbec52431,0xbe082e1b,0xbeba5f1d,0x3ddfbde5,
0x3e850b7d,0xbef08a8a,0x3e03677e,0x3ebfde1f,0x3be27f0e,0xbd579d3d,0xbb65fc88,0x3e83129e,0xbf25aa1a,0x3e7fbf81,
0x3d158e6d,0xbc836dc5,0xbcc723a3,0x3fa04d83,0xbe299d77,0x3c9e7131,0xbeea49e2,0xbdd55158,0x3dd93989,0xbe634641,
0x3e5975c9,0xbec33633,0xbec4aec2,0x3e5e1282,0xbf031a99,0xbe25e5ac,0x3e3996b4,0x3e86f4a5,0x3e624a86,0xbd170ed3,
0x3e9ddc26,0x3f394ed5,0xbe135a54,0xbeec06ec,0x3e994801,0xbd5b3db5,0x3c83d91f,0xbd84ab3f,0xbedf8f21,0x3e046227,
0xbf282ddb,0x3f059b04,0x3e859084,0x3d1060aa,0x3e854357,0xbe8c72ba,0xbe00ddd7,0x3ef044d8,0x3f8815a3,0x3eb9430b,
0x3d51b860,0xbec42e3d,0x3d952268,0x3dffc20c,0xbe111d5b,0x3dff3229,0x3ea48e97,0xbd8c7b1e,0xbefadfd8,0xbe29d982,
0xbeb9b605,0x3e872613,0x3e8ab936,0x3d931191,0xbca755db,0x3ebb6da4,0x3dea1464,0xbb900e14,0x3ee68ca9,0xbe82d09a,
0xbc0c95d5,0x3e3053cc,0x3e3cb4bf,0x3dd383d6,0x3c13bbe7,0xbe3e9183,0x3c5072d3,0x3e9363d1,0x3d24ff5e,0xbd893e2f,
0xbd86708b,0x3ea838d5,0xbe8ef158,0x3ede1cf5,0x3f160d38,0xbe05a4fc,0x3e8bcb2c,0x3db7da08,0x3e8b0413,0x3e929dc0,
0x3d9aa077,0xbc159919,0xbea2fe70,0xbea81f2e,0xbefd937f,0x3ca4f6a2,0xbdc71a98,0x3df2154f,0xbe39c1d6,0xbf3e8d34,
0x3e4b7c51,0x3e8b7918,0xbdda8e5d,0xbd88f56b,0xbf03aacb,0xbce136aa,0xbecaccda,0x3e77f572,0x3e62b354,0xbf190326,
0xbd432f2b,0xbb882ff8,0xbcdf97ea,0x3f26a321,0x3eda74aa,0xbe477cef,0xbec8d2ee,0xbeb7fd1b,0x3f298a32,0x3c22c2c8,
0x3eeb3552,0xbe95597a,0x3aafb89e,0xbb147944,0x3e5934e2,0x3e4fdeb7,0x3eaed798,0xbe8907fc,0x3e56772d,0xbf619ba7,
0x3b57aa68,0xbc096d50,0x3d9aa4cd,0xbdf68942,0x3f0598af,0x3dbb4e7f,0xbe1d619d,0x3de51317,0xbf9678a5,0x3e17638a,
0x3f02ba1b,0x3e1b46c9,0x3e244ffb,0xbe2a2ba3,0x3faaf687,0xbe97dd5c,0xbeb190cf,0xbeb78ce3,0xbd72b276,0x3ef2db4b,
0x3e01be07,0x3ed4eb18,0x3e3799bb,0x3d06d3b0,0x3cd03bbb,0xbe99711a,0x3ea57aa3,0x3e07fb56,0x3e2d2e1a,0x3be7e2ad,
0xbbb84eac,0xbe0d915e,0xbf4a3831,0xbd469d6f,0x3c9d74d0,0xbeb65506,0xbf007983,0x3e2ab201,0xbe41e89e,0x3ddf9bd5,
0xbc96f2e0,0x3f11e712,0xbaefeec0,0xbe8e414e,0xbcbac66c,0xbc8905f7,0x3c04637a,0xbe8dd30b,0xbe6ecc98,0xbeda1af7,
0xbeb62703,0x3e57a0d0,0x3eeae537,0x3d765a36,0x3ea11d92,0xbdd4146c,0x3e7e38a5,0x3deddc34,0xbf2cf958,0x3ceaa5fc,
0x3d87b679,0x3dc803cd,0x3e8b3d90,0xbe9c52b9,0x3c182289,0x3e41b158,0x3c5bc2ea,0x3e8c14dd,0xbe01beee,0xbe68afca,
0xbf597197,0x3ca21421,0x3e6cb9e2,0x3e5bceaa,0xbd864980,0x3f807d03,0xbe051380,0xbd97a59f,0xbe4934eb,0xbdac2053,
0x3e220efa,0xbee5c871,0xbd7684cd,0xbf3ce011,0xbe052cb4,0x3cbedbd2,0xbf01fe48,0xbe619d5f,0x3c924211,0x3e17dacd,
0x3f0b7015,0xbda8db24,0x3eb47273,0x3f86af11,0x3cd090ed,0xbeb77484,0x3e900748,0xbdfc5084,0x3aa4dfbd,0x3ddd863a,
0xbe9185b5,0x3e3380e8,0xbf3f290e,0x3dd74637,0x3e641b25,0x3d5385aa,0x3e4f2320,0xbe403d89,0xbe707c2e,0x3ebf6e00,
0x3f784baa,0x3f438a6b,0x3b622a5a,0xbee5f530,0x3d9ba496,0x3dd3b0c5,0xbd175880,0xbe399463,0x3e8391e6,0xbbf2a3c7,
0xbea56477,0xbd96329d,0xbe31f625,0x3e798e50,0x3e2a0eba,0xbda84450,0xbe2326bd,0x3eb939f3,0x3e00e197,0xbe0713aa,
0x3edb5be9,0x3db75a88,0x3e1c4dd7,0x3c8290b8,0x3e8baff2,0x3de04d46,0xbc86694d,0xbe1e5abf,0x3e751995,0x3d968b0f,
0xbeb61d9a,0x3d01c562,0xbdf8533a,0x3ec8e29a,0xbdc429f6,0x3eba89a6,0x3ee50c39,0xbdb9bb99,0x3ec06861,0xbb84c40a,
0x3f4ecc3b,0xbc8323a3,0xbd0c2ecc,0x3d3f1f0b,0xbec84d7e,0xbd671f34,0xbe9fe696,0x3eff89a0,0x3d357d04,0xbd82a37b,
0xbd2a37a6,0xbf1bb0a6,0x3e28cdaf,0x3ecc70bc,0x3edc6922,0xbe8d7cc7,0xbe90679e,0xbd243f3c,0xbec06065,0x3e239391,
0x3f456881,0xbf211532,0x3e62340e,0x3c702a4d,0x3d3931c9,0x3e61597b,0x3ef19dc8,0xbe4748b7,0xbe885d44,0xbe5af579,
0x3ee27a09,0x3e9a97e8,0x3eff8df9,0x3d7cfc8e,0xbd63c248,0xbb70eb97,0x3ef6ffdf,0x3e955ed4,0x3e885441,0xbe9810d9,
0x3eb9634b,0xbf0bca30,0x3e35358b,0x3cf2156f,0xbd9b8686,0xbc9c12d2,0x3f51b542,0xbda665cc,0xbd78988e,0x3e9136c2,
0xbf1c91a7,0xbca9e834,0x3f0e6b68,0xbe486aad,0x3e0ff245,0x3c9d558a,0x3fa316c5,0xbe4f1697,0xbdf61ca9,0xbe9d3a13,
0x3d6c0a54,0x3cff0210,0x3e34a5ef,0x3eed48cc,0x3d946526,0xbd440b2d,0x3e340206,0xbe811daf,0x3e30a1e2,0x3e31a346,
0x3e99c23f,0x3e9492cd,0x3da68c5a,0xbf30e166,0xbe942195,0xbe166258,0xbef7faf0,0xbf98898a,0x3dc033a8,0x3d1d7f23,
0x3e154d23,0x3d84daca,0xbdada00c,0xbdb6db4a,0xbf279daf,0xbb2feb19,0xbd3c96f5,0xbdf3ec45,0x3d222989,0xbe86c3fd,
0xbeb48859,0xbe553da2,0xbd5ffabb,0x3e5e552a,0xbf16d92e,0x3e0b1592,0xbee410da,0xbed10273,0xbf05e2e4,0xbe199ea9,
0x3f8a7684,0xbebd3ff9,0xbebf19b0,0x3e0e8ee0,0x3deee742,0xbe0b73fd,0x3e8f8cfd,0xbcdf263e,0xbe424f93,0x3f9bf7ea,
0xbf3c3662,0x3f501468,0xbdfd3e83,0xbe713480,0x3c859e44,0x3f0e3607,0xbecb84c4,0x3ed826ae,0x3f134dd7,0xbe03faca,
0x3f004ae6,0xbde71ece,0xbe4e0894,0x3db37186,0x3ebd703d,0xbe97adac,0x3cbf49ac,0xbf49f0a5,0xbe7993b3,0xbf2ba36e,
0xbee15714,0xbd0b8718,0xbe87d3b9,0x3ce88185,0x3ef1198b,0xbe227573,0xbe6e304d,0x3e7ce64f,0xbe1dcc59,0xbf09253c,
0xbcd9f8f3,0x3df866e1,0xbf876251,0xbed46143,0xbeb5acce,0x3dc4f113,0xbdb29b58,0xbc9d1458,0xbdf6277e,0x3da7f334,
0xbc25816a,0xbe501d34,0xbc336f0a,0xbec1e943,0x3df14f32,0xbd14a131,0xbe23f0f2,0x3c5908e1,0x3f0d542a,0xbe51416b,
0x3e10a170,0x3d9067e5,0xbd3b8746,0xbf2a0d8c,0xbe404cf1,0xbd3ffb62,0x3e1091a8,0xbe2cf38e,0xbd332754,0xbd4b60d3,
0xbe8a2656,0xbf4e7798,0x3f10306c,0xbea68dae,0x3eb3c68a,0x3e90dcd3,0x3c15b410,0x3e0f7260,0xbb48c8f3,0x3e9898f7,
0x3ea06a80,0xbf5df712,0xbed35252,0x3f3cc888,0xbd30a530,0xbf14016f,0x3d0f24bd,0x3e20e8db,0xbda9d4fe,0xbe87fe21,
0x3f7a85b7,0xbc7edf20,0xbed7f785,0xbe1be9df,0xbda44ce9,0x3edca338,0x3e738dd1,0x3e6d6914,0x3ee488e5,0x3f09139d,
0xbe94349e,0x3c2c28d6,0xbf28e2f4,0xbecba4f1,0x3d1c088f,0xbe9ba731,0xbeb60814,0x3e85e067,0xbd110a70,0xbedf5ce0,
0x3fae2f76,0x3caa2510,0xbeb2e0b7,0xbf030d9b,0x3e496c8e,0xbdbc1c24,0x3e6d6e42,0xbea9b9bd,0x3eec55df,0xbf03321f,
0xbf58c188,0x3e403ec8,0x3e736e5e,0x3ec2d266,0x3dd087c1,0xbf764078,0xbec3a492,0xbdc7e331,0x3e83acb0,0xbe281d9d,
0xbe130bbc,0x3f052c02,0x3e9f3b82,0x3d8807f9,0x3e37b6cd,0xbe0f5002,0xbec57f25,0x3d9c523f,0x3ebb1ab3,0x3e564f85,
