const static size_t backbone1_3_0_weight_size = 864;
static unsigned backbone1_3_0_weight[]={
0x3e07590e,0x3ee3bb90,0x3dc681c6,0x3ee742a5,0x3f33b42f,0xbf36a3b2,0x3ea123d1,0xbefa7044,0xbf4e751e,0x3e573fd6,
0x3f0aded1,0x3ea6179c,0x3ec53f0e,0xbf76729d,0xbf0adcd1,0x3d8651b9,0x3e0c16c8,0xbe386843,0xbc415cbb,0xbfa023c9,
0xbf24f428,0x3e0656d7,0xbed2a29e,0x3ea4a5dc,0xbccfe869,0xbe84452e,0x3e397246,0xbe53be81,0x3de34f09,0x3e97dd44,
0xbf345066,0xbf385a37,0xbdcfca21,0xbce548b2,0xbead4157,0x3d17db80,0xbf2cec1b,0xbf265ac6,0xbdd7d584,0x3f304906,
0xbf122034,0x3e7acc28,0x3f2477b0,0xbf0d961e,0xbe557270,0x3df3732f,0x3e15a3f1,0xbe23469e,0xbf9ff703,0xbf17568c,
0x3db5b69d,0x3f0b2797,0x3ee8e7ef,0x3ec2a803,0xbd628491,0xbdeb8289,0xba2d41ea,0xbe994f1f,0xbeff6c2e,0x3dcec3a7,
0xbe3e9619,0xbf5e5de4,0xbeb64814,0x3e3c9ec4,0x3e9e219a,0x3db8f8e0,0x3ea2a7d6,0x3fa2dbf3,0x3d56ee20,0x3e400d7c,
0x3e6551b3,0xbda62a84,0x3e1c9090,0x3ec700f8,0xbe8a038c,0x3ecb83ed,0x3f0592fe,0x3f1b77b1,0x3ed637ad,0x3e2245e1,
0x3f319aec,0xbc4a3a63,0x3f7767e1,0x3ef328a1,0xbf3b818c,0xbf3aa360,0x3f1b2368,0xbc899d4f,0xbef51bd4,0xbc97f6ff,
0xbee4a77f,0xbed19fbb,0xbc7b9c53,0xbeed2b9d,0x3f628a21,0x3f62bd1c,0xbe09ef30,0x3d1de7b5,0x3df956d3,0xbea4b763,
0xbefb5e21,0x3eab5791,0xbe939705,0xbf421b07,0x3f9db496,0x3c8c7886,0x3d7b3c2d,0x3e53b9ef,0xbe5d0eae,0xbe3bb813,
0xbe231b04,0xbe5e5531,0xbf71d52e,0xbef6739b,0x3ed1f4c9,0x3da19b81,0x3da2ca2e,0xbd086d0d,0x3e17c5d6,0xbe0dee8c,
0x3eb68065,0x3ee1bb4a,0x3e388346,0x3d03a8ad,0x3d98f881,0xbd9c19cc,0xbca9e63b,0x3e6f1f22,0x3e947f77,0xbf1608c1,
0x3f2c4c63,0x3f0c97fa,0xbdbf8040,0xbf2647c6,0xbe57aac2,0x3d461b76,0x3e0d19d5,0xbda407bf,0xbd372a23,0xbecf5cef,
0xbddcedb7,0xbcc5298e,0xbfbec9eb,0x3e941554,0x3d8ffc1a,0x3e226f64,0xbd03e9f1,0x3e5f12fe,0xbf7ae71b,0x3dde1ac2,
0xbcb3fada,0x3f3425ec,0x3ea37082,0x3f59f05a,0xbeeb1a54,0x3d6f280f,0x3ee5b5d9,0xbe494811,0xbf1474d5,0x3f03adcf,
0x3e5f7398,0xbe9fc31f,0xbc98a842,0xbf327a5d,0x3e1a6011,0x3f807146,0xbea477b7,0xbe8f42cc,0x3d2263e2,0x3eb39f45,
0xbe25dff0,0x3ec16254,0x3c45a5d4,0xbe34843f,0x3f5e0ec6,0xbf8cccba,0xbe08562c,0x3f023eb9,0xbe8d014b,0xbde1d9c8,
0xbd778056,0xbd05583d,0xbe275f92,0x3e7a2d77,0x3f734d34,0x3f50eef2,0x3e1b4e5d,0x3efcdfa1,0x3e827832,0x3e97e089,
0x3f11fa32,0x3e640e2c,0x3e8caa5c,0x3f44945e,0x3f23539f,0x3e4f35c8,0x3dd80dfe,0x3de155db,0xbeafb47e,0x3d1665a0,
0x3d91b89d,0xbf53a5ba,0x3f9bba3c,0xbedd44f2,0x3ecc263c,0xbb1764f0,0xbdcbd7ff,0x3e9d852b,0xbdff1c90,0xbee4640f,
0x3ec88e8c,0x3fad7b72,0xbe3283ff,0x3e401920,0x3e50b24c,0x3dd1093c,};

