const static size_t backbone1_4_0_weight_size = 1008;
static unsigned backbone1_4_0_weight[]={
0xbe8a05a0,0xbea4292e,0xbd3fda2a,0xbeefd556,0xbf131c02,0xbdf88ffb,0xbeab09fa,0xbeaf8276,0xbde0e41b,0x3e52e3f1,
0x3ee50b0f,0x3e909d3b,0x3e6378d5,0x3edd93c5,0x3e9ac85c,0x3d4e4419,0x3d981f14,0x3d8cd57e,0xbeec32ed,0xbf62d992,
0xbf0c20dc,0xbf702f2c,0xbfc7ba98,0xbf3b0eb2,0xbf08d96a,0xbf311944,0xbe8ed295,0xbf10848c,0xbf2b9474,0xbe377a3c,
0xbed47810,0xbf125f94,0xbe38a118,0x3d4d944e,0x3cfd6318,0xbc597bfc,0xbea1f1f9,0xbf637d3c,0xbef96907,0xbf547cb1,
0xbf8d4930,0xbf1f24e0,0xbea96b13,0xbf1224d9,0xbe8516fd,0x3e8c9335,0x3ec6fe67,0x3e916654,0x3f132248,0x3f50b705,
0x3eebc2e9,0x3eac604d,0x3ee20973,0x3e378204,0x3e4e72ed,0x3f162ed0,0x3ee2cdec,0x3f10c689,0x3f84b5f0,0x3f0e658f,
0x3ed88096,0x3f12362d,0x3e6d1c65,0x3e8e7fc0,0x3f16ba7a,0x3f0301b1,0x3ecd1ec9,0x3f5f3530,0x3ef533b6,0x3e569775,
0x3ee32d62,0x3e2e152c,0xbe97bb92,0xbf3858c5,0xbf091a2b,0xbf236c37,0xbf833983,0xbf4e4cf9,0xbe5fc8c8,0xbef1eaf5,
0xbe93e63c,0xbe511481,0xbe5dcc87,0xbc84c7f0,0xbedd6369,0xbf07cbdb,0xbe2ec683,0xbe6c345f,0xbea8e9a8,0xbe111627,
0xbd01a5fe,0x3cba19f7,0xbe7dd9ff,0x3ca311a8,0x3d858c69,0xbea4005c,0xbe52ae76,0xbe9c87ee,0xbe0b5f32,0xbe8e2ed2,
0xbecb8f1a,0xbe4ef56b,0xbeefd4e5,0xbf377646,0xbeb7e330,0xbe67b9a1,0xbeb3a954,0xbe339c8d,0xbe73d04f,0xbf37454f,
0xbeff381b,0xbeedd648,0xbf69df7d,0xbf10d6ab,0xbe4784c6,0xbee8757b,0xbe71f6e2,0xbf1ef6cc,0xbf22a575,0xbd9c9319,
0xbf117cfa,0xbf20aa4d,0xbddca194,0xbe13fc0f,0xbdc2b474,0xba88b1ba,0x3eb77080,0x3ed039ed,0x3d9f9247,0x3eeb1383,
0x3f150ccb,0x3e42ee2b,0x3d6a3fa6,0x3e812251,0x3e4b1352,0x3f017de1,0x3f4d3140,0x3ef1d49b,0x3f432cc6,0x3fa79e2a,
0x3f50c36d,0x3eb7e5a5,0x3f33bf2a,0x3ee7562a,0x3f079b95,0x3f329702,0x3da43d4a,0x3e8d3c41,0x3dded802,0xbe8e3f03,
0xbe535ffb,0xbeca0e83,0xbed21bc8,0xbeab1e7a,0xbdf95994,0x3e666b80,0xbe831fca,0x3eb58008,0x3f3d1cf8,0x3d784ca7,
0x3f056a2c,0x3f0d452d,0x3ec4bf58,0x3ea1feb6,0xbd7ceeae,0x3ebca8fd,0x3e920d7e,0xbdae162a,0x3971aafa,0xbd1570e1,
0xbd310c84,0xbe0f3561,0xbf097060,0xbe4c24a0,0xbe91e57e,0xbf11c134,0xbe418109,0xbd92f60a,0xbd828018,0xbd924001,
0x3ebceabf,0x3ec83245,0x3e70a1b3,0x3f1c2c75,0x3f5684e3,0x3ed3c820,0x3eaa0145,0x3f0c69b5,0x3e8248f9,0x3eb38a8d,
0x3ef0f95b,0x3e1bcae2,0x3f1f94de,0x3f69dadf,0x3ed2544d,0x3eab597e,0x3f0b89c3,0x3e946424,0x3e8e768f,0x3eccfedd,
0x3e405ed3,0x3ec0fbb4,0x3f3fd989,0x3f160bda,0x3eb71303,0x3f26f631,0x3f23b2c0,0x3f23afce,0x3f0ec2cc,0x3e0f2fa1,
0x3f0f0c46,0x3eedb79c,0x3d91e642,0x3d998d94,0x3dcd9cff,0xbe179d99,0xbefe121f,0xbf5560df,0xbefad84d,0xbf3fe3b5,
0xbfb6def7,0xbf6a3b01,0xbedca662,0xbf3d4438,0xbeb534a7,0xbf2e437d,0xbfb2d4d0,0xbf842ddc,0xbf406044,0xbfb4f38c,
0xbf8416cc,0xbe09b0c8,0xbeb7f982,0xbe7a83f5,0x3ec6ffb1,0x3f682544,0x3f49dc06,0x3f34e0d4,0x3fbc0dbb,0x3f678dc2,
0x3f0b97c4,0x3f2e87c4,0x3e7fe7e6,0xbf07dc59,0xbea6318f,0xbeac3ef0,0xbf80b91d,0xbf09bfdd,0x3df060a0,0xbf064bc4,
0xbed11a72,0x3eb54d94,};

