const static size_t backbone2_2_1_weight_size = 36864;
static unsigned backbone2_2_1_weight[]={
0xbe2f133e,0x3e322df7,0x3c23adda,0xbd5677ef,0x3dcf78cc,0x3bec0050,0x3c8d53da,0x3e1c23b1,0xbd953fc6,0xbd85809d,
0x3db3cf42,0x3d979f0a,0xbd8192ef,0xbdbf78b9,0x3eb697d5,0x3c772faa,0xbd820845,0xbda3def5,0x3d2b2d8d,0xbe0b9838,
0x3d797f87,0xbc709277,0x3ca9c2ba,0xbdb7304f,0x3bc7fafd,0x3cba1de4,0xbe6aa302,0x3cdd4cb9,0xbd722f62,0x3df7e5d1,
0x3de3f3c4,0xbd9f8daf,0x3cb0f94c,0x3c4d4468,0xbcc5818f,0x3bd00122,0xbdd92b7a,0xbe0dd71a,0x3b28a0c5,0x3cea9ddd,
0xbd3c67df,0xbd2d1d92,0xbda89076,0xbc1834dc,0xbdc77f0d,0x3d8ec84c,0x3d172151,0x3dc9dfb8,0xbe303f41,0x3cf02707,
0xbcb4c0b5,0xbdec5a0a,0x3e034311,0xbd5cf2a0,0xbd2447a3,0x3d0fde46,0xbe499fe7,0xbdd1d912,0x3d8fe8eb,0xbe1cdec9,
0xbd11a9c7,0x3d0041dd,0xbce5b966,0xbdc364cc,0x3da4ddc6,0x3cc23074,0xbcb9ec01,0x3e315a03,0x3d3ecdbb,0xbe017adb,
0x3e4e1408,0xbc84ea1f,0xbe61ae6f,0x3e0e6526,0xbd460381,0xbd963c78,0x3cd8c008,0x3c79663d,0x3dee1c2d,0x3e1cb02b,
0xbd8adb20,0x3dc19486,0xbe8dbb26,0xbdd57d18,0x3d31073d,0xbda5279a,0x3e0aed4b,0x3d4e5f53,0x3d23cfe3,0x3de7d668,
0x3d81d6c4,0xbd0f77e3,0xbe65f477,0xbda09f5c,0x3c05cb5d,0x3e51bed8,0x3c138e2d,0x3ed0f842,0x3d26aadb,0x3d811a28,
0xbda363e3,0xbd3272bd,0x3caabad2,0xbd1e5fd7,0x3d021066,0xbc827be9,0x3d0fbfe7,0x3dd744db,0xbd902d56,0xbd8716fc,
0x3ddc3b8c,0x3d8c1ef2,0x3cde6c0f,0xbbc481da,0x3d546322,0xbd4439b1,0x3d298d6e,0xbc3edfa0,0xbd60dbca,0xbda6f8b9,
0x3d448b3b,0xbc8ac98d,0xbcf84aa8,0xbe21ae64,0xbd21213f,0xbcbcc6b8,0xbc9a9d24,0xbd2399b0,0xbd84690c,0xbd48972d,
0x3c786efe,0xbc778795,0xbc86b28a,0x3d8be15b,0x3e6ba8da,0xbd116bf9,0x3e26d1df,0xbdb46cb8,0xbe103d8c,0xbdce010a,
0x3d619155,0x3d1955e4,0xbc9e5e70,0x3d19d578,0xbe033cc1,0x3c9a0581,0xbd6b374a,0x3d6e0481,0x3d3926dc,0xbdc5cfe9,
0xbd8019ca,0x3e0b131e,0xbc35e098,0xb9ecb619,0xbe08656c,0xbb85d29e,0xbd57164a,0xbd01e565,0x3da5ff0a,0xbd49a3b1,
0xbc279902,0x3dfbbdb5,0xbc9756a5,0x3dc5eedb,0xbe02b1ec,0x3c7d5a4e,0x3e252b56,0x3bc47f77,0x3d453439,0xbd42bdd4,
0xbce17c8f,0xbde61946,0x3db7a2c9,0xba4bcf96,0xba3da9e2,0x3e1a0ffc,0xbdab7bf8,0x3e0100c2,0xbdfe6d23,0x3da8de0d,
0x3db4ed94,0xbc922fca,0xbcbfc8c6,0x3d800311,0xbb0ab5cb,0xbcb5ed7b,0x3c5708fb,0xbd8a977d,0xbd0d5bbf,0x3d3757ce,
0xbe165891,0x3e3a711b,0x3d6b56ab,0x3da23f98,0x3ee79790,0x3c389868,0xbd4e80e6,0xbe1e59fc,0xbc8463d5,0x3cc0c29b,
0xbaf6b9dd,0x3d0982af,0x3e05f7c5,0xbc3ee0e9,0x3ce8430b,0xbd87ffc9,0xbc749813,0xbcfcb3bc,0xbc8a9608,0xbd456508,
0xbcc3c5ef,0xbd082c9b,0xbbe5281f,0x3d2ee8b3,0x3d173195,0xbc8b6a2e,0x3d856f76,0x3c103386,0xbdfaa2dc,0xbd5ae1dc,
0x3da28774,0x3da6b249,0x3d91c449,0x3b963d03,0xbcc99cfe,0x3dcdc665,0xbd86a106,0xbce13a9e,0x3c95dbc2,0xbd26daa4,
0x3ca06b63,0xbdc44ed1,0x3ce23810,0x3e09103d,0x3c3e0cf3,0x3d0e2a2d,0xbe2228c9,0x3d8f20ce,0xbd5c0b9f,0xbcb0f23f,
0xbd81dc0f,0xbd06da47,0x3dfe2aec,0xbe4c0dbe,0x3d7d1f91,0x3d791e38,0x3d62f27e,0x3d9f45f4,0xbdb8d6d0,0xbcaf3e56,
0x3c1691b2,0x3cea9e46,0xbe0dd206,0xbd0fe77b,0x3e17bd93,0xbbf9c84c,0xbb063203,0xbdfb1292,0x3d16dfce,0xbd9c32b3,
0xbdb39484,0xbd73115c,0x3c827056,0xbdf471f0,0xbd14426d,0xbdc6afd6,0x3d69923e,0xbc492a71,0x3c109c6b,0xbdef7140,
0xbd362131,0x3d91ab3f,0xbc1fc1cf,0xbddc01dd,0x3d12567d,0xbd836db5,0x3cddf302,0xbd510fa4,0x3dbc8dc9,0x3d62cc80,
0x3e16e693,0xbdd16295,0x3c392285,0x3de6f3f1,0xbd1cf51b,0xbe26da86,0x3d070e60,0x3d941d27,0xbd562934,0x3cba3b7a,
0xbca88768,0x3e291640,0xbc76d91f,0x3c27d13c,0xbc1bcf86,0x3ccbf57a,0x3c227324,0xbb2dd9ce,0xbc3ceac6,0x3cf6c72f,
0x3c84cc4e,0x3b2c7975,0x3c40aa22,0x3ccff5b0,0xbc8bfb1f,0x3cd60be9,0xbc27308b,0x3d7b8fbd,0x3c54562c,0x3cce5b61,
0xbd27f448,0xbd3313dd,0xbceba245,0x3d12c701,0x3cc547cb,0x3cfbbe8a,0x3d79234f,0xbd1d506b,0xbd3fa3ac,0xbc2175dd,
0x3d990b54,0xbbefc165,0x3bdbf348,0xbd23f6a6,0x3da2c1b0,0x3c75a362,0xbc3f5d1e,0xb9454c55,0x3c1497bd,0x3c92e203,
0x3b40ca0f,0xbbb358a7,0x37c8842d,0x3b0b93ae,0xbd7b8f26,0xbc2132c1,0xbc310cbd,0x3c2872b9,0x3cd94f57,0xbb003c37,
0xbb985712,0xbcac1277,0xbcb07b97,0x3c96e652,0xbcd8f2d5,0xbcb4b580,0x3aa2c409,0xbbabb6aa,0xbca80e3e,0xb90b3ccc,
0xbc906af6,0x3cdffcad,0x3d545152,0xbbb2882e,0x3c97024e,0xbd1c20c6,0x3cbf4e68,0xbce3cd34,0xbbc7b96b,0xbd88f7f5,
0xbcaf607b,0x3b161fd4,0x3c340553,0xbcaa105d,0xbca46f6a,0xbda07b19,0x3b3551ff,0x3d2b29ce,0x3c07a8a3,0x3c190d13,
0xbd2182d2,0xbd7af64e,0x3cfc0265,0xbd3f5632,0x3ba0a3e9,0x3d41e49c,0x3d0826b5,0x3d866d01,0x3d108ab0,0x3d9a6f53,
0x393351dd,0xbdb824af,0x3b0a0834,0xbc6421b8,0x3cdfc866,0x3dd28123,0xbd3a3a7c,0x3dabcafb,0x3eaa65c6,0x3cc32d1b,
0xbdaee27a,0xbb5b6c4d,0x3d8a8d4a,0xbca97f8d,0xbb8f1862,0x3e0c7cb0,0x3ccf5518,0x3c432f49,0x3c6c4013,0x3e22d6d1,
0x3dc3b970,0xbd02efc0,0x3c015e1c,0x3caa127b,0xbcfaa33f,0xbc9ba6fb,0xbd69f54a,0xbc7e49d8,0x3d36b133,0x3d2ccd5a,
0x3cfc263b,0x3d8c497e,0xbd205737,0x3c9d78b6,0xbc71335a,0x3ccaae4b,0x3cc66270,0x3e213cd2,0xbd64b77d,0x3d94af9f,
0xbc889d27,0xbc9c9042,0x3dd1b04c,0x3df698f0,0x3d21c764,0x3df164f0,0x3c431669,0xbad25d7a,0x3d4bda13,0xbbbd4ad4,
0xbd64814e,0x3cedd0df,0xbda1dcfd,0xbd951cd2,0xbd3a9fd5,0x3d1d1152,0x3db646f6,0xbcda90dd,0x3c1fc855,0x3dc8ae96,
0x3d3edf3e,0x3bccf5ad,0x3dad1507,0x3dd39244,0xbcff38fe,0xb86777f9,0xbc8df108,0x3d4d2dbf,0xbe0e8016,0xbbc60190,
0xbd8efc6f,0xbc5717b7,0xbd35910a,0x3daee873,0x3dc77221,0xbdb10a0e,0x3ded65a8,0xbc49d7b3,0xbd8b0f3f,0xbc27dbfb,
0x3e2b99e1,0x3c4d2c9c,0x3e03dfed,0x3cbb6fac,0xbd9556ff,0xbe12da48,0x3dc57c81,0x3cf9707c,0xbe019ea1,0x3db6473d,
0xbcef3f19,0x3e3db7ec,0x3e06d8ae,0xbe1c074d,0xbdd6b556,0xbe335379,0x3ce02c6f,0x3d4785b6,0x3e15680d,0x3bc87025,
0x3d711ca9,0x3d50681f,0x3e195a74,0x3db7a231,0xbe27b7e1,0xbf1cf87b,0x3d98d0b5,0xbd125fe7,0x3bfbdb7d,0x3cee03b7,
0x3daf951c,0xbbcb07b4,0x3dc3ecf2,0xbdaa2e9b,0xbd06f491,0xbca6a3ce,0x3cc6804e,0xbd182557,0xbda34abb,0xbdcff169,
0x3e17600c,0x3e383b97,0x3d7f5030,0x3e0b725d,0xbc984753,0xbdc5e935,0x3abb541e,0xbd5c31cb,0xbd0e1731,0xbdde5d7d,
0xbd2be6a9,0x3d50aa5a,0xbd3b60cb,0xbd83e289,0x3d8e2cff,0x3da5ba61,0xbd2f4997,0xbdbcbba2,0x3dbb9628,0xbd16305e,
0x3dd02d0d,0xbb4c9cf8,0xbd3ff769,0x3db7962e,0xbd06a692,0xbda63ee2,0x3d89fcd6,0xbd7e119f,0xbd08db67,0x3da7819a,
0x3e3c2057,0x3d87d1c3,0xbcde5c95,0xbd5d3fa2,0x3db86987,0x3de3b5f7,0x3c9ea901,0x3d9d1314,0xbc04a499,0xbd0cb5d5,
0x3e0a6bc2,0x3c630dca,0xbcae8fd6,0x3d9446ba,0xbbd911c4,0x3d2c0895,0x3d23b4b9,0xbdae729a,0x3d8a2180,0x3d7e9747,
0x3d8e6ef1,0xbd1967a2,0xbc8c7097,0xbadf4c61,0x3d67fbda,0x3e00024d,0x3ca332a5,0x3dd24bde,0x3c84cee8,0x3db5df1f,
0x3e1ac3e8,0x3d8459b0,0xbb3de230,0xbe472941,0x3ce642eb,0x3e36e1be,0xbb413e57,0x3d7b7577,0x3e16beda,0x3d3f589d,
0x3d86d2a8,0x3db24004,0x3e3b66c1,0xbddecbd8,0xbd058650,0x3e3cfb8a,0xbca28f6f,0x3d77fe37,0x3dcd81fb,0xbd53da45,
0xbd6edacf,0xbccef1a2,0x3ec19e17,0xbbde44dc,0xbd1454fa,0x3e3297d1,0x3e50bd64,0xbbee16f2,0xbb2dd847,0xbcae8f01,
0x3ddbe444,0xbcac2e55,0x3d740019,0xba9b907d,0x3d67b4a9,0x3de73378,0x3dc82e69,0xbd56c8e6,0x3cad6198,0xbc450795,
0x39e16c16,0xbd8d38ea,0x3e299176,0xbd883d6c,0xbb209a41,0xbc961be1,0xbd0fe2f6,0xbdc294a5,0xbd98406a,0x3e44bd04,
0xbbd19fc6,0xbc03ef42,0x3cd98b06,0xbd503df2,0xbb285c40,0x3dbaa420,0xbd15269d,0x3dc24c3d,0x3def19bb,0x3d95f08d,
0x3dc758bb,0xbde00af9,0x3d338690,0x3dc2beec,0xbb92e391,0x3df98bca,0xbc959480,0x3d89a9b4,0x3d4381cc,0x3c6a071a,
0x3d99cbc9,0x3ca44fa4,0x3d6fb486,0xbd179f21,0xbd0c2638,0x3d18d4af,0xbdbb6af3,0xbdaab050,0x3d7b1e82,0x3cb52b42,
0x3dac96de,0xbd808711,0xbd4719d3,0xbc7ba264,0xbb6a313c,0xbddf1743,0x3d512f03,0xbde86b24,0xbe13ad99,0xbd8a26c4,
0xbc85e94a,0xbd88888f,0xbe049cab,0xbda54000,0x3c2489b5,0xbbdd2c91,0x3d418fcc,0xbe307a98,0x3dd1055f,0xbd8341a0,
0xbbb299e6,0xbe57b045,0x3c02725d,0x3dd72aa8,0x3df9699a,0x3d3cf23f,0xbcd89773,0xbd8d857f,0xbdd2d5e2,0xbd93c82f,
0xbe0e6924,0x3e05bc3d,0xbd8d520e,0x3dc2f1fc,0xbcb11d87,0x3d9a24fc,0xbdc0bc1f,0xbc8919ed,0xbde6d2b5,0xbe1a4319,
0xbe152503,0xbdbc8c40,0x3bda1b9f,0xbd9b26f1,0xbcc07c06,0xbd0380ca,0xbc04665e,0xbc36dfe0,0xbc0272bb,0xbdacb7e2,
0x3d25ee8b,0xbcfa454a,0x3d1fb329,0xbd4b316e,0xbc6ca31a,0xba4bd5ab,0x3d1a16aa,0x3d137db8,0xbcb9e1f8,0x3d2eb695,
0x3d6ab122,0x3d3e969c,0xbd09c5f7,0x3d005105,0xbb804c4f,0xbd06ade2,0xbdc0ecad,0x3c3f4200,0x3cbbbcbd,0xbdc3f718,
0x3dbc7cee,0x3cf52747,0xbda0d63d,0x3c4a695d,0x3d20a02f,0xbd20643e,0xbdb134f5,0xb94a4ee2,0x3e483375,0xbd783540,
0x3cd8d649,0xbdbf9ca5,0x3cbf5bab,0xbd77df90,0xbd69ecdf,0xbdbc8f98,0x3a61757f,0xbc92ea56,0x3d4b2194,0xbbb4fe79,
0xbd573bbe,0xbe15f3eb,0xbde7d245,0x3a865032,0x3d0296a6,0xbcd207d6,0xbdafe8bf,0xbdd4dd70,0x3cd4f92e,0x3e161cef,
0xbc937a55,0x3d9aebc4,0xbd9c505e,0xbaddcb97,0xbd9005ce,0x3d3e1616,0x3d93b062,0x3bf77728,0x3dbeda32,0x3dd8b0ac,
0xbd5a2c1f,0xbdcae0fb,0x3db8b22a,0xbb0c5ec3,0xbcc6477c,0x3c704dd4,0xbc9dc864,0x3cf2bfaa,0xbdc983bb,0xbd626f02,
0xbc9213e7,0x3cf4ea1a,0x3ccd174c,0x3dd0e24e,0x3d221004,0x3d2c779a,0x3df5986c,0x3d418e66,0xbdc664c7,0x3e3d4293,
0x3d675769,0xbcb4afd7,0x3c207d76,0x3e3e9723,0x3da259fc,0x3d157f72,0xbc5f022a,0xbdd6aff6,0x3db5bae3,0x3e7fcd8c,
0xbdabf6fc,0x3ddaee00,0xbe81f5e4,0xbc5d8fe2,0xbd299b0a,0xbec9b863,0xbdf568a9,0x3c5e09c4,0x3e415098,0x3db369f8,
0x3d83cfaf,0xbda07dd1,0xbd46a97e,0x3dad36c0,0x3b76ad45,0x3c2e74a6,0x3dfdb443,0x3d01672f,0xbb8ac111,0x3e1aa17e,
0x3db7a467,0xbddc394e,0xbdb70061,0xbd5f58ef,0xbd73b5f1,0x3e7c28d9,0xbd210570,0x3e892435,0xbdd65ac8,0xbdc472fe,
0xbe2aba38,0x3e113226,0xbdb048ee,0x3e41e39d,0x3ea49bff,0xbe173fad,0xbdc3afff,0x3e67f547,0xbd381e82,0x3e8b02c9,
0x3e27b4b6,0xbe32f87f,0xbc621235,0x3c90d446,0x3d1e8fc8,0x3dfe5a40,0x3bf018b1,0xbaa56fa1,0x3e851966,0x3d5824ac,
0xbcd7f312,0xbdb4df03,0xbc6f0366,0x3cf831b9,0x3d860443,0x3d54b9b8,0xbddeb248,0xbd45fbb9,0x3e5d5caf,0xbc621250,
0x3e2b6d76,0x3ddc673a,0x3d639c9b,0xbc8f14ab,0x3e227fc2,0x3e509086,0x3db28162,0xbd288b93,0x3d6f8919,0x3e25e8a2,
0xbf108ad5,0xb9a9ca18,0x3e2b1120,0x3edb9ba7,0x3d4f9828,0x3c62611f,0x3e610c3d,0x3dfc56be,0xbd49ec51,0x3e40a0d7,
0xbcc78d41,0xbe9953e2,0x3e7527b2,0x3e1fa674,0x3d467ee1,0x3dbb81bd,0x3dbc72a0,0xbc93b62d,0x3d4ec314,0xbdd553a8,
0x3e221a0b,0x3e07d71a,0x3e0d7093,0x3e8db21a,0x3dbc6643,0xbd04fef4,0xbd139935,0xbe28459b,0x3d3cfdfd,0xbb6a30e2,
0x3cbf6391,0x3d18e00b,0xbd3ac87b,0xbdce20b1,0xbd4b3199,0x3dc72821,0x3d8f588e,0x3cae5de2,0xbdc59c07,0x3e0f99a8,
0x3da2194e,0x3c1a9dd9,0xbd770700,0x3d74d050,0x3d126f02,0xbcdbc5b2,0x3d924e0f,0x3daa1da0,0xbcc25b6c,0x3d4b241d,
0xbd8cdad4,0xbd27b959,0x3dccdf70,0x3c779b22,0x3d467a8f,0x3d277507,0xbd91e8e1,0x3dc8aaa2,0xbdae92da,0x3e24a506,
0x3db792e0,0xbd69500e,0x3c2c7b83,0x3c52becb,0xbd35acec,0xbe04420b,0x3a134ec2,0xbd940c2f,0x3d29514a,0x3ace4b20,
0x3de96756,0x3d540e83,0xbc7475f0,0x3a51e3dc,0xbc6377bd,0x3d6f6794,0xbe3a7d2b,0xbdd5becd,0xbd1b8fee,0xbd450cf7,
0xbd4035f7,0x3ddf1f8f,0x3dde52d7,0xbe02a5c5,0x3e0f33e7,0x3d4dffd8,0xbde27952,0xbc9d2fdd,0xbd723e45,0xbe67d4c1,
0xbe526d02,0x3cb72aee,0x3e517e09,0x3e4b496f,0xbc861827,0xbc34b2f1,0x3b8db1ad,0xbc2bd5ce,0x3dae4645,0xbe201fe1,
0xbdbd4f0a,0xbcdddf47,0xbc7e1543,0x3dc27a7b,0x3dbb6d7b,0xbd874bf6,0x3dadc79b,0x3da7804c,0x3d174361,0x3ca25d93,
0xbda3d21c,0x3cc696a1,0xbd137ca4,0x3d495a75,0x3d89e819,0x39bf3d5b,0xbd98f69c,0x3d4334a6,0x3d36994b,0x3db077ba,
0x3eb2c4f8,0xbd05a524,0xbcf747db,0x3d128572,0x3d136072,0xbdbeb667,0xbd47284d,0x3d6ca8a2,0xbd8edebc,0xbcd747a7,
0x3cbb5c99,0xbdc0929e,0x3d6767af,0x3d600c09,0xbb3ef576,0x3d3a702f,0x3d978f31,0xbae55bea,0x3d589d41,0x3c20c6bd,
0x3dbdb7ea,0x3b214dea,0xbd2729f7,0x3d8fefd8,0xbe19616d,0x3cb22b5a,0x3a8956f8,0x3d2dca97,0xba39b871,0xbdfd675f,
0x3d9d9dc2,0xbb29e66b,0x3cbb5188,0x3e01ab69,0xbc06fcd7,0x3cfa576d,0xbd9957a0,0x3d57a4b8,0x3cd88bc0,0xbd0a1d46,
0x3b61a3e5,0xbdadbf86,0xbcc0910e,0xbde695ef,0x3e076139,0xbdab4a36,0xbd1b7683,0x3d129c51,0xbd904bff,0xbc4529b2,
0x3ced89d2,0xbd6a40d9,0xbd8bb9e5,0x3cced17a,0xbd853ee2,0x3bff020a,0xbdfbd761,0xbd784543,0xbe18b94c,0xbd3f0f24,
0xbe003097,0xbe34d294,0x3dc7c342,0xbe17a621,0x3d0e4499,0xbdcf394c,0xbd053a86,0xbd7df03b,0x3c41617b,0xbd7d4e33,
0x3cf3367a,0x3e58d6d7,0xbda3adf9,0x3e085d69,0xbcbf0c15,0xbde04e2e,0x3e10681c,0xbcf69d64,0xbdd9e2ec,0xbe235b0f,
0x3da386fd,0xbe12da57,0x3d4bd0a5,0x3d5ade9d,0x3cf55f7a,0xbc52929c,0xbbeb369f,0xba27fd0c,0xbc9a3052,0x3d03cee6,
0xbb26e4b0,0x3cef09cb,0x3d88a60d,0x3dced77a,0xbdcdbfd3,0xbd929e24,0x3ce3a35a,0x3ec61307,0x3db0abc7,0xbdbd9d2f,
0x3d6d431e,0x3e059bfd,0xbd0c052e,0xbca79921,0x3a7ac331,0x3df4a14f,0x3d453fb6,0xbdc535f2,0xbda237dd,0xbd42e840,
0xbd87ee4f,0x3db72c50,0xbc109dda,0x3d234d16,0xbce44d77,0xbdfc3fc6,0x3c53fa7c,0xbc5a286a,0xbd9db516,0x3bea70c3,
0xbd819d50,0xbc974514,0x3dc3ca46,0xbd9e8038,0x3ce9082c,0xbe081a7a,0xbd3f77b5,0x3b2e6c7b,0x3d8103e4,0x3e4e4e12,
0x3d2cf9c6,0x3de0353e,0xbe499f8f,0xbc6018af,0xbe12e615,0xbcbd88f3,0xbd19b188,0x3da373b7,0x3e173367,0xbd6162a8,
0x3df31a69,0x3dfb723d,0x3d839b2a,0x3defd9be,0xbe948b3d,0x3d781567,0xbc8b382b,0xbcb227cd,0xbde347f3,0x3d8c915f,
0xbe31b507,0xbd1f8cf9,0x3cfab3f2,0x3d3f752c,0xbe1742d2,0x3c2fc09b,0xbe86e092,0xbdc18a68,0x3d8ef78c,0xbe0c271b,
0xbbbe2295,0xbe0dae30,0xbc56a586,0xbe052f7f,0x3e4a456f,0xbce1efad,0xbd8417d2,0xbd2c6a04,0x3e11c8e2,0xbceec17f,
0x3dbe1f29,0xbd72e127,0x3e12f04f,0x3ca4d434,0xbded0d25,0xbd13e8ee,0x3cfffee9,0xbc7ac2a7,0x3e295040,0xbe0b1fd8,
0x3e35c61d,0x3d13ed69,0xbcc180ef,0x3d9112ee,0x3d9e9e9e,0xbc8e98f3,0x3d80c582,0x3bd9987d,0x3d928c0b,0x3c817e07,
0xbe08789a,0x3c080ed6,0x3d2c1e9e,0xbd3ce9db,0xbee84d22,0x3e1ed87b,0xbcf1bc13,0x3d6d5699,0x3d41331e,0xbd596364,
0xbc0a93ed,0x3d238967,0x3db1c7d9,0xbdb2ca0b,0xbd09cb93,0x3c5a8b37,0x3d7fe9f4,0x3dea219b,0x3d15c5fc,0x3bef0976,
0xbd0f84b8,0x3a518508,0xbb358bc9,0x3dca4212,0x3db4987c,0xbcd1a195,0xbded08db,0x3d552d58,0x3dddfcf8,0x3cf4e1fe,
0x3c2f4f33,0x3db1dd94,0x3d80181e,0x3d6c0182,0xbd58b329,0xbdd62a6a,0xbd21dbd1,0xbd954a83,0x3e2a2181,0x3d0d1376,
0xbe28ba87,0x3de8c192,0x3d3ab4bf,0x3d3f7b1c,0xbb60f8fd,0xbde700f6,0xbe0f3b45,0xbd501c99,0x3dfbfbc2,0x3cb75dd0,
0xbcffb915,0x3d57256b,0xbc40f435,0x3da20df6,0x3e5a7843,0xbcddef9c,0xbc29cc0b,0x3d8b7eee,0x3ab6d025,0x3e4da741,
0x3c8964d9,0x3d8b39c8,0x3d88e347,0xbc1cc091,0xbd2aac7a,0x3d1c9702,0xbdb71616,0xbd7ad273,0x3c52307a,0xbd25547a,
0x3df8268c,0xbdc3f594,0x3db39800,0xbe1c3718,0xbde4bffb,0xbd87d2c2,0xbd24cf08,0x3da403a9,0x3c889df8,0x3e3b3ea2,
0x3c72c30b,0x3dfae86c,0xbd78ec6a,0xbdff725d,0x3e0c3c7f,0xbd75a584,0xbe50b50e,0xbe506a96,0xbbc277cd,0x3c131fc8,
0x3d1197a2,0xbd965baa,0x3d6867b4,0x3d8f4e44,0x3de154ee,0x3dcace03,0x3de97222,0xbc9e8889,0xbd84c222,0x3e0f77ad,
0xbc0cbcd0,0xbec9ed6c,0x3d0897df,0x3d299f15,0x3de09934,0x3d5be255,0xbd4c74aa,0x3d43b62f,0xbd87ffc2,0x3d15b4e6,
0x3de92f22,0xbd639776,0xbdf7932a,0xbd107821,0xbe1349ef,0x3df197d9,0xbddc136c,0x3d140f71,0x3d7f4551,0x3e19807e,
0xbddaf702,0xbccebc51,0xbcd4ca0b,0x3dcd94a0,0xbd1b33c6,0x3e508103,0x3c298817,0x3d936c71,0xbdcfca22,0xbdc86540,
0x3b66bb81,0xbdbcc435,0xbd5c6e41,0xbc8a2edc,0x3d624d8f,0x3da12c0e,0x3c8b6a45,0xbca283c5,0x3d1f17b9,0x3dd557c5,
0xbd98d6e4,0xbc5272f2,0x3dfd2087,0x3d1f1143,0xbc6b5458,0x3e57907d,0x3d3214fe,0x3cf50f9f,0x3bc887c1,0xbd84c4c0,
0x3d0a2aba,0x3dab47dd,0x3d732239,0xbdcd0541,0x3de7fe13,0xbd14e138,0xbd0ebf5f,0xbcb2317b,0x3cef4541,0x3cfb7c16,
0x3d330ffa,0x3dbe9bd7,0x3db813f7,0x3ba9ae17,0x3e459c68,0xbbceeefc,0xbd209efa,0xbdce8a3e,0x3dcb2da9,0x3e22c671,
0x3d4ab82f,0x3d1b2d99,0xbb1f7d6f,0x3e628a1d,0x3dca13f7,0xbd2aedbb,0xbdfc2594,0xbc7f4b2b,0x3e17a6dc,0xbd5f4133,
0x3e5cd3ab,0xbe607de7,0x3d5b7cb1,0xbd1a3e2a,0xbced42ce,0x3d835f60,0xbc058528,0x3d3d5ec0,0x3c089061,0x3d3f8988,
0x3d0d264d,0x3b5b2a34,0x3d843325,0xbc010ff9,0xbb126f16,0xbd1a62ca,0xbbec1e62,0xbd6c4dc8,0xbeaaa8c2,0xbb0230f9,
0xbd288453,0x3c0d61d6,0x3d551304,0x3d2a7569,0x3db63b29,0xbc697d7b,0x3d7cb731,0xbc9550b7,0xbd4c8462,0xbd2f3ee5,
0x3e0df81c,0xbc72310f,0x3d52e0db,0xbc9390ee,0xbbcf4b9b,0xbda52fa0,0xbda730cb,0x3c4b8b7e,0x3c62a633,0x3c1efc01,
0x3d14b5ff,0xbd0af68e,0xbdc43090,0x3d69a54c,0xbe07253d,0x3d84bcde,0xbd1d3d9a,0x3d333cfa,0x3dca85ec,0x3d317a96,
0x3d659dc1,0xbdb5c986,0xbc8f72d8,0x3dd10b07,0xbe2017db,0x3b6d0cbb,0xbd9f27ea,0xbe08b015,0x3e0525f8,0xbda91d00,
0x3cc926b2,0x3dae36ce,0xbb4cd449,0x3c932692,0x3c5a91b4,0x3e372a77,0xbe406559,0x3d5fc545,0xbd5570d6,0x3c9e8bd0,
0xbbf63bba,0x3e057d10,0x3b631e10,0xbd8a135e,0xbc316101,0xbd03a935,0x3e1a850f,0xbdb98685,0xbd285b1a,0xbdfba332,
0xbe733550,0xbdef4a69,0x3d65bb94,0xbc33bc54,0xbdcc86bb,0x3d68c993,0xbc7ef0f8,0x3dac1bf7,0x3a2b704b,0xbdd7d165,
0xbdad768e,0xbc881595,0x3d952d94,0x3e1118e4,0xbc500c0e,0x3d2d7200,0x3d33b155,0xbe15a741,0xbd9d6480,0x3e058c98,
0x3d86c9fe,0x3db862b7,0x3d1b3b97,0xbdcf23e4,0xbd516404,0xbbe4c87b,0xbc1139d4,0x3c8ca394,0xbb12784e,0xbcd49ecb,
0xbd4f511a,0x3cfb51ee,0xbc930127,0x3e19c70a,0xbd921c9f,0xbd066ee3,0x3dc1164d,0x3d96b994,0x3d23774d,0x3dc71637,
0xbcc699be,0xbd94e664,0xbd5adc62,0xbda7d626,0x3dc04cae,0x3b31c384,0x3deab723,0xbc1471e5,0xbd39548c,0x3e12f66a,
0x3d921f6f,0x3cf14397,0x3d80ae2f,0xbd5661c6,0xbcb6143e,0xbc94ab99,0x3e9ab1b2,0xbc9d6774,0x3d4f1cb6,0x3e03d2c5,
0xbdd3b310,0x3c925dfd,0xbd888928,0x3d06229b,0x3e5736b3,0xbcab1f8e,0x3d83d3a4,0x3d2ce81f,0xbd9b22ee,0x3cf22547,
0x3da6ee36,0x3d745d12,0x3d07d1f5,0xbbada34b,0xbd15eaa9,0x3d85d104,0xbca02e76,0x3ce994ff,0xbd883b19,0x3e2005b6,
0xbd725511,0x3d3780aa,0x3df72985,0xbd684297,0x3d1bbd8f,0x3abe117c,0xbcc4a65d,0x3db667ef,0x3ddaa587,0xbc2dc9e8,
0x3e0e053f,0x39cf8d2e,0xbdfe82fd,0x3e1cd3ae,0xbc0fbf1e,0xbdf9ad81,0xbca881f3,0xbd2febe9,0x3e26ca89,0xbe0a1b5f,
0xbc527a77,0xbde48060,0xbdfdd4ba,0x3d22f6d6,0x3d14c4ef,0x3dbb9dce,0xbd0548a3,0x3db3c609,0x3ca20d6c,0xbcea7852,
0x3d04d668,0x3d585cfd,0xbc69a421,0xbd8924b0,0xbc5da6eb,0x3d1f36d7,0xbda89b10,0xbd986af9,0x3e0d093e,0x3e678f47,
0x3dc476b1,0xbc6f79a4,0xbd2e0f8f,0xbd355a0d,0x3df7ecdb,0x3e729101,0x3d0ed8cc,0x3d8e3fc3,0x3df17d92,0x3d8336d1,
0xbbbcd50e,0x3dffd6f8,0x3c97a93e,0x3b367f62,0x3be51a41,0xbdccffa2,0x3e569086,0x3c035a63,0xbcf80a32,0xbe11f2d6,
0x3cc40b15,0x3e7645fe,0xbd851a44,0xbe887606,0x3d210a87,0xb89db374,0x3d4396d4,0x3cc0d3b5,0xbe4f8c3f,0xbda3cc39,
0x3d7c1a11,0x3d822432,0xbdd5102d,0xbd49b790,0x3d8900a0,0xbc6f0a1e,0x3dc53e74,0x39aabb03,0xbd95c548,0x3ca1df83,
0x3ce24a9a,0x3d738742,0x3dc2799c,0x3cc1a1e9,0xbb1a14f6,0xbcc9f186,0xbdbbe78a,0xbdbc436a,0x3d147b8d,0xbd8e28b1,
0xbd6414b2,0x3d92bd8b,0xbd0ed986,0xbe5ea9d0,0x3da0e8b3,0x3dd905e7,0xbe024fc5,0x3e2a3c3e,0xbcd6feaa,0xbe1d652b,
0xbda2175e,0xbdc1dbcb,0xbbf0c029,0xbd321a02,0x3de2ec2d,0xbc690503,0x3d628aab,0x3e0ef69e,0xbca6f2d8,0x3da24a98,
0xbe66446a,0xbd71d41d,0xbe064b70,0xbc159f95,0xbba45b7f,0x3d8361e5,0xbdae5dc2,0x3b1124ab,0xbd83e23b,0xbbf9d0f9,
0x3d00e9f2,0xbddbaba8,0xbe8d1364,0x3db38a0a,0x3d25af74,0x3eab7e78,0x39a0630e,0x3e579832,0xbd263535,0x3d3e19df,
0xbe035e83,0x3b01ff97,0xbcb3dfae,0x3cfd4d4b,0xbd99057f,0x3c17549f,0x3e999825,0xbd09f296,0x3dd64f18,0xbdad6c74,
0x3df3e9e4,0x3e3436a7,0xbe18675f,0xbd1294f7,0xbda99e08,0xbd81fead,0x3e180d3c,0xbbb4c893,0xbcb06706,0xbe1d2a61,
0x3de7e909,0xbe0089be,0x3e1bccea,0x3c26576d,0x3dae68e7,0x3dbee2d0,0x3d70e6ac,0x3ea0eb47,0xbd174c82,0xbcfada4d,
0x3e0ebf29,0x3c7efdf5,0xbdeb984a,0x3df32aba,0x3d29ac3d,0x3b31e76a,0x3da5f6d9,0x3d4d5f4e,0x3e95a539,0x3ce8ad8d,
0xbe1e6a67,0x3c859ac8,0x3d088097,0x3d914f9f,0x3e170f04,0xbda2797e,0x3cf7cea7,0x3c634a93,0x3d72807c,0xbc41c6c6,
0xbdb03ad8,0x3cb02b2f,0x3db75f5a,0xbda3ab72,0xbc92a96f,0x3cfd2c2b,0x3d095a5a,0x3d6e72ab,0xbd4c4235,0xbd9f94e2,
0x3d702a2e,0x3ea76a68,0xbdcff6fd,0x3dd7464b,0x3cf66724,0xbd656fba,0x3e13d42b,0xbe05e673,0x3da4e649,0x3da69596,
0xbcf33d3e,0x3eacaf03,0xbd853531,0x3ae30b54,0xbdd473a3,0x3da34ad0,0x3dafaa29,0xbc3c2f99,0x3e344c69,0xbd9cd842,
0x3d3b60a1,0x396f4438,0xbd232d88,0xbde61907,0xbd2f88f9,0x3dcdec15,0xbc950b92,0x3bfdc6ac,0xbd218fb1,0xbda23595,
0x3e117308,0x3d5b8c74,0x3eb97ebe,0x3e4c36e3,0xbd407459,0xbe08ed20,0x3e2dc072,0x3d26f9ed,0x3c4fcb0b,0x3d039aaf,
0x3e1ec461,0x3c5351f0,0x3d3b0edc,0x3d27e442,0xbdffeef0,0x3e16137b,0xbdb34954,0x3da5f46a,0x3d4e4f33,0x3e0cf01d,
0xbe141013,0x3e35b067,0xbcfe089e,0xbdc3117c,0x3c89a813,0xbabc0bf5,0x3e63643e,0xbd9b4691,0xbe2055a6,0x3db05dc4,
0x3e1ab569,0x3d07bdd0,0x3de6ff0c,0x3d4b0ceb,0x3dd37549,0xbde0d529,0xbd1497cd,0x3d4f0d43,0x3d31539e,0x3d829909,
0x3bc0cca1,0x3dd08805,0x3af752b9,0x3cad168c,0x3e0bdf91,0xbdaf4663,0xbc9b5fe1,0xbd8d052f,0xbdd56937,0x3e10be64,
0x3d16dcb5,0xbd3d59b3,0x3dff3f3f,0xbd89c9a1,0xbcd20939,0xbe5ff9c2,0x3d1205cf,0xbe193277,0xbdbef7e3,0xbda86008,
0x3e18f142,0xbdb630c5,0xbe168a3c,0xbc888582,0x3ca8bf7a,0xbd98d49d,0xbe33b545,0xbcf8b77d,0x3d8ba666,0xbe28753e,
0x3d9253b5,0xbd217fcf,0x3daec66e,0xbcb50acf,0x3d0abbdf,0x3d4aaeff,0xbd793b05,0x3d5f0229,0xbd420eb8,0xbdf1568d,
0xbc72ba95,0x3c38dd2d,0xbd84c5a9,0xbd51298e,0xbd55c148,0xbe528422,0x3d4baf6c,0x3e0b7b24,0x3c50b0b6,0xbe045d3d,
0xbc93e354,0x3d66ffed,0xbd817d32,0x3d85ef2e,0x3dd00758,0x3dfcca2f,0x3e11a0d4,0x3e142a43,0xbe832563,0x3da4ac6e,
0x3b94a209,0xbe41124b,0x3e4e9170,0x3e467e98,0xbcf14455,0x3d8755c3,0xbdef4906,0x3d1ea36d,0x3ce3acb9,0xbcf88d6d,
0x3b12e4b4,0xbcc728d7,0x3d44358a,0x3b3f5c7f,0x3dd9711d,0xbd6196fd,0x3d02d7e8,0x3cd24be1,0xbceccbc5,0x3da436fb,
0x3d82aa2d,0xbbcead22,0xbe2162e2,0xbe721f72,0x3e36ccee,0x3c35e445,0xbe07b052,0xbddb4607,0x3b9108e5,0x3dd5cba6,
0x3c9e1450,0x3e161b16,0x3d81896e,0xbd9c2e6e,0xbd3a690c,0xbe58bfb4,0x3dd45e90,0x3dda7bc1,0xbddc1514,0xbded82f3,
0x3da8e821,0x3d432e7d,0x3d81af38,0xbd4e837d,0x3da27e9c,0x3d5f5a1b,0x3af436d5,0x397870fe,0xbda9a91e,0xbc9b818c,
0x3e08f7cd,0x3d72202b,0xbc877782,0xbe062b20,0x3cab9931,0x3d6c92c7,0x3c56424d,0x3c07edf6,0x3d679dc7,0x3e1f1303,
0xbd45b2bc,0xbd416b86,0xbe04b16b,0xbccbd0d4,0xbd3af8d7,0xbd87e341,0xbdeb70e8,0xbe1da53d,0xbe15dbef,0xbd25b6d2,
0xbc329e33,0xbe22d4de,0xbd7001b2,0x3d9ad643,0xbc58757c,0x3db11fff,0xbdcbc4d6,0x3ded5c6d,0xbe1a2217,0x3b00f211,
0xbe842b2f,0xbe1098c9,0xbdc12c5d,0x3e3a3994,0x3d712a34,0x3d60afa4,0xbe9ac0dc,0xbe1a0089,0xbd8e8b95,0xbccbefb3,
0x3cc44b11,0x3e1c4d40,0xbda54723,0x3d95aed7,0xbdd9a72d,0xbe899705,0xbd824024,0xbe6c0df2,0x3d144064,0x3d6b30ef,
0xbd1fe223,0x3d84b6d5,0x3ce95094,0x3e02e60f,0x3cc9561e,0x3d827f78,0x3d657513,0x3c49d4dc,0x3c328bce,0x3bf7c369,
0xbd8ed3b6,0x3cf90719,0xbc3217d8,0x3da64eeb,0xbc110d0c,0xbdb41d93,0x3cae41e4,0x3d1103d7,0x3e14aeca,0xbd1f1789,
0x3e388f86,0x3d1ce1ff,0xbda9012f,0xbb5b65f7,0x3d81f2f0,0x3c12a771,0x3b3742b8,0x3cac51a3,0x3d0ecacc,0xbc04c66b,
0xbcf64abf,0x3dc4265c,0xbb120ffd,0x3dd5f7e2,0x3d2c2181,0xbb811eca,0xbcaecc1f,0xbcebbe91,0xbd293515,0x3c9555d5,
0xbccddcc4,0xbd59748b,0xbd18ce98,0xbca1644c,0x3d2e27a8,0xbd012a0e,0x3d15341e,0xbd672214,0x3ca2edeb,0xbdd9b80c,
0xbda61c3e,0xbdf624f6,0x3db0a3b7,0xbd151525,0x3c935a93,0x3c0cf9b9,0xbc97303d,0xbd3cecd5,0xbd9a4a6c,0xbcb211d9,
0xbd862a0e,0xbd0684c9,0xbd74d133,0x3d077ec5,0xbd23f0b5,0x3d6810ac,0x3d5648ad,0xbd0d3940,0xbd39b722,0xbd028e59,
0xbe04b251,0x3b5da84d,0xbd2ae622,0x3c732982,0xbe120099,0xbc13f97f,0x3d1ced97,0xbcf2c83c,0x3e0e3b5b,0xbdad7c22,
0xbcec807d,0x3cb47a8c,0x3d28b0a0,0xbcefc6cf,0xbd71e08c,0x3d4a6b66,0x3ceac6bd,0xbd4ac5ce,0x3d071cfc,0xbd934b14,
0x3d6f4b0a,0x3d83e7d9,0xbd16c58c,0xbd529802,0x3bc02c50,0xbdb34615,0xbbdde90e,0x3d0caf51,0x3e195806,0x3cc3cb37,
0xbd5f49d2,0xbe33cdb5,0x3ce048d3,0x3d9f946c,0x3c79be1a,0xbb5538c9,0x3c2b7650,0x3d0e4482,0xbcaa12d7,0x3d81f73d,
0x3c83cf62,0x3d0fe7a0,0x3c80d922,0x3ba2c909,0xbb91f2ed,0x3c9f3c2a,0x3ddfdbd1,0xbee227e9,0x3d4081bc,0xbc37fe87,
0x3ccdd0b4,0xbc9dda21,0xbb242421,0xbcb9e602,0xbcfe3184,0x3b4e2f5c,0x3d01d772,0x3d9fe845,0x3d9775c9,0x3e5d95af,
0x3c5c8e21,0x3dd2a4db,0x3ca24590,0x3da202c9,0xbd92cdaf,0x3d14b683,0xbd980249,0xbd469814,0x3a6f500c,0x3d600aea,
0x3de40a2c,0xbd9d007b,0x3e34fbc2,0xbabee8f4,0xbde52433,0xbc448da6,0xbdffc697,0xbc2c44fa,0x3d9c2aba,0xbdb73d40,
0x3dbae45b,0x3e096a42,0x3cfbb043,0xbdabf38c,0x3cf25471,0xbd30f958,0xbdb8c161,0xbbf8090a,0x3c9377b2,0xbdbe6f8a,
0xbd9e2437,0xbde7adc2,0x3c0a8a00,0x3d5eab54,0xbd045008,0xbd6d01b5,0x3cab7e53,0x3dbe2ee8,0xbd5ade99,0x3e1b2fde,
0xbe170edb,0xbdcdfb37,0x3d76f44b,0xbde026f5,0xbdbfe7e0,0xbe12dbdd,0xbda33026,0xbcfd2def,0xbdd6a7a2,0x3d7380d5,
0x3e2a798e,0x3de67872,0x3d1cf3c1,0xbd2acafc,0x3df60aac,0x3b873de2,0x3f09f90e,0xbd937a04,0x3db519fa,0xbe1d2858,
0x3e0909b7,0x3d3f6668,0xbdd4dcb8,0xbe32fdd8,0xbd129650,0xbd89e821,0x3ddb0d65,0x3cbc07c3,0xbd8fd55f,0xbdbc49ef,
0x3dc066b7,0x3c16ae15,0x3e06d1a5,0xbc7c019c,0xbd81e1a0,0xbd5ab4fb,0xbbcdf82d,0xbd521e65,0x3c86bfef,0xbd8d7683,
0x3d42666a,0x3cb75b6b,0xbe206cc5,0xbcd00db2,0x3f0bff88,0xbd88e879,0x3ca6bc70,0xbd16030b,0xbc60f801,0xbc6bffdf,
0xbd9331ed,0xbba298d4,0xbc66624e,0xbccc98a8,0xbdefe039,0x3d0c44fb,0xbd45a10a,0xbd247fca,0x3e5e81d8,0xbdc1dbe5,
0x3de3cb44,0x3d8066e0,0x3cc4ef91,0xbd82e20b,0xbdcef5be,0x3dfeae67,0x3e404d66,0x3d80eb32,0x3e0681b4,0x3c429de7,
0x3db94a38,0x3d887ff9,0xbe1b6f3c,0xbb127e9c,0x3ca2fdfb,0xbced77e9,0xbd3dda35,0xba235f74,0x3db24743,0x3d71b876,
0xbdab2691,0x3e265014,0xbd3020cc,0xbd8405ed,0xbbe6da7a,0x3e1e8f05,0x3c742bc2,0x3c896ffb,0x3e28188c,0xbd33e497,
0xbdc4e1df,0x3da55cb1,0x3de20574,0x3d27f56a,0x3e21ea8b,0xbc54dbb2,0x3e5cfb5d,0xbb0c0f65,0xbe6839fb,0x3dff256a,
0x3e8a0a5d,0xbe818775,0xbd6efa8c,0xbdc7b252,0xbe1bcd0a,0xbe088a6a,0x3d50d8c9,0xbd32ce54,0x3d85962c,0x3cfaae42,
0x3c231084,0x3d1c954b,0x3e083516,0x3e9f2606,0x3e008748,0xbe2bd861,0x3e5f2873,0x3dbeb740,0xbdfdd5df,0x3d900a71,
0x3e4e197d,0xbdca1cbb,0x3dbb2e81,0xbe37c69e,0x3cc75d3d,0xbdc72616,0x3d117712,0xbd9c64b0,0x3d50bb4f,0xbd251fe1,
0xbbc6d105,0xbccb1a0f,0xbd3bb258,0x3d307cea,0x3d320e8d,0xbd53db04,0x3a9f1ba4,0x3d9976cb,0x3d0c2053,0x3dedfe53,
0x3d9d6f50,0x3e08116c,0x3d9cd5a8,0xbd9f0cf0,0xbe161c49,0x3d6cfe99,0x3c3be0c5,0x3d0bd185,0x3d59c47d,0xbe4e39d5,
0x3d9ca801,0xba160f51,0xbe2daba9,0xbe06324c,0x3e086937,0x3dab75e3,0x3d8745b9,0x3e0ac140,0x3e305de6,0x3d9425f9,
0xbd54c115,0xbe86cc1e,0xbdff4480,0x3d6db17d,0x3e3de5f5,0xbdfaeb9a,0x3d5c9b10,0x3d34b5bb,0xbca25063,0x3e4d10b7,
0xbcd6b85b,0xbdf2257d,0xbde413c7,0xbcda5136,0xbca25b1b,0x3d1da400,0xbd4e41c3,0x3b4b2ac9,0xbe2fb38b,0xbdb9c131,
0xbd510c20,0xbcf823c9,0x3d11c604,0xbe118dad,0xbd2fbce4,0x3da5942a,0x3d686436,0x3cdc0705,0xbd422803,0xbdb139c7,
0xbdb396c5,0xbd47f9dc,0xbd87ed40,0xbd313544,0x3df45664,0x3d2ada42,0x3d750350,0x3d24e6de,0x3e2e4381,0x3e1538c2,
0xbdd763ab,0xbd9cc4f7,0xbdb4a8b6,0xbd950750,0x3c997dbb,0x3c20592d,0x3d8c0e4a,0xbe267d6e,0x3c32a4f5,0xbde37ced,
0x3e81455e,0xbd96ade2,0xbd931831,0x3ea3b23b,0xbe1d42a6,0xbd26fd84,0x3dab3efb,0xbb23c6bf,0xbdc830c7,0x3d76226a,
0x3b808787,0x3c2a603a,0x3df11faa,0x3e483f2e,0x3cdc89aa,0x3e0cc822,0x3d09bbb0,0xbd76449e,0x3d3358cd,0xbd4d234b,
0xbddf8c16,0xbd9ff984,0x3cedef93,0xbd8084ce,0xbd1c73c5,0xbc896c87,0xbda6b622,0x3d86c057,0xbe085178,0xbc6e6e78,
0x3dc86548,0x3d842b9e,0x3c4d8235,0xbbafcecb,0x3e1740e2,0x3d68ea88,0x3cc36ae3,0xbd6438f8,0xbd610470,0x3e556314,
0xbd150916,0xbd260377,0x3d8b8302,0x3d57f30d,0xbd37e41b,0xbd46e880,0x3e1cf320,0x3d939ae6,0x3c9fa946,0xbc1f9619,
0x3da4c84a,0x3e080703,0xbe48edde,0x3cd82d3a,0xbc7d181e,0x3dcaf47a,0x3e62fd22,0x3e25c9eb,0x3dde5d65,0xbbbf7e11,
0x3d702035,0x3da25753,0xbdb0e933,0x3e71d48b,0x3e6df436,0x3da09bf4,0x3d5df7dd,0xbc9d1359,0xbd3ae4f1,0xbc00db6d,
0xbdbec20f,0x3c99712c,0xbc7d26ed,0xbd595d8d,0xbc4a5e47,0x3df9cd47,0x3d36f302,0xbbee0794,0x3c08a9fe,0xbe210098,
0x3e09f807,0xbdc9836d,0x3db45c92,0x3da3b1dd,0x3dc0bedf,0x3e1270d5,0xbdb58477,0x3b2c4f38,0x3e18c8e5,0x3cb8da46,
0x3e105b80,0x3c79e242,0x3e1eec5b,0x3ba13b11,0x3e5f2a12,0x3d515350,0x3d9b898e,0xbe046d9e,0xbcd7c8f2,0x3cd9a32f,
0xbd1f4eaf,0x3d50c5ad,0x3e9c2273,0xbdec1f08,0x3d8773bd,0x3cda3010,0xbdca7fc8,0x3df94f19,0x3c2aa248,0xbd9682ba,
0x3e2ab6e2,0x3d927fe3,0xbe722746,0x3dc16469,0x3c8fd6e8,0x3cf1025a,0xbcb1ce49,0x3dae1069,0x3d8cac70,0xbda6e1cd,
0x3d1de922,0xbdbc5be6,0x3d830147,0xbd962536,0xbdde60e6,0x3e538132,0xbd4d944a,0x3e1b3153,0x3e28735c,0xbdcc4d23,
0x3da423b1,0xbdb94a2b,0x3e0c9f0c,0x3e0e453e,0xbd15f985,0xbe12a479,0x3e8121ec,0x3e7eb791,0xbc301dc3,0x3dccedb2,
0x3e03fc45,0x3d62cea4,0xbd4b7947,0x3d11af22,0x3a49d6ee,0x3e0a3a30,0xbe0b5303,0x3e18d106,0xbdcabed9,0x3d075e88,
0xbe20c83a,0xbc9a76d2,0x3b130e1f,0xbe124b7a,0x3de0041b,0x3c22a411,0xbd704217,0xbdc27802,0xbd18c417,0x3e67ea86,
0x3de4edfe,0x3c355598,0x3b9e4a58,0x3dd1f5b0,0x3c0b9a2d,0xbe05970d,0xbda85c33,0x3c066894,0xbe7c6499,0x3e0139be,
0xb8999b46,0x3bf6ecd7,0x3d2643c2,0x3ce82780,0x3cd1329a,0xbdd1bc72,0x3de19a8d,0x3e02522b,0x3da43dc7,0x3e582084,
0x3dbd0f5c,0xbd4a20ab,0xbc15ed0d,0x3e22845c,0xbde46874,0x3e4c0e99,0x3bcb6f1e,0xbe00b48b,0x3e8769da,0x3e8a323d,
0x3f02d20a,0x3e026b8b,0x3bd4f4c1,0xbe62e971,0x3df92ebe,0x3cc127ca,0x3d7098fe,0x3c338705,0xbd4fe270,0xbd92be86,
0x3e06a68b,0x3b6613ec,0x3d967882,0xbe047402,0xbddc4d35,0x3e7a11e8,0x3d3d8f91,0x3d91f984,0x3dcd1d44,0xbdf00ac3,
0x3d9bfe3b,0xbe1a803b,0x3db06e7c,0x3b27bf05,0x3d958437,0xbd306db7,0x3d4dbbf9,0x3c0916ea,0x3e0185e0,0xbdc83648,
0xbe20f740,0xbd846d42,0x3dad7817,0x3da9419b,0x3d23e149,0x3cd7e64e,0xbd943ea4,0xbdaed3ca,0xbb857889,0x3dbe3257,
0xbe22d2ae,0xbbc899ab,0xbd0b0611,0x3d9e96b0,0x3c99e920,0x3d6fa029,0xbd4473ca,0xbdadd436,0x3d77e0f2,0x3e22cc89,
0x3c1c02be,0xbbc61ca9,0x3e1cea8e,0x3e15a2bb,0xbc5c7b7f,0xbc67c634,0x3d4e7dbf,0x3d9c0058,0xbd97f50a,0x3dd5e7a7,
0x3eaa2592,0x3d9ba33a,0xbe09c8c9,0xbc9d2058,0xbc22584c,0x3d1f3638,0x3dd1fa00,0x3e104f7c,0xbd62c544,0x3dda6904,
0xbd568b41,0x3d39e0f1,0xbcb168bf,0xbd1212a8,0xbd3ae3b5,0xbddc59a7,0xbd8b614c,0x3dc95e4a,0xbda1bfba,0x3e07ff7f,
0xbda2b728,0xbe076d2f,0x3db94054,0xbdac5c36,0xbc018f2f,0xbe48cf9d,0xbe157b3a,0x3e4fcb1a,0x3c604a51,0xbdbeffbe,
0x3d2de862,0x3d59a15f,0x3e22ff78,0xbd4ae622,0xbe323257,0xbad5b7e4,0x3dcd7f8e,0xbdafcf1c,0xbd754e83,0xbe88da5e,
0x3c7c82b2,0x3dc5d7d2,0x3cdb6b74,0xbd8628d5,0xbd3fdbf4,0x3d4cb51e,0x3b800573,0x3c621185,0x3dde2246,0x3e075d23,
0xbd1c913c,0xbd498cc1,0xbd6f839b,0x3d47a5eb,0x3cd7ec55,0xbcdd7380,0xbd6a8843,0x3b9bee58,0x3db0d7e0,0x3c9b7af6,
0x3d523814,0xbd8ee4e1,0xbd367bc9,0x3dd42021,0xbd8ac477,0xbc4c67d1,0xbc89737e,0x3dfae13c,0x3e5c923d,0x3da74f97,
0x3d752860,0x3d8880f4,0x3df15145,0x3d9106f4,0xbd6062c4,0x3d81e740,0xbd89177c,0x3c6f537f,0x3d777d18,0xbd889028,
0x3e052870,0x3e1626ab,0x3d2a22c0,0x3dbef5b4,0xbd96466c,0xbd82f065,0x3e3231f8,0x3da8fff6,0x3dd168f3,0xbdb24295,
0x3a9c816c,0x3d5a6a2b,0x3dbf2833,0x3e0eb095,0xbe45070f,0xbd3a1da5,0xbca6f7d2,0xbcd81681,0xbc059cb3,0x3bc0ae20,
0xbdbe300c,0xbca615aa,0xbc9a0c44,0xbdaf28a6,0x3cb067f4,0x3c9c5e13,0xbe1da374,0xbda4ae80,0x3cb1d868,0x3d51bcd5,
0xbe131790,0xbdfe554d,0x3d6ad09b,0xb9174825,0xbd46beaf,0xbc9a6d05,0x3cbe9828,0x3da25654,0x3de4b319,0x3da13c17,
0xbc165752,0xbcd7a57e,0xbd851ca0,0x3d94fe16,0xbe05e0a8,0xbd8f1c07,0x3caf7604,0xbe1866b0,0xbd628d87,0x3d3851cc,
0x3d012b0d,0x3dcbe71f,0xbdac2e6d,0x3e134924,0x3e02d7c5,0x3d4ccd74,0x3e06378c,0xbd948af3,0xbb90cf72,0x3d6abe92,
0x3dae17e9,0x3dfa3b73,0xbd4b4ff1,0xbcd91be8,0xbe283cd0,0x3ccc55e6,0x3d812dba,0x3dc4841c,0xbd9db7db,0x3bcc24da,
0x3e32ade1,0x3bfa5515,0x3d470fd0,0x3e0a3e38,0x3d30a1a6,0xbdbff30e,0x3e0b79f4,0x3dad563e,0x3bcda59b,0xbdac91ed,
0xbe45ab79,0x3c43400e,0xbe3e59b4,0x3d4cd84e,0x3dd32dd6,0xbd9a91a6,0x3f1acf50,0x3a7748e9,0xbe08a11c,0xbde95705,
0x3d6e4c3f,0x3de2bf4e,0xbe50ade4,0x3dfd3977,0x3e32d51f,0x3c176a07,0x3ddf9598,0x3db0d617,0x3e2902a8,0x3d066a3c,
0x3e46032d,0x3d3addd8,0x3dbd20f1,0x3e1ac2b3,0xbcadc236,0xbdb6582c,0xbd958302,0xbcefe2b9,0xbdbf7b6b,0x3c010e2d,
0xbe2e82c1,0x3dc1b6b3,0x3da5ba59,0x3da25249,0x3dcb95cd,0xbe28fdd6,0xbebfd76d,0x3d00b6c5,0x3e6150fe,0xbc69a9d1,
0xbd585d8f,0xbdb5b194,0xbc37b3ba,0xbd94486b,0xbe2e9c1d,0xbe51e4e4,0xbad36a7b,0xbdb56e73,0x3d76901b,0xbe5fab2d,
0x3ea3ec29,0x3dbce1c5,0xbca7a0cd,0xbd837767,0x3daf40e6,0xbe1b6ec8,0x3ef44271,0xbdfbe41d,0xbd93f110,0xbdd4ed31,
0xbdcce082,0xbd8f87a0,0xbde305b0,0xbd02c588,0x3e21907e,0x3eb6d3e4,0x3e52a74e,0xbdb4cc31,0x3dfd518a,0xbcc94f9c,
0x3e9e5476,0xbdf9fb41,0x3e21fd75,0xbdd8f76b,0x3cbd12da,0x3d34038f,0xbd127efb,0x3d580c86,0xbe2ae51d,0xbd8ef442,
0xbd216a0b,0x3dd0b2db,0x3d7160fe,0xbd218739,0x3ca144b9,0x3bdc2f01,0x3ce7d85a,0xbd47a969,0x3d2f1abb,0xbdbd5b2c,
0xbd538b45,0xbd051839,0xbd2a4325,0xbd9f0d50,0x3cfeddb8,0xbb3ee476,0x3da584da,0xbb36cba3,0x3e07c7ca,0xbd96ee70,
0x3ca45cf2,0xbca5d049,0xbd850d44,0x3e7fac5d,0x3ccdb78b,0x3dbbf657,0x3da28b3b,0x3d551c31,0x3db07216,0x3de128c4,
0x3c296614,0xbe107771,0x3e00f213,0x3d24d7cf,0x3e50d8ab,0xbe0a2c6e,0xbe09bf2c,0xbd408547,0x3e000522,0x3dd75240,
0x3e1c6a0f,0xbe5df3c9,0x3d7b36ee,0xbbbcd8ea,0xbd655033,0xbd8434bd,0x3ddfd170,0x3ce187b5,0xbdb5e408,0x3e01da9c,
0x3d9886e5,0xbdd060de,0x3d3476d3,0x3c29de7a,0xbd58678c,0x3df8e42c,0xbdf4bc5b,0xbaa53847,0xbe408f07,0x3ca66f1a,
0xbd249a06,0xbdb69c3a,0x3d6d9e43,0xbd7018b5,0xbc7ec201,0xbe687d2e,0xbd83b451,0xbe3a7e5b,0xbe15e7fe,0xbd19bb95,
0x3df1dbd4,0x3d8aa33b,0xbdcf4857,0x3d8abb58,0xbd1399e8,0x3c7affcb,0x3d7a6919,0xbd574139,0x3dd6f59b,0x3e3f5865,
0xbdb6d0c6,0xbd3a652a,0xbcf3c14e,0x3ca33af3,0xbe0f8ffd,0x3e783300,0x3d0b2adf,0xbc506c5b,0x3e29aca5,0x3e251028,
0xbda9c1ee,0xbcc7791d,0x3c8907c1,0xbd9ddc0f,0xba805519,0xbc686870,0xbd18c6ee,0xbe0177f5,0xbcb1cba6,0x3d84dbf6,
0x3b3aea45,0xbc5f41c4,0x3e253c8f,0x3db0c083,0xbbcfd48b,0xbd902312,0xbcd9c9d6,0x3d2c1a03,0x3e2052a5,0x3d6704a1,
0xbd536808,0xbc3b1056,0xbb8b8b0d,0xbd6dacd8,0x3cba2324,0xbd9fb6b5,0xbc873577,0x3dea7157,0xbdef687f,0x3d0df039,
0x3de4060c,0x3d93d510,0xbe2990c2,0x3cc3514b,0xbccf3830,0xbd9ea7b6,0x3dffc56f,0xbd6baba8,0xbca51d4c,0xbca71250,
0x3dc88754,0x3d9df2f9,0xbc905cb1,0x3c125f9a,0x3d404df1,0x3da58478,0xbe41ebd4,0xbdfff5da,0xbcee72c0,0x3da8279b,
0x3c5079c2,0x3d8466fa,0xbc8c4ed9,0xbc885946,0xbd16a8c4,0x3bf6551c,0x3d6a1c6a,0x3ca10a7e,0xbcc62b37,0x3d6ebba8,
0xbcc775af,0xbd77cf2e,0x3dae3424,0xbd000ae6,0xbd56c6d8,0xbe1db3b8,0x3de08d9a,0xbd98aa58,0x3db55c62,0xbdb15736,
0xbdd6e518,0xbdac5335,0xbcc5ddd9,0xbd7a73e8,0x3d2bdb5c,0xbdff6967,0x3df8b2fa,0x3df60931,0x3e0c3f5e,0x3d4bdac5,
0xbdd28ff7,0x3d609a47,0x3d98bb90,0xbe1c2a31,0x3d958cd1,0xbe6bed08,0xbdecbee3,0x3e166988,0x3dfade4c,0x3e072390,
0x3dda57a4,0x3d53c062,0x3dbb9125,0x3bdd30e1,0x3e835d1b,0xbcaecb26,0xbce102d8,0xbd10d366,0x3c633b8c,0x3d4907db,
0xbda1cebf,0x3d864c08,0xbd135666,0x3c2dd1f2,0xbd382bca,0x3d12e9d4,0x3d711dd4,0x3c939d0e,0xbc14eb5a,0xbcd52e03,
0x3d67ee3e,0x3c3477e3,0x3dccc27a,0x3d415156,0xbdcb7c61,0x3ce06d2a,0x3d2546da,0xbd7ec49e,0xbc3b4c43,0x3b03fd80,
0xbd47d21c,0xbd2c8348,0xba9b7f8f,0xbdb3287a,0xbd2ffa63,0xbd762b0b,0xbdc6ab49,0xbe64d5bd,0xbdc40db0,0x3c96937b,
0xbd8235b0,0x3da7a538,0xbd65e2af,0xbded5ddb,0xbc3dc3a5,0xbd1df3a6,0x3cf160dd,0x3dfcc83b,0xbde276f4,0x3e04fd9d,
0x3c6be931,0x3d471230,0x3d75b93d,0xbe47ed1c,0x3d831fe9,0xbd32832b,0xbd4c665d,0xbe0787e9,0xbc8c0f7e,0xbd792cd4,
0x3c8dc62b,0x3cb8b26a,0x3be61ec5,0xbd846fa9,0xbd4353bb,0xbdc76c98,0xbe1d4272,0xbd75d1b0,0xbc77f3d9,0xbc8c5f3f,
0x3d34888d,0xbd275fa6,0x3e34c873,0x3d306df3,0x3d25e848,0x3e30cbed,0x3d03d832,0x3d2430bf,0xbc230474,0x3cda2690,
0xbe13620d,0xbc27d7a4,0xbe086f42,0x3da9e840,0xbcf96b71,0x3cf45551,0xbc04d230,0xbc7ce8d8,0xbd6fabb0,0x3cbd7a91,
0x3e0f547f,0x3e2d7fb6,0x3c2cc72a,0xbc4a9296,0xbd84da09,0xbd013ae8,0xbd6fb7ad,0xbd892b1d,0xbdc45a2b,0xbd38e057,
0x3d6f738f,0xbe7f590a,0x3a567d47,0xbdb1bed5,0xbd596659,0x3db7885c,0x3d769982,0x3d85a202,0x3d6d9b03,0x3d99c146,
0xbb9f7c61,0xbd6470aa,0x3aa75ab5,0x3d468cb3,0x3c5c7135,0x3da12fc0,0xbcf99b28,0xbd0755f5,0xbcccc815,0xbca840cc,
0x3c1ce67c,0xbd0a7809,0x3d85c517,0xbd1a6f40,0xbd4785b6,0xbe3906b8,0xbd4fbc9f,0x3bcfdff4,0x3c8d104c,0xbda6cc4c,
0xbd57872d,0x3bc7ed37,0x3d4c576b,0x3c700d2c,0x3e5ecaf5,0xbc5a60e1,0x3d9b0ce9,0xbd063694,0x3e494013,0x3e3897eb,
0x3d6adb21,0x3bb73443,0x3db4c34b,0x3d84e8d4,0xbc39b0ab,0x3d8f7473,0x3d9299f9,0xbd1caa10,0x3cdee591,0x3cb1be70,
0xbd01b7cc,0x3cf914d8,0xbc5f6489,0x3d7c1464,0xbcc9a680,0x3ccc3685,0xbdd48e9f,0xbc087005,0xbc80c1a1,0x3ba9d530,
0xbcffa429,0x3a9c0f9c,0xbe33ca09,0xbd2a0043,0x3c637dad,0xbd7736f9,0xbadd9528,0x3d37b6c6,0xbcbc5ef1,0xbd0e2cd2,
0x3d26e465,0x3deeb819,0xbcaa7ddf,0x3dad972f,0xbdc7e572,0x3c419502,0xbd9b80c8,0xbca3f007,0xbdd3d069,0x3ba87b17,
0xbb5e1aec,0x3d9a487b,0xbd108dae,0xbd82748f,0xbca87b00,0xbc3fc80e,0x3cd81ace,0x3df59c94,0xbe1a26dc,0x3e2fbe68,
0xbcae06bd,0x3e284e8f,0x3dab5da9,0x3e143020,0x3e080ac8,0xbd383fed,0xbbb79f6e,0x3e135159,0x3d1df441,0x3caf9336,
0x3dca994a,0x3d887eeb,0xbe6dffaf,0x3b6c030a,0x3e0606a1,0x3da40afe,0xbd0cfc36,0x3e499c01,0xbdbcc76d,0x3dbd6094,
0xbcd32f3e,0x3df09f97,0xbe051302,0x3cd21447,0x3e0021fe,0xbccc3f6d,0xbd178bed,0xbd088a02,0xbe13cfae,0xbd907530,
0x3e5836fd,0x3d82003a,0x3cf055cb,0x3d98eabd,0xbdf6f7ef,0x3cde17d4,0x3e01bc61,0xbc7c5594,0xbd72495a,0xbddd6c53,
0xbe0631fe,0xbe4c55e4,0x3ddac8f7,0xbd8411bc,0xbc80fe43,0xbe303e2e,0xbdcb1a29,0x3caf9f96,0xbdbc920a,0x3d9ed905,
0xbd4935d5,0xbdce1f63,0xbcb9e9a8,0xbd5dc5b7,0xbd6d81c2,0xbdd10e47,0xbd7d07ce,0xbcb23838,0xbd386aea,0xbdde961d,
0xbd59b23a,0xbd60ad02,0xbd2d4b31,0x3e0d2a11,0x3c9c8ad3,0x3d722818,0xbdd0dc3d,0x3d63ae17,0xbe174904,0x3c0ce152,
0x3cd8aca4,0xbd4d27b4,0xbe3036e3,0x3bbd697f,0x3d95a908,0x3df23bf8,0xbe11396a,0xbd078e7e,0x3d910bbf,0xbcf6d3be,
0x3d05bfbe,0xbe8ed74c,0xbdbb2335,0xbde10884,0x3e2c0efc,0x3e1df02f,0x3dcb07fd,0x3db60ffb,0xbe752bc9,0x3c932bee,
0xbcb652da,0x3e15f25b,0xbe16f929,0x3dae734d,0xbdba20d6,0x3ed2a83e,0x3e154eb5,0x3e80c2ff,0xbd58a3b8,0x3c1586eb,
0xbdf6f307,0xbd475a5a,0x3d3b75d4,0x3e085f81,0xbbc9d803,0x3e0b9684,0x3d623907,0x3e8ddc8b,0x3da82b00,0xbbc6256a,
0x3db15570,0x3c9f7190,0xbc7fbf55,0x3e2e2eca,0x3dc2b30f,0x3d5b9c2d,0xbd4e3fcd,0xbd94afc9,0x3c9914dc,0x3cf85334,
0x3d8559d1,0xbd191200,0xbd81576f,0xbd5e4cd2,0x3dc70482,0xbe3e920a,0xbb89b650,0x3c9edfcf,0x3bf95a0c,0x3bb0fe4b,
0x3c988846,0xbe0bc927,0xbce3b542,0x3d70643b,0x3d9cc17d,0xbdf2cf94,0xbdb15434,0x3c7ebf78,0xbee85717,0xbcc9c389,
0x3e683743,0x3cd3da3e,0x3e2b2f7e,0x3e2e1f22,0x3e3f0681,0x3df5198c,0xbe47f8a2,0xbd85b870,0xbae7767b,0x3deebc42,
0x3e13e408,0x3d3a8d6c,0xbd9efc76,0x3ec55c1e,0xbd9bdc8e,0x3d334a9f,0xbe3915d9,0xbe87ab53,0x3d5f62b4,0x3d044959,
0x3da48a4c,0xbd976ba3,0x3cf11aa6,0xbd26aee5,0xbdab9d7c,0x3e8ac78a,0xbe515be3,0x3c081d54,0x3ddb803f,0x3e31465c,
0x3e29e777,0xbd6e49fd,0x3ca2d2c5,0xbd8034cd,0x3ea104e2,0xbd83ebc4,0xbd2fa8f9,0xbdf0dbd9,0xbd7e0483,0xbd3908d7,
0x3d96357b,0x3d2a9b0c,0x3da7d507,0x3e09ac40,0xbe690378,0x3e3634be,0xbe08417c,0xbe22b1e0,0x3db8b996,0xbdb05e0b,
0xbe005295,0x3da41001,0x3e3385a4,0x3c4d8d86,0x3e0571bf,0xbe0185b7,0x3db008a1,0x3b8521c5,0xbe33a5eb,0xbdea4f30,
0xbd81de79,0xbe264b1b,0xbcaa6ea4,0x3d993f0e,0x3d7d04c7,0x3c6c78d8,0x3d40c79f,0x3c8bb74f,0x3ddfafe4,0xbdb3a441,
0x3df3a24b,0xbdd0f3d1,0xbdfc3598,0x3c410dc5,0xbb6b10e1,0xbd34b1de,0xbd4e7ae3,0xbd023f1e,0x3e325f09,0xbd4391db,
0xbe2e3252,0x3dab3778,0xbcfba9d5,0xbdcbd234,0x3d9a1789,0x3d145b9e,0xbe091673,0xbd634388,0xbca0a22a,0x3e2bcb8e,
0xbe18b089,0x3da725db,0xbd305eb5,0x3d978e42,0x3d80296b,0xbe98c2f0,0x3e19f4e3,0xbb668013,0x3d2e780b,0xbe1a77ce,
0xbcdaa629,0x3e7f6477,0xbd72909b,0x3e1629fd,0x3d10eaa0,0xbdb4b3e4,0xbd761cbb,0xbdbd4d8c,0xbd584b11,0xbd14668b,
0xbc053106,0xbd923697,0x3c3cb966,0xbd29db8c,0x3e1d1b52,0x3dcbf1e1,0xbe2c97e1,0xbc35c922,0xb9a87ebb,0x3cf1d015,
0xbe893750,0xbd554948,0xbc9aeeee,0x3d8a353c,0xbe0707aa,0xbd4a0c9c,0xbe6bc9fe,0x3dd723ed,0x3bf33f31,0x3d853953,
0xbdf58660,0xbd996a05,0xbe06ab02,0x3d86e772,0xbd07f969,0xbd8d9f84,0xbdba27a1,0xbdb31bc3,0x3e82d407,0xbb9a65b8,
0xbe2500cb,0xbdd2d38d,0x3ce88820,0xb9c838d9,0x3db0c11e,0x3c5fe452,0xbdf1b248,0x3ee71d93,0xbe494dab,0xbe31f545,
0x3e93f5b6,0xbd1f93aa,0x3d4a78b7,0x3ceea81b,0x3dd9207e,0x3e4c080b,0x3d77e5de,0xbd9f65de,0xbd665781,0x3de18299,
0xbce5418f,0xbcddf29f,0x3d4ec666,0x3d9051ff,0x3b7d36fe,0xbd7ad4e4,0xbd10b107,0x3d417618,0xbdd0ef7a,0x3c06f9d6,
0xbcef80c6,0x3dfda294,0xbd323997,0xbe4f803e,0x3d4f6f64,0x3db6049f,0x3d668df5,0xbd7e899c,0xbd9028df,0x3d43c16c,
0xbd4b32d2,0x3d20ef82,0x3dd402e2,0x3ce0fdf6,0xbdeab276,0x3db015c5,0x3d9011ec,0x3cd84eb0,0x3c98ee1e,0xbc0e6397,
0xbd800236,0xbc48da81,0x3de59ab5,0xbd2649a5,0x3d8ac078,0xbd82d908,0xbd2423f2,0x3dfd3d27,0xbddd94c8,0xbc8e3cd0,
0xbdc24218,0xbd11b01e,0x3dce9256,0x3d6911d3,0xbe0abaa9,0xbd3e9df6,0x3a85c386,0xbdecd0cf,0xbcd20215,0xbd0a78bc,
0x3b0df0c4,0xbd516b37,0xbc326b18,0xbdff1fb8,0x3d9fb3c2,0x3d1b3023,0xbd82460b,0xbd4944a1,0x3c780aab,0x3de847c0,
0x3a079f2b,0x3e073435,0xbc98b165,0x3d7b6e35,0xbbb77f80,0x3d299046,0x3dbcf371,0x3cd28bf3,0x3d321361,0xbc54c741,
0xbd68912d,0xbd351ae0,0x3ded7b08,0x3ccee584,0x3df2b334,0x3e01d271,0x3c75f2de,0xbddad828,0x3dbc520f,0x3c603aad,
0x3d599fa9,0x3e8d413a,0xbdc9593c,0x3d0fd347,0x3cf14b0d,0xbdf4c117,0x3dea0add,0x3d0b2d88,0x3d1f25d9,0x3c346faf,
0x3d4664b4,0x3e03064e,0xbdb0621b,0xbc84e5ed,0x3d0260e9,0x3bc111ff,0x3c8b5ed7,0xbc93e8ad,0xbd2aaf21,0x3c291f4d,
0x3db8266f,0xbdbf1e76,0x3d80da04,0x3c80e271,0xbd72f18d,0x3e281fdb,0xbade75d3,0x3d598051,0x3d0694e7,0xbd1f8add,
0x3e6dc824,0xbd95398c,0x3d16f2ee,0x3d527917,0x3c14b9e9,0x3c927a07,0x3ca433e3,0x3dfe6816,0x3e23a6c8,0x3da50640,
0xbe136a0c,0x3d7981c0,0x3d761f49,0x3d8e16eb,0x3dec3943,0xbd7e6dbd,0x3c7eb8e0,0xbdabc3b1,0x3df57eed,0xbb95f10b,
0xbcbb36cf,0x3ca44d37,0x3bffd6e5,0x3d872601,0xbc27058c,0xbd0d2c1b,0x3d84f286,0xbb539e2e,0xbde530dd,0xbc9a915f,
0xbc2e81b7,0xbd31e662,0xbbd9472c,0xbdd02c0d,0xbda28ff8,0xbd82336d,0xbd509616,0x3c1999c5,0x3e1eaa56,0xbc826c06,
0xbdc773ae,0xbd188adb,0x3de2715c,0x3d9f2440,0x3bf909ad,0x3d236727,0xbe7a8a6c,0x3d95c5f8,0x3e0ec4bc,0x3d9ed2f9,
0xbda8ba7b,0xbe843994,0x3c57e281,0xbe7ffcdb,0xbce8b358,0x3dad96c3,0xbdfcf7d7,0xbc6abf2a,0x3caeb3d2,0xbddf3f81,
0x3e1e17f4,0xbe025313,0xbdcb1882,0xbdbed16b,0xbd481c40,0xbd2f48a1,0xbddc15dd,0xbd90f639,0x3de5d8f8,0x3da274d5,
0x3d8f4b4b,0xbda63754,0x3ca26759,0x3dcd87e5,0x3e42a939,0xbd632594,0xbd32ae1c,0x3cfa5c8c,0xbc2dc48a,0x3de33346,
0x3c9af470,0x3db666f9,0xbc7be12e,0x3ccf1f01,0xbd8e88e7,0xbc1fcd61,0xbcf931be,0x3d0be061,0xbc3018a1,0x3d3a2307,
0xb9c897f7,0x3c723759,0x3d290fae,0x3d89d10b,0x3cd25412,0x3c03e519,0x3da53667,0xbda4a6a3,0xbc2ccc82,0x3d9dc6d8,
0xbc615225,0x3d75271d,0x3dd37821,0x3c5e2dab,0x3d6d1477,0x3cd6fc93,0x3c695e76,0x3979b15c,0x3cc2ee1d,0xbce07aee,
0xbd615b00,0x3c8faf69,0xbd1421d7,0xbd3ec3c5,0x3dfaa5f7,0xbd32dda5,0xbf0e9bec,0x3d474ad7,0x3bdfb107,0xbcb9ee95,
0x3d25d204,0xbc449bdf,0xbca6e283,0xbd6e2623,0x3d92008e,0x3cd57117,0xbd2190e0,0x3c37636c,0xbb46917a,0x3c4dc798,
0x3d9d382a,0xbd6f6c20,0xbcef26d5,0x3c3b280f,0xbcf82120,0xbd4de327,0xbcf6fea4,0x3c9e2834,0x3c857b0f,0xbca496a8,
0xbde47996,0x3d111560,0xbc3d4e6f,0xbc236541,0x3d6a98f7,0x3da09700,0xbd265707,0xbd574b37,0xbe61e398,0xbe050481,
0xbd68b1d8,0x3d4866ad,0x3d3c93f4,0xbda6f0de,0x3e21ee49,0xbcab7fd8,0x3d0f212a,0xbd9f765b,0x3d0a44a4,0x3d957c31,
0x3d5f0721,0xbc1f724a,0xbd7bbda1,0xbe048f61,0xbd0abb1c,0x3dd0f4c8,0xbd895b7f,0x3c29b51b,0xbd68e5f1,0x3c0b853f,
0xbd64aef6,0xbe1be123,0x3d43284d,0xbd0f10db,0x3c3c8436,0x3de8b149,0x3e9af3ab,0x3d9d21eb,0x3d6c108a,0x3d3e6fba,
0x3d2409f1,0x3b0137a7,0x3ddf7718,0x3c45d066,0xbdf866b6,0x3e687d89,0xbdbf8e66,0x3da84758,0xbe149ab9,0x3c265b2e,
0xbbe97517,0x3e08a06e,0x3e71258b,0x3ca4366c,0x3c7866a5,0xbd7ecb58,0x3e04c0cd,0x3d9490d1,0x3ce6c947,0x3dc0d30b,
0x3defbcfc,0x3e2fab8e,0x3da41b9c,0x3c761902,0xbe0bb42d,0xbd31e001,0x3c098f99,0x3db499b7,0xbbe744a9,0xbdcb71db,
0x3e0747c7,0x3cac82bb,0x3cb02846,0x3cf94b2a,0x3da13c0c,0x3ce8e252,0x3bc44a70,0xbc913702,0xbd220f64,0xbd8ede63,
0x3e23fc18,0xbda9f116,0xbd439e53,0x3c9fb2ad,0x3dbf3bd9,0x3b99dff9,0xbdd5be12,0xbd39ea0e,0xbd78391c,0x3d17cfa2,
0x3ba4db12,0xbd30f017,0xbd4cb4d4,0x3e00c753,0x3d41971a,0x3deff819,0xbd5d0aa9,0x3e110732,0xbdaf382a,0x39b8c013,
0xbdff0860,0x3cfd872f,0xbd607431,0x3db4943e,0xbe0cbd9f,0xbe01bd62,0xbd66e9c5,0x3de54734,0xbe25f010,0xbe123454,
0xbda8cc7c,0xbdd8c85c,0x3e3ba1f1,0xbe85ff43,0x3db121e6,0x3dead3d0,0xbd8792ae,0xbd03cbf0,0x3d0267e1,0xbc82448c,
0x3d36329e,0x3c3ecfd0,0x3da5ce97,0xbd9f0e4c,0x3d086609,0xbc485f23,0x3d0aa1be,0x3e63b689,0x3caaa94c,0x3c699fec,
0xbd2a3817,0x3daf18b9,0x3affaa88,0xbd7a3e00,0x3e0e2675,0xbcaebca2,0xbcf7e3dc,0x3d27b015,0x3da881f5,0x3d1a2e56,
0x3cd7c4ca,0xbcba2f8a,0xbbc27e58,0x3dd3e6bd,0xbd119383,0x3dc265a8,0xbd5632f6,0xbd241a7d,0x3e2780d1,0x3d530823,
0x3d1a1867,0x3d6efd9b,0xbe02975a,0x3ddcda2b,0xbd9af20d,0xbc90a78b,0xbd37d94a,0xbcacc05f,0xbde635c4,0x3dd1e82d,
0x3d9539f9,0xbb904ff8,0xbdc913d4,0xbd4cd92d,0xbc15b7e7,0x3caaa1ef,0xbe009969,0xbd38f84a,0x3cf51ad7,0xbd343936,
0x3dfaaaf9,0xbd867463,0xbd238791,0x3ce6f1a2,0x3e186004,0x3dce7fb7,0xbe4b8b9e,0x3d9c9572,0xbdd78a40,0xbe01efb5,
0xbda48d95,0x3d4f45d0,0x3d08d444,0x3d76bee7,0x3d8d7ec0,0xbd5d7e7c,0x3dae3ba5,0xbc73bbb7,0xbdc81b13,0xbe282c43,
0x3dedd5c8,0xbda69821,0x3e7548d4,0x3a97ecfb,0xba1e2b60,0xbdd54bb9,0xbc3d7893,0x3c206c46,0x3d0cb316,0x3e289e51,
0x3db27ffe,0xbdf6353f,0x3d8619bd,0x3c4aaa73,0xbda1044e,0xbd51b315,0x3e6cb61b,0xbdcadac1,0x3e732e12,0xbd4d1dcc,
0x3cd8c9dc,0xbe044ce4,0x3d838905,0x3ddd17ea,0xbd26e9c1,0xbdb6c68b,0x3e786183,0x3dfab92a,0x3dc76b41,0xbe177275,
0x3d80470b,0xbe3bf098,0x3de2dbe8,0xbc9fafd9,0x3ddec6e2,0xbd627e4c,0x3c03caf1,0xbcbbd602,0x3bc5eb70,0xbcab651c,
0x3d051a0a,0xbc0236d9,0x3d1a47a5,0xbd1c9ae8,0xbcf521b0,0xbc73c50f,0x3d067406,0xbdb6376d,0x3d86373d,0xbbee1fcf,
0x3d3c3303,0x3b39cd47,0xbbf69606,0x3b826a95,0xbc9d6052,0xbd8bca37,0xbc3b9edb,0xbd1311f2,0xbc7c8c7e,0xbc9e16b1,
0xbd0e95f3,0x3cb96e91,0xbdd13dca,0x3cbf6a3d,0x3b6b8b50,0x3cf5000a,0x3d40ff1c,0x3d91d549,0x3bf9a0ce,0x3cce406f,
0x3d4dcfe2,0x3d5120a9,0xbc3edd68,0xbd2ca38b,0x3c9292b6,0xbc6fe912,0xbcbc0c99,0x3dfd7fd9,0x3c3495a3,0xbd592abf,
0xbd85f2c4,0xbb8e4784,0xbd2e4218,0x3d989c11,0xbd7480ce,0xbd636289,0x3cf25a04,0x3d8dc367,0x3d0c622f,0xbc2c4345,
0x3b42fa94,0xbd2f9067,0xbce42cdd,0x3d578d66,0x3d3fd088,0x3d9318f4,0x3d5fbb5b,0xbd24e6d8,0x3c62abba,0xbd668fb2,
0x3d198afd,0x3b13d21d,0xbcbbdb37,0x3d3e7985,0xbcc0733c,0x3d2d78d7,0x3cdf445a,0x3d7b3ad6,0xbdb3f704,0x3cea56bb,
0xbd0438e0,0x3cb8974e,0x3d1afe9a,0xbd49af4a,0x3bfb610c,0xbd223be5,0x3d2dc4f5,0xbd60e99f,0x3bbe7fcd,0xbd31cac8,
0xbd83d66e,0xbd695ddc,0xbcaadec6,0xbc22bd25,0x3d187a15,0xbcaaf2be,0x3c2ab07b,0xbdbfb716,0xbd8fc226,0xbe0529ea,
0xbb61b6f8,0x3d8b640d,0xbd8e7f58,0x3d8cdfd0,0x3e7acc84,0xbdee4f0e,0x3dc15e26,0x3dfd7441,0xbe5c526f,0xbe484ea7,
0x3e346e47,0x3c0350f1,0x3d32d380,0x3d28bdfa,0x3d6cc101,0xbdbb4486,0x3c49a85e,0xbdbb9dc8,0x3dfac73b,0x3bc88cd5,
0x3e4de1b6,0x3d5d2d28,0xbd2fdde5,0x3de0e333,0x3d069ef2,0x3ce1ed44,0xbd024e22,0x3e823482,0xbd33669d,0x3e0154bf,
0x3e3917c6,0xbcfde8d5,0x3de0860c,0xbdbcd227,0xbdd1eeb4,0x3e238d17,0x3d66d271,0x3d970e51,0x3e757dcf,0xbe0429bf,
0xbc0a1de4,0x3e58d3a6,0xbe24f6a3,0x3ee0a65c,0xbde42f3f,0xbd8a1105,0xbd3bb5ff,0x3e1d3d90,0x3e1584e0,0xbc8be930,
0xbe581601,0x3ea0b1c9,0xbd194a8e,0xbd814332,0xbc521a75,0x3d35c483,0x3d20ba6b,0x3dd15f9b,0xbcb55891,0xbd7c3777,
0xbe6393c5,0x3e02b3fa,0x3dedac23,0xbd0e9437,0xbe00c319,0x3d83a513,0xbce9fd9b,0x3d6343cd,0xbdc29886,0xbdbe486b,
0xbda0f118,0xbdf78f17,0x3d9827b1,0xbe84a052,0xbdd03d58,0xbe3b82c4,0xbd0e29eb,0xbe174f65,0x3dc48405,0x3d8f001a,
0x3e2ad841,0x3d0b1d4e,0xbe203d71,0xbec38779,0xbc27aae3,0xbe93fa32,0xbe2a100f,0x3c35e1ad,0x3da8e7b3,0x3e226980,
0x3e79e001,0x3df2cd5f,0x3d047f72,0x3d1289a4,0x3e95311e,0x3d1e3f3a,0x3e2d39b2,0xbe255164,0xbcbd91e3,0xbc9a1786,
0x3b973c3b,0xbcc13078,0xbe0ee9ff,0x3d3b7516,0xbd035da9,0x3d6e926a,0xbe4a8efa,0xbc80c4d7,0x3c570ff6,0xbe00db75,
0x3db7610c,0x3d81b277,0x3e2de013,0x3e08baa4,0xbd26f4ca,0xbcd9f16e,0xbdfea569,0xbdf2b813,0xbd2da75b,0xbdc60f2c,
0xbc4c6e64,0xbd4b52cf,0xbdd8943f,0x3ded6173,0xbb6e7070,0x3d884cda,0xbb8837e8,0x3ddec924,0xbda451b6,0xbe06ea9f,
0x3d5367ab,0x3de1a554,0x3dff0482,0xbbe5552a,0x3da0b25b,0x3df0c00f,0xbe386e5c,0xbe19878c,0x3d417f6f,0x3c134cef,
0x3d1b8e2e,0x3dcd6556,0x3de5cb5f,0x3c8a2e97,0xbd0eb1df,0x3dc42259,0xbc404607,0xbe060915,0x3d831941,0xbdc9de01,
0xbe0725e0,0xbdadea76,0xbd9b9921,0x3d587afc,0x3dd26bfa,0xbdc34051,0x3d75dd20,0xbd0891e2,0x3e26ad73,0x3e008d3d,
0x3cf940c5,0x3e32d6b3,0xbde42852,0xbb623850,0xbd7733a8,0x3e14a58c,0xbde343e7,0xbdbdddf5,0xbd1c8eb0,0xbe0cd69d,
0x3d02ac00,0x3db030cd,0x3db23406,0xbd98e67e,0xbdb8539b,0xbde0bc66,0x3e5c0e6b,0xbd8e899f,0xbd107495,0x3d8e89c6,
0xbde96404,0x3d2654f5,0xbdfa556a,0xbe071211,0x3e1bdeaa,0xba711bbc,0x3d3d724c,0x3b2f1514,0xbe5043f9,0x3d83c916,
0x3e5f6a0b,0x3cc92cc6,0xbde087a5,0x3e0e98da,0x3d28b153,0xbca1729f,0xbd733c02,0xbd0cc1a8,0x3d8d9f7f,0x3d476f03,
0x3dbe465f,0x3d0c2654,0x3c839e7b,0x3d28458f,0xbd8abb68,0x3de499f7,0x3d0dbba1,0x3cf9a368,0xbd6411b2,0x3dcdb3fb,
0xbce056b1,0x3d29fd62,0x3ba988e0,0xbd4df70c,0x3d2c9907,0x3d1618b0,0x3caf4dba,0xbd5a8053,0x3c806e27,0x3d0c4118,
0x3c6c0081,0xbd388531,0x3decc84b,0xbc1f5dbf,0x3c6b2b34,0x3db0e465,0xbca476c1,0x3d5918a3,0xbcd8ef71,0x3c5c3a47,
0xbcd8d725,0x3d901784,0x3af9dd35,0xbd95e963,0xbd8a1ac7,0x3d132ce9,0xbccb52bd,0xbdfd323a,0x3e4d363d,0xbd4a547f,
0xbb889676,0x3d80030f,0xbd2723d8,0xbda4c42d,0x3d53a5ca,0xbd504d69,0xbb95336f,0xbd1b3309,0x3d1dd862,0xbcd81e35,
0x3c5e675f,0x3d91908b,0x3c14d89e,0xbcabcf0c,0x3d792fe1,0x3d809d03,0x3d01de4c,0x3cb6a8b0,0x3d310205,0x3c33ab86,
0xbd110ec3,0xbd53856b,0xbdac31ff,0x3b70e51f,0xbd4d4b9d,0x3d6b566e,0x3de2ccf6,0xbe454195,0x3dcb1704,0xbde28189,
0x3d683c95,0x3b8b54b5,0x3dfb3901,0xbcfd30a8,0x3d3ffe14,0xbdbc4c00,0xbdc9405b,0xbcde1f4b,0x3bc1599a,0x3e2a29bb,
0x3e012e0e,0x3daebfdd,0x3e0b54ac,0xbda5a63c,0x3e191c01,0xbd867067,0x3dd13884,0xbe113d34,0xbc642fb9,0xbd183a93,
0xbc47b9a7,0xbd9ba840,0x3cf847be,0xbd0419ff,0xbe28b4e3,0x3d06f557,0xbdebed9f,0xbc98302b,0x3de50ba2,0x3d15cf33,
0x3e749fc6,0xbdf6ef6f,0xbd2b235c,0xbcebd54a,0x3d927c85,0xbcf5543e,0x3e1e5c07,0x3e33939e,0x3da05f07,0xbd6c4cd7,
0x3b4609b2,0xbe122dfd,0x3c3bfe89,0x3d59793e,0x3d1f10c1,0xbc273481,0xbd127d11,0xbe4398de,0xbd715677,0xbb8fe437,
0xbc2996a9,0x3b2b8e94,0xbe1fb774,0xbd036643,0xbd9aed81,0xbceb5420,0x3e24941e,0xbd3ba4d5,0x3e16a549,0xbd36207c,
0xbd630cfc,0xbd2ee90c,0xbe4919bc,0xbce0c178,0x3da39a49,0xbe083f85,0x3dc6e9ea,0xbe375366,0xbdb78e82,0x3b8e616e,
0xbe0c5cdf,0xbdc53018,0x3c3e719c,0xbd067fa9,0x3dba658b,0xbc293dc0,0x3d4908fe,0x3d8ddd93,0x3d510905,0xbd20c11f,
0xbdb90f53,0x3d43a7d5,0xbd82eff6,0xbde141b7,0xbd836653,0x3c3858f3,0xbc66189c,0x3dcfc426,0x3dd1b311,0xbd870305,
0x3d5c28de,0x3d4aff06,0x3e057a7d,0xbe1d1767,0xbdf8a60b,0xbdb5965d,0x3bf9d0d3,0x3da61df8,0xba756849,0xbd6bee42,
0xbe0c709f,0xbd0a6478,0xbc5b1fa7,0xbe08805b,0xbdd95b6a,0x3d355378,0xbdd5f9ac,0x3c2cd386,0x3c9e6a4f,0xbc87759a,
0x3d5b816c,0x3db0deb3,0x3bdaf9af,0xbdf46860,0x3da0d538,0x3db07b36,0xbca042d8,0x3c408fc7,0xbd5799c9,0x3dbcfece,
0xbc8c5962,0x37225f4d,0xbcc976e8,0x3d089dbd,0x3c893b7c,0x3de33aac,0xbcaf47c8,0xbd7d6ab7,0xbdcb52db,0x3d995028,
0x3dad7d88,0x3c7bb205,0x3ab8ef06,0x3d13195b,0x3d2c9d27,0xbd1a8793,0xbe0d5edb,0x3b9e0daf,0xbd2043de,0xbb98ccbd,
0x3d8660cf,0x3d312a32,0x3d999c4d,0x3e28378f,0xbd5bbb6a,0xbc05613d,0xbd477f48,0xbb613a89,0x3bbf87fa,0xbd9eabe3,
0x3ce3ca3e,0xbdeaa6cf,0x3d2a0a17,0x3d641c75,0xbc8c7920,0x3d8c55ed,0x3c2233f5,0xbc6925f7,0x3d9db2ec,0x3d791ec3,
0x3da59594,0x3c7303d2,0x3e26f67a,0xbcff9fa4,0xbdd19bcf,0x3db4ede7,0xbd88aa94,0x3dbc1c4d,0xbdb2c203,0xbbb3d5a9,
0xbc4008f4,0x3dbd4976,0x3e06971a,0x3dbb4d2b,0xbcd1e353,0x3b31b396,0xbda7e6a5,0x3d4db15a,0x3d0ac417,0x3dc180ee,
0xbe2c8c1c,0x3d2f610d,0x3d274934,0x3d516106,0xbda58bb3,0x3da7e8a5,0xbd8a91b9,0xbe1902fe,0x3c0327e1,0x3d548f47,
0xbccf1cec,0x3cce3f83,0x3d6c5b53,0xbc29ecb9,0x3d00fd76,0xbda7fa5e,0xbdc42bb0,0xbe113347,0x3b32309d,0x3dbab40b,
0xbd14583d,0x3d9add23,0x3d243942,0xbd150239,0x3e2c2a3c,0x3b97e14c,0x3d3764bc,0x3d99827a,0x3d60cd87,0xbd2b77ce,
0x3c8ba3d9,0x3d539c67,0x3e4953fc,0xbd2abadf,0xbc92ddfa,0x3ceeea94,0xbd6b1d91,0xbd97c149,0x3d70231a,0xbd468053,
0x3c34b231,0x3d87420f,0xbd85ab09,0xbd8e1f21,0xbd5e96ef,0xbe1de569,0x3dee00a5,0xbd267e6f,0xbcb0530a,0x3e6632f0,
0x3dbffcbd,0xbcf05286,0xbd687b6e,0xbd50523f,0x3e86a152,0x3d5da19d,0x3aefe43a,0xbb69d672,0xbdd2ef8b,0x3d13209d,
0xbbcd4940,0xbd9473cc,0xbd7a8538,0xbd279b06,0x3e00dfd1,0x3b0cf89c,0x3c8ffaf9,0x3c6000b6,0x3d7b9a9a,0xbd332514,
0xbd94f280,0xbc3ebe44,0x3dabf95c,0xbdfa7e20,0x3d072032,0x3d85bbf9,0x3e20c5ab,0xbd9de222,0xbdfd59ed,0xbe9421eb,
0xbe27fdd8,0x3d8c54d7,0x3c20c652,0xbd0efb73,0xbddfdd65,0x3d85507f,0x3d88d2ef,0x3e450de8,0x3cf6ab91,0x3e392b92,
0xbe06d0b4,0xbbfb67bb,0xbe031d9d,0xbdaedaff,0x3c0ddd9a,0xbdc355ab,0xbdb5c144,0x3d418d99,0xbd5afece,0xbc17e2a9,
0xbd828615,0xbd56fa54,0x3d6555f1,0x3c41557b,0x3c3733c1,0xbc6bee9f,0x3df4416e,0xbdd9089c,0x3da32a6e,0x3c43cff6,
0xbdb4e28d,0x3cdb0cac,0xbd9c0e07,0x3e4b8112,0x3e357e7e,0x3deb8cf4,0xbd4ac840,0xbe81d223,0x3d3bbb05,0xbd6ed90b,
0xbdf849b1,0xbcd37e03,0xbe104bc2,0x3d20b9a9,0x3e2183a0,0xbdb1b08d,0x3d2e2962,0x3dc0f749,0xbdf74b28,0xbe167029,
0x3d46c0a7,0x3c00128f,0xbdd9cc36,0x3c455add,0xbc95ecee,0x3e0e2829,0x3cb5e04b,0x3db0a740,0x3c1e109c,0x3d0fc3aa,
0x3d03391d,0x3d9889d8,0xbd71780a,0x3e467ff5,0xbda7f285,0xbdd6c32f,0xbb9ea920,0x3c2f186f,0x3e08be67,0xbd3bd037,
0xbda36469,0xbdb24fea,0xbe00a785,0xbcac2bd3,0x3d8e4ab6,0x3e8a34c8,0xbe2c3497,0x3ce42380,0xbd9580fe,0xbd499980,
0xbdb511e9,0xbca64911,0xbd1a056d,0x3c43ac5f,0xbc0bdba9,0x3de108e2,0x3d100ded,0xbdc79ea0,0xbca3992f,0x3db46a67,
0xbe134a24,0xbd8103c9,0x3cab0bfe,0x3aa255b8,0xbe06fb47,0xbe7d5f7b,0xbde9477a,0xbe005ce0,0x3d2202b7,0x3d9f3564,
0xbb8964f2,0xbe0601bf,0xbdd6316f,0x3de125cf,0xbdf10f46,0xbc11a347,0x3d1db14e,0xbd0b9bac,0x3dae0d44,0xbd2d53fc,
0xbdbdf775,0x3ddb8015,0x3d32986f,0x3e0cc5ca,0xbc009a66,0xbe0090dd,0xbd0ddad6,0xbb2aad18,0x3d0d3fda,0xbe0f4d39,
0xbd0d1bbb,0x3d9a7702,0xbd79fe95,0xbc40881e,0x3d910453,0x3dd523d6,0x3d0e452c,0x3cc48444,0xbddfd707,0x3dbe8421,
0xbde6870e,0x3d8a1875,0x3dfb442c,0xbc04ca20,0x3da4005b,0xbc1c204e,0x3db9fa5d,0x3c0f9981,0xbe601328,0xbd7d36de,
0x3e1d76f1,0xbd3143e1,0x3a2fd687,0x3d5939bc,0xbc5a0657,0x3d74517e,0x3da5e511,0x3d0ba258,0xbe033dc6,0xbcac8c9a,
0xbd259c7e,0xbda39f31,0xbcece4c2,0x3bf399f0,0x3dfd8a46,0x3ceeb7fb,0xbd67f001,0xbdd08a94,0x3d607642,0x3d3ed5cc,
0x3c472512,0x3d2f928c,0x3db068f8,0xbe0b94e4,0xbc1be5b8,0xbce8be0c,0x3dde2789,0x3d321d53,0x3a8a9f5f,0x3df1912c,
0xbd8fe041,0x3e2a2c53,0xbcdcdc2e,0x3d156639,0xbd1026d0,0x3d1f9052,0xbca33b2d,0xbbade6ed,0xbd836d51,0xbd358cc6,
0xbd0dfb5a,0xbdb63f1c,0x3da6c4d2,0xbc97c4cd,0x3d8cea45,0x3d6f6abf,0x3d972a40,0x3d20b323,0x3be245f1,0xbc17585b,
0xbb9bd618,0x3c8958a1,0xbdc8a7a2,0xbdf1203f,0xbcab5f28,0x3c939c4f,0x3d3b8108,0xbd878ce9,0x3db3f491,0x3e3cadef,
0x3e058ebf,0xbb00566c,0xbcfc030c,0xbcc07be1,0xbd64bd4d,0x3d84e0e5,0xbd791add,0x3da00953,0xbce22795,0x3aff9268,
0xbd0bec81,0xbd27c60e,0xbd9a502f,0x3c759078,0xbdadaa0f,0xbda4606f,0xbdbbb2df,0x3d826a83,0x3d6eeac7,0xbd23e08c,
0x3bcb57c6,0x3d1bb177,0x3e3438b4,0x3d94f452,0xbd4aa6d6,0xbe450bff,0x3d44226e,0x3da303ea,0x3dba39fd,0x3dcfe9d8,
0xbd54eecd,0x3c32296f,0x3db47620,0xbc17e24a,0xbd6d1176,0xbd4694b8,0x3ccc7af1,0x3ace47fe,0x3cb9c7ab,0xbd6567ba,
0x3cc647bb,0x3d7b550b,0xbd839f03,0xbd063efa,0xbc8c26db,0x3b82416c,0xbdba15d3,0x3d2f8e0f,0x3dfd2dc7,0xbc5b12ab,
0x3cb725c5,0x3d67833b,0x3d867f1f,0xbc8286ad,0xbcb3e8c3,0xbc93e7e1,0xbc66938a,0x3c76db78,0xbd9c6cb3,0x3cf2d15f,
0x3d8193cb,0xbcea974a,0xbcb08ca9,0xbc1033ec,0xbba01754,0x3cc95fe8,0x3dd08dbc,0xbc83a714,0x3d050b37,0xbda8dc8b,
0x3d47dbe7,0x3bee24c0,0xbbe46f54,0xbd76b9cd,0xbdcac21e,0x3de47d5e,0x3c27d4f7,0x3cfd4bfe,0x3e0d1ce8,0x3dfc184c,
0x3d44df4a,0xbd83449c,0x3dd01825,0x3a9e40c3,0xbc1f9267,0x3df4357f,0x3e0b49fc,0xbe1099a5,0x3dcd7386,0x3caee014,
0xbe91a35e,0x3d548500,0x3de5df20,0x3cbe6b05,0x3cffb7da,0x3d7e5323,0x3dc96927,0xbd5c3645,0x3cc03917,0x3c9d1e20,
0xbddf4bbe,0x3c25e27d,0x3da19bbe,0xbd115d26,0xbe167389,0x3deec09a,0xbd0f6e59,0xbda8e4d3,0x3d328395,0x3e17f3f5,
0xbc037121,0x3bb44197,0x3cb91c23,0x3d6b2a6f,0x3c528acb,0x3d78dd87,0x3dbe72d9,0x3db3d50f,0xbc0bc4e5,0xbdb106bc,
0x3df9376f,0x3d6667f7,0xbbfe00c3,0x3dcf8a6e,0x3dd6957c,0x3db525bb,0xbb675d5b,0xbd474ba4,0x3e2b858a,0xbc406ecb,
0x3d7fb001,0xbdc18f34,0x3ce1aa87,0x3a47b5ec,0x3e3703e2,0xbd080704,0xbc41f9f7,0x3c090ab3,0xbd919f70,0xbc95c14b,
0xbd25e71f,0x3c4e4985,0xbc86b610,0x3d4ec23b,0x3d563a4c,0x3c4b5389,0x3d3aa106,0x3ba2ac3f,0x3d70453b,0xbd33e407,
0xbd10ffae,0x3ca90c01,0x3cfc5a79,0xbcd9c59f,0xbc0fa5f8,0xbca77e0d,0x3d56b67e,0xbcb80620,0xbcd295b6,0x3d57f01e,
0x3d1e1ecd,0xbceb4976,0x3d1365c6,0xbda3626c,0x3cd0afa4,0x3d8fe18b,0x3d1566e4,0xbc978113,0xbbfa8937,0x3b07dbf7,
0xbd43be78,0xbc86cad5,0x3d8db32f,0x3d9c3a63,0xbd6c7ba0,0x3e02a9d2,0x3d7c5d87,0xbc6da944,0x3dc448fc,0xbc5a57a9,
0xbc4cf4a9,0x3d1b6708,0x3d054f58,0xbc10de2c,0xbdb921bb,0x3d19513c,0x3c14ae9d,0xbebf217d,0x3cb086fa,0xbd05895f,
0x3d1ce95b,0x3d41f16f,0x3c14a896,0x3d37d78a,0xbd802573,0x3db9727a,0xbdfcb6fe,0xbd411ddc,0xbd2cb791,0xbd3612a2,
0xbe0a95c4,0xbc86841c,0x3c1a9058,0x3d5c2b82,0x3d99c972,0x3d0693a9,0x3c979c0f,0xbd9f2318,0xbd77d56b,0xbd3c3b06,
0xbcf4cdcb,0x3cb5b68c,0x3d78cd99,0x3bcb63b2,0x3d47204a,0xbd179c48,0xbd314426,0x3ce44741,0xbc64e98b,0x3d8df362,
0xbd8872e4,0x3cf39533,0xbd9b2795,0x3d364fe1,0x3ddc9cb6,0x3c6a8f04,0x3d10984b,0x3d1e0ad1,0xbbef5d0e,0xbdfa3ea9,
0x3df99eb2,0xbcc8ff7a,0x3deca59d,0xbc85a380,0x3d7d0d71,0xbc9579da,0xbdbc91d0,0x3bf23fe8,0xbca8159f,0xbce30a29,
0xbd7ee31d,0xbd854043,0x392e6c2a,0xbbe28721,0xbdd98c09,0xbdd9756f,0x3e2c7ad8,0x3c5111ef,0x3cfb3af6,0x3d9457f9,
0x3e01017d,0x3b8b6f5a,0x3d1f4161,0x3cc18570,0x3c72d2df,0xbcc463c0,0x3d073833,0xbc7b8fd0,0xbd8d7f58,0x3d14e4c2,
0xbd817565,0xbbb7d099,0xbda602e8,0x3c96761e,0xbc956944,0xbd2c1725,0xbc730f3c,0xbc330231,0x3df07594,0x3ca9f621,
0xbd892648,0x3cc43410,0xbcef8af0,0x3d7c0d06,0x3ca89514,0xbc2ab678,0x3e46e88d,0xbc7d2624,0xbd03adf2,0xbd870ed6,
0x3b330005,0xbd1e2356,0xbce85a7e,0xbcac8a1e,0xbe14da94,0xbc330fdd,0x3e0b1abd,0x3e253158,0x3d0a4041,0x3cae8cc6,
0xbc73108e,0x3cac0de7,0xbdb484b3,0xbd802fab,0xbd9fece0,0x3c84d192,0xbddcf352,0xbcd5167f,0x3d2f32dc,0xbd73ec9c,
0xbd6abd83,0x3dd68549,0xbe1b16f9,0x3ba98132,0x3dd982f8,0xbcf92e67,0xbde5bd4f,0xbd9b955d,0x3c8aecf3,0x3c64a5b6,
0xbcd72157,0xbdda9e19,0x3cb0bcad,0xbd515376,0x3c80a0e1,0x3d62211c,0xbcfcd955,0xbd8cfb7e,0x3c9c2b1b,0x3d8fb5c5,
0xbc4cfd4b,0x3d72ebf8,0x3d6a4036,0x3d4f9348,0x3d82029f,0xbd9d6f94,0x3d0c6f2f,0x3cc134cd,0x3b88b5f3,0xbd948a6d,
0x3c07e4fd,0xbe4914e2,0x3dadd875,0xbd156585,0xbdc71d70,0xbc8dcd3b,0x3c9338ee,0x3d1ee63c,0xbdac335c,0xba1929a7,
0xbd82cdbf,0xba958ef0,0x3d86830a,0x3ca645a2,0xbd53fd18,0x3e36dc71,0xbba66bce,0xbd953334,0x3dcc67eb,0x3d5ab960,
0xbd24e4fd,0xbdf9f70f,0xbc69d84b,0x3df24348,0x3e1afd59,0x3dca1735,0x3d587163,0xbcdffc79,0x3d230d91,0xbd1c562f,
0xbdb13253,0x3c5c61a2,0xbd3e7f4e,0x3d789412,0x3d28c6f6,0xbe1e93b4,0xbcd2f4be,0x3e350914,0xbcae0e99,0xbe079bd6,
0xbd63ba62,0x3b4eb36c,0xbbb66c75,0xbced2086,0x3c865a25,0xbca9782b,0x3d254f94,0xbe2d5923,0x3e0b21f7,0x3c2441c8,
0xbccbfe41,0xbe076400,0x3b20ef1d,0x3d999cc1,0x3d6ccb54,0x3d2ea5e6,0x3c84ed6c,0x3ce50021,0xbcb8a61e,0x3c585642,
0x3c404470,0xbbd9169e,0x3da329ab,0xbd97909d,0xbbe106d5,0x3e0e7a4b,0xbd0b6c44,0xbd0f2b28,0x3ce9e567,0xbe04242f,
0x3c596975,0xbd939260,0xbce53cd0,0x3c27c50e,0x3dedc46f,0xbdc800a8,0xbcc1faea,0xbe01c5d4,0xbdf3d4b1,0xbe16f34d,
0xbcbd250c,0x3db764bd,0xbe11df77,0x3e16615d,0x3e15df6e,0x3da03e6d,0x3e434fef,0xbc71b660,0x3dc98f10,0xbe20cc7b,
0xbc7f4c4e,0xbde45805,0x3c7750c2,0x3da8dcc1,0x3b82845f,0x3d609a42,0x3d771473,0x3dab1025,0x3e117e39,0x3cbe37ad,
0xbda55e4b,0xbce8bf9e,0xbd3b0c3a,0xbdea24c5,0xbcec1d9b,0xbd86d23f,0xbdb80c6e,0x3c203f0f,0xbcd63e79,0xbd1bc939,
0xbd9bcffb,0x3d974f22,0xbdec2f24,0xbd4b6a43,0xbddeca76,0xbc3c4efd,0xbd03ec99,0x3be0c78f,0x3bc8a873,0x3d6f3451,
0x3d44f338,0xbd7b4df2,0xb9ebdda7,0xbc335d5d,0xbbd04f88,0xbb538bf4,0xbd332a76,0xbdb9f923,0xbca5100e,0xbd8846f1,
0xbdac61f7,0x3db3d415,0x3d529a56,0x3e1dc36e,0xbca5b967,0x3e3f4872,0x3d77b232,0xbdd1a4df,0xbae1df55,0x3cf99a9b,
0xbda90ced,0xbd2738a4,0xbd9aba85,0xbbb330e9,0xbe23aa24,0x3ca34c98,0xbe09fe49,0xbc3cee14,0x3ea79824,0x3d87eed0,
0xba8fa9f4,0xbd3a4400,0x3d3cc785,0xbd2097a2,0x3d71a28f,0x3cb5d22a,0x3dabd6fe,0xba2e51b2,0xbbc82b4e,0xbcdf29f1,
0xbbd92b44,0x3c229bfd,0xbd05fd4e,0x3bd93826,0x3da0d721,0xbe66183b,0x3cb900a8,0x3d91f28c,0xbc652318,0xbd70aa1b,
0x3dec158d,0xbd97a137,0x3de8a59e,0xbd94b34e,0xbd230f69,0xbdc12417,0x3db556bc,0xbd94f055,0x3c8c165e,0x3d8bff5a,
0x3e770afd,0x3de81503,0x3d0a3e52,0xbda991e8,0xbd691691,0xbd6d9be5,0x3cf1c9a1,0x3dcde945,0xbc6fe606,0x3cbbd6d6,
0xbd64da5a,0x3c8e5f36,0x3d3d565f,0x3cb2e5e1,0x3d6c3c90,0x3d55b16a,0x3c7d5618,0x3b97bd75,0xbd063914,0x3adb1ae1,
0xbd3ce16d,0x3d7fddc6,0x3cf09cd7,0xbcf67b7e,0xbc2dde6d,0xbc1ce287,0x3e0544a4,0xbe08e657,0xbbb829e3,0xbdd622e4,
0xbd979341,0xbd28132d,0xba8cb2eb,0x3bde8c00,0x3d8890fc,0x3d16f0df,0xbd2c941d,0x3d2c9d1f,0xbc5c5633,0xbc4af1bc,
0x3d94f1f5,0x3d983731,0xbd19a405,0xbc72f4a5,0xbd80b387,0x3d4681ac,0xbdddd905,0x3d67bd8b,0x3deb8b95,0x3bfd739a,
0x3de9665a,0xbd8ce262,0xbd243d00,0x3d689dcc,0x3c0235f4,0x3df0e0ce,0xbd81b4a5,0x3c98b56b,0xbd8ef94c,0xb9311731,
0x3cb2d6a4,0x3b87a86c,0xbc6e6b92,0x3d932e5b,0xbdac3dd9,0x3e376186,0x3bd74771,0x3b34573a,0xbce0213c,0x3d5076fa,
0x3cdda6aa,0xbc3286a8,0xbd64a55a,0x3d15928d,0xbd7cd150,0x3dbdd9b6,0x3e075813,0x3b8745c6,0xbd81fc75,0xbb47fc65,
0x3da6f557,0x3cd31412,0x3ddf0d87,0x3da90b6a,0x3a3b640d,0xbda12fac,0x3d48cdfd,0xbcb88781,0xbd6a8827,0xbda7ebac,
0xbad06c55,0x3e28846e,0x3d06e605,0x3c3b089f,0x3dd310ef,0xbe585362,0xbd4ff17b,0x3bc24be1,0xbd48db0b,0x3d8d6965,
0x3d7dd039,0xbda7cc42,0x3bcdb4c8,0x3d494c20,0x3bddafeb,0xbd2615c9,0x3d53abd9,0x3dd0f62e,0x3e23fa49,0x3da6450b,
0x3c90753c,0xbc91c597,0xbcd9bb9e,0xbd829ce9,0xbd92a1eb,0xbd0796bd,0x3d2a52bf,0xbbd7360c,0xbd9c6494,0x3d903dc1,
0x3dd9e0dd,0xbc658be5,0x3c8fcc8b,0xbdf8cddd,0x3e06eb47,0x3c618ca2,0xbd22b5c0,0xbb6a7ef1,0xbb1b8c7e,0x3dc97893,
0xbc6cd387,0x3c8cd686,0x3d59854c,0xbddb1017,0xbda335af,0x3e163433,0xbdb46045,0xbde65407,0x3e1e8404,0x3d9b8d68,
0xbe38ed30,0x3dc83e84,0x3e46fb2a,0xbcef1883,0x3b993018,0x3d2fafbd,0xbda77c4c,0x3e1e4375,0x3db46093,0x3d2b4ede,
0x3e418bb3,0xbd4755e8,0x3d6826c6,0xbd7440a8,0xbd1f30ad,0x3c517cec,0xbd67a05e,0x3d09e13e,0xbde15e73,0x3cf0bc90,
0x3bda0b95,0xbc540c04,0x3ec2c58d,0xbe2a8dc7,0xbdedd1fd,0x3e27b263,0xbca200fd,0xbd96de47,0xbd3f49d1,0x3da57519,
0x3d70344b,0xbd79bf63,0xbd9de267,0xbe207c05,0xbdb6f068,0xbbcfb15b,0xbe5a6c9d,0xbdb586d4,0xbd942898,0xbd17837d,
0xbd488231,0xbe28d5d1,0xbb932ef8,0xbe1af77f,0x3dd40d2d,0x3e31d0c9,0x3d582c85,0xbda5f1d7,0xbd2e864d,0xbd8d32bb,
0x3cdf3d5c,0x3e40aef5,0x3d12a374,0x3e7305b9,0x3d619f79,0x3d15745a,0x3d6738c6,0xbd59a983,0x3cc67fac,0xbdc6961e,
0x3e23615e,0xbd8c1932,0xbd8e4b0a,0x3cfdcd51,0x3d2f1fd7,0x3ba206d5,0x3ce844c5,0xbd9f9db8,0xbca5a395,0xbbebfb6d,
0x3d3395d9,0x3da589c8,0x3e04da7f,0xbd062e71,0x3cf91e54,0xbd303055,0xbd3a1f63,0xbc81ef48,0xbd9a40bc,0x3df4f396,
0xbc19012a,0xbda45795,0x3c1f7b1d,0xbdd47cea,0x3cb70104,0x3d312eca,0xbcf3d9c8,0xbbd913cf,0x3b58373b,0xbd845130,
0xbd52e7c4,0x3c26ba93,0x3df482f2,0x3c1bec09,0xbd9c195b,0x3ccaa69b,0xbe2f13a2,0x3dc9401d,0x3e35b525,0xbcaa6d7f,
0xbd1fd364,0xbcaebf5a,0xbd62f2cc,0xba04576b,0x3caad14e,0x3db4307f,0xbc99d3c4,0x3d713245,0x3e1a6231,0xbd63572e,
0xbb998a7e,0xbabe5fb5,0x3db6a1db,0x3ddbb933,0x3d3accfd,0xbd9a6330,0xbe067a76,0x3d385ee7,0xbc24ec91,0xbe3ec8b9,
0x3c5492df,0x3bb2716e,0x3c877466,0xbd2c4d79,0x3ddd983d,0xbd2e15d8,0xbd381bea,0x3d27a775,0x3e4d1788,0xbd9920d1,
0xbc9371b5,0xbd6e115f,0xbdc08b09,0x3b52affc,0xbd93dd29,0x3c176b5e,0x3d98dec1,0xbe13cb84,0x3b1bcdc2,0xbb57d471,
0x3e4b4af5,0xbe03bec4,0xbd3f3846,0xbce219ea,0xbc796919,0x3d337f78,0x3d017821,0x3d529e70,0x3d954419,0x3e1c9636,
0xbc781801,0xbe045efc,0xbc14c894,0xbd86895c,0x3d20568f,0xbd756161,0x3af5e971,0x3e78c12c,0xbca18dae,0x3d8fa6d1,
0x3d187fa4,0x3e295649,0xbcc077e9,0x3d972a2e,0x3cddac5f,0x3c9a5fea,0xbca34943,0x3da24e40,0xbd67b2a3,0xbd4be5b1,
0x3c24f3eb,0x3d457ec7,0xbdc930e7,0x3afa230e,0x3da368ce,0xbadabdec,0xbc89de0e,0x3d1998c3,0x3cc3b331,0x3d9afdd7,
0xbc41f909,0xbb1c7259,0xbdbc95af,0x3ce1d7b0,0xbb9c587e,0xbdc97b56,0xbd202e01,0x3cb1e280,0x3da52619,0x3d64af2c,
0x3dc221fa,0xbc0fb78e,0xbd48dfe4,0x3d7c6f2e,0x3dfb4a4c,0x3d0f81bf,0x3d33be8c,0xbda6cc60,0x3ce9fbff,0x3d74327d,
0xbcfbad6b,0x3dc241a7,0x3dd11569,0x3d570e12,0x3d040ade,0x3de749f0,0xbd8f15fa,0x3d54a49d,0xbca7865e,0x3dc1d09b,
0x3d18e396,0xbcd643a7,0xbd97dfc2,0x3d2e0c96,0xbd2648ad,0xbd3b0ba4,0x3d453a61,0x3cb728da,0xbd83b489,0x3e114392,
0x3cfbed92,0xbbda8e13,0xbd00927f,0x3cb46221,0xbdc23e62,0xbd393dad,0xbd027577,0x3cb64511,0x3c1bd18f,0x3ca92195,
0xba286e0d,0x3bcf2b51,0xbd81ccf8,0xbd15f3c4,0x3cab9f51,0xbc957140,0xbba4532b,0x3d66704c,0x3c50db60,0x3c98db60,
0xbbdf722c,0xbd41a0c1,0xbdb19300,0x3d2bc8f4,0xbe2652ba,0x3e06b000,0x3cd320fc,0x3e0042cc,0xbb352fff,0x3d52279c,
0x3d8d5265,0xbc31ae7f,0x3be76da7,0xbe062883,0x3dd3ab2b,0x3d83afb3,0x3d52c65d,0x3d270f3f,0x3cbe791e,0x3d8c2d9b,
0xbd13fd98,0xbe3b82c8,0x3ce69df6,0xbd838a44,0x3c908322,0xbdfb29da,0xbcdb343c,0x3d56a947,0x3d9551bc,0x3d7a6663,
0x3d616a77,0x3d9a9566,0x3dd04326,0xbd5922a6,0x3de6d352,0xbdf278aa,0xbceb4a69,0xbcfa79de,0x3da9107d,0xbde3c7fd,
0xbc338ddd,0x3e1ac250,0x3cce9ba9,0x3bae3539,0x3da5fb32,0x3cb08c6b,0x3d8a4134,0xbd450371,0xbd9a2dce,0xbd121232,
0xbd1a3eac,0x3e9bc851,0x3b52230e,0x3cbc29d0,0xbba66405,0xbd8c1c0f,0xbd1306b9,0xbdb3f6ee,0x3e72b1da,0xbd98b5ba,
0x3b7540f1,0x3bf9af53,0xbdaaaf13,0x3c8e80d8,0xbd5056a8,0x3e030c0e,0xbd961b8d,0x3a7bb978,0x3e659178,0x3d9043b2,
0xbda478e4,0x3d979b5b,0x3b5f8153,0x3e379916,0xbcbe886e,0xbba63df5,0x3c0c2c4b,0x3e02dd49,0xbd1419c2,0xbd81dfbf,
0xbe1bf50b,0xbc7d5dd8,0xbd3b629d,0x3da405b4,0x3c52dc10,0x3b5ddd17,0xbb54dc70,0xbd4ee76f,0x3cf15278,0xbd263cb2,
0x3c66f199,0x3da223a9,0xbdb1a68c,0xbdd48167,0xbd8f9eee,0x3cebb057,0x3e00ff23,0xbc77df58,0x3de4834c,0x3e39299c,
0xbd849efb,0xbc3cdd9d,0xbdcf0270,0x3d867c92,0x3e4ab3ed,0x3d67e784,0x3df88286,0xbdef1949,0xbdcb5b7b,0x3de9db90,
0xbbbe2106,0xbc1ef8d8,0xbcf83631,0x3d530ab5,0x3cb0af14,0x3da2d87c,0x3c26a8f6,0x3cc52e1e,0xbc2ca166,0x3d9ceccd,
0xbd91cf57,0x3d8acf72,0xbd764452,0x3d6644db,0x3d377e90,0xbba4a629,0x3cb398ae,0x3d260ae0,0x3da77412,0x3c900c6e,
0x3cab56cb,0x3df0eb44,0x3d1b8635,0xbd065178,0x39c77994,0x39e674ba,0x3c403b29,0x3c2f18f5,0xbc1c9117,0x3c9189d9,
0xbd7b0e56,0xbdf36717,0xbc06c524,0x3be1b717,0xbca131f2,0xbd3a48d6,0x3d64ec5d,0x3d6d3308,0x3d7cb69a,0xbd8753b2,
0x3d68d21e,0x3d975cab,0x3acaa893,0x3d943a8d,0x3e17cbd5,0x3d025bec,0x3e2ecc4a,0xbc61826a,0x3c0c5159,0x3d2decf5,
0x3d1b1680,0xb99fbc40,0x3d1b2311,0x3ddb096d,0xbda82b53,0xbb5266f6,0xbd4d3275,0xbd880351,0xbd52ecae,0xbe04310a,
0xbe44ff16,0x3dfd5f01,0xbd180869,0x3cf1dbc5,0x3c58fcb1,0x3ccf73fc,0xbdf7748d,0xbe05b860,0xbcbb1a7e,0xbe0bb1aa,
0xbd16a4c8,0x3d55afab,0xbcf943c7,0xbe0b42a5,0x3dffd0a1,0xbdc5a5a5,0x3c818f24,0x3d2c756b,0x3dd2155a,0x3dd717db,
0x3cc9ed19,0x3d6427aa,0x3ca67e55,0xbe9089a0,0xbce7252f,0xbcb71cb7,0xbdabb698,0x3d7a2229,0xbd5fa691,0xbbcac7e1,
0x3db35aaa,0x3db2a53f,0x3da2f59c,0xbe1f14fc,0x3b956b1e,0x3dcadf6e,0xbd6089b5,0x3cdde1d9,0x3dc63922,0xbc61ae7d,
0x3ce1e4d2,0x3c8bce28,0x3e4305b1,0xbd97f99d,0xbbc6fbb7,0x3c129f34,0x3db80bb4,0xbdf547a7,0xbd8e3a51,0x3cdd2155,
0xbda75dd7,0xbe1026ab,0xbda7cbf0,0xbe4f4ad1,0x3ce22b98,0x3d3a9f5a,0x3d203164,0x3cc932f3,0x3e5b963f,0x3bcd75f0,
0x3c7584c8,0x3d3b0829,0x3b2e13e7,0xbd4c2c7d,0xbc1fe791,0x3d2df01d,0x3bd068d4,0x3de66db2,0xbd130845,0xbc8eda06,
0x3c778156,0xbb3eb9db,0x3e16e751,0x3da44eac,0xbdaef7c9,0xbbb6eb78,0xbe2d3c86,0xbe07d206,0xbd2e0518,0x3d8ab746,
0x3d3575d3,0x3d2c8e4a,0xbde040dd,0x3d2054e8,0x3d2b160c,0x3e38dc52,0x3d73d8e3,0x3e2aa908,0xbda32dbf,0xbd20c882,
0x3ad38374,0x3d392552,0x3d91b5d5,0xbcd84c2e,0xbe052e15,0x3d6a0934,0xbd949774,0x3d0e53da,0x3d94f159,0x3d88411f,
0xbd5e9667,0x3d89fa8b,0x3e5dc021,0x3e8485a1,0xbdfbe9ea,0x3cedc39b,0x3cfd0360,0x3dc1e18c,0xbd393816,0xbdb432b0,
0x3d9a3ace,0x3a058fd7,0xbe0f33e6,0x3d98eece,0x3e615522,0xbc848dc6,0xbc4a8b8c,0xbe008283,0x3db18828,0x3db4834d,
0xbcf3f8eb,0x3e073b17,0xbbc2669d,0x3df4b044,0xbd9fc9db,0xb98a5cff,0x3d1fb72e,0xbd99a4d1,0x3d4fd563,0xbd6debf3,
0x3ca74a8e,0xbd9a390e,0xbe087979,0x3d1fdb79,0x3d8172f6,0xbce5d505,0xbcda4126,0xbc880401,0x3d50d3ec,0x3c7f28a3,
0x3cf7422a,0x3e25595d,0xbd0485c7,0x3dc3a8f6,0x3de81787,0x3dcb2ed6,0x3cd4840e,0x3db2f9f8,0x3e39f4a8,0xbd27c0f1,
0xbda8ea60,0xbd577fd5,0x3de125b4,0x3d91bcb2,0x3c3c5826,0xbc87aa7b,0xbd61b7bd,0x3dcd72e7,0xbda154cb,0x3d6cc210,
0x3ca62949,0x3d1be4ed,0xbd62bb54,0x3d070e29,0xbbdaa73a,0xbcdf8507,0xbcea9f21,0xbb8c6bbb,0xbdbac2fc,0x3dab8e16,
0x3c7b55f8,0x3d498490,0x3e01a39e,0xbd6ceb38,0xbd70c9a5,0x3d1853ab,0x3cd60ca5,0xbceb7602,0x3dba2ff9,0x3ce5ba67,
0xbdb431cf,0xbd40bd0c,0xbdcb6c1a,0xbcd03148,0xb893111a,0x3beae5e0,0xbdb5999f,0x39ca6ec9,0x3d59f10c,0x3d174935,
0x3c970edb,0xbdff0eb7,0xbdaafe05,0x3d795616,0xbe6a013c,0xbda7e5ad,0xbc82666b,0x3ccd5a2c,0xbcf7a1b9,0x3ca60d7f,
0xbd3184ef,0xbc86dcc6,0x3da26cb9,0x3ca1d59a,0x3d63e679,0x3d4f76ca,0xbc74851a,0xbd9cc6c4,0x3bec7a28,0x3db9cb98,
0x3cf0dfce,0x3d30bc24,0x3e3c32ce,0xbbeaa52e,0xbe07dfeb,0xbc52858c,0x3d7aecc8,0x3c17604b,0x3d9e147a,0x3cb2c65a,
0x3ded589c,0x3dbd8ea6,0xbd6729e0,0x3d1d5701,0x3e09ba06,0xbd94a600,0xbd9b9142,0x3e55fcbe,0x3d285a2b,0xbd5870ac,
0x3e449f76,0xbd328b94,0x3d8cb870,0xbdb0aa20,0x3b89ef8a,0x3d39591b,0x3d1f69a8,0x3da7cc1e,0x3b957878,0x3c54fbb8,
0x3ce0325c,0xbd6d2224,0x3ad8932a,0x3d7ad722,0x3df0304f,0xbdbf6dbb,0x3c2bb6f7,0xbd7ce79a,0x3da911bd,0xbd7faa98,
0x3c9a5f30,0xbd50cd08,0xbd117d9a,0x3d3547ae,0xbda56029,0x3d859e6f,0xbd289bdc,0xbd6eb0cb,0xbc7e4cf9,0xbcc3cfa5,
0xbc90c330,0x3d75e488,0x3d292f53,0x3d0e6570,0x3da51176,0xbd30d222,0x3d7cdaa0,0xbc33ee06,0x3d78d2c5,0x3e0d9a8a,
0xbd83aa55,0xbb458625,0x3d2b9f4c,0xbc5ea1d1,0x3de642d1,0xbd30f728,0xbd532632,0x3d03ea51,0x3aed6a22,0xbc1f9922,
0xbb8e1790,0xbd70c502,0x3dd66fd2,0x3dbade2e,0xbc91ce75,0x3de723b8,0xbdfa6f69,0xbd8bee56,0xbd2a91d2,0xbd53bab7,
0xbd0ca255,0x3ea7fd2c,0x3d975189,0xbd1c6f1b,0xba9d0781,0xbd50bf9f,0x3d1e471e,0x3d61eb35,0xbb061085,0xbd093247,
0xbd2e0cdd,0xbc2a8c40,0xbd8938fc,0xbe3718cb,0xbd081d16,0xbd59d821,0x3e0cfb1b,0xbc30ddd9,0x3db4ec73,0x3c45d01d,
0xbc23529f,0x3e0b4c71,0x3d1fc85e,0x3db4566f,0x3c422000,0x3e25861b,0x3cb9b7ac,0xbc1c2aa5,0x3e4a17fd,0xbc9c3508,
0x3ddfb4e4,0x3d159b58,0xbbabebb8,0x3de56003,0x3e01790c,0x3d8ea773,0x3b47899f,0xbdf78d9d,0xbd6f3143,0xbdf4bfc2,
0xbdc7ebe1,0x3d1d4331,0x3d48fdeb,0x3c8b0435,0x3c8a1a9e,0x3dec73ed,0xbdd50691,0xbde5d919,0x3df7576c,0x3d8af895,
0x3b7846c4,0xbcd0f956,0xbe0fc636,0xbdbc9403,0xbd30a28a,0xbe2e9525,0x3aea1f14,0xbcbe1ad4,0x3ca43440,0xbc8421f0,
0xbbafa00c,0x3cfdc658,0xbe082aa2,0xbd9f8306,0xbdf228f2,0x3dc8b824,0xbdfc6275,0x3c1432db,0xbd86a47a,0x3cea57fb,
0xbdd63128,0xbe1a45a0,0x3dd11c93,0x3be94cff,0x3dbfdcad,0xbda6db15,0xbd1bbf93,0xbd2f5bc9,0xbdbc4f0b,0x3da114e7,
0xbdf04f19,0xbc26f545,0x3c18e407,0x3b9ffeb5,0x3d405a34,0x3d5b614a,0xbd70b9ee,0x3d4f7e4f,0x3c0fedde,0x3d9492a9,
0x3d3b3c00,0xbcec8c11,0xbc829847,0x3e3fae63,0x3e243d58,0xbd7074f1,0xbdc7abf6,0x3c00720c,0xbe1f4b43,0x3d48820e,
0x3e0be293,0xbbd02848,0xbd5c37b1,0xbd8492a1,0xbd5ef563,0xbd83fc71,0x3e16b026,0xbd0f9810,0xbe07065b,0xbd968dcb,
0x3dc4f8bc,0xbd95a5d8,0xbcba1fd9,0xbb279dd3,0xbe36d1f8,0xbca02024,0x3de89c7f,0xbcb09a9c,0x3e43c55a,0xbe429a9f,
0x3e5c3fc2,0xbb4672f1,0xbd68f579,0xbdcc9ece,0x3d5b0cec,0xbd13add3,0xbd12055a,0x3d69248b,0x3e3424fc,0xbce809db,
0x3c4d853e,0x3c387405,0x3dba7687,0xbd7666c5,0x3ccd0a9d,0xbe0ce2e1,0x3d9e9dbc,0xbd92504a,0x3da4cf36,0x3c808958,
0x3d884d76,0xbbb39335,0xbda40ca3,0xbb49eade,0x3ceef984,0x3e0ecbd9,0xbd2bea0e,0xbdc8a921,0x3da10e4e,0xbcbb087c,
0xbd7523f0,0x3e0c08d8,0xba79f4bd,0x3e1ac1aa,0x3cd34b36,0xbc8d59a1,0x3cd11e73,0xbd8ef301,0xbd39ea77,0xbb96ef16,
0xbd95e3f6,0x3d0c0286,0xbda10310,0x3dc76eb6,0x3d34d514,0xbc57b98e,0x3e021d0b,0x3dec6a6e,0xbc137b02,0x3dae526f,
0x3d99b6fd,0xbd314437,0x3cacab26,0xbd557abe,0xbd9342a1,0x3b9d1980,0xbdfb4b8f,0xbc9d8966,0x3d07f0d4,0xbcf83ec8,
0xbd409389,0xbdfcc62b,0x3d46df37,0xbda312f0,0xbd868c99,0x3d0f8deb,0x3deeb8d8,0x3de875ff,0xbdf7b9a2,0x3de9cb81,
0xbcaeedf0,0xbda942e2,0xbd8be2b4,0x3d0e2165,0x3d91f680,0xbec93174,0x3d833c6a,0xbe2375f1,0xbdcdd7d1,0xbe37aa03,
0xbbcb34eb,0xbe441648,0x3d60beb2,0x3da3fdde,0x3d10fd25,0xbdfb2e55,0x3e18dc53,0xbdb59493,0x3da27438,0xbda48bb8,
0x3c7e7179,0xbe0d42b3,0x3de4ace1,0xbe2cda4c,0xbe2ecc96,0xbe2435e3,0x3db2e443,0x3e85bcf9,0x3dedace5,0x3bfc8ca7,
0xbd9dcd58,0xbd93c9de,0x3e07b809,0xbf10e0ed,0x3e026b5b,0x3d037093,0xbbbf460f,0x3cf2ae03,0x3cc06040,0xbd6f21cc,
0xbca52983,0xbb611eaa,0x3cd04d7a,0xbe092c35,0xbc2e30c6,0xbc592a7b,0x3cf07428,0xbd2659fa,0xbba24c42,0xbd61ad76,
0xbdbbd9cb,0x3c5466d0,0xbced8049,0x3dba0347,0x3c0f31ab,0xbc892225,0x3c5af0a6,0xbd43a655,0x3bafa3df,0x3dbbcc76,
0x3d381ed0,0xbc9f627b,0xbdcfd04d,0xbc337b2f,0x3d74418b,0x3cd8ab63,0xbd070414,0xbb872598,0x3d1afac2,0xbd8c78ae,
0x3c2e88b5,0xbc24c2ca,0x3d502a3c,0x3d0ec4a1,0x3d02bb1b,0xbc335238,0xbba5dadb,0xbd349e2f,0x3da0b1ca,0x3d8a25ec,
0x3da40bbc,0x3a7662c6,0x3aa6cfbc,0x3de83074,0xbc000616,0x3c23627f,0x3cf853b6,0xbb950bf4,0xbd730f24,0xbce8859f,
0x3d3744ad,0x3d9c65f4,0x3d65af24,0xbd0dbad6,0xbcd66217,0x3c8a0d76,0xbd78aa49,0x3dd6b0ed,0x3d87366a,0xbd65723a,
0x3b5ecfa1,0xbd0509e0,0x3e5d5a4e,0x3d9d2d0e,0xbd7f32c2,0xbd7a0fd4,0xbdacee68,0x3c8c57dd,0xbd9ccac4,0x3d5771b9,
0xbd872850,0xbd909dcb,0xbd0595ed,0x3c8241d1,0xbcbe299a,0x3d8c3272,0xbc3b161c,0x3deb08d0,0x3bdd9952,0xbbc044d3,
0x3e3d7476,0xbda44724,0xbb9f32aa,0xbd8ae13b,0xbda9360e,0x3c601371,0x3dde0014,0x3db4bbb1,0x3df48f8e,0xbd79245b,
0xbd9f28a6,0xbdb870f7,0x3be7f2c8,0x3d34c535,0x3d27f89c,0x3c816752,0x3c9eba90,0x3d1fd4f3,0xbc9643d7,0x3b1cf39b,
0xbda31da3,0x3cffa165,0x3d214cc0,0xbbe2ad03,0x3ca2ab16,0x3b1d659d,0xbd1c8ab9,0xbd5c9711,0x3d4d5157,0xbe0af223,
0xbccc1f0a,0x3bc907b5,0xbd57de4d,0x3c398c3a,0xbac090f2,0x3c6a38dd,0x3d07832a,0x3d90a6d8,0xbe3af7dc,0x3db69076,
0x3d6ad66f,0x3b99937e,0x3cd840c4,0xbda8e4f5,0xbdb6706f,0x3cc20ea4,0xbd023334,0x3d4f8735,0x3d3cb451,0xbd2a19e5,
0xbd015c83,0x3e3dd7b7,0xbd3eacc4,0x3d9951ed,0x3ddfac2d,0xbd6ae99f,0xbd7edf53,0xbd957a5c,0xbdfc50a9,0x3d00f9d8,
0xbd148dfe,0xbc4671c6,0xbe03b397,0x3dfe4df2,0xbbd49e68,0xbbfc7a61,0xbdd3b47f,0x3d5484c2,0xbd838b6c,0x3d8ae32c,
0x3ce68630,0x3d265a80,0xbc542b49,0xbad0ebd6,0xbcdabd5e,0x3d05a956,0xbd108384,0x3d248b1c,0x3d62c812,0xbe97c881,
0xbd8f8538,0x3d7b751f,0xbdd521e5,0xbd46e228,0x3cbea7d1,0x3d5b7018,0x3d04d79a,0x3c9cd6b9,0xbcb64bc0,0xbd75d5d6,
0x3c777995,0xbdb3bce8,0xbda98833,0xbd6f7198,0x3dab66a7,0xbd43c93b,0xbd377a9e,0xbc71f9c4,0x3de39919,0x3d356545,
0xbd4e3838,0xbccd78ba,0xbd4443b0,0xbb9d5b62,0xbd1b953e,0x3d37fa44,0xbdd76e6c,0x3dc4fc19,0x3bcb338f,0x3c116672,
0x3cfdb86f,0x3d57cb59,0x3e2038ab,0xbcde702f,0x3b4b5b84,0x3d359f13,0xbd9de0c9,0xba648b6e,0xbcdf6353,0x3c5f8f3f,
0x3cb98cf5,0xbbac6e84,0xbd414c5e,0xbcc17205,0xbce4340b,0xbd7f3dec,0xbcb2444d,0xbd1ff480,0x3c6d22e4,0x3da73ea1,
0x3dea427b,0xbabb05ee,0x3d681c77,0xbd198096,0x3d1c71bc,0x3c6d00e0,0x3a441223,0xbd52f634,0x3d101149,0x3d315f64,
0xbccc7b1d,0x3c6995ae,0xbd468380,0x3d951526,0xbd032437,0xbdec7b20,0x3b36dc2e,0x3db1626c,0xbd53bc2e,0xbd66d423,
0x3d938f52,0xbc2b5258,0xbd049ae9,0xbd3c5918,0xbe4b12ca,0x3cd1e092,0xbdbf2c71,0x3c90028a,0xba74e344,0x3da122ae,
0x3d4ff3e4,0xbbf6335e,0xbde04e04,0x3d6a768a,0x3da9300c,0xbcaa4750,0xbd6c286e,0x3aec9947,0x3ddf027e,0xbc44c65c,
0x3d7cdd89,0xbdd181d8,0x3dd56825,0xbb7cd11c,0xbe2c1d56,0xbdae6b1e,0xbe73785a,0xbe2f78c5,0x3d4bc87a,0xbdba275a,
0x3d254cd5,0x3d765c0c,0x3def73b9,0xbe05c245,0x3d2aedac,0xbdd275ae,0x3e01745d,0x3e698229,0xbd0d5d39,0x3dc8a50d,
0x3d4117aa,0x3c31ef97,0xbd37d8c0,0xbe9677de,0x3dab6f0b,0x3d3fc871,0xbd2f8a34,0xbdeae0fc,0xbcc47095,0xbc370c57,
0x3d672c11,0x3cd35a6b,0xbe3745bf,0x3d84ec7d,0x3dab7a49,0x3e275b1f,0x3c373d7f,0x3dfbefb2,0xbb0c299c,0xbb0e1ae2,
0xbd36d1cd,0x3e32099f,0xbd319446,0xbdfd2557,0x3cad636a,0x3ca13f8a,0xbc827aae,0xbd33839f,0x3c3c067c,0x3d925038,
0xbe03f88c,0xbd36ef20,0xbdc75835,0xbd57507d,0x3c203bca,0xbdb59bf8,0x3d8b07ac,0xbd49de5f,0xbda3ac93,0x3e43fb50,
0x3cd3f7b7,0x3e139aa2,0x3c6bb46a,0xbd076b14,0x3cc400f8,0x3c9381a4,0x3c39711e,0x3dff05fa,0xbc49b554,0x3cfe561f,
0x3df71fd0,0xbe2868d4,0xbbd8705a,0xbc09fc9f,0xbccc2418,0x3ccc5fb3,0x3dc78f22,0x3c99c834,0x3e14d22b,0xbd7ec61d,
0xbd92acdd,0xbc682603,0xbbb191d3,0x3c85cda5,0xbdbeeac9,0xbcc638ad,0xbc068e8c,0xbcd3347c,0xbdc5c1f2,0x3da0e6fd,
0xbd82e40d,0xbc12663e,0xbe6f7fe0,0x3e71d930,0x3c83c571,0xbbc0ed3b,0x3c84d2b5,0x3da3c5c5,0xbc51e17b,0xbda8b335,
0xbde9cff4,0x3d9a07cc,0xbddb7a91,0xbecb0779,0x3da0793a,0xbd75cfe9,0xbd1b4c1f,0xbe57d108,0x3d469d6f,0xbc93d51f,
0x3d9bfe82,0xbd860682,0x3e15ad95,0x3dc7560f,0xbd6663f1,0xbdfa85d3,0x3e246caf,0xbde0e1c8,0xbe094779,0x3d2bf55e,
0x3cd2d11b,0x3d906aab,0x3d7bbfcf,0xbd94f903,0xbdf42b7a,0xbdf5be83,0x3ddf8931,0x3d6c56d1,0x3e456830,0x3db21b2c,
0x3b5654bd,0x3ca15b92,0x3c855b6b,0xbd1c2458,0x3cf1db6a,0x3b6ef9df,0xbcc0fca0,0x3cd758aa,0xbd166d36,0xbb8a1f40,
0xbce826b0,0xbcb4c7f3,0x3b1b66ae,0xbcca0608,0x3d109e6b,0xbd2d9b82,0x3c553f70,0x3c673b88,0xbcae3925,0x3cb02d36,
0xbd5840b0,0x3d1cd142,0x3bb351a6,0xbc8c9611,0x3b89b29d,0x3d11a2f8,0xbd0b9543,0x3c98ca39,0xbc678060,0xbd195b05,
0x3b9aa29c,0x3d74e752,0x3ba1e6d8,0x3d963ca8,0x3c8bdc32,0x3ba5cd93,0x3cafd9c6,0xbd3946d9,0x3d2d5035,0x3c72f5ad,
0xbce42201,0xbd5505b1,0x3cddb86d,0xbd09de37,0x3caa5011,0x3c73c6d0,0xbd164b26,0x3b37d0f6,0xbc59ec86,0xbccc5870,
0x3d548e76,0x3d4047ac,0x3d3178ac,0x3d1bad65,0xbd1bfb80,0x3cee9b26,0x3d09bb57,0x3c40aa12,0x3d5d6bc2,0xbc070862,
0x3d59f620,0xbd14222e,0x3dbaff89,0xbd638c5f,0x3da1c83e,0x3b649afe,0xbd1fa20e,0x3cd7134e,0x3da1d3dc,0xbd280faa,
0x3a3c5f44,0x3c25068d,0xbda5c2d8,0x3c63ae66,0x3c4c7a10,0x3c5bbcbf,0x3db3658d,0xbc5fabaa,0x3d0049e9,0xbd04a5c2,
0xbd806d93,0xbc8dd7db,0x3cd13c5e,0xbc9f6a9d,0x3c1381c2,0xbc603e3d,0x3cc38c89,0x3c51a01e,0x3d7150f2,0xbc328cee,
0x3c89b5c3,0xbd6c21c7,0xbd6e8be5,0xbbb96f75,0xbd226904,0x3d0fe3f8,0x3ccb931b,0xbcff46bd,0xbd49ef4b,0x3d62198b,
0xbd49c89c,0xbda740fc,0xbd9effa5,0x3dacaa78,0x3da9abd7,0xbd17b1d9,0xbcb299fe,0x3b9d3a45,0xbdd9e0d7,0x3bb10782,
0x3d96c205,0xbcc13241,0xbd7f241b,0x3ac17863,0x3d99f4e0,0xbdbb6a29,0xbdc3a91c,0x38ce7808,0xbc4b6077,0x3c33c66c,
0xbc2d4cdd,0x3b38feb8,0x3c0cc3c8,0xbdd5b57c,0xbd42cc19,0xbbbb362f,0xbdd63f85,0x3d39d72f,0xbcc18710,0x3e1654c2,
0x3bbb6126,0x3b974b0e,0x36cdb31b,0x3d521730,0x3ca48809,0x3d473608,0xbd4dd351,0x3c1b5ced,0x3d9cb953,0x3aba48e5,
0x3dfc34ec,0xbb522703,0x3d9ac4b3,0x3c0575a6,0x3c8c34a3,0x3cdb37a1,0xbd4d8b58,0xbd98148c,0xbc1cb14a,0x3d8f776d,
0xbe27deb2,0x3bcaa92f,0x3c70e880,0x3cf4980d,0xbe298952,0xbdaa7371,0x3d8cc15c,0x3c4eb5b5,0x3c7e9eeb,0xbd2fadc2,
0xbd46ea6d,0xbda3fe03,0xbd52da14,0xbd224d82,0x3d89259c,0x3c715f53,0xbcea1d9c,0xbe478fcc,0x3bba788f,0x3c6278aa,
0xbacabf35,0xbbddd834,0x3d616702,0x3e0a1d62,0x3e2d9516,0xbdd1c44f,0xbd4d18bd,0xbe152e37,0x3e0d8842,0xbe7d542c,
0x3c8735b4,0x3d2c4fc0,0x3cdf011d,0x3de5f313,0xbc2adc30,0x3db7dfe6,0x3d84d62b,0x3d2e2dc5,0x3dab85e5,0x3a14ee58,
0xbc85ffd6,0x3e04eb5d,0xbd152c6b,0xbc60d929,0x3ad497e2,0x3ccbc919,0x3d46a647,0xbdd3a20d,0x3d662273,0xbd903e2c,
0xbd7327e9,0x3e0c81d3,0x3d95193f,0x3c8ccbdb,0xbc6c4cdf,0xbdc97d40,0x3d1c3023,0x3cc2be30,0x3d46190b,0xbdda2561,
0x3d6c4b74,0x3d028da3,0xbc4961e7,0x3da35be6,0xbc9a3bdc,0xbc9dfc7f,0xbcca117a,0x3b88f91e,0xbda9cb16,0x3de3ed62,
0x3cabee19,0x3c2cb3a0,0x3c069bd7,0xbda5b451,0xbac4d12c,0x3d4b1600,0xbd3ed659,0xbcef7af0,0x3d4af591,0x3cb0025e,
0x3e1b4e42,0x3bb11f63,0xbc7988f3,0x3d8f20c5,0x3d6718e8,0x3c403f8c,0xbd8d9dfd,0xbd42fdad,0x3c888638,0xbbffb837,
0xbe15907d,0x3d19f9d3,0xbca484a0,0xbe0488d0,0x3d13646d,0x3db9e433,0x3d5c74c1,0xbce30bdb,0xbdc03a1d,0xbdb53e75,
0xbd849050,0x3c0bfbaf,0xbcd354cb,0xbdc1aad6,0xbdce78c9,0x3d84bd56,0x3dddf0e9,0xbe08ea20,0xbd6659c5,0xbd33d0f6,
0xbd4b990b,0x3d942a24,0x3d0c4cf3,0xbdb78e2c,0x3de09f56,0xbe33b8e8,0xbc153f49,0xbccc1bba,0xbc365c62,0xbe0fa3e7,
0xbd5e86bd,0x3e27cc57,0xbd3e3c2a,0x3ca53399,0xbd164c1b,0x3db1de56,0xbc08b196,0x3e74b4c0,0x3e5cc0dc,0x3e4a9879,
0xbe11d72e,0x3d0a416b,0xbd206a57,0xbd8171b7,0xbdbf99bd,0x3d008b85,0xbdee592d,0x3e8b891f,0x3dbc8d2b,0x3d6ec741,
0x3d83ca37,0x3d086532,0x3cdfc9e7,0x3d9c996e,0x3df47203,0xbc693efd,0x39ba6b78,0x3b0e90b0,0x3dedaafd,0x3b1cf027,
0xbd2c4444,0xbdef5882,0x3da29b95,0x3c7da943,0xbd9c8b6f,0x3e109edc,0x3d219880,0xbdb6cf20,0x3e042249,0xbdd29e66,
0x3da7d92c,0x3cb9a225,0xbddad646,0x3d902675,0x3cc59c7c,0x3dfc18f6,0x3d59e58e,0x3e350d4d,0xbe1a00bb,0x3d565b83,
0x3dbe3eb5,0x3df1b043,0x3db92748,0x3d920580,0x3d2e5f6f,0x3e04bb77,0x3d512f04,0x3d7cbaad,0xbd2bb9d0,0xbd4a2a35,
0xbce85218,0xbd0785f4,0x3c6a0730,0x3d7bda32,0x3d9ff0c4,0x3e1a507f,0x3c9b908b,0x3bad217f,0xbcbcd553,0xbd1b5b43,
0xbe5b74ce,0xbda0b771,0x3d621d83,0x3d100f3c,0x3c42ab52,0xbd963789,0xbd035df4,0x3d881eb2,0x3dbfa668,0xba785311,
0x3cc849fa,0xbe1300d9,0x3d6cd6ae,0xbdc80bfd,0xbd3484d1,0x3d37ebff,0xbe0c969d,0xbd37c92b,0x3d9448b1,0x3d3c093d,
0x3dba0d4a,0x3c99730d,0xbc8660e8,0x3c37d8fd,0x3bbc3cc4,0x3c2a55c0,0x3cec070b,0xbd28cdb0,0x3d892c93,0x3d49a93e,
0x3d8d33d9,0xbacc525f,0x3d1fa860,0x3d052485,0x3d8fa2b3,0xbd484211,0xbd9f4d59,0x3d79cc9d,0x3e4dd555,0xbcdcc05a,
0x3d252762,0xbe1ff54c,0xbc106560,0xbcca79ff,0xbb66715a,0xbd4e7262,0x3bf65267,0xb907cc91,0xbddbe284,0xbdad6251,
0xbd77b05e,0xbc69f3c5,0x3dd0f0d5,0xbbdf498f,0xbcb6f394,0xbd54846c,0xbd22af0d,0x3bd05715,0xbd1d0e63,0xbd2827a9,
0xbdaa9697,0x3d815ec0,0xbcc8c26b,0x3c9f0fc7,0xbcc1cfa8,0x3bafe2bf,0x3cf057f3,0x3c7f0a8e,0x3e07a719,0xbd5c86a5,
0xbd426eaa,0x3d130ee5,0x3d55efb6,0xbd44f817,0x3db705ff,0xbd2cb1d2,0x3d34b57a,0xbc28fac1,0xbda82ef3,0x3d90d988,
0x3d5fc15d,0xbcdc6d52,0x3c863d1a,0x3c9c6b39,0x3dbdb3b7,0xbd116399,0x3d32c3c5,0x3cee3698,0x3ceabd9f,0x3cdc3ee5,
0x3c60b6ec,0x3bbf5691,0xbdf65113,0xbd148d2a,0x3db02793,0xbaf868e9,0xbd9fd039,0x3a1b07b3,0xbc86fddc,0x3be70a24,
0x39d8019c,0xb9b6e967,0xbe0facfd,0xbc693d4e,0xbe08590c,0xbd2bca64,0x3d00fd91,0x3db380fe,0x3c2fbc49,0x3dd04b4c,
0xbd9d88bd,0xbe044ead,0xbe3a82ed,0xbdd8bc5e,0xbd9a84fa,0xbdc5a034,0x3d504a21,0x3c7fb367,0xbe54df7b,0xbd59a261,
0x3d9414b0,0xbd6f3ebe,0xbdb94603,0x3ccbec26,0xbbe01fdd,0xbd9d5118,0x3cfbc775,0x3d69e910,0xbe28277b,0x3cba8eb3,
0xbd674042,0x3e4dda9b,0xbd9a8a0d,0xbdc31c5b,0xbd89e79e,0x3b88f6e9,0x3d9b7214,0xbdcf353d,0x3e0e8f2d,0xbd9f1199,
0xbce75e78,0xbd57f9f0,0xba29abfe,0x3de0dcc4,0x3cbbc38f,0xbd19887c,0x3cf00598,0xbcaa7906,0xbd32378a,0xbd2848d8,
0x3db45baa,0xbd62f65e,0x3d9b846d,0xbdd7fd3f,0xbd1223ad,0xbc67e73a,0x3b39bda4,0x3bb808bc,0xbda6d3e6,0xbca1de77,
0x3cc138cc,0xbd277a25,0x3c193ec1,0x3d6b9ffb,0xbd788db2,0x3caa10c2,0xbe07479d,0x3bba53cc,0xbad5cd92,0x3cfdd3fd,
0xbe0ab06b,0x3d9aba13,0xbceda7e7,0xbcc0efcb,0xbb2ade68,0x3d22a0df,0xbd34f3cd,0xbd88b412,0xbd215c3c,0xbc539882,
0xbd724da0,0xbdc92a11,0xbd1735e4,0x3dead51f,0xbcb7dbb2,0x3b44c490,0x3d21df2d,0xbc2370e8,0x3c0aae36,0xbd7708b6,
0xbc5cf524,0x3d2515cc,0xbe0a8f04,0xbce79dae,0x3cad4eec,0xbcaa0168,0xbdbc3beb,0xbcb7262b,0x3cbb29db,0x3e1104c4,
0xbd873f18,0xbd9f9d25,0x3c1c3a4f,0xbce59437,0x3d35f76a,0xbcc6df7e,0x3d7a310e,0xbbefb024,0xbe6f3bd6,0x3df7dd57,
0xbcbc6ffd,0x3d880fdb,0xbbd44044,0x3cc4e601,0xbdd821ed,0xbe2f8c2e,0x3db04526,0x3d87fa68,0x3c897516,0xbcf82e79,
0x3d93c240,0x3d161c69,0xbd57aa49,0xbda432e4,0x3de1da5c,0x3e593de0,0x3c3dda08,0xbdab8b30,0xbdd57690,0x3d9069dc,
0xbe57b8cf,0x3d82177a,0xbd5c03f6,0x3dc31c47,0xbd34bd99,0xbd36cbab,0xbb83324b,0xbdac3788,0x3d924a02,0x3d85f2e7,
0xbe1e50c3,0xbc14d0bd,0xbb7a2bba,0x3d493d83,0x3c802c75,0x3c260a2f,0x3dcd7eef,0xbd2c3ab4,0xbde9f3f1,0xbd2ee82b,
0xbc38b4ab,0x3da22c05,0xbcfc152f,0xbd02c774,0x3d01acac,0x3ca83e83,0x3c4cb7c2,0x3dc62abc,0xbd200ed7,0x3cee6aa7,
0xbd83deba,0xbd353dd7,0xbd6748db,0x3cd8b901,0x3c8d6879,0x3c30d00f,0xbd8ded05,0xbc77cf6b,0xbd56b792,0xbdc01e63,
0xbc105474,0xbce2987b,0x3c0a5be6,0xbd833e97,0x3d809608,0xbe04c114,0x3d9830a9,0x3d95ee58,0xbd87a0b6,0x3c1bd82d,
0xbd71b630,0xbd94e25f,0x3cb0ca6e,0xbb6e3b18,0x39a5c96a,0xbe139899,0xbcd443be,0x3dffa8a4,0x3e0b3339,0x3d53b8da,
0xbb1fd4af,0x3dcb8751,0x3ca5b8d2,0xbdcfa84c,0xba7e92f5,0x3d6c64c5,0x3dd75b53,0xbd9663ed,0xbe0b0492,0x3da26b42,
0xbc370fdb,0xbdcee433,0x3bff9a13,0xbdb8825e,0xbdcad48b,0xbc5177eb,0xbcadd881,0xbdae2667,0xbdefb22f,0xbd230567,
0xbb4c02a6,0xbd1c2756,0xbe68e706,0xbcb7f9c4,0x3da627e7,0x3c8e9d15,0xbc920cd8,0xbe0ac219,0x3d062309,0xbc031cc9,
0x3e2f6193,0xbc11221f,0x3d66592d,0x3c59bc78,0x3589fe2d,0x3b97a1e4,0xbd25c7f1,0xbd0358b7,0x3ce63fe0,0x3d48b1a2,
0xbd9166c9,0xbdd86718,0x3be91218,0x3d7759cd,0x3db0b632,0x3d0d7376,0xbd5cfecb,0xbcef761d,0xbc5c7092,0xbe19860e,
0x3d86f301,0x3d497e4a,0x3dd41d3a,0xbb964745,0x3cb1114e,0xbd7dcd0b,0x3d2b0c0b,0xbd1f5691,0xbc9ea564,0x3cabeb5e,
0x3cda9d5e,0x3dba9c21,0x3d05e660,0xbdc1f0a1,0x3aee1af0,0x3d0f87cb,0x3cf9e4a9,0xbd6cb0b4,0x3d191915,0x3d1a51f5,
0xbd66cc64,0x3cee61ad,0xbc8d10be,0xbd4642b0,0xbc36814f,0xbcf617b6,0xba95c180,0xbd80c9f9,0x3d2d4ed1,0xbafdf382,
0x3d88a899,0xbd5fbf37,0x3cb2ede0,0xbd40bf25,0xbd0b585a,0xbe0168a1,0xbd00e7d4,0x3d2fa195,0x3dd3a47d,0xbcdfd5de,
0x3d7f80d2,0xbccab2bc,0x3dc34a39,0x3d8c405e,0xbda91c56,0xbd992644,0x3cb9ccdc,0xbc0bb79e,0x3cb8c28a,0x39df47ad,
0xbdd50d9b,0x3de1e2a4,0xbd12a2e0,0xbc91cfa7,0xbca623b5,0xbd0a88ce,0xbd842243,0x3b2b93fc,0x3de9ca7f,0x3d6b2ec5,
0xbdd943cb,0x39466910,0xbe081d0f,0xbc4f23d8,0x3ca85fbd,0x3e185b62,0xbdd90075,0x3bd8cb77,0xbda33cae,0xbd083325,
0x3d96c0fd,0xbde9357a,0x3d546bb4,0x3d656526,0xbd1dbab7,0xbc23b907,0xbdab80e9,0x3c393b82,0x3d4550d6,0x3d4bee17,
0x3dc53e2a,0xbd7caa24,0x3bccb19e,0xbc931a42,0x3d578090,0xbd9f5ea2,0x3dd14975,0xbdf6c1cd,0xbd1f222d,0xbb806600,
0xbd853033,0x3bed38be,0xbcaf24f2,0x3c6a8af1,0x3d81d9d6,0xbbda2860,0xbde1ecff,0x3c0d74ae,0x3db05d64,0xbbc72b15,
0xbbfdf840,0xbcf7343a,0x3d5eaa81,0xbd309d1f,0x3cc2e143,0x3d22a35f,0x3c6cac52,0xbd2c6815,0xbc951d09,0x3cc26528,
0xbd166d9c,0xbd5b10f3,0x3d63e6f3,0x3d7fbd19,0xbd133b85,0xbd3e7aaa,0xbcd2d860,0xbd592855,0xbdae4257,0x3c4dbafd,
0x3d129f47,0xbd07c01a,0x3c63016c,0xbdb5b5f2,0x3df4e19b,0x3ac752b1,0xbd53eb5c,0x3cd0be0f,0xbce6489c,0xbd728315,
0xbc8ae50c,0xbd53ae60,0xbc20f0b1,0xbda28071,0xbd999e51,0x3c0fddf9,0xbd859fe1,0x3ca7994b,0xbd1e4b5a,0xbc08534f,
0x3ce1b0fa,0xbdff5eb4,0x3dcedf96,0x3d19f9d0,0xbd4e7642,0xbcd5df27,0x3c8ae92b,0x3d67412d,0x3d9bf110,0xbd4de73b,
0xbd157ad9,0xbd96f3e1,0x3cd4cf3b,0x3c0d9807,0xbb172469,0x3d9d0ec0,0xbd82fcfd,0x3d3ef6b5,0xbd1ce3a8,0xbd26042a,
0xbd4f6914,0xbdbe4990,0x3c227d0e,0xbcbb55d7,0xbd2efa50,0x3db116a1,0x3e2cae43,0x3ac1246e,0x3caad463,0xbd1177c3,
0x3d16f913,0x3d802580,0xbba361ef,0xbb41657a,0x3dc9b9aa,0xbc7655a5,0x3df47aed,0x3d852253,0x3dc8c808,0x3d2b3024,
0x3d2b379e,0xbd86e73a,0xbd1fc7e6,0xbc3cf488,0xbbd30dd0,0xbcef51b5,0x3d719235,0x3c2cace7,0x3d6fd7eb,0xbd992052,
0x3c2dd8cd,0x3d3375c1,0xbdb57116,0xbd128e4e,0x3dffd955,0xbdf228ae,0x3b0698a2,0xbc745f35,0xbdc274de,0x3a950222,
0xbdbdd3c3,0x3dbedd0e,0x3dd3c8bb,0xbd2e6539,0x3cc75542,0x3d268afd,0x3c818386,0x3e2247da,0x3c32d78b,0x3dc502f4,
0xbd96fa3b,0x3d60e8af,0xbcbd69f8,0xbdbd4466,0xbcd34ac6,0xbd5d0965,0xbd150745,0x3d517f99,0xbc48e705,0xbd6e975e,
0x3df47c25,0x3bc6d7f4,0xbc0a4c1f,0xbd57342d,0x3d209dad,0x3dc9837e,0x3ddf6f81,0x3d0ebd75,0x3d9e1cdc,0xbc9757e4,
0x3d6dcbb1,0xbc9345ba,0xbd8d0122,0xbc8a3ac7,0x3da4a274,0xbd528f31,0xbe249666,0xbe01177f,0x3daa4c6f,0x3e15a925,
0x3d0c0865,0x3c7e5e25,0xbdc59351,0x3cdc41dd,0x3c4cf5bf,0x3d194cb5,0xbdbe6f86,0x3c014e0b,0xbcad1038,0x3ce257bc,
0x3e221497,0xbd0fb9c0,0xbd90bedd,0xbd95231c,0xbe9363dc,0xbcc29256,0xbd183eb3,0xbd4b51e6,0xbbc5a087,0xbcde06ca,
0xbbe5ffa9,0xbe211581,0x3d9c7438,0xbe8bf352,0xbe25fb13,0xbd9e7eed,0x3e1a7643,0x3df713da,0x3d0d7af9,0x3ba942a9,
0x3c88c29b,0xbbdb7d3d,0xbcb93114,0x3d84f74b,0x3e37787c,0xbd96d49a,0x3dc687fa,0xbd1f3b50,0xbe04908a,0xbd479b9d,
0xbd33c925,0xbd8c18c6,0x3dc647f6,0xba1fbded,0x3dc7f340,0xbd36d746,0xbd27ca26,0x3d983998,0x3cbb248e,0xbd2ddfff,
0xbca550d2,0xbdb26fef,0x3d00f891,0x3d979ae9,0xbd46ecf9,0xbd93ebf2,0x3d0cea97,0x3cf2e7f3,0x3dd90de2,0xbd907bd4,
0xbcdd0c54,0xbcaf659d,0xbc9c93dc,0xbce45c42,0xbdf61e0f,0xbd21ba32,0xbd831bd9,0xbd780a71,0xbddcd2d1,0xbd3d6f75,
0x3e1c5544,0x3db42f24,0xbd6309d4,0x3d966596,0xbce298e3,0x3bef117f,0x3e43deec,0x3c0da716,0xbcc82962,0xbd623286,
0xbc9dac05,0x3d209348,0x3d42d7d8,0x3dd7dab6,0x3e9e095c,0x3d0efb3d,0x3dbd8f75,0xbb162165,0x3aac0d99,0x3d360855,
0xbdea29fa,0xbd24fe58,0xbd13a8da,0x3cb74b93,0x3d10040b,0x3d7d8c2e,0x3d3a7f07,0xbb8c7172,0xbd66ae9f,0xbe11c2f1,
0xbdf94271,0xbd12b9b4,0xbe30952f,0xbcac0e79,0xbdd2e29c,0xbd0c0d8f,0xbc977a44,0xbdbede78,0x3d2ee087,0x3d751a8c,
0xbe09d67b,0x3db7c193,0x3db1a881,0xbd5c84d8,0x3ddfc74f,0xbda65d67,0xbe39fab4,0x3d663e18,0xbd88ba42,0x3c7a6dea,
0xbdaf3494,0xb982074d,0x3c373772,0x3e0fc7c3,0xbe2d2915,0xbd84ea5a,0x3c69d9b3,0x3d0c3a24,0x3dadb369,0x3e869514,
0x3da33f65,0xbae94472,0xbd3dbc3a,0x3dc5d991,0x3d70a4bd,0xbcf4f492,0xbe05eaa0,0x3d90b338,0x3cc47cbc,0x3cf6facd,
0x3c4394ad,0x3ca4a4ed,0x3e09993e,0x3ce287b9,0xbd23ce54,0x3d40a92d,0x3e7f7322,0x3e00a2e7,0x3d00554b,0xbc949033,
0xbc36b17d,0xbdc73ee1,0x3d7c8612,0xbc443250,0x3e05ddfe,0xbdf27d96,0x3cfdb05d,0x3db6434c,0x3d90e97e,0x3e03c731,
0xbb739e04,0x3e6cdffb,0x3d933a1c,0xbdd6d0a3,0x3d011548,0x3e3cbee9,0xbc90515b,0x3decba8b,0x3d8f676f,0x3d2b2375,
0x3d0fb169,0xbd9cfdd3,0x3b5d8a6b,0x3dbc29cb,0x3d1a2713,0xbd4098ed,0xbcd19a14,0xbd25af8e,0xbd76815f,0xbdad2ea2,
0x3ce48574,0x3c0b34d0,0x3d99be5f,0xbd1ec98c,0xbd0793e7,0xbd94dbed,0x3c09fc3d,0x3b2ef01e,0x3ce29328,0xbc8106a2,
0xbc145e6b,0x3d36629e,0x3dce9bb6,0x3d84ebfb,0xbdf547f6,0x3e04e81c,0x3cfea485,0x3d843d54,0xbe215011,0xbd14e79f,
0xbd888f80,0xbd287c3e,0xbdfe743c,0xbe0f117e,0xbdd1b8cc,0x3bf8b7aa,0xbc115b27,0xbda6f89c,0x3e15d32e,0x3d353bf7,
0xbb0dbdc6,0xbd48d964,0x3e01cfb0,0xbe280db6,0x3e13eb26,0xbe01bc29,0x3d0d0553,0x3d3fe3fb,0x3e05cc5f,0xbd42f096,
0xbc68e560,0xbe1bd938,0xbda3d593,0x3de36f63,0xbd4dcfc3,0x3d7b477c,0x3e1dd8cf,0x3ca7e1ca,0x3e19c27b,0xbeb52e14,
0x3dda10f5,0xbd1a8b47,0xbd1ddb98,0xbd5421a4,0x3ca9c394,0xbd25911e,0x3bbef0da,0x3d7cc76f,0x3c18bd3e,0x3d5c7dd1,
0x3d41a381,0xbd8b9917,0x3bb2d33a,0x3e288c4b,0xbb21f864,0x3d9cf9e1,0xbcb1ebcb,0xbc4c8db6,0x3e027b0e,0x3d414385,
0xbd6e8ca3,0xbd918151,0x3b914745,0x3d0c5be6,0xbd8b8b8b,0xbdb2ede0,0x3d4046df,0xbd1dcb0c,0x3d991274,0x3cca1e03,
0x3d8aaf2e,0x3d927d03,0x3c224ef7,0x3d9ac962,0xbd03792e,0x3b0a1edc,0xbcd63c7c,0xbdebae20,0x3d5eee25,0x3e0c5703,
0xbda00d99,0x3d458365,0x3cc2670f,0x3c154fd5,0xbd1c7404,0xbd732d8b,0x3e004c95,0x3c00b205,0x3da8cdce,0xbd1d0f38,
0xbda53dcb,0xbcb4189f,0xbd2c2571,0x3d999c1b,0x3d9608fb,0x3d44bfc1,0xbc849669,0xbd29e726,0xbc9431ae,0x3dab4341,
0x3b915cdf,0xbd2de464,0xbcfdbf95,0x3cb4e863,0x3cd99a16,0xbd1bd058,0x3c9a0f0c,0x3de831ba,0x3b06e631,0x3c57d283,
0xbd8536f3,0xbd82547e,0x3cf1059d,0xbd0c4142,0x3dccad4f,0x3d9407f5,0xbd3ceb4e,0xbc7efdb5,0xbce74890,0x3c6000dd,
0xbc202b0b,0xbdf963ee,0xbdd4ccce,0x3c8ca2fe,0x3da51dc5,0x3d81e91b,0x3c3a05e1,0x3e291e50,0x3d5798e2,0xbd77965d,
0x3d3e81f8,0x3e268d0e,0xbc8b1ff0,0x3dece8b1,0xbcedb967,0xbcf33dbd,0x3d3fe0d1,0xbc9f7b96,0x3e0cb62f,0x3c1fb39f,
0xbde740b8,0xbd352da6,0x3d1c2e96,0x3c4a8689,0xbd8b4a7e,0x3b1de746,0xbd8c9ae1,0x3d8712f5,0x3cf61b84,0xbc902c69,
0xba3fdd6e,0xbde1ac88,0x3ae78125,0x3dbdaaa1,0xbbddc12f,0x3dc28986,0xbd81f876,0xbe294472,0xbcac0922,0x3c8c0fab,
0xbd86bbb3,0x3d1590cf,0x3d048f6c,0x3d5b36a9,0x3dd2dd50,0x3c4b8c69,0x3cfe894d,0x3e569235,0xbd662238,0xbcadfe8e,
0x3e0c573a,0x3d7815ee,0x3d16366c,0x3bf599ee,0x3ca13130,0xbd3619ba,0x3ca7b78a,0xbbde9c2a,0x3c0a3eaa,0xbd5dd9d2,
0x3d28da82,0x3d2083e8,0xbd772d30,0xbd602c23,0xbdb16b56,0xbd602886,0xbdc84823,0xbdb994ed,0x3ddb0666,0xbc06b7b5,
0x3d2f9f3d,0xbd7e3ee4,0x3df8f32c,0xbcf35841,0xbd71333d,0x3dae987f,0xbd21a830,0x3c41f3dc,0xbd0021f7,0xbd4a762c,
0xbe59c515,0x3c5b6491,0xbda9491b,0xbdded17a,0x3e64a9db,0x3c6f4a5a,0xbda7cd35,0x3d4f0d53,0x3dc057e1,0xbdbd05d8,
0xbde97f34,0xbe02bb57,0xbcb0e1ce,0x3acf0db0,0x3d470af5,0xbda3e255,0xbc07b2ee,0xbd9f6e5e,0x3dee112b,0xbcf02151,
0xbd806fed,0xbab33f22,0x3d5179d3,0xbca562be,0x3d8e8349,0x3e53e8c5,0x3cc36386,0x3dbe2a8a,0x3cc3aa82,0xbc77db70,
0x3880445e,0xbe949a15,0xbe0ad273,0x3df86944,0x3d138ca4,0x3db880fc,0x3cf8f5c7,0x3dbd7cee,0x3d0e0d81,0xbb686b62,
0xbc4b7a0e,0x3cdaace0,0xbd49421f,0x3d78c84c,0xbba76d0f,0x3b72b056,0xbc2a6ec6,0x3c146693,0xbc4d701b,0xbd290e09,
0xbd50c9b6,0xbdccf413,0xbd04015c,0xbc1d3568,0x3d1e8290,0xba59c00f,0x3caf63ca,0x3cd73ef8,0x3da4e296,0x3cba6c41,
0xbc46f821,0x3cf63297,0xbc5f17aa,0xbd22ac15,0x3dd74ae5,0xbc970685,0x3d44bae9,0x3d4446d8,0xbda3004f,0xbd394ce6,
0x3d9850ab,0xbe08f768,0xbdf4e2dd,0x3d5e4fa4,0xbd3c8449,0xbd0a0299,0x3d38f182,0xbca4c1c1,0x3da632a0,0xbe07fe7e,
0x3cbd5955,0x3cf7d46f,0xbce5a234,0xbdaee4e9,0x3c767a50,0x3d314d8c,0xbcac0873,0xbd3bcd44,0x3ad1809e,0x3da5f884,
0x3ba0110f,0x3e095d45,0x3dbb4805,0xbc1cf3cf,0x3d0d6fa2,0x3e234871,0xbd1a13ec,0x3ddaab00,0xbd170b2d,0x3d239e87,
0x3ddf6b99,0x3e0fa9a0,0xbd85d70b,0xbd202a4b,0xbda582a0,0xbe374fad,0x3dda1164,0xbe90f4ad,0x3d1495ff,0xbd2521dc,
0x3e06171e,0xbddc97e9,0xbbdd279f,0x3cd0f3a3,0xbd4f9d5a,0xbd9388c8,0x3df58cd7,0x3dc80416,0xbe9852c1,0x3cd24dbc,
0x3c87c9c4,0x3d59bc63,0xbd81c4b4,0x3c737f88,0xbdbdb6fe,0xbe31a7bb,0x3e0d21b4,0xbd81d843,0x3d9223cc,0xba76ae0a,
0xbc831a16,0x3db49c7d,0x3d855d44,0x3d2a63e6,0xbd3f5ce9,0xbcb1c80a,0x3d11e446,0x3bd4aa27,0xbcc3c2e4,0xbd045582,
0x3cdc8fa4,0x3d8d4b3e,0x3dadfa05,0xbd04c8d2,0x3cbf244c,0xbd1979e1,0xbdb01c9a,0x3cc96cf1,0x3d855fdb,0x3d59c4d4,
0xbd85b344,0x39d44056,0xbd901206,0x3cdd0f3c,0x3bbd3c2a,0x3db64b65,0xbd216336,0xbd478f20,0x3e0f3843,0xbcdb70b4,
0xbe052668,0x3de26eb8,0x3deaf32b,0xbc01527e,0xbd227903,0x3db687df,0xbca899e2,0x3cbc4629,0x3d04e2ac,0x3c8cb4ff,
0x3de38a3b,0xba9d19e6,0x3df9446b,0xbcf6fa0f,0x3d817a5c,0x3d89f865,0xbcf8f0e6,0x3d269bc6,0xbd923bf3,0x3df8d4de,
0xbcba9157,0xbcf0e61a,0xbc296de7,0x3bb44e44,0x3dbf74f3,0x3d91b71b,0x3e3ee63a,0xbe39cbed,0xbe2a7de4,0x3ce0ae45,
0x3ac084d8,0x3e37270f,0xbd2af46d,0xbd6a090d,0xbd41d93d,0xbdb521ba,0xbd0183de,0xbe065ed1,0xbc806526,0x3cc12e01,
0xbdb5d231,0xbe13daed,0xbd0cb056,0xbcb54074,0x3d46290c,0xbd9e6df2,0x3d99a7ef,0x3cc7a285,0x3d3f0378,0xbd96f838,
0xbdb3ac73,0xbc0640be,0x3d9d34d5,0x3da91c8d,0x3c9d0ae3,0xbdf55ec8,0x3d87e8e8,0x3e801639,0x3e04b2a2,0xbd9b6b07,
0x3e20a227,0x3e0efc6d,0x3dd74b67,0xbe5292ad,0x3e33bbd9,0xbcfd9489,0x3c1b0f9c,0xbd1aab63,0xbd916841,0x3d2a7066,
0x3aa32201,0xbb7d8f8c,0x3d3050cf,0x3b2e2a85,0x3b5f0522,0x3dad5b0f,0x3cbf400a,0x3cde74b4,0xbbee38cc,0xbcca11cd,
0xbc64f4fa,0x3bf26e16,0x3c96ac9e,0xbceb5578,0x3d331d56,0xbc50dd7f,0x3cfc8745,0x3c8a54e0,0xbc583960,0x3d0cfef7,
0xbc8f8355,0xbd39cf5b,0x3b32795c,0x3d86d2c5,0xbd928d30,0xbcb26622,0x3c9a4ea5,0x3d0eea8e,0xbcec3d11,0x3d913dba,
0x3c4d7465,0x3d1915f8,0x3cab9358,0xbd3fed39,0xbce91ed2,0x3c8506b2,0x3c715b24,0xbd5078f8,0xbcb63190,0xbdad29e1,
0xbbe5bc99,0xbdaaf9fd,0xbde1f740,0x3d4fd1ee,0xbd824031,0x3bdc6445,0x3d37f9e5,0x3d05cc19,0x3db4ff41,0xbd26d67e,
0xbd990f82,0x3d8cbfb8,0x3ce4b67b,0x3d908302,0xbbd82e37,0x3cb392dd,0x3d6b1056,0x3d9d5782,0x3a9dfc14,0x3d7d4b2f,
0x3d1c050d,0xbd074004,0x3d26202c,0xbcc0acaa,0xbd2a1b82,0xbc82009e,0xbc954ef9,0xbdf2b65f,0x3cb159a4,0xbc14cd48,
0x3b91e645,0xbd39ef56,0x3daf2cc6,0xbd469eb1,0x3d73a4b6,0xbc3553a4,0x3c06f5c7,0xbce4a354,0xbb5334cd,0x3e36399a,
0xbdf4b63f,0x3c49310e,0x3d65c974,0x3dd9c874,0x3e283990,0xbd1787d0,0xbdf82128,0xbd9bde02,0xbcf9c266,0xbe3ada79,
0xbd014c86,0x3e253505,0xbc37a460,0x3d4fb1fa,0xbd89b187,0xbd0c6c1b,0x3d982f6f,0x3cda5ef2,0xbd3db281,0xbc8ed665,
0xbc8fcf3e,0x3d48789c,0x3c6a3ed7,0xbcf6e885,0xbd3b2b3f,0xbc004582,0xbc94c1d8,0x3d52a53a,0x3d2a4c0d,0x3db16bbd,
0x3d9d0e0c,0xbcece5c2,0xbd9f7950,0x3d835f7d,0x3db7fb46,0x3df06092,0x3d97f64d,0x3d2c1b29,0xbe0919e7,0x3cca679e,
0xbda89baf,0x3ca7741c,0xbcc57b05,0xbc970299,0xbd851a7d,0xbe5e878c,0xbde02434,0xbdd62810,0x3d8a2b77,0x3def58eb,
0xbd7b634b,0x3b314f0c,0xbd446db9,0x3c5c928f,0x3e12b1e1,0xbc3764a2,0xbb6b74ea,0xbdcdb68e,0x3d4b406a,0xbd939627,
0xbe2edd3a,0xbccfff1f,0xbb97b65b,0x3d8214bc,0xbceb5371,0x3c1f998a,0x3d38acc6,0x3dd60acd,0xbc28289e,0x3d9d0629,
0xbd3805cb,0x3c2033a4,0x3a321723,0xbdb4d8df,0x3d4f549d,0x3de2d8a8,0xbdb0a7a0,0xbdbe8a17,0x3da90288,0xbd9e8335,
0xbd86bb15,0x3c7487f3,0xbdbc7c10,0xbe012264,0xbd5a7b23,0xbdc2216c,0x3d5b58f4,0xbd12db41,0x3dbad6da,0xbd8a06da,
0x3ca4521a,0xbc9868a1,0xbd73de25,0xbe30d6bc,0x3cebea9e,0x3c2a6e5a,0xbcf85092,0x3dc93472,0xbd786c1d,0x3de4908f,
0x3e22511e,0x3c7d29df,0x3e47d474,0x3d5c6189,0x3c808133,0xbc2bec6c,0x3da2315d,0xbda97dd4,0x3dd4096f,0x3a6c4d00,
0x3c6005b3,0x3da6aff8,0xbd47adcf,0x3dd026c0,0xbd60173f,0xbccaadd8,0x3dc725e5,0xbd4c533c,0x3e4f1af1,0x3c37ce36,
0xbceb6210,0xbd9a4dac,0x3dc43ecd,0x3c35dca2,0xbd7684c6,0x3d29b272,0x3c5cae01,0xbddb6696,0xbd22b53a,0x3cc37744,
0xbdcccf07,0xbc9e1681,0x3dcd7236,0x3d0a0e0f,0x3ccc3f3e,0x3cf4cbf6,0x3d96d56b,0x3e49aca7,0xbd7a32aa,0x3d21053e,
0x3d730c7b,0x3c82555e,0x3e00c80d,0xbd9f35c1,0x3d410efe,0xbdcad829,0xbc29cd4c,0x3d532c66,0x3c72e2e9,0xbcba4fa7,
0x3d79e8d7,0x3d56e3af,0xbccac592,0xbdddaf1e,0xbdf19032,0x3d8a4771,0xbc46d5bf,0xbd8e0059,0xbc1c7243,0xbdb564ee,
0x3d308e59,0x3d1dd606,0xbdd87e18,0x3d208ef9,0xbd5910b2,0xbd1f4d1e,0xbc5ad143,0x3d9286c8,0xbd4f8a57,0xbd9c29da,
0x3c94bf4e,0x3e16c4b0,0x3d1f68bd,0xbdf99e2f,0x3dbd4b8d,0x3d704d65,0xbccb6746,0x3b248a64,0x3c07c0ce,0x3da6c8b0,
0xbc9a31c8,0x3e0ab7e7,0xbd6ac13b,0xbc40c73b,0x3cfcad07,0xbd95cf3b,0x3df83ddc,0xbe02a895,0x3d6b7904,0xbd4603fa,
0x3c9a2dee,0xbe4bdadc,0x3d93baf0,0xbcaeba1e,0x3d8192c7,0x3d68edbf,0x3d4d7598,0xbd35602b,0x3d9c1794,0x3d8c9810,
0x3e07154d,0x3cb5e0f2,0x3d2065d7,0xbc8186fd,0x3c200706,0x3cdc92a9,0x3d0def50,0x3d9b20b4,0xbcba2542,0x3cce0c4d,
0xbd239bcd,0x3c513cb4,0x3a4cc734,0xbcf45c68,0xbcd6d9cc,0x3c9c02a0,0xbb46e3f3,0x3cca279f,0x3d59b32c,0x3b915558,
0xbd96c317,0x3b14883b,0xbd5af805,0xbd12e2d7,0x3d965e01,0xbc841f57,0x3d32241d,0x3d2bea3f,0x3cf1e70c,0x3b84ad7f,
0x3d386c53,0x3ce3532e,0xbd451cec,0x3cf47e03,0xbd233eaf,0x3d642382,0xbd3387af,0xbcd14993,0xbcc78a49,0xbcd1219f,
0xbd5d52e7,0xbcb59928,0xbce82397,0xbe1e550a,0xbd5cc60a,0x3cfbd7cd,0xbd4f14da,0xbda2db4f,0xbd0ba449,0xbe4e56c1,
0x3bc42e6b,0x3c351bbf,0xbdbf6dd0,0xbe2c16a9,0x3d281abd,0xbcaae1a7,0x3d058aef,0xbddd0625,0xbd6e58b5,0x3dd80978,
0x3dca6be6,0xbcd51d59,0x3bb83ed0,0xbd0e441f,0x3e0b0f9c,0x3dfe0c1f,0x3cf599dc,0x3e276093,0xbe384cd6,0x3d1e73ac,
0xbd1dbded,0xbd4cd44d,0xbd54f057,0xbd8d7ee1,0xbdbf7ad0,0x3c81dd5b,0xbc59093e,0xbd0f55e5,0x3d02fd77,0xbd912689,
0xbdd66523,0xbcd1251c,0x3d550506,0x3dd9af05,0x3d1a7947,0xbd4aac7e,0x3d5f226f,0x3c8820a7,0xbd095b9a,0x3d3df020,
0x3dd149e2,0xbd04d56f,0xbb6935c9,0x3d83161d,0xbe04a130,0xbda28e41,0xbc56e703,0x3d3f1e08,0xbd880c2a,0x3d857b50,
0xbcc9ee0a,0x3d4b8049,0x3c9068b4,0xba4d895e,0xba1009c0,0x3c87d85e,0x3d73ab5c,0x3d48bd96,0x3d72bd22,0x3cdcc1e7,
0x3d04edac,0x3bb9f731,0xbd0b4856,0x3d8d4f83,0x3c4ed2bf,0xbc7df0f2,0x3b47ca4e,0xbdb74d5e,0xbcbecccf,0xbcde6239,
0x3d41da0a,0xbc090eb4,0x3e08821c,0x3cfe4d12,0x3acfc282,0x3d8befba,0x3dd7f056,0x3d6cc423,0xbd9f89d4,0x3d62406a,
0x3ce1b719,0xbc994614,0xbd01c233,0x3ceaa8da,0x3c4eda70,0x3e1d72ce,0xbc84cc33,0xbd027add,0xbc4ad238,0xbd029329,
0x3cc1e3f2,0x3dc513fd,0x3bbc275c,0xbc99baaa,0xbcf1d55d,0xbceffd11,0x3d0df63b,0x3c9fb10f,0xbc9b381c,0xbc68b469,
0x3d816e50,0x3b1e7774,0xbd4aad20,0xbc80e88c,0xbcb6af9b,0x3d19264a,0xbc5fa828,0xbd0cd177,0x39e7935c,0x3dc63187,
0x3cebfd43,0x3d1a6fd5,0x3d60f9ce,0x3d2e3c24,0xbd5b4394,0x3d254171,0x3bed2505,0x3d0e5ee9,0xbdcd1113,0xbc5f4337,
0x3cf2aeb6,0xbd9db587,0xbd159cd8,0x3d7eac13,0xbd1d0fda,0x3c6bc1b9,0xbbe6384c,0x3b812c06,0x3c1492eb,0x3d655743,
0xbd48cdc1,0xbd878617,0x3d6b0677,0x3c804483,0xbdb123f7,0x3de3b354,0x3cd2da66,0x3d5e1934,0x3c2e8184,0xbcf666ad,
0x3c8536bc,0xbce7be8f,0xbc3a88cf,0xbd089e97,0xbb6b6389,0x3db61a54,0xbcf8d29c,0x3d5727ec,0x3c29c108,0x3d3abd50,
0x3e00a104,0xbc66e534,0xbcb000e0,0x3d0db425,0x3d0c7e04,0x3d5c5bfb,0x3b81687a,0xbd216207,0x3d242979,0x3c9780d0,
0x3c80ce60,0x3db5e148,0xbdaae54a,0x3c091bed,0x3d5d73ad,0x3d04b97d,0xbb91b26b,0xbdea89b8,0xbc829111,0x3d253a81,
0xbdacfef2,0x3da9fcf7,0x3dd19c49,0x3c27e31e,0x3d62027b,0x3c285221,0xbd1a35b7,0xbde7ff2d,0xbcf1d6a9,0xbd65d896,
0xb895969c,0xbd26fb9b,0x3e1740e9,0x3bf66963,0x3b9a4859,0x3c8ea0de,0xbd993ba1,0x3c90a5e6,0x3d0245ab,0xbd22d234,
0xbbf75ca1,0x3d7470d8,0x3d75e309,0xbd4d0709,0xbc2694ce,0xbba567f5,0xbcc52d33,0xbd21deb6,0x3d27fa86,0xbd7266a9,
0x3cf02168,0x3c26182f,0xbc4fee5b,0x3ba6e62f,0xbdaeaef5,0x3d665da5,0xbd37e84a,0x3dc4e578,0xbdbc3461,0x3cdb7cef,
0xbcd791d1,0xbd72e9ae,0x3c9aa5cd,0xbd348044,0xbde6e92e,0xbdd06f00,0xbdf4cc1a,0xbd75a8c4,0x3af324f4,0xbe03e9a3,
0x3cdb6bcc,0xbd91540c,0x3d9419cd,0xbd92c624,0x3d9b84f9,0xbbcfa730,0xbcb12d63,0x3cc4e89e,0xbc1486f0,0xbd38bf9a,
0xbd8bd91d,0x3b3f1edd,0x3d01adb1,0x3c19c541,0xbc566140,0xbdb6290f,0xbc177677,0x3d2cc43c,0x3e12be7a,0xbca6d698,
0x3d779c26,0x3d00b901,0x3d902248,0xbcca1d87,0xbd7c45ce,0x3de5fc66,0x3da83352,0x3d86e4da,0x3d155345,0xbcb565b9,
0xbca97e70,0x3d4060a9,0x3de9aaf5,0xbbbadfd5,0x3d0a8bc2,0x3d4e5e8c,0x3c25a22c,0x3b3dcdfb,0x3ccc5eae,0x3dad37db,
0x3dc0cb8c,0xbc90ef4a,0x3d67e453,0x3cb94a0d,0xbcd3f70d,0xba10fdf0,0x3dad2a97,0x3d95657d,0x3d87abbe,0x3dd869fb,
0x3dbb19cd,0x3e36bac1,0xbe3a79b4,0x3e1f10b9,0x3d1d0f97,0x3c62f9fa,0xbc4023a1,0x3c6cfe36,0xbd004bcb,0x3d42cf09,
0x3d07a22c,0x3d94cff7,0xbc8fdd33,0xbdc914e1,0x3e196926,0xbabaabde,0xbcc7d557,0xbbbd2a51,0x3cf471d5,0xbc8c7e17,
0xbdccee3f,0xbd1681bf,0xbd4d85bb,0x3dc7cc19,0xbce79ef6,0xbd709452,0xbe0b100b,0x3cb96cf8,0xbca1c6a2,0xbc5bae90,
0x3ab95ec5,0xbdc891fb,0x3de7b7e7,0x3d1f883a,0x3d55f7ca,0xbc009976,0xbdbffa58,0x3e075b53,0xbd31526e,0x3d7ffbd8,
0xbd8597f3,0x3db9c08c,0xbcd7c676,0x3cb75fce,0xbc87d752,0x3d33745d,0x3dd6c1db,0xbcfa96ca,0xbc33be4a,0xbd7bc334,
0x3d50c628,0xbd92fa4f,0x3d2f10af,0x3c52458c,0x3d5b0dab,0x3d75cf0d,0x3cd3599f,0x3e017b69,0x3c0d2812,0xbd82eafc,
0xbd63386d,0xbc36f188,0x3ded6f55,0x3c7d85d9,0x3e1ca646,0xbb546d46,0x3e04f97a,0x3c71f57c,0xbd81b48f,0xbd984f84,
0xbd97eca4,0x3c1f4f82,0xbdb3b22e,0xbd5b2c43,0xbdaedf23,0x3d8bbeea,0x3da8ba4b,0xbccce8b8,0x3d0de457,0xbcb063a3,
0xbd893b8e,0x3d02ca48,0x3d1b6fc5,0xbc5de6c4,0x3d14f336,0xbb755888,0x3d951fc3,0x3c171d8b,0xbd9b6c13,0x3cde9a13,
0xbce1925d,0xbd3210ee,0x3d00ee16,0xbcb12202,0xbcf5cf16,0xbdb2daaa,0x3c8427dc,0xbdb64f09,0xbbaa0673,0xbd9b0161,
0x3a859127,0x3df79e2e,0xbd10ef02,0xbd7909d3,0xbccc5c1c,0xbd1d9283,0xbcca2071,0x3d06923a,0xbd271a93,0x3de59c1d,
0x3d938859,0x3d231998,0x3d688dbe,0x3cca576b,0x3d7886b3,0x3cc1e5a8,0xbd8cb2d1,0x3d0facf0,0xbcfb8bd3,0xbd48a455,
0xbdbcba6c,0x3cf5d93b,0xbd525457,0x3db917f6,0x3ba6c262,0x3d35b3fe,0xbd7e3a62,0x3d81d974,0xbd839131,0xbb9b5fef,
0xbcffbce9,0x3d1f0ce5,0xbe0cc776,0x3e1306bd,0xbd8cb374,0x3d2e1fbc,0x3a4c8a33,0xbe6b9d87,0x3cd3b57a,0xbdb61a6a,
