const static size_t backbone2_0_0_weight_size = 3168;
static unsigned backbone2_0_0_weight[]={
0x3e9cd8d9,0x3deec36e,0xbe1de493,0x3ef502be,0x3e2a24cb,0x3dcc0bae,0x3e7002c9,0x3e30564e,0x3e63bc9c,0xbf07787e,
0xbe9201a4,0x3cb6379b,0xbf06f9c8,0xbde39c3d,0x3e79ca68,0xbe4de524,0x3e12f5df,0xbc16795f,0x3f039bcd,0x3ed13581,
0x3e533947,0x3f495dda,0x3f66403a,0x3f3b3aa4,0x3ee92757,0x3f34c9a1,0x3f0cc732,0x3e629f27,0x3e9362ff,0x3f1d1eb5,
0x3e90697b,0x3ea8cdc1,0x3f017a8b,0x3e0bd0c8,0x3eec5cf5,0x3ec95719,0x3efa61bb,0x3f5437b5,0x3eaa0112,0x3e82db64,
0x3ed93d0d,0x3ef1e867,0x3d3185c7,0xbb58fe1c,0x3dfb67bf,0xbe0b55e9,0xbe307b52,0xbe34aad3,0xbf12d875,0xbf3e68d3,
0xbecee1b0,0xbef31b5c,0xbf5fb3b2,0xbf1dcf17,0x3f0ba027,0x3d230835,0xbed9f6c0,0x3eac7d67,0xbeac5ed7,0xbee8a148,
0xbc9e04ed,0xbed777dc,0xbe019a03,0x3f13d25b,0x3f85f600,0x3f3922bb,0xbebe326c,0x3e372331,0x3df0a0dd,0xbef2bff5,
0xbf0bce1f,0xbf277195,0xbe81b1e5,0xbf0f4573,0xbea8e553,0x3d81cc46,0xbe66f1f6,0xbec3941d,0x3eb0e110,0x3e2f4178,
0xbdba2c54,0xbe7afea1,0xbb49a819,0xbea51e35,0x3f258d39,0x3e50493d,0xbf0c8d3a,0x3f0b89c3,0x3e006f0f,0xbe898806,
0xbe9150f8,0xbcd764bf,0x3e453f59,0x3e2f651d,0x3f1dd206,0x3f03cfcf,0x3e97019c,0x3f19c71c,0x3edc68b5,0x3f4b6d33,
0x3eb10343,0xbe8f3480,0x3e5d781e,0x3e09d073,0xbdbae479,0xbee0adc9,0xbebd387f,0xbcfb119c,0xbde8d1c8,0xbeb4b082,
0xbedd6485,0xbebdbb12,0xbf089d36,0xbebc7235,0xbd5f0312,0xbe68f04d,0xbe15377e,0x3df24fff,0xbcc0a6b1,0xbe055851,
0x3ee90be8,0x3ec71be1,0x3e284645,0x3f2c6962,0x3f173c55,0x3e9862df,0x3da7c134,0x3e8aca2b,0x3d7ce767,0x3e8dc7fd,
0x3eed13ad,0xbbe418f3,0x3ebfb3f2,0x3e419bef,0xbe99b1be,0x3e3b826b,0x3e886e88,0x3e74a76d,0x3d840528,0x3f280527,
0x3ee95c76,0xbd858974,0x3f0e0f34,0x3ee4f3dd,0xbea3e6a4,0xbf0794fa,0xbef01b9d,0xbed28f2c,0xbe913948,0xbecf2751,
0xbe953f15,0xbd4f8adc,0xbd9baad6,0x3e9d0def,0x3f1f495c,0x3f064f3c,0xbe3a663f,0xbda6c2ae,0x3e597759,0xbe70a852,
0xbe66f3a4,0xbd9710a6,0xbee9d060,0xbf075687,0xbecc37bb,0x3e3358de,0x3dc7d905,0x3e81b4b4,0x3de53dc0,0x3edff76d,
0x3eec9dd3,0xbee37182,0x3d5b2640,0x3f1d9101,0xbeb6a6dc,0xbe3bf73e,0x3d80e60a,0x3e805328,0xbe053850,0xbecee0da,
0x3f280561,0x3ec3c100,0xbebf8497,0x3f3bec0c,0x3d8a8672,0xbe76e2e3,0x3dc8d928,0xbe415543,0xbcbac88b,0xbe9a19b7,
0xbe843360,0xbde9e32e,0xbd1645c7,0xbf299ffc,0xbf1d6496,0x3e7d8f31,0xbe9b8889,0xbeb42981,0x3ea3f582,0x3dc4bb81,
0xbe641fe2,0x3edc6e38,0x3ea47fb8,0xbd480359,0x3e996a3c,0x3e3cb008,0x3d9e82e9,0x3edd8b1b,0x3e9e31f5,0xbda0221e,
0xbee9651b,0xbe463e88,0x3df8a4b0,0xbf05f53e,0x3c71f3fc,0x3e28f626,0x3e36e8f9,0x3e1618c2,0x3ecbe61e,0xbecfc605,
0xbe0cd295,0x3eb77120,0xbf25e31c,0xbebd4dc4,0xbc58cdf0,0x3dce6e1e,0xbe816c69,0xbf055d59,0x3ec1b1fd,0x3ebc6013,
0x3e980099,0x3e51266f,0x3f4789b3,0x3f34e684,0xbce6706f,0xbe6867bd,0xbe50a491,0xbd5ad896,0xbef50f81,0xbf1611b1,
0xbe148430,0xbf3abe4f,0xbeebcf3a,0xbde4f12f,0x3e10c09b,0x3ed43e47,0x3d583b33,0x3e51aaa4,0x3e991e32,0x3e21e291,
0x3f0a5dfd,0x3e8fac47,0x3ed8c614,0x3d8acb28,0xbe9cacf1,0x3e871e8e,0x3e6006ef,0xbe1006ab,0x3ed6808f,0x3e9eda26,
0xbc1c7a69,0x3e95b6ff,0xbdf0fe6e,0xbd91d6af,0x3ed12d77,0x3ed84139,0x3f0bbb6f,0x3f1eefff,0x3f994960,0x3f5c11a7,
0xbf20d5b0,0xbe9c1692,0x3c9f94db,0xbd4602a4,0x3e855ce6,0x3ec77171,0x3df5a8d5,0x3f44ca29,0x3f1db5e3,0xbf140c5e,
0xbf43a231,0x3d90a522,0xbe01b2df,0xbec48c2c,0xbe63e8ef,0x3f1052af,0x3bea5ee2,0xbde0c559,0x3edbc085,0x3eb69812,
0x3c0f3d60,0x3ebbbace,0x3f1b3a52,0x3e75d1d7,0x3e76bb93,0x3f04e0e8,0x3eafc0e4,0x3eb69be8,0xbe7b9a8b,0xbebffc83,
0x3cf81bd8,0xbed2ca43,0xbf1e291b,0xbe088048,0xbe83a461,0xbe0fbe94,0xbdc0ebee,0xbe6e61af,0xbe8141d0,0xbb6fdbd9,
0xbee27d06,0xbe8466bb,0x3d7f0d4b,0xbe41811a,0xbedee90f,0xbe86b41d,0xbeb0bd19,0xbeab2d39,0xbe2133e5,0xbdf94b1a,
0xbd92e029,0x3efc199c,0x3e2d4205,0x3cbad6b3,0x3ea05093,0xbe38f259,0xbe5dfd08,0xbe9e3e9d,0xbf5ea835,0xbfa7eb80,
0xbea6fca4,0xbf8ac5cd,0xbf95f87b,0xbe9bf6f4,0xbe89beb6,0x3e4b6984,0xbe6c26fa,0x3f068fbb,0x3f27c83f,0x3e14aa9f,
0x3f60d250,0x3f29a6c1,0x3f3eb44e,0x3f5e1c4e,0x3eea5749,0x3f0d337d,0x3ed63172,0x3d81c2ce,0x3da6f8ca,0x3c47aaf6,
0xbe6015e1,0xbf1bfeab,0xbf0907de,0x3db370ff,0xbe2cb0a0,0x3d88b057,0x3ed02089,0x3dca8608,0x3ea6725b,0x3e89c1e3,
0x3ea68be0,0x3f4e0d99,0x3e9b185e,0x3ddc30ec,0x3e7f5fe3,0x3dbb7f3f,0xbe9dff4d,0xbea15938,0xbac394d5,0x3d203dbf,
0xbd1c492c,0xbd36631b,0x3d8b64ae,0x3efcf4d1,0x3f29ad13,0x3e939553,0x3f6554fd,0x3f00d2ca,0xbed9e309,0x3e5b9871,
0x3f3bd5be,0x3e1c5c25,0x3ee5c749,0x3efde583,0xbe09923c,0xbe48b065,0xbdf5bd2e,0x3ddae65e,0x3f07bf7b,0x3ef8115e,
0x3d550928,0x3f2d9ee6,0x3ec6515a,0xbdb896bc,0x3e27bb68,0xbe653124,0x3f8a5c64,0x3e85c4c0,0xbe3a0916,0x3f8601b3,
0x3ec15e1f,0xbd9d39c9,0x3f209f66,0x3d880f93,0xbe3a4979,0x3d92cedb,0x3f25df83,0x3e9696d5,0x3dd7f36d,0x3f19ce0b,
0x3ec3cde7,0x3d822605,0x3e81316c,0x3d1be615,0xbf0fae23,0xbf73f1f2,0xbf1e919e,0xbf29c140,0xbf4795ea,0xbf22b92c,
0xbe1b8e0d,0xbef9d425,0xbe7c7f9b,0xbe27ff0f,0x3e20f40f,0x3e15c23e,0xbda72623,0x3f21a750,0x3f0a829e,0x3dc5d114,
0x3e281eb9,0x3eaface7,0xbefc89c7,0xbf2c52d1,0xbd929255,0xbddfa340,0x3e50fc25,0x3efd9c58,0x3f009606,0x3f637858,
0x3ef014c1,0x3f12dce8,0x3f249f3a,0x3e445911,0x3f1fbe4c,0x3f363e2f,0x3da2798e,0x3e33ad6e,0x3e0a753a,0x3d53735b,
0x3f0c802e,0x3e53532d,0xbf0106f5,0x3ed0de27,0xbe3f85a4,0xbf0fd524,0xbe960cc7,0xbf179657,0xbe3787de,0xbf8bb13a,
0x3efce474,0x3f8ab1aa,0xbf215706,0x3eee2b6c,0x3f7c4d0f,0xbed68e4f,0xbead1e70,0xbe5cdccc,0xbc8a5c4f,0x3ebef948,
0x3e4ca1a1,0x3ed10336,0x3f2a2d65,0x3f2b46b5,0x3ee659a7,0x3eeecab8,0x3f06c0e3,0x3eac795f,0x3be0986c,0xbdfab24f,
0xbe83216b,0xbf2521c6,0xbedf352e,0xbf0632be,0xbf3fc427,0xbecfe788,0x3f3b4934,0x3ef3b334,0xbdf4a308,0x3f18a279,
0x3f01dfee,0x3e6f5cdb,0x3d88508a,0xbcbfdba1,0xbdd46563,0xbec64edb,0xbf3b831f,0xbf0512c2,0xbf0b430c,0xbf832a4f,
0xbf1e4637,0xbe47e1d2,0xbedbf96f,0xbe57d0c5,0xbf21db9e,0xbf167775,0xbca64ef0,0xbee750c2,0xbe97570b,0x3e004b26,
0xbd1532b9,0x3cb370d4,0x3dbb145b,0x3f409464,0x3efc3442,0xbe3897d2,0x3e9c8236,0x3e30d87d,0xbdba96a5,0xbe75f020,
0xbe147d42,0xbc1f4d03,0x3f1bff12,0x3f2b633d,0x3eef3443,0x3fa66582,0x3fa14516,0x3f301e41,0x3f74f0d7,0x3f82b75e,
0x3f28a9fd,0x3f7c86ca,0x3fa58d4d,0x3f26c7f9,0x3f08774b,0x3eb970f4,0x3df9b8af,0x3e756af8,0xbe94a04a,0xbe1df343,
0xbf389899,0x3e5cd651,0x3e819c20,0x3dc6015c,0x3f4ad94b,0x3f8203de,0x3ecf224b,0x3f596184,0x3f819a2a,0x3e2c0b27,
0x3e2b4746,0xbd3c37dc,0xbe7c0d48,0xbe8b6a43,0xbe5ac17b,0xbf1d7b40,0xbf34d8bf,0xbf0c4a54,0x3f35fd39,0x3f597d37,
0x3e9f78f8,0x3f1c368d,0x3f591992,0x3e276404,0x3e8318ab,0x3e957a61,0xbc4f922a,0x3f16223b,0x3f2cffbf,0x3e87c0bf,
0x3f2692c0,0x3f6626c0,0x3f2d36fc,0x3f380a5e,0x3f395434,0x3eef4e62,0xbf247658,0xbf49dc9b,0xbee1777b,0xbf166f56,
0xbf778371,0xbf60e65d,0x3e319dce,0xbf0fdb2c,0xbf3579cb,0x3f0761be,0x3f1bb498,0x3e80f2a6,0x3eeeeecd,0x3effadb7,
0x3e38b171,0x3f02363f,0xbe0ac5dc,0xbe5db028,0x3ecb2449,0xbdb83d06,0xbf91d744,0x3f8df0f4,0x3f1bdd49,0xbeb415f5,
0x3cd43043,0x3ddafa4c,0xbcb564c7,0xbeadf09f,0xbea0685f,0xbeaa8708,0xbe8c5596,0xbf0f5bc5,0xbe3752d7,0xbe3d8679,
0xbe8dd4da,0xbe5e7e3e,0xbe3ef6ee,0x3eb0e040,0x3f1ee549,0xbf968949,0xbeb18dfc,0x3ed864f1,0xbf886b7b,0xbf4a3f89,
0x3e4755c3,0xbf80f4a4,0xbf25fba1,0x3e983d4f,0xbf0ffcd4,0xbdd70eb0,0x3f33d4d6,0x3e22fe1d,0x3f111b2c,0x3f3cc6de,
0x3f2f03c3,0xbf7aae82,0xbfdba5fc,0x3f4ee419,0xbe2de7d8,0xbfdd6988,0x3f4d1226,0x3f8d1619,0xbeaf0b11,0xbeac2c14,
0xbf6ab7e1,0xbf0c2c6a,0xbf1ad905,0xbf5a34e1,0xbce389b8,0xbe05e945,0x3daa5a21,0x3e8da123,0xbe15988f,0xbe405879,
0xbe9bf2b3,0xbee9a078,0xbf88e7c0,0xbf3b1e2e,0xbec6b565,0xbf84e3e9,0xbf8075b5,0xbf059c10,0xbf53a2e8,0xbe80bf55,
0xbf8b714d,0xbfb1dcc0,0xbded7bd6,0xbf7b2b0f,0xbf867de1,0xbe109c94,0x3e464adf,0x3eb553ce,0x3dfc0109,0x3f4c89c3,
0x3f57dacc,0x3ee54e0d,0x3d67ab6c,0x3ef77fea,0xbc729ee0,0xbdcb0b60,0x3f0c60a9,0x3f1d57ba,0xbf3d2413,0xbd591b6c,
0x3f0fa3db,0xbf78abb2,0xbf373e70,0xbc91ddd2,0xbe73acc4,0x3ea72c5c,0x3f5d63b1,0xbf37473f,0xbf4f9673,0xbe5d7888,
0xbeff845d,0xbfa3a841,0xbf724624,0xbed3385e,0xbf8f520a,0xbf264264,0xbf07944a,0xbf9f8c40,0xbf395859,0xbf029229,
0xbf1bcf69,0xbe4a46e2,0x3e8b1725,0x3eb65569,0x3e92d3a1,0x3f969836,0x3f98f276,0x3f1cf27c,0x3fba4913,0x3fb4ed9e,
0x3f52dc07,0x3f07cc07,0x3e344bee,0xbf088e63,0x3f7d0dcf,0xbe77f774,0xbf6eabc8,0xbca55d6c,0xbedcec4e,0xbeab2e76,
0x3f414739,0x3f8eef60,0x3e720c4e,0xbdd07329,0x3f0e4a90,0x3d72c4f0,0xbf63f137,0xbf314360,0xbea7fdf9,0x3deda6ea,
0x3f43eb5c,0x3e9942fc,0x3ea701eb,0x3f2aafa7,0x3eb8d903,0xbe66863c,0x3ea83468,0x3ed65e6c,0xbfa8c868,0xbf66305d,
0xbf3dbeb4,0xbfb33c51,0xbf198f25,0xbf05d8e4,0xbe81af49,0x3cc5c4a7,0xbde27b8e,0xbf1fd234,0x3e490447,0x3f7ad0ee,
0xbf808597,0xbe7a6ba5,0x3ecade4b,0xbef7f652,0xbecf14e8,0x3b610fe8,0xbf7fdee7,0xbf4d6566,0xbedae284,0xbfb51476,
0xbfd100b8,0xbfa79122,0xbf672c62,0xbf9584ce,0xbf882cd1,0xbf11ebaa,0x3f2b5275,0x3fc756f8,0xbf58930f,0xbea66305,
0x3f3602c6,0xbe7f50d1,0xbf34ce4d,0x3ce0b897,0xbeeeab33,0xbf432201,0xbf47d57b,0xbf0f7904,0xbfacf1e5,0xbf1b218d,
0xbe84e379,0xbf4c060f,0x3db7476e,0xbf9ffb45,0xbfab31da,0xbf5588c1,0xbf304038,0xbf85d2cc,0xbed1a153,0xbe9f3e11,
0xbf0e8cf0,0xbe993aca,};

