const static size_t backbone1_2_1_weight_size = 2304;
static unsigned backbone1_2_1_weight[]={
0x3ea1a18d,0x3d8087f4,0x3ece6e64,0x3f0532d3,0x3caf822e,0x3f277d63,0xbf029b70,0xbeed2c7a,0x3f92fdcc,0xbf555b31,
0xbb04ce63,0x3f28d7c7,0xbe7bd7ba,0x3f37f93e,0x3e133e08,0xbbdb67df,0x3ecb4b2d,0xbef79b7f,0xbea5c943,0x3f500412,
0x3ed9b9b7,0xbdc77c89,0x3e3f6536,0x3ed8ab32,0xbc730358,0x3f21aeb9,0x3d8718b1,0x3c853555,0xbd8f491a,0xbf483a2b,
0x3df021c1,0x3e5fcaf4,0x3e753c96,0x3ea9f028,0x3bf6b4f6,0xbf0773f7,0x3eff27d0,0x3de8b51c,0xbcf9309d,0xbe0a559c,
0xbfb9949c,0x3ec9c75f,0x3f14bfd0,0xbf100b8d,0x3dce9921,0xbe412be3,0x3dcb31f7,0xbf1b045d,0x3f0bbb39,0x3dcc1a8f,
0x3ea88e8a,0x3b700ab4,0x3e7282ac,0x3e6868f3,0x3eb416eb,0x3e38b732,0xbde78d41,0xbeacaeef,0x3dace27b,0xbdba3d5b,
0xbec6467b,0xbe03d053,0xbebb20ec,0xbda7f832,0xbdb1624a,0xbdcf540a,0xbed3cc47,0xbeebe898,0xbeecf955,0x3f3b188f,
0x3d3535aa,0x3eb50c25,0x3ef3c279,0x3eaf7719,0xbd92ea04,0x3ec94a46,0x3eb24010,0x3f07c400,0x3e29c842,0xbea7d383,
0x3f013453,0x3ee9b0a1,0x3ee0e1f5,0xbee52ed2,0xbe204807,0xbed1e400,0x3d41e5d5,0x3dbb8dba,0x3e07167a,0x3d1f5033,
0xbd5770d3,0xbeffb24c,0xbf5c2cde,0xbd9e8fc1,0x3f411a70,0x3f176584,0x3d8dbdab,0xbc9bf487,0x3dd868d7,0xbe082a0d,
0x3ee1e020,0x3da9d63f,0x3e3e2ea6,0xbe458639,0xbecdc208,0x3def857b,0xbe43e4ad,0x3e403fb8,0x3e74b130,0xbfa325e2,
0x3df952a6,0x3e313e24,0x3ce19436,0x3be48e06,0x3ef24668,0x3dddc0bb,0xbf0c0be9,0xbba4e403,0xbd5b5946,0x3e4ea3af,
0x3e463a4d,0xbd8c3f8a,0xbe168254,0x3f165bc0,0x3f5f2367,0xbb0d240e,0x3df62fd6,0x3ea08633,0xbe086486,0xbea78b44,
0x3dc93533,0xbe7df2f9,0xbec5f0c1,0x3d844351,0x3e0aa191,0x3d47d3ef,0xbe8e1b77,0xbdbbea62,0xbf1d07bf,0x3ccec088,
0xbea35426,0xbe140bee,0xbc6b62ce,0x3e43e23b,0xbe86590b,0xbe2b7ee1,0xbe928f03,0x3eccc79a,0xbdac7326,0xbf59ba80,
0x3ec4b2ba,0x3ee913c1,0xbe06f037,0x3d2c5e31,0x3edcfe1a,0x3e592e2d,0x3f0f57a3,0xbdf6c82e,0x3e804676,0xbecd4318,
0xbdb32a84,0xbcc58352,0xbe9ac99a,0x3f3347f4,0x3f215b73,0x3e2253f9,0xbe57609c,0x3eba9ebd,0x3ea036d8,0x3cd9447d,
0xbe16bd1f,0xbdc41c22,0x3e1a8633,0x3ecc9f03,0x3e9ae315,0xbe36bd65,0xbe350231,0x3c8eb6d2,0xbe835015,0xbdab0621,
0xbe938cff,0x3eb1f4a3,0xbeecd931,0x3f4e0b15,0xbe0f261d,0xbde4838e,0x3e951998,0xbe17c8fc,0x3e9d5f41,0x3f263b76,
0x3ec60df5,0x3ebbf018,0x3e7bb47d,0xbdab979f,0x3e47760d,0x3dabc2de,0x3e4210be,0xbe2d0397,0xbf54d69e,0xbe1322dd,
0x3f396d65,0x3e63121b,0x3e4d0fc8,0x3eaa24bf,0x3f47a3e3,0x3f825bc9,0xbdafc9a1,0xbddcdbdd,0x3ec9df55,0x3fad2373,
0xbf32b286,0x3e071a4a,0xbc5877e5,0x3dd1ea1f,0x3effa2db,0x3ef5fdcc,0x3e1eae40,0x3e963938,0xbea44895,0x3c62c8cf,
0x3e6bb1d0,0xbf25f48c,0x3edcfa64,0x3eb291cb,0xbed3d6e0,0x3da769d6,0x3db982b0,0xbf9e1f67,0x3e952412,0xbef6743b,
0x3e7196cb,0x3e5e847a,0xbf3604be,0x3ebe9ffe,0x3f27f79b,0xbed8bc17,0xbf593504,0xbe5f7dae,0x3e57d33e,0xbf0ce36d,
0x3d16a957,0x3f98bef5,0x3e7c0c88,0xbce5d08e,0x3d0c9b37,0x3ad47cf2,0x3d8377d0,0xbd5608fd,0xbf6df7c8,0xbe61c314,
0xbdb1f379,0xbf74c714,0xbc582e72,0xbc7be625,0xbdc06a8d,0x3d0528e2,0x3d2fd647,0x3efa50a7,0xbe6b5790,0xbe7d8361,
0xbe801d7f,0xbd562338,0xbeaab389,0xbef91153,0xbe689585,0x3e3425f1,0xbf0b845e,0x3e8054f8,0xbd56c25c,0xbcec7fef,
0x3e15eb66,0xbed6f1bc,0xbe63798a,0xbdb6a9fc,0x3e1434de,0xbf360262,0xbe165a5d,0x3e9b607f,0xbef56a9d,0x3f246a6b,
0xbdf32820,0xbe2a711a,0xbe151055,0xbe8846b5,0x3ed93ff8,0x3e944b36,0x3eeeb2f8,0x3e7ace63,0xbecd53f0,0x3d51db2c,
0xbe3cb90d,0xbef67287,0xbd753757,0xbe81a259,0xbdc86a50,0x3ed0c3f7,0xbced50b5,0xbed4d06b,0xbeb16785,0x3dea6b53,
0xbc8e336d,0xbf3149ad,0xbe6c8196,0x3e1981df,0xbdc12183,0xbe4c5b32,0x3eb62968,0x3f2ffc2e,0xbf094894,0xbc071bca,
0xbf11ee65,0xbe9fa377,0xbe28053f,0x3d7a0085,0xbe38316c,0x3e3ac135,0x3c912cb7,0xbf26ae47,0x3f218d40,0xbd89c5bb,
0xbf7f22a5,0xbf251a38,0x3df0676b,0x3f565fde,0xbe3cb8c4,0xbf9ebabb,0x3f4d6929,0x3e9c4411,0x3dd67d17,0xbe971c63,
0x3f3c3458,0xbed1f306,0xbced8aeb,0x3eb686cd,0xbec5c10b,0xbe702ffe,0xbea5a01e,0x4003f278,0xbda87e33,0x3e6430c2,
0xbe553571,0xbeed8dd8,0x3cf564e7,0x3e9541b3,0x3f45301d,0x3ee15d30,0x3fe9da7b,0x3f425b45,0xbe367bf7,0x3da7751a,
0x3e66a42b,0xbcb4e3d0,0x3f055bc0,0xbee7eae8,0x3e95c00c,0x3f09713d,0x3ea9874b,0xbdd83921,0x3e9e9f77,0x3ec2922c,
0x3ef59316,0x3d9b2210,0xbf1506b0,0x3d8249b3,0x3fa1d99a,0xbe46beac,0xbcf883d1,0x3d680437,0x3de05d05,0xbe22c40b,
0x3de62eb4,0xbe03c3c3,0xbe501a78,0x3c94fd6d,0xbe1c0dca,0x3f3429d3,0x3e778101,0xbe5be000,0xbef3aa5a,0xbda54b4e,
0xbe6c7c6c,0x3d5d576b,0x3f17ac20,0x3e8a183f,0x3db93eb8,0x3e3fc9ea,0x3df3465e,0x3fca24b3,0x3f1c3133,0x3bc7f98d,
0x3f13e7ba,0x3b0e05d2,0xbe95b409,0x3dbca36a,0xbd6b0a73,0xbf196192,0x3ebbd06e,0xbdbdcc16,0x3f9fab44,0x3e2c18c9,
0xbfb331dd,0xbe7c2cd9,0x3de9e894,0x3e3b6781,0xbf2f0a03,0x3eb09502,0xbf8d271d,0x3da6036a,0x3b8f5cbe,0x3d16e8d6,
0xbe4eae78,0xbe3a549a,0x3dd92373,0x3e494778,0x3dd81555,0x3e3fb83e,0xbacb294a,0xbd322339,0x3dadac5d,0xbd2b2c50,
0x3e91f7a0,0xbe8a5072,0x3f252b86,0x3de64129,0x3ee717b9,0x402df2ea,0x3e85a045,0x3e48f565,0x3e6a138a,0xbe46c7a0,
0x3ef598c3,0x401ed377,0x3e9d6723,0xbd3ab6b8,0xbf56a3e4,0xbf7c1705,0xbd4c2f14,0xbd3e0bda,0x3ef29a7e,0x3c9a60f4,
0xbcc5d246,0xbe960550,0x3e690484,0xbe73439a,0xbf373d96,0x3e406105,0xbe7f1e09,0x3e8e8605,0x3eac040b,0xbeb90747,
0xbe94d284,0xbe0e5d20,0x3cb2f1a7,0x402d26f3,0xbe9f5ab8,0x3f3289a6,0x3c3eee00,0xbe80ef68,0xbe1e9ede,0x3ef9124b,
0xbe2b5ee6,0x3c0dd14f,0x3ebd40b7,0xbef92f9c,0xbeee76b0,0xbe3a9873,0x3dda33f0,0xbe8015f1,0x3eaaf72f,0xbf2971d3,
0x3ec7cab3,0x3f04be31,0xbd133a77,0xbdacafcf,0x3cb6c237,0x3d203dfc,0xbec75828,0x3ed0e1e3,0x3f0c16d6,0x3e8ea6a9,
0x3e390853,0x3f49dbd1,0x3ed9afbe,0xbeb20b29,0x3e013d4c,0xbd50ad17,0xbe09ed3e,0xbdc3eb78,0x3f0eed0d,0xbc13de8c,
0xbddc6c45,0x3ddd244d,0x3ebe9bc7,0x3c50da4b,0x3e6aefb4,0x3e034f8c,0x3e2a1d7b,0xbbcb2b0c,0x3ed03bf9,0x3dd86426,
0xbf1c2e02,0x3ed82d36,0x3f3ed1aa,0xbc7d19fe,0x3c39da83,0xbc5cae44,0xbd370a0e,0x3f0cd953,0x3daedcfb,0xbe86da02,
0x3ccf636b,0x3e8a2ebb,0xbe6337db,0xbe4eddae,0x3b0110ad,0xbdb33c4d,0x3e44dac0,0xbda5063d,0x400f3ae3,0x3d6ca670,
0xbe05b3d0,0xbc982fa0,0x3e4ea147,0x3e0d3701,0xbc154ff4,0x3e1020e7,0xbe02eef6,0x3d07e2b1,0x3ebe2afb,0xbe29aa71,
0xbe1bb920,0x3d8bb508,0x3f3e63c7,0x3d904d05,0x3eaad7ea,0x3f882c66,0x3e7c56ec,0xbe16525b,0xbc4b1386,0xbe8f87b8,
0xbe650f4a,0x3efa2b56,0x3e9e0a3c,0xbe4f3dd3,0xbe0cc69a,0x3e3e8a7a,0xbf3d208e,0x3d137e33,0xbd92f4bb,0xbe391256,
0xbd70515f,0xbecb5e12,0x3e79479e,0xbc4e48a5,0x3e385868,0xbefe7035,0xbd5b74a2,0xbf121b8c,0x3e1065f3,0x3e000a3c,
0x3d8b4bb1,0xbda82603,0xbf03d0f3,0x3d4e68ec,0x3f082968,0x3e0211a9,0x3e265113,0x3e39e7ab,0xbfba882a,0xbca8d4a5,
0x3e9ad7c0,0xbe2841df,0x3dcc8091,0xbed40aa6,0x3e708c1d,0xbee90ad2,};

