const static size_t backbone2_4_1_weight_size = 36864;
static unsigned backbone2_4_1_weight[]={
0xbe16755a,0xbc208fe9,0xbc922c0a,0xbda1eb96,0x3cf08580,0xbd129910,0x3da399c3,0x3cadf560,0xbd892e82,0x3c086013,
0xbdd13dc2,0xbe511b4c,0x3db4008c,0xbe0b18fc,0x3e8db305,0xbddefb08,0xbe991022,0x3d486d90,0x3bd12db8,0x3d9244e6,
0x3d95d0c2,0xbd7e64c1,0x3d13b355,0xbd6b232e,0x3d445ea1,0x3dd88ac2,0xbe51afd9,0x3cf25f80,0xbd9310d7,0x3dda97cc,
0x3aeb9448,0xbc511369,0xbde8ee99,0x3d4ee736,0x3dc7e58b,0xbdc24bd5,0x3d56b3b8,0xbd0a61e0,0xbe3b5b56,0x3d613de1,
0xbdbacb58,0x3e925e3b,0xbe1607b3,0x3dd8f870,0xbdd60b74,0x3d8b2f54,0xbe8a18f3,0xbd740d12,0x3e0a691c,0xbdd37d52,
0x3dea65b9,0x3dc562cb,0xbd34778a,0xbe16693b,0x3ca7d20c,0xbe05565b,0xbcac664c,0xbd2068c1,0xbc945aea,0x3dd97a64,
0x3d95f442,0x3db07e0e,0xbcb1a637,0xbe4b9ec3,0x3dd3b696,0xbbc20d68,0x3d2cd203,0x3e652323,0x3eac4718,0xbcbc0f51,
0xbdcafd3f,0xbe0c80fb,0xbb40ba6d,0x3d7f1cb0,0x3da90aa3,0xbdf59d39,0x3df12765,0xbcb5b383,0x3d191d01,0xbd4cb524,
0xbe40e30a,0xbcf064b0,0x3c79a69d,0x3b3b928c,0xbce896a4,0x3ca1c815,0xbd362ac6,0x3bf278ee,0x3df89282,0x3d9b60ea,
0x3d6d2b04,0x3d528189,0xbd8e1082,0xbd41a9e6,0xbbb93586,0xbd2ebb42,0xbd7345c9,0x3f0664f1,0xbd315c26,0xbdd7b035,
0x3c83be44,0xbcba3f8e,0x3da28b84,0x3d8ffc5a,0x3beb8682,0x3e116d8d,0x3ccb54ba,0x3dbcbcf2,0x3c515699,0x3d221e55,
0xbd885d40,0xbd8dde33,0xbdda2ee7,0xbd38ffb8,0xbd2ec6cc,0xbdc790fa,0xbb658b60,0xbc90d70f,0xbc59edee,0x3c1836f0,
0xbcb8a955,0x3ccfd93d,0x3d2a086e,0xbd967e3b,0xbd6e8193,0x3c958b00,0xbd1281f6,0xbd484410,0x3caa54e0,0xbe191211,
0x3e682385,0xbd30c487,0xbde42db2,0x3bc6c01d,0xbdfc5c11,0x3aa9955e,0x3d2c72a4,0x3adfe47d,0x3c5cbd37,0xbc53ca51,
0x3ad4846b,0x3e3e9de6,0x3dd7b38f,0x3d18eacb,0x3d70d0d3,0x3d369ee6,0x3d37dab5,0xbd68846c,0x3d0871ad,0xbcefc9e4,
0xbcb43e6e,0xbb8fed42,0x3d80af55,0xbc656bf2,0x3e674995,0x3c4adfd5,0xbdd1ebc0,0xbde7a4e3,0x3d81c3b2,0x3b3266e6,
0x3c8e2f64,0xbcb9f1e6,0xbd8b20d4,0xbc5b693f,0xbcbc87a1,0xbe055bb6,0xbe5b8aac,0xbd9f281d,0x3d82630b,0xbd84dd06,
0xbcaa4d2f,0x3d2a098c,0x3b769516,0xbc8d3fca,0x3c1fe8d8,0x3cc4f10a,0x3db43ada,0x3cc08574,0xbba4e655,0xbd87eb7d,
0x3d4679a8,0x3d8eb37a,0x3e278124,0x3d4936c0,0x3ce774e9,0x3db3cf23,0xbaba4d3a,0xbdc913c6,0xbca12a5d,0x3dd7f194,
0xbc907f05,0xbd982dc8,0x3cfd444f,0x3b23fed7,0x3ea061b9,0x3ce3cf73,0x3d3fff85,0x3c136380,0xbd8ea591,0xbc9d738f,
0x3bad49b6,0xbc242cba,0x3db85464,0xbd08ba92,0x3c04cd83,0x3d5f80d5,0xbcca9355,0xba7e78ae,0xbcb223c7,0xbd37473d,
0x3d4e8d5c,0x3d82fc46,0xbc8a5863,0xbdf0c764,0x3d86b18e,0x3ce95225,0xbc33d69a,0x3ce0766c,0x3c363aa1,0xbd18478b,
0xbcd4a410,0xbbfa6704,0xbcfc9f74,0xbd64e622,0x3da68074,0xbc813884,0xbcd5e0f7,0xbce36676,0x3d136070,0x3db3afd4,
0xbd85d1f5,0xbe1b51a0,0xbd2691f6,0x3cd7a8db,0xbe287cf5,0x3d8fc0ab,0x3cb4cd6f,0x3e0b625f,0xbd89dad7,0x3a69ab56,
0x3d3f94f1,0x3c9d7848,0x3ce4165f,0xbdadda46,0x3daea075,0x3d676a7f,0x3d833d2b,0x3d062504,0xbd461db7,0xbcb9b5f5,
0xbd39cc60,0x3d9a1c50,0x3e8c0ef3,0xbcf997a5,0x3dcfbc38,0x38a8ddff,0x3d2783f1,0x3d52c33d,0xbd9446c1,0x3d48223c,
0x3bfd6533,0x3c4694f1,0xb90ff347,0xbde2c2ae,0x3cfc551a,0xbd65dc3c,0x3c9a891b,0xbc005ea3,0x3c5461fc,0x3c8a5e8b,
0xbb7e28e6,0x3d8ee3bb,0x3d970ce5,0xbe16b589,0xbd33a0b7,0x3d91373a,0xbcbaeca5,0xbdaf7036,0xbd994868,0xbd33309f,
0xbe10a09f,0xbc8498f6,0xbd893bfe,0x3dd2d515,0xbd254247,0x3e1be2de,0x3d394c9c,0xbc855f5f,0xba4ac7e5,0x3d6ba9fc,
0x3cc6cd45,0xbd252f86,0xbcdc7389,0x3ca4977f,0xbd07bf18,0x3ccedc7d,0xbb50021a,0x3cb08c90,0xbcc3a207,0xbd3ab4af,
0xbd8f7c56,0xbd05f5f0,0xbdc0bbd5,0xbd6952da,0xbaea14a2,0xbc8f4739,0x3bc8de02,0xbb330607,0xbc3f2d23,0xbb6b81f0,
0xbacf23fd,0x3c978d39,0xbcebe6b8,0xbc81659a,0xbd591396,0x3cc33470,0x3d200f12,0x3ba59871,0xbca69b89,0xbd62742d,
0xbc808be9,0x3d4bbcbf,0x3ccdd39b,0x3bd88350,0xbcbbf2be,0x3cd082e7,0x3d096c3f,0x3d4c32c5,0x3ba5f537,0x3cf89810,
0x3cc7fa17,0x3cf6b7fd,0xbc2fc75f,0x3d160281,0x3c96789d,0x3d8e86a7,0x3cf736d4,0x3cede576,0x3d5482c4,0x3d2ffca7,
0xbcbbf7f1,0xbc6b6426,0x3b0aa0ad,0x3d897745,0x3c71104f,0xbd692b8b,0x3d457b9b,0x3c657857,0x3b9dc9ab,0x3aee086b,
0xbc87b1f9,0xbc683caf,0x3cd3d796,0x3c95ee3e,0xbb2382c2,0xbd455d2a,0x3d91049e,0xbd73aecb,0xbcd83c49,0x3b83853f,
0xbceb3f5a,0xba43689f,0xbc5cd0e1,0x3be1bba9,0x3dc459e1,0xbcb146b2,0xbd0c9d1f,0xbd22784c,0xbd181f05,0xbccbf0f8,
0x3ce944ba,0x3cd9d595,0x3d1abb83,0x3ceb561d,0xbcd87870,0x3c0e9373,0xbd795ca3,0xbd5535df,0x3d0071a4,0xbcaa7dd8,
0x3d2a86a4,0xbd3ae7b7,0x3d1627c5,0xbc918283,0x3ceed22e,0xbb412185,0xbcd1fb30,0xbdcb71fe,0xbd1cee53,0x3c9beeba,
0x3cbad398,0xbd02bf95,0xbd45c75d,0x3c5c93bd,0x3d9fa08c,0x3d87ad9c,0x3ca6d52a,0x3cc218cc,0xbce32606,0x3ca707ae,
0xbdc1afc9,0xbd3b4841,0xbd224cc1,0xbd24eccc,0xbd28a822,0xbe8373f3,0xbcf7bd64,0x3d83ccb0,0xbd29bc9d,0xbe1c6dd5,
0x3cff38e5,0x3d866384,0x3d7c8911,0x3cd424fa,0x3bf4959b,0x3d69fb65,0x3d5fbf96,0xbdaab18a,0xbc958284,0xbda3366c,
0x3c662556,0x3dce7e18,0xbd140213,0x3d1535e7,0xbceb1a51,0xbc51218d,0x3ce3e4c2,0xbc7000c7,0x3be30a37,0x3dc098df,
0x3c5dbc77,0x3dd87d04,0x3d8ee7f8,0x3c63a52f,0x3cdd1131,0xb9d1e97b,0xbdea5b95,0x3d4f4f25,0xbc28ee33,0x3d2a538e,
0xbd6a58b5,0x3dd928b8,0x3dadd311,0x3d5ea3de,0x3cb836ad,0x3d39668d,0x3e0ec369,0x3d2fc321,0x3d60a9e8,0x3d5e35c9,
0x3cc238e6,0x3a9fff14,0xbd127429,0x3c15e9fe,0xbc735cf8,0x3d843a63,0xba009320,0xbe5aacb1,0xbdcfb047,0xbc286f4a,
0xbd4e0536,0xbc787859,0x3d15ada4,0x3d1530eb,0x3d491b44,0xbd401b85,0x3dfe3f73,0xbda39d1a,0xbd014f6f,0x3e88a2ad,
0x3a97f7d9,0x3dbe84a4,0x3beedd0f,0x3c539e97,0x3cb4e303,0xbd6720fa,0x3dc59f95,0x3c73e51e,0x3cbd11f0,0xbdc373a0,
0xbd27a318,0xbce5cdce,0x3b0c0fe9,0x3c8fbbf3,0x3c544c26,0x3f101667,0xbcc9eed1,0xbbd5a071,0xba1fd5a9,0xbd3514eb,
0x3d3bf4a6,0x3d51b9e4,0x3d1bfe51,0xbde3ab37,0xbd1a9422,0x3b2bfb92,0xbd0bc61a,0xbdfb83f0,0x3d0dc5c9,0x3c96dd5d,
0x3a3ec48c,0xbcea58ce,0x3ca32979,0xbd8fd3de,0x3d8e88fe,0x3e084be0,0x3ab25125,0x3c4d0a91,0x3e144f3c,0xbc272390,
0x3d10a839,0x3d39ef1c,0x3c0b501c,0x3bbaf243,0x3cf5df7f,0x3c105c83,0xbd4d55c1,0x3e0b295a,0xbd8f8c18,0x3d815225,
0x3d036a79,0xbc48a108,0xbd3bf846,0xbcf19ba4,0x3dddc248,0x3d0ec09d,0x3c8c324b,0x3b874a19,0x3d10ca5d,0xbb4ab854,
0xbc8e462f,0x3c14c948,0xbc92c070,0x3d6b4fe8,0x3d8a524b,0xbcea768d,0xbd8e11e8,0xbd0e24de,0x3cb21019,0x3cfbbdd3,
0x39a5365b,0x3c473e29,0x3d847c85,0xbb8715c8,0xbd9e36bf,0xbdad7a21,0xbca79be5,0x3d687d23,0xbc836bae,0x3d5ccf24,
0xbd61b91e,0xbdd19b0e,0xbdc5f92e,0xbd828deb,0x3d396661,0xbcaafc96,0x3d7d9b52,0xbd913863,0xbcd0aeba,0xbc94fd3d,
0x3a1629b6,0xbddf6996,0x3da6c887,0xba850dab,0x3d0d0779,0x3e15ea56,0xbd1dc159,0xbd8680f2,0x3b972910,0xbd88084f,
0xbca9a7f5,0x3d372a8a,0x3df39779,0x3d3865ff,0xbd2f52e9,0x3d3161be,0xbc7c7f72,0xbc42b5d7,0x3e1a38c7,0x3dc12426,
0xbdde1bfb,0xba3fee54,0xbed36620,0xbd0d2fdf,0xbd8a9dba,0x3d575c10,0x3e3cf1a5,0xbe33efe6,0xbdcd7084,0xbd0192de,
0xbca3576b,0x3d8f6586,0x3d765465,0xbe97987a,0x3e81fcae,0xbc862dc6,0x3da8bc42,0xbe8e7e5e,0x3b6a8ac0,0xbd8fe70c,
0xbd104704,0xbe3336ba,0xbd864eae,0x3d9ecbf0,0xbdadaf35,0xbcfe3272,0x3d61feb5,0xbcbb439d,0xbbdd2bfe,0xbe363598,
0x3d8e9750,0xbe0411cd,0xbd4f319e,0xbde43f09,0x3e14aed2,0x3eb040fd,0x3d4b671b,0xbad4b1b3,0x3cd3038d,0x3c9d956d,
0x3e6727d4,0xbdee71c9,0xbe71ca99,0xbd913c80,0xbcbf3cc5,0x3b276955,0x3d94a41a,0x3b8095ec,0xbd3d7806,0x3e223a6b,
0x3df4421f,0xbc8c0d4c,0x3ce8c6f9,0x3b083e74,0x3ca42f1d,0x3f246463,0x3e1f5d22,0xbda9d54d,0xbd328faf,0xbd9eb4ad,
0x3d9d3639,0x3d831389,0xbe19a9f8,0xbd35abad,0xbd180a0a,0xbcdd3759,0xbd967963,0x3cd5780d,0x3c78e52c,0xbe827436,
0x3d1372ed,0x3d68be32,0x3d500636,0xbd1a9fa8,0x3e395516,0x3e02ae5d,0x3d41e75f,0x3d84cca8,0xbc060ba7,0xbdc9c530,
0x3d30ab82,0xbd4d7fa0,0x3c9aa053,0x3d121a77,0xbed5a305,0xbd95db31,0xbe055b7b,0x3d343116,0x3e2e3338,0x3da3c2ae,
0xbe0d86a5,0x3d9844dd,0xbe07cc2a,0x3ceda82d,0x3e4ad8ae,0xbae2ae88,0xbd267618,0xbd88ff63,0x3c54dde4,0x3eb810af,
0x3d8a20a0,0xbc86452b,0x3da0eb09,0xbd867ed6,0x3d87c285,0xbd19ff1c,0xbb055e37,0x3d9b411b,0xbd8f8d7f,0x3c2a9f3c,
0xbda6154e,0x3dcad9cf,0x3e42bbfe,0x3db58885,0x3d33701f,0xbdd5d6bb,0x3db5a45f,0x3e881059,0x3c7561cb,0x3d8c0833,
0xbc0090f9,0xbcf6bd45,0xbdbe9abb,0xbd599bf2,0x3e24eacd,0xbc88b334,0x3e6d07ff,0x3d7283bf,0xbdf5a79e,0x3dfa6212,
0xbe52c650,0x3e45836b,0x3d8231d9,0x3ae7a55a,0x3bde034a,0xbd553b38,0x3cef093b,0x3b8deffd,0xbe438318,0x3d85421a,
0xbdbc3235,0xbdcc8077,0x3d65197b,0x3b23164c,0x3da3147f,0xbdc42005,0xbd524851,0x3d92a541,0xbd7c9c77,0x3c00dc1d,
0x3bf67954,0x3de21f22,0xbc49414e,0x3ddd924e,0x3d787ee1,0x3db65d9f,0xbca2fc4a,0x3d62ad9d,0x3d941852,0xbd854e38,
0xbdcd1309,0x3d82a9f8,0xbd98a8d1,0x3e04d3dc,0x3cc5f987,0x3c7a2c7b,0xbd2e0e08,0x3e23cf2f,0x3df4d87d,0xbd45d60a,
0x3e2081bc,0x3e339460,0x3d31e54a,0x3da993d4,0x3d5eda26,0xbcddab5c,0x3db27fcf,0x3d541dea,0xbe4610a8,0xb9a65f7a,
0xbd9a182d,0x3e902fcc,0xbdac6353,0x3e509db1,0xbdab594f,0x3e782c69,0x3d4563a2,0x3e4f3434,0x3c0284da,0xbce1b913,
0xbd17ef2d,0x3c601cb6,0xbddd5ba4,0x3b9a7eac,0x3dcae6e5,0xbc14034c,0xbf4d7ba8,0xbd3c539f,0x3cd1efa3,0x3dde3a1d,
0x3c4d7a96,0xbcea5a46,0xbc6fefb1,0xbcb6a10c,0x3d766b49,0x3c95816d,0x3ce709c6,0xbe81d98c,0xbd8aa390,0x3c26ccab,
0xbe2cf936,0xbde65d64,0x3db50e85,0xbd82146b,0xbc43ac60,0xbd93c2bd,0xbb0110a1,0x3d9651ea,0xbb9dfb0b,0x3d8d125a,
0x3d145fc7,0xbdd99758,0x3d29fc58,0xbd4550db,0x3cb30fbe,0xbe0fc487,0x3de0ca1a,0xbb343539,0xbc29fb73,0xbbc87e45,
0xbdbc0edb,0xbd837a1a,0x3dd70b67,0xbc21d6b3,0x3d4884e2,0x3e15e02d,0xbd9057aa,0x3c8f9658,0x3cc4ea61,0x3d5571cd,
0x3d743327,0xbd5cf82f,0x3d791439,0x3d905e4b,0x3dc5370f,0xbcf18af8,0xbc2e0e00,0x3d349f8d,0x3d1fdd19,0x3d36cbbe,
0x39d2a344,0x3d2e0186,0x3dd5b873,0xbdad6aa9,0x3c088c6f,0x3d8a953e,0xbd1dd013,0xbd9513d9,0xbc3cef02,0xbe294db3,
0xbd7cc924,0xbd915374,0xbda8ea11,0x3d23e2a7,0xbca89618,0xbcdacee4,0x3c373d13,0xbacf60fe,0xbe365d86,0xbe4ec62b,
0x3e2787bc,0xbdc72cc9,0x3c8b3aa7,0x3d9817dc,0xbdf3cc38,0x3d3f1d57,0xbd7204a0,0x3d1a63c4,0x3d260372,0x3e0f15b2,
0x3d0341bf,0x3e71287f,0x3bd4f124,0x3df68f68,0xbf1042f2,0x3d5d5424,0xbd1bdf0a,0xbe18eebb,0xbbebfb8f,0x3df6276c,
0x3e17c228,0x3e3be342,0x3bbfab7f,0xbcc2d7fb,0x3dd2f101,0x3daf470d,0xbdee5780,0xbe4f4ed4,0xbcc2df23,0xbd683a40,
0x3e1a2b16,0x3be64001,0x3e1a7437,0xbe5d0f42,0x3e757dab,0xbc3f7340,0xbd4460bd,0x3eb282e9,0x3d62fff9,0xbe201372,
0x3e458c15,0xbd0edcc0,0x3e1c1266,0xbeda890c,0x3dbdb33d,0xbe72019a,0x3deb69b9,0x3e5cf836,0x3daf1abe,0xbd70a2ed,
0xbe0d786c,0x3e0c908c,0x3e1ae0de,0xbe3d3fb5,0xbe57bd49,0x3e5468d6,0x3da0d556,0xbe459843,0x3deaa5a6,0xbd97f92f,
0xbe3a28db,0x3ca66a29,0x3e0a3f3c,0x3e4bc406,0x3e3f3ff3,0x3edf2c92,0x3dc759a3,0xbe4d6378,0x3d4ebbd7,0x3d4c2444,
0xbdf7aa5a,0xbe1542bb,0x3e37ef75,0x3b416362,0x3e026445,0xbd2a9493,0xbdfc818d,0xbe55b92a,0x3ea534c6,0x3e369677,
0x3dfd9457,0xbc0be99c,0x3e2c4cc7,0xbd0635e1,0xbd82c21c,0x3d5e3ab9,0x3dda63e3,0x3deba01a,0x3e249be1,0x3e4ec40e,
0xbe10ed41,0xbe87593a,0x3e423915,0xbec0cda7,0x3e5b126c,0xbe3003d8,0x3cdd454b,0xbde49700,0x3e0079e7,0xbd4706c4,
0xbea56463,0x3dd182f5,0xbd9f52e0,0x3da57565,0x3d0a7994,0xbc3bf806,0x3e5a358a,0x3ca521b0,0x3e63d501,0x3d93ed99,
0xbc5778b4,0xbd22a5b8,0xbc25f0c3,0xbc82608f,0xbcec4cf5,0xbcf3f687,0x3d442ab1,0x3ccc1d50,0xbb9e58fc,0xbd7d399d,
0x3cdc6bd3,0x3cc99755,0x3cc14573,0x3da01377,0x3d8d635a,0xbd3118f9,0xbce51036,0x3bf8825f,0xbbd87622,0xbd19c705,
0x3bb85a40,0x3c0265f3,0x3cbfd004,0x3d0f134c,0x3cf32139,0xbd28a816,0x3dd43f7b,0x3c410ff7,0xbccbbdea,0x3c13b796,
0x3c9a2c2d,0xbcff8996,0x3d2e8a1b,0xbcb87b00,0xbd239e11,0x3ca2975f,0x3d1cbc4c,0x3cabd439,0x3be6a23d,0x3c2dfc4e,
0xbc03ec76,0xbcfce25c,0x3d2484b7,0x3cecf843,0x3cc3d3da,0xbce77ad4,0x3daaa51e,0x3d67f50d,0xbbdd4dff,0xbd847c8a,
0x3c8a87b9,0xbd4e5c70,0x3d359485,0x3c9f7a3d,0x3c310e6c,0xbc87ca91,0x3c33555f,0xbc9917b0,0x3bc7510d,0x3ba47461,
0xb706c303,0x3c530dc4,0x3d69dfa2,0x3de50f5a,0xbc4d74ae,0xbc9677d5,0x3aabb0f8,0xbd4ee61f,0xbc80da1b,0xbda13883,
0xbd08e889,0xbb8b440f,0xbbacd23d,0x3d472dd6,0x3b2ed0b9,0x3c922f1f,0xbc6bd792,0xbc4a7124,0xbc823d10,0x3e00c8b3,
0xbc3ae672,0xbd073f39,0x3c63ca23,0xbcd5807d,0x3d8c0f67,0x3d1fd2b4,0x3d14a75d,0xbcdbc8ee,0x3b3fb22b,0x3d836f70,
0x3c25a3ce,0x3d5ab25b,0x3cebc0b5,0x3cd27273,0x3c85c095,0xbaddc88b,0xbd8ed19d,0x3c8f3fc0,0x3de41bde,0x3c9768b0,
0x3db26106,0x3d4c8ff2,0xbcd14f91,0xbb397b53,0xbd67677f,0x3d4a1f54,0xbd53c66b,0xbea605fb,0x3df0385e,0xbdcc13af,
0x3daf4ae9,0xbe13f7c9,0x3d3b1b18,0xbc9809df,0x3cd18e15,0xbd8a71ed,0xbc464fca,0xbc21516e,0xbdecdcae,0x3cc33cca,
0x3be31fba,0x3bd8a5e0,0x3cd3d139,0x3d97086d,0x3e180537,0x3c8dc27a,0xbcdb529e,0x3cd63701,0x3cf69ac3,0xb9c6830a,
0xbd2103f3,0xba6c0ebd,0xbd222fc8,0xbcf256c7,0xbdcca83c,0x3bf1f594,0x3c4059eb,0xbd5d7901,0x3c7a59bd,0x3d61d507,
0x3cc9b8f0,0xbbca5453,0xbd893688,0x3cb96768,0x3cb02e9b,0xbd8ef499,0x3d821182,0xbda3c102,0xbd48c45c,0x3ca8e188,
0x3da735dd,0x3d8a1b07,0xbe1f9008,0x3d4f1b85,0x3d25680b,0x3d3c4af9,0x3d91a240,0x3d004bb4,0x3d179b14,0x3cbb85d3,
0x3d0a97cd,0x3e2a8271,0x3d49955d,0xbcc367c4,0xbd9f2a17,0x3d58f5a4,0xbd99e9b2,0xbcd27aaf,0x3e299000,0xbdfdeaa2,
0xbd43a936,0x3b5dce0e,0xbc918dae,0x3d803caf,0x3d480c6c,0xbd7c8609,0xbb127fed,0xbdcb2876,0xbd2b400e,0xbe48fad4,
0x3c4d5988,0x3e1863ac,0x3d14ab37,0x3e25a648,0xbc1823f9,0x3d9bf79c,0x3e4c4eb1,0xbddf1930,0x3d8ef53f,0x3a897364,
0x3dbf18e5,0x3dea9748,0xbc2f6e12,0x3cb1eea8,0x3cff4560,0xbc1bad90,0xbde2b97a,0x3aadf966,0xbc8c6d7d,0x3bb11c5d,
0xbd16bf17,0xbde6458b,0x3d8083d0,0xbd98b578,0xbf2e7b7a,0xbdfda9a9,0x3d3d80cf,0x3acf008c,0xbd6a1bb0,0x3cad74d5,
0x3cc927e0,0xbd35a105,0xbd5da2e1,0xbe3bc5cf,0x3a10cd89,0xbd792ac2,0x3ca932a7,0xbcacc28a,0xbcbb8eff,0xbd4dcf3a,
0x3d5d1155,0xbd344d03,0xbd037f46,0xbd46e209,0xbbbe21af,0xbcc212cf,0x3da87726,0xbd83cd3b,0xbc7d6029,0x3db57a68,
0x3d099139,0xbc950920,0xbd8e31c1,0x3cbd549f,0xbd8ba8a7,0x3d390ba4,0xbc92fa08,0x3d2f871f,0x3d895a0f,0x3d72233c,
0xbbad69ae,0x3ce132e0,0xbd5f4399,0xbbf93cdd,0xbd84a06a,0x3d91464e,0xbcc2c340,0xbca52c6b,0xbe31e433,0xbb534107,
0x3d2b369e,0x3e3a3520,0xba1e0851,0x3d9812fd,0x3bcea36a,0xbd71566b,0x3b886679,0x3d1fd77f,0xbc2b1fce,0x3e149481,
0x3d33d193,0xbdc126ae,0xbd545815,0xbd027ca1,0x3b865dc5,0xbe775ddf,0x3d3199c2,0x3d9d8035,0x3beee7b7,0xbd2f7cfb,
0xbc06ca60,0x3db9c5e1,0xbcf7afe9,0xbcbf7276,0xbb302513,0x3d730c66,0x3d7dc1ab,0x3e0d8b22,0x3c7f71d0,0xbd2cd189,
0xbd8b62a2,0xbe0d09f1,0x3d8d4e28,0xbc42f291,0x3ce53fa4,0x3d8baa01,0xbdb40079,0x3d0f034a,0x3da9da6c,0xbd14f9bc,
0x3e3f0370,0x3e0d22b4,0xbd049bb6,0x3d0bab05,0x3d47972d,0xbd1dd7fb,0xbc4c2244,0xbd361ca7,0x3e6a851b,0x3d85e60f,
0x3d5a2c98,0xbec9a20c,0xbc010901,0xbe1b489a,0xbdcac5e3,0x3aa6c3b8,0xbd4203fb,0x3e57a2d3,0xbe0d4b50,0x3bfe9457,
0x3e126c1e,0x3d931a68,0x3d9470ac,0xbe3eb00a,0xbdf761c5,0x3d10a9fe,0xbe103e2c,0xbc0c8ed1,0x3d399fed,0x3d51a103,
0x3d3fa378,0x3d200b57,0xbd933dfd,0xbe0f3147,0xbe09c6bc,0x3e5a4a6a,0x3dce5284,0xbe00c9c7,0xbd954c7f,0x3e22946a,
0xbdfaac34,0x3e3f4c0f,0x3e16a748,0x3e3082f6,0xbd4c9e38,0xbd677d15,0x3e5f35cc,0x3da3b57e,0xbcf963ae,0xbda4b108,
0x3c017f8e,0x3c89e213,0x3e26a622,0xbd614a72,0x3e18f56b,0x3c0e72e9,0x3c8883c8,0x3dd4c8d8,0x3dfb8bad,0xbdb7892c,
0x3d22a5cd,0x3c562c30,0x3d26416a,0x3c8a12dd,0x3db436e1,0x3d43b1bf,0x3e2186af,0xbe201954,0xbd8c6f5f,0xbe8a0cff,
0x3dd870f0,0x3e2a0e8c,0xbe00d7c8,0x3d4e35cf,0x3d1d5aed,0xbd00611b,0x3c95ff60,0xbe2e6260,0x3d3e7cf0,0x39c7ef7c,
0x3e52f478,0x3c026bd2,0x3d63445d,0xbdbcdfda,0x3dbf21d4,0xbda89ff0,0x3d35b2f2,0xbe08ec9a,0x3dd0388f,0x3e756b1b,
0xbe1d8558,0x3e2e448b,0x3c814bd4,0xbb16287f,0x3d4ba7e8,0xbd681753,0x3d791b52,0xbcde5f20,0x3c732756,0xbc78a5af,
0x3cb1000a,0xbd801796,0xbcb43fab,0xbd6ed3dd,0x3ca7580b,0x3e38c125,0xbdd4679c,0x3d6b3239,0xbeab7eaf,0xbc20a00f,
0x3cfd1e3f,0x3d256e20,0xbc875d9a,0xbc792c3d,0xbc920915,0x3c8a99e1,0x3d98dc7e,0x3bbf8126,0xbc3bd06b,0xbc84d581,
0xbb522d51,0x3d83b2c4,0xbdf1e3d5,0x3cc3fdfc,0x3df4a64d,0xbbc39646,0xbc5c9a87,0xbc9455d2,0x3d290dd0,0xbcd54455,
0x3d03dec5,0x3dbcb48b,0x3c9f3e16,0xbdcce624,0xba98e9b6,0xbb568b67,0x3df4da11,0xbc475076,0xbd8ecc27,0x3d2c7e8a,
0x3d991216,0xbd7ff1c9,0xbc63eb83,0x3e7c3218,0x3e11212e,0x3bfaed71,0xbdd05836,0x3da106bd,0xbd9636db,0x3da74ae7,
0xbdce6c03,0xbc1929f2,0x3caa6592,0xbcfec496,0xbe02cacf,0xbd9d88a8,0xbda20fb2,0x3e1a22c7,0x3d09b780,0xbca9e971,
0xbac40c02,0xbc78422b,0x3d76cbb4,0xbcb4c446,0xbe38c610,0xbd78b373,0xbd2286d2,0x3d937afc,0xbceab9f3,0x3e1c34a0,
0xba378cd8,0x3e5edc79,0xbd82664e,0xbd33a12a,0xbd57e52e,0x3d1a7d75,0xbd0dd500,0x3d31bcf2,0xbce7c1e1,0xbd5f7686,
0xbc0196bf,0xbcdc10bc,0xbcc2e750,0xbdc64345,0xbd2f7ceb,0xbd4eba13,0xbdb38a01,0xbcfa38fc,0xbd776a5a,0xbcb7f18f,
0xbd5305e0,0x3d549516,0xb89bc670,0xbdb3737a,0x3d78e215,0xbd53284f,0x3b8a5062,0x3e16b9b8,0xbe137c09,0x3e07422f,
0x3da7ec41,0xbd42d71a,0x3d8a28fb,0xbb3e493e,0x3e0ca632,0xbe73e9b4,0xbd00ea10,0xbd2c9d35,0x3c264de8,0x3a96ed25,
0x3d93ba1a,0x3c7b0e9c,0x3df2ad71,0x3bbb5e31,0xbe185efc,0xbcfb0a26,0x3dd710a3,0x3db34e1c,0xbd7736ea,0x3ca3611e,
0xbe097590,0xbbda1dd7,0x3cc0e89a,0x3d0d51ca,0x3d09e48b,0xbe04d102,0xbda68dd2,0xbdbe2bf7,0xbcea2b42,0x3d975f62,
0x3d191b72,0x3e1fbb8d,0xbd9b622c,0x3d867f1c,0xbd4544f5,0x3d15f99b,0xbe389c17,0x3d9c9bd9,0x3d7bb864,0x3d0a0ab2,
0x3de3ca11,0x3bb860a0,0xbc617195,0xbd05dcb4,0x3d45242c,0x3b9a3a4c,0xbb5511b9,0xbd28c285,0x3d44474e,0x3d895b53,
0x3d2d73de,0xbbd367e0,0x3df8d550,0xbcc0285f,0x3d94277d,0x3b25e6e9,0xbd9e40dd,0xbddd57bd,0xbc4d2970,0x3c623f90,
0xbd1532cb,0xbd2c215a,0xbdbf1b56,0xbd7a3774,0xbc2b5b90,0xbcb5f563,0x3e400ff9,0xbbbf9c1b,0x3ab2f3f4,0x3e20d8c5,
0xbd398fcd,0xbd3c0ea3,0x3c67d7fc,0x3c724f7b,0x3e297452,0x3b64d59a,0x3d55b7b5,0x3dc2de8d,0x3ca69c5f,0x3e75b337,
0xbd7a485e,0x3d9a3504,0x3c9e1c1c,0xbd574b39,0x3df1c74e,0x3e246fc8,0xbe74eceb,0xbd9bcb27,0xbd91e3cf,0xbc54de27,
0xbe15190c,0xbde8cb43,0xbb958976,0x3d0d1a8b,0xbd0be488,0x3db71617,0x3d0a579f,0x3e173c01,0x3d96165f,0xbe28c897,
0xbe3193bc,0xbd852dc8,0xbe1a8e82,0xbd7ef44d,0x3d6ad532,0x3c566292,0x3e13f9b4,0x3bca9baf,0x3d64cf27,0xbd004506,
0xbdc88a4b,0xbbe3c822,0xbdd59271,0xbdb8ffd8,0xbcb4ed01,0x3df0f700,0x3de37b57,0x3d5a51d5,0x3d79ab5c,0xbc5c1a20,
0x3e6c5f93,0x3cb8f9fa,0xbe12b29a,0x3db2feb6,0x3d13fe1a,0xbdf4e8b5,0xbe11e222,0x3d300d57,0xbd8a8b5e,0xbd509c9e,
0xbe0e111b,0x3c161de5,0xbd1d8559,0x3e770ef5,0x3df1bfbe,0x3c8162f3,0xbd498d5b,0x3d85cd90,0xbd97ae76,0xbd4be35f,
0xbe3405ed,0x3e814810,0x3cbbad5c,0xbd744a9c,0x3cf1a4c9,0x3d1c29e1,0x3e6b41db,0xbd86b239,0xbdc63743,0x3ce276d2,
0xbbabfafb,0xbc913d7d,0xbe669e80,0x3de8668b,0xbda09aad,0xbc6fe3b0,0xbe118023,0xbd30344b,0x3c8fced6,0x3d98c4ee,
0xbc4a5ec0,0x3d23061f,0x3dfc0239,0xbd2e3d86,0x3e461660,0x39346cb4,0xbdb066fb,0xbcf6bd14,0xbcdf128a,0x3dba02d5,
0x3db98cc1,0xbc09fea6,0xbe66a380,0x3c8d21ff,0x3ca949d3,0xbd96e49b,0x3c45b698,0x3e367234,0x3c0c7616,0x3d883cc3,
0x3c8aafcc,0x3d3c0f3d,0x3e745fd2,0xbd06b9b1,0x3e4c41e8,0xbe4cb99d,0xbd6f7e98,0xbd4ad1c9,0x3e4a3271,0xbe420536,
0x3c1ff827,0xbe853951,0x3d3483ec,0x3e3c625b,0xbccd4736,0xbe0cd322,0xbd1bf1e6,0xbe342fb0,0x3e716395,0xbf00920f,
0xbe0186a6,0xbd35c70f,0x3b085c77,0x3d913f75,0x3da7545d,0x3c4062ba,0xbd255efc,0xbc706a3f,0x3c331787,0x3d5afe6e,
0x3c24882b,0xbe3a3948,0xbd57ed4c,0xbe47ffc4,0xbda915f2,0xbd9386b4,0xbd147f7f,0xbd4ab6fe,0xbebd48b2,0x3dda7cac,
0x3e0e4a99,0xbea8be2c,0xbd99339a,0x3ee7f297,0x3dc0d77f,0xbd0334c4,0x3f24ca1b,0x3df590f8,0xbb98bc81,0xbdc5b434,
0x3de1729e,0x3e2ba826,0x3dc2c4fa,0x3e272ef2,0xbdbd091d,0xbdcaba9b,0x3dd656ec,0x3d73a9c1,0x3f0e296f,0xbd8cef51,
0x3e27d65c,0x3d130e3f,0x3e8ded56,0xbcc2f76f,0xbd8a5de9,0x3e3cf0a7,0x3ea14560,0x3d58adf1,0x3ddcedae,0x3d645b89,
0x3e0efd9c,0xbe081f2e,0xbdb43964,0x3cc5ca43,0x3e0c53d4,0xbe921977,0xbd337d5d,0x3dc05542,0x3dc07cc1,0x3d993d50,
0xbe829e4e,0x3bf2f18e,0xbdc3edd7,0xbe9d338a,0x3eebb5db,0x3c53110c,0x3ee1a046,0x3e6cae75,0x3e196bc2,0xbdbe70ba,
0xbed05291,0x3cfe042b,0xbd41762c,0xbd9e0837,0xbdf478ec,0x3f2b82ec,0x3e7456e9,0xbe1ec466,0x3aa247b6,0xbae33a34,
0x3d8c6b19,0xbd1c8725,0xbb5f7810,0x3d378093,0x3db2d502,0x3d69ca59,0x3cb81dac,0x3b9615d8,0xbe4a09b5,0xbcd4ae6c,
0x3d57695a,0xbcf25a6f,0xbb2cadf9,0x3d8513bb,0xbb9283f2,0xbd0aa457,0x3e63acbc,0x3be0f4fa,0x3dd34ae1,0xbd0d8a44,
0x3cdcacac,0x3da83a24,0xbcc9b2d5,0x3c227097,0x3d43f52d,0xbce1dcfd,0x3e0cf387,0xbcdc4e9e,0xbd00f6be,0x3a69cec8,
0xbcd72b0c,0xbd0c5c74,0xbcc97f39,0x3d66ee35,0x38e6da40,0x3d7d8338,0xbd3649e8,0x3df4954a,0xbd25f652,0x3cbd0336,
0xbcc8a7e0,0x3bf236ff,0x3cfa72fd,0x3c9e1e65,0x3c59ab46,0x3d1412a7,0x3c47419f,0xbc2e808f,0x3e5d8aad,0x3dccb180,
0x3d88b9a7,0x3dbbde84,0xbcd0c3bd,0xbd80d64c,0xbdd8e8cc,0x3e21c544,0x3d1ca859,0x3ded2488,0x3c143842,0x3af02de0,
0xbc3ccec9,0xbcefc21c,0x3cf7755e,0xba524c4f,0xbd93ce25,0xbc7b57db,0xbd1697fa,0xbbf475cb,0xbc90607f,0x3d1bb562,
0x3cac92a6,0xbda99528,0x3cf91918,0x3d218293,0x3dcd19df,0x3c39aa2e,0x3d02e318,0x3cb7a214,0x3ceff004,0xbd2b2502,
0xbc1888d5,0x3cd910f1,0x3c6e9379,0x3e03cb27,0x3c0a8d2b,0x3e0745d3,0xbe9223d7,0xbc4c2216,0xbc817320,0xbe5346c4,
0x3d676277,0x3caf4d11,0x3d2453fb,0xbd2eb80c,0x3d192f0c,0xbc8575a0,0x3d709732,0xbda51883,0xbe7acf65,0x3c866466,
0x3d37a355,0x3d07ca25,0xbcb39453,0x3a283059,0x3cfee0d5,0xbe0afc15,0xbddee268,0xbd90b192,0x3d83e339,0xbc47104e,
0xbe9d6404,0x3c846f6c,0x3bbe15ba,0x3df4eed2,0xbd82475f,0xbe4f18db,0x3d272a50,0x3e1e0ef0,0xbc74e498,0xbdb509bb,
0x3d1a7090,0xbc91a086,0xbe2aae4d,0x3d0318ce,0xbb5791c6,0xbdac88d2,0x3d95791e,0xbe12ad57,0xbb5d563d,0xbdf8672f,
0xbc5871d9,0x3d12e8c7,0x3e033112,0xbd0c50ad,0x3d3cdade,0x3d9c2cdb,0xbca511c9,0xbdc94bf0,0x3e01747f,0xbcb0c9f5,
0xbdf7def9,0x3d0a5eed,0xbc12917d,0x3d75783d,0x3dad45a1,0x3d8b7d8e,0xbcb72d56,0xbdaa85d5,0x3d5e0ba2,0xbe30b808,
0x3d36635a,0x3d80ca82,0x3e1bc0d8,0x3e4ac268,0xbdf8defa,0x3d43caf9,0x3e08b759,0xbd559df3,0x3ddd76ab,0x3d69b214,
0xbe0193db,0x3e223bf2,0x3e2a3084,0xbd18d9d2,0xbd8b6a26,0xbd30658d,0x3da2a32c,0xbd14cc66,0xbd1127a8,0xbcda17a2,
0xbd99a6d0,0xbd8900ca,0xbdfebe50,0x3d5c631b,0xbe279119,0xbdd709a1,0xbd842228,0x3cf70b31,0xbd16b079,0x3dd1bf9f,
0x3b2c782d,0xbd102c4f,0x3db66491,0x3c0933f7,0xbd25e28a,0xbd145d53,0xbd200c0d,0x3dd5a012,0x3b1078fe,0xbde0b247,
0x3c80dcf2,0xbd5450ee,0xbce63ec1,0xbd5fb200,0xbe274173,0xbd059c90,0x3da0b9b5,0x3dc30c47,0x3d444454,0x3b2f295e,
0xbb3012af,0xbda30da6,0xbd704c9a,0xbddae244,0x3a334803,0xbc58d313,0xbe09fddd,0xbc7eaf6b,0x3cab5bf2,0x3cb23e65,
0xbed3a6d0,0xbe824582,0x3da0c9d6,0xb9c2f67b,0x3ce217aa,0xbdd3527b,0x3d57adf7,0xbd36df18,0xbe03f576,0x3cc2a5e2,
0x3cbeb726,0xbe012f00,0x3d82afd3,0x3d79fce6,0x3d38444f,0xbea85d9a,0xbd4a2178,0xbe018842,0xbc9a5910,0x3d1141be,
0xbd5df253,0x3cddb28d,0xbdd85e7e,0x3d04e9a3,0xbd097b09,0xbe131016,0xbe96bfed,0x3c2f6cfc,0xbdad9db5,0x3be689fc,
0xbc34e24a,0xbb9147a5,0xbdd3ff3b,0x3cd7e11f,0x3c96f28a,0x3e1885d2,0xbd22a18b,0x3def7556,0x3e1b7d50,0xbceb370b,
0x3de01e60,0xbc8155ff,0x3db49335,0xbd1d0ed8,0x3ceccb3c,0x3c886e46,0xbd7eb13a,0x3c2c02d8,0x3d661953,0xbce05761,
0xbd0e13bc,0xbd8803b5,0xbc06f0b5,0x3de64c88,0xbdb3c056,0x3c12db58,0xbd98607d,0xbba28f8c,0xbcd38747,0xbd626060,
0xbd0beb1a,0xbe004bde,0x3e50c85e,0x3cf140ab,0x3d4d7740,0x3d442ce0,0x3d08fe56,0xbe425fde,0x3dabf902,0x3d374ecd,
0xbcb6c753,0x3dfaac02,0xbd943ddc,0x3c3a97d4,0xbb9f6f7b,0xbe3dd5d9,0x3cab2c63,0x3d176566,0x3eb56721,0xbc05d65c,
0xbe6d7a09,0xbcc1df51,0xbd52867a,0x3d38e324,0xbd53e957,0xbddef77f,0xbd0f4695,0xbdfd0f08,0xbde254e8,0x3c9b826d,
0x3d1f35b4,0xbcecbf33,0xbc4b6758,0xbd8aca40,0x3e128c36,0x3cba26a4,0xbe08f001,0xbf179e58,0x3d70b460,0xbdeb0cc2,
0x3c9b4cb2,0x3cf9dbe3,0xbda41efe,0xbd8a7140,0xbcd748ab,0x3e156705,0xbddba81e,0x3b448c5d,0x3da884bc,0xbdafce99,
0x3a37c755,0x3d96930d,0xbda2580f,0x3e2a3c7f,0x3e234a63,0x3cb44a2f,0xbc9f35bd,0xbbb04092,0xba475c88,0xbc64928f,
0x3d0d8c79,0xbd18fa64,0x3d2273b7,0xbd4a2970,0xb8300243,0xbe62db3f,0xbd91030c,0x3e270ad2,0xbea8a406,0x3c1516c4,
0x3e9cdf06,0xbd75a55d,0x3d2e5407,0x3e0721e0,0xbc395c0c,0x3dbefe59,0x3ca5acad,0xbcee50fa,0x3e0b9465,0x3b744fac,
0x3e868863,0x3d28a978,0x3e59833c,0xbd9e1407,0xbdf41e94,0xbd9cae59,0xbcf3e18f,0xbdf628c1,0x3ecd4b80,0xbd9c2072,
0xbcafbba8,0xbc816666,0x3e0479f8,0x3c221bd0,0xbd35cbab,0xbddafe6a,0xbdce5c9c,0x3a84241c,0x3cc50139,0x3cf9c45a,
0x3dc7ff30,0x3baad087,0xbb27a084,0xbe255af9,0xbcf72133,0xb882be30,0x3e9a3946,0x3e265818,0x3e4bbf81,0xbc12fd87,
0x3c5e62b2,0xbb5b0e91,0xbd226743,0xbbffae98,0x3d9b9e01,0x3c487cec,0x3d3a08e8,0xbcb1a1e0,0x3c91de30,0xbc6ce5eb,
0xbd34cde9,0xbc78bcd4,0xbc564d81,0x3d79e812,0xbd3071c9,0xbcecd103,0x3c94e282,0xbd000459,0x3c94ed9c,0xbd6f557b,
0xbc1b698a,0x3d0eaa12,0x3b1bb1a8,0xbcc5aeb8,0xbec1fbaf,0x3c4ee4e2,0xbc88d068,0x3d40cf1b,0x3caa6c8b,0xbd31c948,
0x3e46172d,0x3d0c7a60,0xbc6dfbf7,0xbce03b3d,0xbc435419,0x3ccd7c16,0x3d0121c2,0xbca1de5d,0x3d6958de,0x3e152601,
0xbda70768,0x3d6c8c33,0xbcf5cdb5,0xbba6c90b,0xbc70e1af,0xbcf38b7b,0x3d2df18e,0x3c47718a,0xbd755f78,0x3c723a5a,
0xbc418d3a,0x3d5f1bba,0xb89a4aff,0x3d8a678c,0xbd26f5bb,0xbcfc757f,0xbc5e1404,0xbd148cfe,0xbdf0262e,0x3d4e479a,
0x3bc7a525,0x3c91d2f3,0x3d801c52,0x3c296e1d,0xbc8dfa54,0x3b2d5b59,0xbc0932ae,0x3db1b50c,0xbd0b98c9,0x3d0c1591,
0xbc8276f0,0xbc28715d,0x3a903c62,0x3d8f92de,0xbcef912e,0xbe1a8e46,0xbc82e020,0x3b275890,0x3cc7e9ff,0x3c2792bb,
0x3d70540f,0x3c83cab8,0x3d047f5e,0xbdde5eaa,0x3c88ec0d,0xbda00b82,0x3a52c0e1,0x3db396c9,0x3d0da376,0x3c9da99f,
0x3c369379,0xbcef7f7d,0x3e143c14,0xbcb83e7d,0x3cfec2dc,0xbd25e50e,0x3baf6fcf,0xbc81e120,0x3dcfa5c8,0x3d7d838d,
0x3e4653c5,0xbe01d170,0xbdeb2020,0xbdc120fb,0xbcc65745,0x3db1c682,0x3dd8a438,0xbe471b91,0xbea2bed0,0x3c927929,
0x3e218574,0xbe72fe64,0xbdda13a1,0x3d5f1534,0x3d134af8,0xbd06efb1,0x3e573147,0xbc73d67c,0xbd792cc1,0xbbc29759,
0xbd462fce,0x3e96ceef,0x3d16dc53,0x3ca094ff,0x3df53549,0xbda38be6,0xbc0d9ea3,0xbe2a9e81,0xbc155a34,0xbe973fe8,
0x3e34b2ac,0x3d6f4bc8,0x3d96d479,0x3dc8f673,0xbd60f78d,0x3e09411f,0xbdd39c0a,0xbe32bc35,0x3d4e9465,0xbc05f981,
0x3e64e4ea,0xbe5991e7,0x3e07c2a8,0xbca78c00,0xbdf55bcf,0x3e672ceb,0xbd6a3894,0xbd5fd7b8,0xbd464c1c,0x3d776d50,
0x3e084b86,0xbe00d9a2,0x3cb9c132,0x3eb3101c,0xbdaf6573,0x3e596816,0x3e1f4e50,0x3c73033a,0x3d1203de,0xbd74953b,
0xbd976ede,0xbd0be71c,0x3ec718c5,0x3dd3eecd,0x3e4189bf,0xbd95c9b9,0x3e6a29fb,0x3dab4541,0xbe21b9d6,0x3ab3adb8,
0x3d69ccfe,0xbdc9fa56,0x3d9b47da,0x3c8d4b2a,0x3adceecf,0x3d787e80,0xbda3eb9f,0xbe3a5752,0x3dc51961,0x3db21f5a,
0xbd0809c5,0xbcc9a502,0x3e09e662,0x3e83baad,0xbec1b583,0xbd793484,0xbe67b9e6,0xbe976d6a,0x3bd5cf4e,0xbe6c6048,
0x3c01f636,0xbd72078b,0x3e03b7fd,0xbd96011b,0x3c986f04,0x3aae71bd,0x3d4e6546,0xbc4845f4,0xbce4b464,0xbc0608ca,
0xbda35fd1,0x3c6020bc,0x3cfd7fa5,0x3c665363,0x3b8fcff2,0xbc6e9085,0x3b02af9c,0x3a914aa8,0xbce0dcf1,0x3c47aac7,
0x3b95f799,0xbdaa9e5b,0x3d1977a2,0x3bec3ed8,0x3d6114ee,0x3c94361d,0xbd68732a,0xbc8833b1,0x3f0ed6ff,0x3c7f8036,
0xbd18d34b,0x3c0b3a02,0x3e61a40f,0xbd03add5,0x3d1bb51e,0xbc0d72c2,0x3b8d2ea6,0x3d04b65e,0x3ca36cfb,0xbd1bc139,
0xbc6eaeca,0x3da6486b,0xbb1e0bda,0x3dc908b5,0x3d138a7a,0x3d409a3d,0x3cf0bc77,0xbcae14cb,0x3e17b6f2,0x3b708874,
0xbd4f369d,0xbc847e8a,0xbce697d5,0x3d99f401,0x3d2483da,0x3d60e8f9,0xbd1c8300,0x3d95e0b6,0x3d4e5d12,0x3d390c13,
0x3d2e5e87,0xbd20f322,0x3c0218fe,0xbcbe5c96,0x3dad4d42,0xbcb24963,0xbd0d3123,0x3bee2dee,0x3d5b56f2,0x3d71af52,
0x3d631649,0x3d01927f,0x3d87b81d,0x3b9dee8d,0xbd6cbddd,0x3b5405cb,0x3ca43b8f,0xbb032cb6,0xbb8fd399,0x3d187179,
0xbd41abc3,0x3d338c20,0x3d2eefc6,0x3c779a2d,0xbce8883f,0xbcef5d37,0x3a5778cb,0x3c88f869,0xbd41bf3c,0x3e83ad07,
0xba98d6d7,0x3cdecd64,0x3c34a024,0xbaab5003,0x3d73a141,0xbd384138,0x3dca1d13,0xbcf9c04b,0x3d22b70d,0x3dc7957a,
0x3ce983fc,0xbc2392a3,0xba7e2178,0xbba365b5,0xbb8ae1ee,0x3c887a61,0xbc04edb5,0xbc07993c,0xbb9e9d1c,0xbc4452c3,
0xbd98b7de,0xbc2ea64e,0xbd3badac,0x3cface8a,0x3d4fbe09,0x3d17f379,0xbb97bdb4,0xbcef086a,0x3cdc44d7,0xbc2f896d,
0xbc37ffbd,0x3cd5df7a,0xbc82f191,0x3c74c804,0x3cbc4083,0xbd4b589d,0x3bcc8c8e,0xbd627207,0x3d80bf76,0x3d1d4c37,
0xbca8832d,0xbb9477f3,0x3d7387c0,0xbcd79ba6,0xbd25a76a,0x3d9a2e8b,0x3da1db48,0x3dac64e2,0x3c09a15f,0x3d054419,
0x3cf6b070,0x3d0878f9,0xbd2e853e,0x3d609733,0x3d1f64ee,0xbd334484,0x3adc3e61,0x3d1ff6b0,0x3d40fb6e,0xbdb78bc8,
0xbceb298c,0x3c6acaff,0x3d102322,0xbd0a11a7,0x3cf258ae,0x3b2a72f3,0xbd22cf05,0x3d265aaa,0xbcfbdaa4,0x3c09320b,
0x3cbdd426,0x3db203c4,0xbc6c904d,0xbccd2c30,0xbc7e79b5,0xbc31e30b,0xbd84a957,0xbd75f9db,0x3b3f6389,0xbd146dd7,
0xbc8089f1,0x3d3f83f5,0x3ba5a648,0x3d0f85c9,0x3c2c0adb,0x3ca888aa,0x3bae962f,0x3aaffae5,0x3c078995,0x3db47e62,
0xbc89369c,0x3b105ccf,0xbca17692,0x3c9b37b7,0xbba46652,0xbbbc7c63,0x3cc72116,0x3c841426,0xbbc8ae28,0xbd4f5019,
0x3cde2659,0x3d4aeed8,0x3da0de54,0xbcc3a1a1,0xbd3c1516,0xbd2ed815,0x3d2ae5c6,0xbd0da2b7,0x3d03809d,0xbbfda9c6,
0xbd34ce1b,0x3b6093da,0x3ceb023e,0x3d2bbe15,0xbd078528,0x3c795429,0x3d6ba82f,0x3da8f1b3,0xbcf78c72,0xbd8b1374,
0xbcc16935,0xbc6c7a9b,0x3cae9742,0xbe54d733,0x3e33428a,0xbd82f3b9,0x3da2d95b,0x3cf04e01,0xbc95189d,0x3dc68782,
0x3d954ceb,0xbcdece66,0xbf162138,0x3b46122b,0xbcbaa685,0x3dc35920,0x3c6e622c,0x3ceb47c2,0x3cce66db,0xbbbf8849,
0x3ca3b1df,0xbd767459,0xbda6c3ad,0x3cc6bdba,0xbcd91723,0x3d3b831c,0x3d406fa9,0x3c649d61,0xbd117859,0x3d19de1b,
0x3d32114f,0x3ce1c158,0xbe005fd8,0xbdcf2f06,0x3e1b4896,0x3d4c5694,0x3d07bcd8,0x3e53bf3b,0x3dbd7bf5,0x3d75714f,
0x3df58adf,0x3c3dd765,0xbdd90157,0xbdc0cd5a,0x36c64cef,0x3cddbf18,0xbc3d04fe,0xbc77cdfc,0x3da4990b,0x3d155c78,
0x3d862307,0x3db4d5a4,0x3dfef617,0x3e07de34,0xbd328a6b,0x3b992ebc,0xbd193cb8,0x3d634f65,0x3e29aee1,0x3e00150f,
0x3d8bc89a,0x3d3fe9f0,0xbd36ec6d,0x3d09267c,0x3d60bee3,0x3bfe97a1,0xbcfdb3b5,0xbc177565,0x3cbc6553,0xbd96bde9,
0x3e3cdaf9,0x3e527a8b,0xbc7b6e28,0x3d8c8d02,0x3d7014ad,0xbd563803,0x3e80a19e,0x3e0002b4,0x3dc21985,0xbd2045ef,
0x3d1e2896,0xbd149342,0x3c9fa8f4,0xbd5e8832,0x3d7f665b,0x3d662fde,0xbd7b8698,0xbdc3f2af,0x3e4167bb,0xbaaee6f2,
0xbe1122e8,0x3d5a51df,0x3d0a75e8,0x3caff828,0xbd0c251e,0xbc72e0fe,0x3cd2b9ba,0x3d6be850,0x3b0e378c,0xbe5613c3,
0x3c4fb84d,0xbd5967ac,0x3da6c965,0xbd0d599e,0xbd1fc61a,0xbdbc6a79,0xbd8b4412,0xbdee7aad,0xbda94855,0xbed70e3a,
0xbc7b362f,0x3d6ca590,0xbbc8920d,0xbdecd961,0xbdf3d9b4,0xbd44038c,0x3e17404b,0x3dd245b1,0x3de239ca,0x3cb903e6,
0x3bcfe303,0x3dc6401f,0x3d7e92d6,0x3d25258c,0xbdd9ca5c,0x3cb50432,0x3e040637,0xbd7fdcb1,0xbd688e8c,0xbb55d9ce,
0x3d8270d2,0xbd88123d,0x3d4c7898,0x3dde4207,0x3c10a0c4,0x3bfaadbf,0x3dcf5005,0xbd77b4b9,0xbb8eb09b,0xbd9d50d3,
0x3ddcdd14,0x3e5992d5,0x3d6efa3c,0xbd922198,0x3d6e4fb1,0xbd260e67,0x3e205ab8,0x3d28df61,0x3d5586e0,0x3e5d6ef3,
0x3c6a9829,0xbd27adae,0xbe11e34e,0xbd87424f,0x3d069e2a,0xbe5370b5,0xbc0a7036,0xbde60015,0xbc04f28c,0x3dffb9ff,
0x3e14fdf4,0x3bc106c3,0x3e1602be,0x3c87be0d,0x3dddd175,0xbbc94fa3,0xbd82ee52,0x3c70875d,0xbd0734f3,0xbc9b2871,
0x3abd6cb3,0x3dfcc561,0x3e0a0529,0xbd53e7f8,0x3dab2e9c,0x3d05a37a,0x3db8fbd9,0x3db7e0c1,0x3d9b4e57,0xbc84b3ce,
0x3d9de23b,0xbe07af1e,0xbd720be0,0x3d014492,0xbdaa2335,0x3cd9716a,0x3aa6cad6,0x3c3a49ed,0x3dbd5a42,0x3c7ee1ad,
0x3d3f7665,0xbc9e41fe,0xbccd5b31,0xbd806a83,0x3a992449,0xbd4f06e4,0x3c8b9047,0x3db8dc60,0x3e0f667b,0xbdac0ad5,
0xbdd6b9f2,0xbdb1476d,0x3c9c43ad,0x3d7ec94f,0x3dafa86a,0xbdecf2a8,0x3e5377cc,0xbd858e86,0xbe05aad6,0xbd210417,
0x3c9c35d3,0x3d4126e8,0xbb0a7f4a,0xbc1ab203,0xbe292bdd,0x3d92daa6,0x3e150368,0x3e155aa0,0x3e1e3b57,0x3cf723c1,
0xbd55304c,0xbddfb483,0x3e8de5ad,0xbc803ac4,0xbd380074,0xb9fd876d,0x3e10bdd7,0x3b89aaad,0x3ca78f95,0x3d8ecc2d,
0x3ce76ad6,0x3c801902,0x3e37cd92,0x3d9dc1ff,0xbdee399e,0xbe1785f5,0x3ddec47f,0x3d6c97dd,0x3ac6346a,0x3d1744ab,
0xbdb420dc,0x3da7f0d1,0x3e8c8da5,0xbcbfef35,0xbe54d8ee,0xbd31c16e,0x3c00a1fd,0xbc91f51c,0xbd91fc5b,0xbd88d787,
0xbc827ebb,0x3dc459ce,0xbcb86e2f,0x3dbc11eb,0x3e120242,0x3db7ad6e,0x3dde47c3,0x3e11d003,0xbd86d195,0xbd6742e3,
0x3e3e0a99,0x3be33945,0x3ec6e1bd,0xbd2efdb7,0xbde869d9,0xbda69820,0xbe8304d1,0x3e2504d4,0xbd00cb46,0x3e6df128,
0x3b4040b4,0x3ed66a76,0x3e402ff9,0xbc1f4558,0xbd550bc8,0xbc4e54ba,0xbb99ac1d,0xbd410643,0x3d182add,0x3c637ea9,
0x3d5c305e,0x3cf92add,0xbca2eb36,0xbdd80330,0xbdec188c,0xbcfc72f9,0xbb094749,0xbd87d8fd,0x3cb62bf2,0xbc966a06,
0xbbcf22d6,0xbcffdcd1,0xbcb766e3,0x3cc91c89,0xbd342083,0x3cbddfec,0xbcbf9e91,0x3c4bf672,0xbca6593d,0x3d14231c,
0xbd2f4fae,0xbcc17827,0x3dd531dc,0xbf0378ca,0xbc376e24,0xbd6dd811,0xbbfb253f,0x3aa7a9b8,0x3cc5036f,0x3bb6adc0,
0x3a1987c0,0x3e0abc23,0x3d9ee356,0x3d462add,0x3cec4a40,0xbc83b8ca,0xbd1a2d65,0xbd41234d,0xbbd16773,0xbcc5d05a,
0x3cb3b0d5,0xbd131eda,0x3d8e006e,0xbcf540c3,0x3d337fd3,0x3d5f835c,0x3c9c7b89,0xbd87f716,0xbc54384c,0x3d866a8e,
0x3c70b573,0x3d9c89a5,0x3cbe5b5a,0x3c9c8ba7,0x3d96ce24,0x3c410897,0xbd09bf72,0x3cf74d74,0xbbb75128,0x3d45646d,
0xbd759071,0x3d709ca6,0xbcfe6059,0x3cc62dbd,0xbc46c88c,0xbb4d3ed0,0xbd6c15a2,0x393db676,0x3d415dee,0xbc8a3700,
0xbd41d519,0xbda06f10,0x3db35b9f,0xbb62382b,0xbda400a5,0xbde9be60,0x3d79c1aa,0xbb9690eb,0x3d03d682,0x3d846483,
0xbd8d3a5b,0xbc8974fd,0x3c2b6ff2,0x3ca9646d,0xbca31cdd,0x3cf3e8c2,0x3e069a69,0x3d9774f4,0x3cbd4219,0xbcbd0412,
0x3d46b6f6,0x3d2bc15f,0x3df3f547,0x3d876314,0x3d3277a0,0x3de02166,0xbe81fa04,0x3e1d74a9,0xbd90d6fd,0x3dc86ea0,
0x3d89b972,0x3c5986c1,0xbdb9fbfd,0xbe85d661,0x3df64881,0x3c0ca916,0x3e746f4a,0xbe0f7eb4,0x3e268203,0x3e4527f2,
0xbd90657e,0xbd11c0a5,0x3d53c1d7,0x3c939179,0xbc05a2c3,0xbe514c55,0xbcf5a085,0xbbb01024,0xbe29b6ca,0xbc4d01da,
0x3d866686,0x3de7a079,0x3d9ff165,0xbe45f7ad,0xbda6bd72,0xbdbee0ba,0xbd983d29,0xbd9ff8a7,0x3cb04c27,0xbe7256da,
0xbd86bd3d,0xbd815a9f,0xbe1d80fe,0xbd5f7f2a,0x3f2aba3a,0xbc9af339,0xbe65f089,0xbd24b5ed,0x3ca724a9,0x3c8012a0,
0x3d45b37a,0x3c820c0f,0xbcaa5535,0x3cc179ad,0xbc59b291,0xbe042e57,0xbe2deb26,0x3d407c08,0x3e1c737a,0x3e996d59,
0x3d8b5e36,0x3e09d494,0xbc25b631,0xbe1e0e37,0x3dc46fac,0x3e0a9bb8,0xbdd7257a,0x3df1ae1d,0x3cc430e3,0x3da7634e,
0xbe22b021,0xbdeddc71,0x3d3a117b,0x3d3c4ae4,0xbdc67ead,0x3e2249f2,0x3e333190,0x3f018215,0x3e27c84d,0xbd10ea3d,
0x3bb97751,0xbd3e3007,0x3f08d9fd,0x3d98c22e,0x3ea4c943,0x3c828266,0x3df87d17,0x3f101bc6,0xbd7d3a81,0x3da25a93,
0x3e85a60f,0xbe8612bf,0x3d8b96e5,0x3e192ade,0xbc10512f,0xbd444d42,0xbb789852,0x3c755af0,0xbc946be3,0xbe34b1f5,
0x3cf28e81,0x3c13518d,0xbc899a2b,0x3d60894d,0x3c6bfeba,0xbe093efa,0xbcf4196c,0xbc8d7ab8,0x3d33ea32,0x3cf44595,
0x3c2a0c8d,0x3cf6f0a9,0xbda72d18,0x3d31e51a,0x3d6098af,0xbce5088f,0x3d61cf69,0xbce6d4fd,0x3d4bb23e,0x3cb8d9e0,
0x399c135c,0xbdf0359b,0x3dfa44f1,0xbd4b5d9e,0x3d0eb6d0,0xbdea379b,0xbcfab084,0xbeaad006,0xbb56bc44,0xbd1fb96b,
0x3c8f0da2,0xbd32d5d5,0x3d98120d,0xbc19915c,0x3b8cc806,0x3bdd8a8f,0xbcf1dad3,0x3d58e438,0x3b8c874a,0xbe034c81,
0x3d2819e1,0x3cbe72cd,0x3d031c5f,0xbd6a26ad,0xbcd65af0,0x3bb84700,0x3bbe7a56,0xbc8b99e1,0x3b92e644,0x3c2a0f8f,
0x3c3ca3a9,0xbdedca93,0xbde2e3d8,0x3b038a0c,0x3e00f623,0xbca09525,0x3d1dd14e,0xbd87adea,0x3ce4c065,0xbc94020d,
0x3d15f7ff,0x3d402ca6,0x3e0606e2,0x3df26b72,0xbd3e209f,0x3cec56a9,0xbd6cd05a,0xbd31f7c6,0xbbff34e6,0xbb56479d,
0x3d363ced,0xbd87bf5a,0xbcfaf630,0xbc660044,0x3e1847b5,0x3cc6e9e7,0x3bd7337f,0x3d8400a1,0x3d4b810a,0xbe22df80,
0xbd9176e0,0xbd461cfe,0x3cfca477,0xbc68423c,0xbd01302d,0x3d384b67,0xbceffcc3,0x3da8e04c,0x3d73e2bf,0x3d5d5947,
0xbbc604b6,0xbdbd5cdb,0xbd6de070,0xbbca0ae6,0x3c811aae,0xbc8b8a96,0xbe36d4e0,0x3bfb6797,0xbcd4db29,0x3be1a40b,
0xbc09ed83,0xbc77050b,0x3c91890e,0xbd69fc1a,0x3cb08bbb,0xbd305b47,0xbcef1bdd,0x3c9c8532,0xbcb23e09,0xbd259b82,
0x3d008cdb,0x3c729d81,0xbb62b56e,0xbcb5d5df,0xbc9a00f7,0x3d1c8a3a,0xbc53f512,0xbc57af0d,0x3d993169,0x3d6c6c5e,
0x3d846897,0xbcf3f358,0x3d1770d7,0x3da011e6,0x3e482111,0xbbecbfc9,0x3cb177dd,0x3cfa6af9,0xbd188e69,0x3cf0be20,
0xbd22b20d,0x3d60ff59,0xbdb46ccf,0xbd0b2b5d,0xbda7ce3b,0xbd85414f,0xbb9ec9e8,0x3d0ef5c1,0x3d08f8e4,0x3e086066,
0x3bc433d7,0xbdb64f4b,0xbcd66d21,0x3c917a61,0x3d04a251,0x3d2d8013,0x3da8ef73,0x3cf60520,0xbbd20ff9,0xbcd3dbe4,
0x3d23397f,0x3d117a48,0x3de43832,0x3c11d439,0xbd5a72e2,0xbd9125d4,0x3b30cf78,0xbca40f5e,0x3d22f931,0xbd25fc22,
0xbd9bfb87,0xbcfd99ab,0xbac957dc,0x3cf38738,0x3d812946,0xbc2aa066,0x3bb44e73,0x3db2373a,0x3ce3fe11,0xbd2d4097,
0x3cf1b086,0xbb379f93,0x3d282433,0x3d41ff6b,0xbba7c730,0x3cffca09,0x3dc40084,0x3d85f579,0xbd58438e,0xbd1bf9d9,
0xbd45a1b9,0xbd70654b,0x3d3dc54e,0x3dc8c091,0x3cbf3d2b,0xbc4e3ae9,0xbc8c480b,0xbd5e4802,0xbc996912,0x3c81c2f2,
0x3d889c09,0xbce34701,0x3d5d879e,0xbd962e0b,0x3d0dcee6,0x3ca2d777,0xbd27417f,0xbb10913d,0xbdef75e9,0x3d0fccdd,
0x3d6849fd,0x3cac584f,0x3c38baee,0x3d109996,0xbd35d629,0x3c0433af,0x3dbd5339,0xbd0befb3,0xbcbcc029,0xbd4e7179,
0xbcbbcacb,0xbceb86b2,0x3c2c092e,0x3d2c4c9c,0x3db236f5,0x3d67b1fc,0xbdc89abd,0x3da37f5a,0xbdb43775,0x3cac1c2d,
0xbcd11e8e,0xbe9ebfd8,0xbde3f9bc,0xbc2fc4f3,0xbd3f084a,0x3d745f86,0x3d58c06b,0x3de7e547,0xbc308586,0xbe084af1,
0xbcff5a12,0xbdad2117,0x3d1cf682,0x3d50fb48,0x3db45041,0x3de1201f,0x3d8a4e64,0xbc690fc4,0x3e820bd9,0x3b30fa11,
0x3cc455c5,0xbbe885c0,0xbd8066d9,0x3e148fff,0x3d1241a1,0x3d556871,0x3c8f5f5f,0x3e0be6cb,0xbcefcdd0,0x3d8cd103,
0x3dfcac7c,0x3c2a64a5,0x3d851c92,0x3d6254bb,0xbdf0d248,0x3d9a2293,0x3d97e994,0xbcb8522b,0xbdc056dd,0x3c3f44ff,
0x3c5d0e36,0xbe0f009f,0x3cd6efa2,0xbdbd0d3a,0x3c730cbb,0x3e0d8e09,0xbd60870d,0x3d8364e0,0x3ab5c9e1,0x3cca8167,
0xbd735929,0xbb802a6c,0xbc82fd08,0x3b060b86,0x3e097e19,0x3dc1d5c7,0xbe23241f,0xbca4f9ea,0x3a9c4f93,0xbe8718ff,
0xbdae16fc,0x3d301a86,0x3d854c74,0x3dfa9b58,0xbaf4577b,0x3d8f7961,0xbb76117d,0xbd11840b,0x3c5f7f9b,0xbca03a81,
0x3c52a674,0x3dcf57d9,0xbd7fba47,0x3dbf3e77,0xbc9d60b0,0x3d42ff61,0xbd9496c6,0x3c360c92,0xbe1ae4dc,0xbd76f7c7,
0x3c1eb5f7,0xbcee3f7c,0xbd3be94f,0xbbce7239,0xbd09c325,0x3bc7e6aa,0xbd63a3d3,0x3dc304f3,0x3c5590ea,0xbd9a907b,
0x3d8f87b3,0xbd44808c,0x3d5b7d9c,0xbdbd1b47,0xbcbbb737,0xbca17fc6,0x3be6c6c3,0xbbcbddaf,0x3e3875bf,0xbc6a2e4c,
0xbdad5d26,0x3a08b875,0x3d543867,0x3d404617,0x3d2182b0,0x3dc34f05,0x3b1e813d,0x3d5d5c3e,0xbc3c7941,0x3d55a4b1,
0x3d522647,0x3d85e723,0x3c12b037,0xbd99d456,0x3d5f1d54,0x3c5287bb,0xbde36318,0xbcbf178d,0xbced820e,0x3b08e250,
0x3d4ea3e1,0xbcf5b320,0x3d77a7b3,0xbb480ff3,0xbcf945c5,0xbc1bdba3,0xbd623985,0x3cb71bb5,0x3cacf898,0xbbd63a00,
0xbd99236a,0xbd80fb04,0xbe1a401c,0xbdefb2bc,0x3cb99b36,0xbbf7119b,0xbd06280e,0x3c283e64,0x3c1e60a2,0x3c460ae5,
0xbceb1f4f,0x3df4b7cb,0xbc99a50d,0xbe0a394b,0xbd7d38ac,0xbbbae8e1,0xbd3f6c03,0xbc5c8429,0x3d8479c8,0xbd80d2b9,
0xbd277615,0x3cd87c02,0xbcdabbf9,0x3cfda9e6,0x3c0b8f49,0x3c692617,0x3d827fa2,0x3d9ec4e0,0xbc1e6275,0xbd15ef81,
0xbda260c7,0xbde4e714,0xbcd66b33,0xbd8439ac,0xbe9db4a7,0x3d3c8d7d,0x3cee8035,0xbd925e5c,0x3d0216bf,0xbe08e8e9,
0x3e090839,0xbdc31bc0,0x3db17f86,0x3ce2edd2,0xbcb00ae5,0x3db9ca3f,0xbd232ae5,0xbcaa3a8c,0x3d05bd1a,0xbe098202,
0xbdc667a8,0xbd7618fc,0x3dc7dfb4,0x3d65ce79,0x3d3855f1,0xbb413ee2,0x3c712e2e,0xbde196cd,0x3de9d6b6,0xbd20e656,
0x3db23d35,0x3c79cf5d,0x3c268748,0xbd3ce75d,0xbd15f9c2,0xbeae223d,0xbd7e5bd5,0xbd9bd391,0x3e40897e,0xbe2c27e6,
0x3e0ea14e,0x3e149dc1,0x3cc8c8a5,0xbdfa51e3,0x3daaa304,0x3dacd9f6,0xbd59b412,0xbdbd2d72,0xbbe35cec,0xbe88709c,
0x3e5c4373,0x3cc4e620,0xbe957acc,0x3d858589,0x3ea4fed4,0xbc84c9e8,0x3d439eee,0xbd277b97,0x3d8dd839,0x3ae51cf1,
0x3d89c1f6,0x3d770427,0xbe0538ed,0xbdc40f8c,0xbcbb8e63,0xbd364a27,0x3d700d2f,0xbd926fc4,0xbdd28a6b,0x3ca4b276,
0xbde9790e,0x3d866628,0x3d81885b,0xbbdcf6ad,0xbe9dbf3c,0x3c4656ae,0x3e888362,0x3e824b35,0xbe34e121,0xbd5b0509,
0xbdaf59b3,0xbd9814a9,0x3cb67667,0x3cc4d047,0x3e217c45,0xbdd857de,0xbe20b358,0x3dfc12d1,0x3d81fa9d,0x3b6a8d3b,
0x3e841e49,0xbe7091ba,0xbd7dc3b1,0xbae1386e,0x3cc8ba16,0xbe30dc1a,0xbd97bb63,0x3d23f66c,0xbd9489e2,0xbe7a1315,
0xbdd949a7,0xbd23c57c,0x3d6d9905,0xbca8547a,0x3c758226,0xbd4a9ce0,0x3c47a7ea,0xbd10b6a9,0x3db3a93c,0x3d9f8ae2,
0x3da829cf,0x3beee754,0xbd46d7d0,0xbb489563,0x3cd30fbb,0x3dc0521a,0xbd108797,0x3d139906,0xbba9476e,0x3d88abd0,
0x3ba8f53b,0x3ca8c164,0xbcddaf21,0x3d8ef35e,0x3d06cc59,0xbce1f3ba,0xbc8a28b8,0x3d092d33,0x3d3ad3de,0x3d64d354,
0xbd5fc38c,0xbdac3377,0xbe040b05,0xbd83a3a2,0x3d8c7fbe,0xbd1086e8,0x3daccd53,0xbccfafc2,0x3d09fa0f,0x3bf315b2,
0x3c4ddec3,0x3d9ae593,0xbd0e8bb4,0x3d74f979,0x3d7ad91f,0xbe1b3cda,0x3df90283,0xbe1d81fb,0x3cd9941a,0x3cc10ac9,
0xbd579b16,0x3d818475,0x3c43a5c2,0xbd15dbd1,0x3dbfb0ba,0x3c4e6976,0xbd0eb96f,0xbce72499,0x3cae5b26,0x3d6afe5e,
0x3d6c7cc7,0x3dd8e212,0xbdec1091,0xbd9cbd8c,0x3da1ed63,0xbe155a01,0x3ca23413,0xbd48b8fe,0xbdaacdfa,0x3bfb61ea,
0x3d5867f1,0x3a0ff930,0xbd7d5c17,0xbd133e1b,0xbe165b25,0x3d36d85c,0xbdaf93dc,0x3dde0a26,0x3ccea6bd,0xbe1d5530,
0x3be1a56a,0x3e1494db,0x3d0608e3,0x3b2b297b,0xbaed0c0f,0xbd277387,0x3c68d97c,0x3c9c1185,0xbe00f3ac,0x3d80d9fd,
0x3d77f86f,0xbd45e625,0xbd8b27aa,0xbcbb3ffb,0x3dfe2045,0xbbc2879d,0x3ce49bdb,0xb8b144de,0xbd95e930,0x3d1dac2f,
0xbd1d1ebb,0xbdc8a1fa,0x3c9eadad,0xbdde0c06,0x3c49e874,0xbe3803d7,0xbcb55ec2,0x3d67d4f3,0x3c7a2d05,0xbc971625,
0x3b37a11d,0xbd8fb7d5,0xbca13dc9,0xbd01f337,0x3da663f7,0xbd591ea7,0x3d1c36aa,0xbc0c7bab,0x3d389d5e,0xbce39699,
0x3dc23a2a,0x3c0c72a3,0xbd55acff,0x3c956310,0x3c22063b,0x3ccbb9d1,0xbca17e4a,0xbda99a8c,0xbd46b469,0x3e2b7ba4,
0xbbd992fd,0xbd90d2a7,0x3c88f435,0x3d03c391,0xbd21ace9,0xbe194ee4,0x3ce04b54,0x3d1f0a1f,0x3d83afd2,0x3e4546a0,
0xbcc9720b,0x3d3adec5,0x3b0317a2,0x3db7bda3,0x3d0ba9c8,0x3c1028f0,0xbc800102,0x3cce4934,0x3d82b719,0x3d0516d4,
0xbcf4889c,0x3d805e25,0x3c282811,0x3bce028f,0xbcd3d07b,0xbc646511,0x3c9ee4e2,0x3ad5c457,0xbcd4efb2,0xbd8ccf5e,
0xbd663c2b,0xbd064d94,0xbcb8f698,0x3c276972,0xbc812049,0xbe0bbf3e,0xbcdcec9e,0x3bfe4afd,0xbd3a458d,0xbbf822e1,
0x3dc620aa,0xbc89d306,0x3b74938a,0xbd8b3a30,0x3cd2cbff,0x3d10ca75,0x3d543923,0x3e2caf52,0xbcb84a17,0x3e73275f,
0xbbc124f7,0xbc857241,0xbcf6fd4a,0xbdac7d90,0xbd81f8df,0xbcd43924,0x3e0bdd44,0x3c3fbc43,0xbcec0035,0xbbc947a2,
0xbc540a90,0xbbbf5006,0x3d181c71,0x3c7ae78d,0xbd1086f7,0xbceedd24,0xbcc7a53e,0x3c939d25,0x3c683a04,0xbd271737,
0x3d858dcf,0x3d7f324a,0x3d9fff92,0x3cbddacd,0xbcc7a64c,0xbe22636c,0x3d85381c,0x3d250c11,0x3d599dfc,0xbadfc527,
0xbc4f8ee2,0x3d70c17a,0x3d58bef8,0xbda1e6a4,0xbd2e5021,0xbbec15ff,0x3d27d78b,0x3d215cce,0x3dd788c6,0xbcf68b9a,
0xbc3b7402,0x3c973b88,0x3d13ddaf,0xbc95edb0,0xbd6c369c,0x3e5d1274,0xbd19ac52,0x3e0cb26c,0xbcdc8452,0x3c15a2a3,
0x3cbe89d3,0x3d3c6a6e,0x3c6c9c29,0xbcb1a3be,0xbc7adbf1,0xbdddac4d,0x3ccd0d04,0x3c806963,0x3e86a105,0x3dc46784,
0x3d3f5de7,0xbc4f69fa,0x3d9ee8b4,0xbb5af854,0xbcd81a2c,0x3d217ac9,0x3be0eebd,0xbc057dd1,0xbc456660,0xbda9724b,
0x3db48e1f,0x3d15b288,0x3bb46b5a,0x3dacdf7f,0xbc5fafa3,0x3e025394,0x3c93174d,0xbbae9c5c,0xbd080dae,0xbc51a07b,
0xbbfb0909,0xbd5a8078,0xbcb1bd76,0x3ce76852,0xbcbd57e9,0xbd4fba2c,0xbd15bff8,0xbd61e681,0x3e0dfb85,0xbb944768,
0x3cf91df4,0xbdc4329a,0xbca36d92,0x3dc9ba5d,0xbd1d4d7b,0xbc810fee,0xbe4eb5f7,0x3dac5520,0x3c8d2e7b,0xbcbbddca,
0x3e1acc50,0xbbc9a377,0x3d934596,0x3d430749,0x3d5c8330,0x3caeea44,0x3db073e0,0xbe0b08ed,0x3d651c3f,0xbd4b5065,
0xbe6cd798,0x3cf894f7,0xbcf5a2b3,0xbdfb1138,0x3d36b45f,0x3d8faee0,0xbc477757,0xbddbd65d,0x3d0f1b8f,0xbcf96974,
0xbaa33f99,0x3cdd7b38,0x3c1a511e,0x3d8e9f38,0xbd1c9c32,0x3ddaf0aa,0x3d6ab9d2,0x3d60bb52,0xbcfb8c57,0x3d244a0c,
0x3c179c9f,0xbc0fca66,0x3c882d59,0x3c00947e,0xbe1fe5c6,0x3af458b4,0x3c7460b1,0xbdfb2b0d,0x3bbb615f,0xbd32773a,
0x3d25258c,0x3e2ba1a2,0xbe0d3b72,0xbc0d9825,0xbd7a7a00,0x3cf65df5,0xbe2260b4,0xbb859d37,0x3ee830d0,0x3d92cd54,
0x3d4c48ad,0x3d2dfda9,0xbd244a88,0x3dd9ef97,0xbd0bc874,0x3ddc8ea3,0xbd988bc6,0xbd804475,0x3dbabd8c,0x3d354b0f,
0x3b84f631,0x3db105d3,0x3cd1dabb,0x3d2f7bd4,0x3e71a09f,0x3da13333,0x3d3784ab,0xbd092b70,0x3e70ebcd,0x3d120949,
0x3d53dd67,0x3bf2dead,0x3d456692,0xbcf7e79c,0xbd6e0995,0xbe690b01,0x3cd38d0a,0x3c345014,0x3da8e431,0xbc4a0d06,
0x3e666a4e,0x3d96fe2e,0x3a6c4fc7,0x3c8934ff,0x3d073b41,0xbda93c87,0x3ea90289,0x3d905396,0x3ecefc71,0xbc2e9e62,
0x3d883b86,0x3da7ff38,0xbeb393a4,0x3cdd7d43,0x3e251209,0x3c97920f,0xbccd6866,0x3f188738,0x3e370fa6,0xbe07b3b5,
0x3e41bc6a,0xbd57c05d,0x3daef09f,0xbcf232e0,0x3d0098e2,0x3d4349fa,0xbd8fd54c,0xbe1c4e02,0xbceba64f,0xbe565226,
0x3e623324,0x3d8df5ef,0xbcb27712,0xbdbaa80a,0x3d20a404,0xbd8df16a,0xbc9fbf81,0xbee63b94,0x3d5986ac,0xbe3478bd,
0x3cc90050,0x3b8fd29e,0xbce207bb,0xbd77a040,0x3dd39da4,0x3dade8aa,0xbde0dfde,0xbde19bcc,0xbe016495,0xbcf71a62,
0x3d215519,0xbd94e33b,0x3ca818e5,0xbe2c247b,0x3d4d2e77,0xbd999bd7,0x3cc0bf59,0x3c36f1ae,0xbbd7fb23,0xbb7a0d25,
0x3eefa89c,0x3c30aa78,0x3c877e59,0x3d89c587,0x3ef0d79d,0x3cae9cb9,0xbc5a70f2,0xbdb16b73,0xbd8e9aac,0x3b689f08,
0xbda87fa8,0xbcb7e241,0xbd2171ab,0x3dd5807c,0x3e2ca96d,0x3c00cf95,0x3e14daa0,0x3d63a3bd,0x3cb18ac2,0x3ef9f996,
0x3e8a3ace,0xbcec4a71,0xbd6ac05e,0x3c85a55e,0x3e09ba64,0x3df53201,0x3ced2e56,0x3d54e374,0x3db83adf,0xbd0499dd,
0xbd7cec74,0xbed9d40d,0x3e2d46c5,0x3c565d7a,0x3c5e2c5d,0x3dad8704,0x3e56102f,0xbd52e785,0x3df3d6d5,0xbc08b5e8,
0xbcdfb32d,0xbe415eac,0xbd566311,0xbd339f64,0x3ec119f2,0x3cfc3f78,0x3d7bdd22,0x3e34833a,0xbf07088b,0xbca93d51,
0x3c5683b4,0xbd932e97,0x3e5bcc48,0x3ee952d7,0x3e016fef,0x3d0c7c27,0x3d7f91ab,0xbc8ad8b7,0xbb1f9098,0xbcd7fdf9,
0x3c870ee3,0x3c4d8499,0x3d0ba0f2,0x3d5fd332,0x3cc34a92,0x3d4d006c,0x3d9bea6f,0x3dbc54e5,0xbd4227f8,0xbdba9721,
0x3d2f51e3,0xbb8d65af,0x3c570927,0x3cd8cd2c,0x3db9bdc7,0xbdc6e7e1,0x3b9ea4a2,0x3d166a24,0x3da39125,0xbe120d76,
0xbc716abc,0x3d3de79a,0xbd0fa872,0xbcec914a,0xbd36a83a,0xbd7a400a,0xbd1af69d,0xbce4d92e,0x3dc8f403,0xbcbef44c,
0x3d1c21cd,0x3d32f968,0xbd07d7eb,0xbdd5324e,0xbc712c06,0xbd7c62e9,0x3cf5a7e3,0x3ea9e60a,0x3e0fe506,0x3a954b32,
0x3da2655e,0x3d573c17,0x3cc5cfc8,0x3cd6c3fc,0xbd409264,0xbd3accdc,0x3c8cba5a,0x3c19888c,0x3ccc6a38,0x3c38c729,
0xbd4ea057,0xbcd01885,0xbd2862c8,0xbd951c0b,0xbd461b63,0xbba9b96d,0xbc902575,0xbc3a8824,0xbd0276ea,0x3da6a61b,
0x3d137e34,0x3d7e9f6d,0x3d5b669a,0x3e227d0f,0x3d4fa3b1,0x3ba91364,0xbe04ac87,0xbdabad1a,0x3d09deb9,0xbcbdc211,
0x3ccfba94,0xbcaf5d82,0xbbfd7ff8,0xbcbf245c,0xbdb4ff41,0x3ddd5bc4,0xbd51017c,0xbbf5f2aa,0x3d08b672,0xbd95b08a,
0xbbf74ebe,0x3db431e6,0x3dd9d2be,0xbdb88db1,0x3cb0d426,0x3d674d37,0x3c558859,0x3d1e1465,0x3d8834a4,0x3dd8a570,
0x3c25f678,0xbd9942c1,0xbbd1e563,0xbcf19409,0x3e231282,0xbc2d0040,0xbe0d818d,0x3cf89a14,0x3d300eaa,0x3d441f90,
0xbcf33fff,0x3c2f8e56,0xbd15c521,0xbce505d7,0xbcc3f3e1,0xbe4bcb66,0x3d37c837,0x3cb26a2b,0xbe14949f,0xbba798b6,
0x3dc51ebf,0x3cffcbe8,0xbd6b1eaa,0xbdc96407,0xbd6b77c8,0xbc83781b,0x3cfca447,0xbd9c7bf8,0x3c6c1a68,0xbdd74f1f,
0xbd6c6918,0x3cb518fe,0xbddabcfe,0x3d05a73e,0x3c202ce5,0xbdb47324,0xbd596192,0x3c839cfd,0xbd98ac62,0xbd221332,
0x3cdd3992,0xbc9185a4,0x3e169108,0x3d1ca03f,0xbec2cf4b,0xbd87f296,0x3e835ab9,0x39ca99f9,0xbe794d86,0xbdca4187,
0x3d7b97a9,0xbd98503a,0x3c96ceff,0x3da607e5,0xbd90379e,0xbcfcf162,0x3d464ac2,0x3d1ac3b0,0x3dada7f5,0x3a661c7b,
0x3dff1915,0x3e056ec7,0xbce87ee6,0x3e0d3912,0xbc33aeea,0x3d877764,0x3d9554fc,0xbd73f220,0xbcee1408,0x3d9ed238,
0xbc2f229b,0x3d397bb2,0x3ce230b6,0x3cc3d9bd,0x3d9f8f98,0xbe01d0c1,0x3e319461,0x3dc5416a,0x3d09ce26,0x3da51032,
0x3e8d9421,0x3caf292a,0x38a9ad61,0x3d237d40,0x3f1281e1,0xbdfd8a6a,0x3e33ba06,0x3b530770,0xbe0e2161,0x3e8cf567,
0xbdc19d99,0x3e427593,0x3e97badb,0x3c8483d9,0xbdc86637,0xbc222d95,0xbe02e947,0xbe009775,0x3c8c40c2,0x3d20fc0a,
0x3e962b06,0x3d4d36b7,0x3cc8ecef,0xbd73af20,0xbd0f8c54,0x3d9b50b5,0x3d2465eb,0xbc44fa31,0xbce21f79,0xbe0f2159,
0xbd62cfb3,0xbe1a42d6,0xbd139cc2,0x3dd0ee4e,0xbd367af1,0x3e173957,0x3e1ad26c,0xbd63b975,0xbd9c4cd6,0xbe92346b,
0x3d0a6ded,0xbe334cd4,0x3b14b904,0xbc95a703,0x3bee3a5f,0xbdc96df4,0xbddb3d09,0xbdd0eac7,0xbe18e1be,0xbce67661,
0x3ceb7752,0xbded3669,0xbd9cfd65,0xbdde571e,0xbd8385e2,0xbe19515b,0x3ddbfbab,0xbd9b17e4,0x3b0d7933,0x3e9ab529,
0x3db4b50b,0x3b1891d3,0x3e1209db,0x3d480fb0,0x3c0cf4f6,0x3e121261,0x3db4bf67,0xbd0937a4,0xbd1e24fd,0x3de9409a,
0x3d8442a5,0x3cab7b6a,0xbd04583c,0xbc9bfb80,0x3ee5e249,0x3b423de4,0x3bd4c63e,0x3ee4f877,0x3ba86d9e,0x3db1a289,
0xbe771f04,0xbe0c62f9,0x3e14719c,0x3b24a10b,0xbc894fb6,0x3ca7557e,0xbb34b166,0xbda13919,0x3d31e352,0x3c4e10bd,
0x3e1381d3,0xbe2768b4,0xbe192528,0xbd52d536,0xbc103c06,0x3d87870c,0x3e28c1c7,0xbdacdc07,0xbba84948,0xbd994573,
0x3adc98b5,0xbddc6a9a,0x3e425f06,0x3e87cb71,0xbda550d5,0x3e8ef848,0xbceb7c76,0xbdbd38ef,0x3d4027b5,0xbd4dda73,
0xbe4fbe8a,0x3cbbfa9e,0x3eddd97c,0x3cfd9574,0x3cd29203,0x3d6e62c6,0xbd0adbd7,0xbca569a8,0x3db578a4,0x3d1d257b,
0xbdbe16b7,0xbcb2c2fe,0xbc475613,0x3d0b0317,0x3c8f0c66,0x3c421c2f,0xbcb0d4f2,0x3db807f4,0xbd45a603,0xbd08ebe4,
0x3d8c84ca,0x3c66bf14,0xbd4fac78,0x3d867bd4,0xbd302006,0xbc776c2c,0xbd2970cd,0x3c8db76b,0x3cef43d5,0xbd8dd564,
0x3d5ad772,0xbd212d4a,0xbd500732,0xbc930517,0x3c699c89,0xbb11ec2b,0x3ca935d9,0x3cb1308c,0xbe3181aa,0x3bc8b715,
0x3d976c01,0x3c59a1c7,0x3db89492,0xbd85c119,0xbc32b6da,0xbc2feb7c,0xbce9b457,0x3dd191b9,0xbc9360d0,0xbba1b03a,
0x3d148d21,0x3d927cc4,0x3cae8304,0x3c93c288,0x3c18d3a9,0x3c17e438,0x3d8720a8,0x3d5b5015,0xbda47332,0xbc340f4f,
0x3ca0a824,0xbb3951c8,0xbda9ff29,0xbce64165,0x3c8ea994,0x3c39ea9e,0x3da7e7e6,0x3d07cadc,0xbd2a369b,0x3c70efb5,
0xbd8905be,0xbd791de4,0xbcd7517e,0xbd0457d8,0x3ba63d57,0x3ca31b0d,0xbcb3688f,0x3da0a517,0xbd844d0c,0xbace0a86,
0xbd0676cb,0xbd67ca2d,0xbd286545,0xbd304328,0xbc0855bc,0xbd427b92,0xbd704d7a,0x3c9ae235,0x3c3c2061,0x3bdd369d,
0x3dc9c1a0,0xbc16943b,0x3dad83f8,0x3ba0dfbb,0x3cd3e0dd,0x3d2f6123,0x3d046df6,0xbae3679c,0xbdaf053f,0xbcb281d7,
0xbdfd6ad0,0x3d9ee1c0,0x3dfa5e81,0xbd82a26a,0xbd65eaec,0xbdb16dac,0x3dec8b48,0x3d481e17,0x3c7e1602,0x3d4cfcd3,
0x3d3f4c18,0x3d8a4782,0x3d467410,0x3d3caedf,0x3d5d6315,0x3dd0667f,0xbd17faa2,0xbce09091,0x3ba82e75,0x3db23a86,
0xbd87b59a,0xbd536edd,0xbcc49b49,0x3d029ae3,0xbbd57df2,0xbd04be32,0x3d6158e5,0x3d190070,0xbdf8a00c,0x3d80cbbb,
0x3ce8bc37,0x3d73670c,0x3cdf272e,0xbd6b7c54,0x3d9a0bac,0xbbb82b8a,0xbcd0f379,0xbd86b15a,0x3d483136,0x3ca6d4de,
0x3e394c0e,0x3b7295cc,0xbcb61cd7,0xbd8bc138,0x3e376936,0x3ec37e1b,0xbd2115f1,0xbca822d9,0x3e264391,0x3d860de0,
0x3d51f701,0x3d032ba9,0xbd83f040,0x3d3d6cf8,0x3e1fd7db,0x3e05fd43,0x3e4a85f1,0xbdb025d5,0xbcb7e5f8,0x3d22e539,
0x3d6e96bf,0xbc855671,0xbcbe2015,0xbe12308c,0x3ddfcd58,0x3c794bc5,0x3d35ed41,0xbddca560,0xbd65c5d8,0xbdddf53f,
0xbcbd5979,0x3e22577b,0x3aec4399,0xbcb98e3d,0xbda39864,0xbd4d6747,0xbc8db7ac,0x3e285171,0x3c14b32b,0xbd19bc6c,
0x3d9cd0e1,0xbcd76c7f,0xba4fad28,0xbdfb1d2c,0x3e2fbbe0,0xbd322a97,0xbccb4489,0x3de4af69,0xbe28275d,0x3dd68acd,
0x3dfdceea,0x3ddb80c8,0xbdbaefec,0x3de6a343,0x3d32a991,0xbe261651,0x3c770844,0xbbaf3a19,0x3cbfbbf3,0xbd951609,
0xbd8216e3,0x3d150972,0x3dcbd48a,0x3d06ba21,0x3cef2dd3,0xbe01a0da,0x3df38167,0x3d379e89,0xbd8a3e48,0xbb327229,
0xbc87eb77,0xbde73ca0,0xbd2747b1,0x3cc898ba,0x3d87bb21,0xbbf0661d,0x3d1c579f,0xbca08297,0xbd3f6a7b,0x3b085009,
0xbd0269d8,0xbc31cfb9,0xbdec369a,0xbdc97982,0xbdd47ee3,0x3d767ff2,0xbdc44ba3,0xbc824a85,0xba1be78d,0x3d51e425,
0x3bc35da3,0xbd034c61,0xbd76788c,0xbda32b68,0x3e186dbc,0xbb640790,0xbd76f279,0xbbc04f28,0xbcc35c90,0xbcfc9448,
0x3e19252b,0xbd9251ff,0xbd0123d3,0x3d748a0b,0xbcf81947,0x3d06ae33,0xbd68e901,0x3cfb87b3,0x3b563ec9,0x3ced11cf,
0x3d8c08f2,0xbc874cc3,0x3ce5bcef,0xbc129357,0xbce5a97d,0x3d8bcfd0,0x3df7ee83,0x3c1bee0a,0xbd5c42cb,0xbc6d3938,
0x3e3453e5,0xbd88e67c,0xbd0cac73,0xbd7ab282,0xbcfccfcb,0xbcfeffa7,0xbc7e7107,0x3d242dab,0xbd0007f7,0x3c19573b,
0xbc9a0846,0xbd9c4055,0x3cb65f20,0x3d6a95cf,0x3c0d2435,0x3bed2917,0x3c6dd62f,0xbe111f3a,0x3de2826a,0xbd4e0fd1,
0x3da40609,0xbd55be39,0xbdde77ff,0xbd0c60f4,0xbe1419a7,0x3d35057b,0xbd3f616c,0x3d4ba169,0xbd636c1e,0x3e20c05d,
0x3d90fdf1,0xbb9f9354,0xbc5eec66,0x3dd74fca,0x3d78838b,0xbd502ef5,0xbe50a7b7,0xbe1f4ba1,0x3e0c7a0d,0xbdb550cb,
0xbd2b3eeb,0xbd18cbcf,0x3dd30dee,0xbe582740,0x3caa3ae6,0xbda2212d,0x3badfcb4,0x3e1197de,0xbe8ebf7b,0xbe42910a,
0xbc5d6bd7,0x3d85f67d,0xbe3545f0,0xbd671b69,0x3deb57b3,0xbd1309fe,0x3b8234c7,0x3d352990,0xbc3d84e9,0xbd88fc59,
0xbd7fb20a,0x3dc93ac8,0xbdc7d45e,0x3d65c5c1,0xbda8f74b,0xbdc13bfa,0xbc9b6963,0xbe506352,0xbd991dfa,0x3e5d30f6,
0x3d5278f1,0xbda5a2a0,0xbd05fad0,0xbd0176ee,0xbdcead9a,0x3d5f2505,0x3cf74a35,0x3dd069bc,0xbe104911,0x3dc6e454,
0x3c631f59,0x3bba1922,0x3d35bcca,0xbdb371dc,0x3bd6bc34,0xbd5b2569,0x3e12e0be,0x3d9fdb4b,0xbe0f7682,0x3e694cb8,
0x3d9e555d,0xbd7fed7b,0x3dbd4bc8,0xbd0aaf7b,0x3e43b46a,0xbdd4d5a5,0xbde72fc1,0xbd5c7329,0xbe1696ca,0x3bcc0489,
0xbda98061,0xbe8865ed,0x3d217d42,0xbe583e10,0xbdd46633,0xbd8abc28,0x3d8075f1,0x3da05abd,0xbe29478c,0xbcfd1d92,
0x3d3c5305,0x3de08dab,0xbcbf47f2,0x3d95b8cf,0x3ce1421a,0xbe40e5f6,0xbd80774f,0xbda4ab70,0xbc25f304,0xbda58f7d,
0xbe340251,0xbc4541b4,0xbd8a0526,0x3d5ce4bf,0x3e1c6fc5,0x3e8b5560,0x3cf28d3a,0xbd8dfbc3,0xbe8dc8a8,0x3da79f15,
0xbd07ac0c,0xbcb800a0,0x3d6e803d,0x3c0f761c,0x3e8d187a,0x3dc62487,0x3cc5cd3d,0xbd8f045b,0x3da3fae3,0xbc956f52,
0x3d83098b,0xbe4dbed6,0x3dfcd891,0xbdd7cb5a,0x3d392c0b,0xbdc9a62f,0xbdabf07b,0xbdd4426b,0xbd3fbf00,0x3d61a766,
0xbe10954d,0x3dceffb0,0xbb9bd8ae,0xbe010dc5,0xbbf468e0,0xbd8603f4,0xbd963581,0xbd41c29b,0xbb25ec84,0xbdadf324,
0xbd9877ba,0x3e5f5ce1,0xbd8524fb,0xbd2bd7dc,0xbdc54ea6,0x3e1ef753,0x3d578284,0x3d9037a7,0xbddc0f20,0x3e4c9875,
0xbe11f219,0xbea0999c,0xbd610013,0xbdab7826,0x3e1c8842,0x3db2b13c,0x3f1ffd7d,0xbcb8e5aa,0xbc97dce8,0xbd9d1fe5,
0x3c3cd6c7,0xbdcb4fcd,0x3b348e72,0x3d18ca75,0x3ae64636,0xbdee28e0,0x3d21a417,0x3dd80c1a,0xbd839870,0xbd378ed8,
0x3d90b269,0xbd908950,0x3d1bf4e1,0xbd85a418,0xbe86d202,0xbdefdb19,0xbe09406f,0x3e8f8295,0xbd9664e7,0xbdd5d5c7,
0xbe38e8b9,0xbc4c7d18,0x3dcba43a,0x3d132454,0xbe3d784a,0x3db39179,0x3e0ce6e1,0x3e2eb506,0xbd338dab,0xbe71d5b9,
0xbc34c3c5,0xbe580722,0x3d420252,0x3df3e1e9,0xbdfe4a4e,0x3e7fd367,0xbd03e410,0x3d64fb76,0xbdbef510,0xbd9d461d,
0x3e1326f5,0x3dce60b6,0x3e6ca5f4,0x3e7e23f3,0xbc13edbd,0xbc8c304f,0xbd50e95e,0xbdb53353,0x3c5cac0b,0x3d392c80,
0xbcfde869,0xbced63a2,0xbcf2d450,0x3de23c83,0x3d6e23ee,0x3c3c0ff9,0x3d08ee84,0xbc1d4935,0xbd9cb386,0x3bcca157,
0x3d863eef,0x3cc850b4,0x3ca7a223,0x39e6140b,0xbc1acf9c,0xbdb504bb,0xbcba81f2,0x3c870709,0x3c26e0b3,0x3cb3d5c7,
0x3c0ab3c8,0x3d48a97f,0x3dc38ed0,0x3d8ad6a5,0xbd19ee35,0x3da40b2d,0xbd90cce9,0x3d3a7c68,0xbd4d6d53,0xbe3fb4af,
0xbbb8a1b8,0x3cd76187,0x3d957538,0x3dbee26e,0x3d865eb7,0x3c707af2,0xbbad4dba,0xbd2f049e,0x3d92a647,0xbd5a26d7,
0xbd6f9634,0x3d439e8c,0xbd43c08b,0x3e62757c,0xbd2f563f,0x3de19935,0x3da3eaec,0x3d5b73a5,0xbd593001,0xbd76c6d3,
0xbcb4ea4d,0x3d371775,0x3cc2eaee,0x3b8a3158,0xbd1d6a65,0x3c2a72d1,0xbb5bc883,0xbc46226d,0xbc1a89e9,0x3e3baffa,
0x38357e08,0x3a8aed3a,0x3d2429d8,0xbdc159b1,0x3d576d12,0xbd04f606,0xbd1fde9c,0xbd188a1f,0xbe5f57c5,0xbd404808,
0x3d08e91e,0xbd782f08,0xbd2d8650,0x3cd66598,0xbd299a55,0xbe3cbb32,0x3db967db,0xbd1d1568,0xbc1bf097,0x3dc969f3,
0xbd9df02e,0xbca9fc0a,0x3d9bf63d,0xbe1cbc41,0x3d08dee3,0x3db3d6d5,0xbe030eb5,0x3a75d1dd,0xbdeac3c5,0xbd5c6750,
0x3c89b800,0x3cefc1f7,0x3d54ba04,0x3b87630c,0x3d96d7ad,0x3d617a3f,0xbce54ce7,0xbd3bbab3,0x3c51cdf6,0x3d446b01,
0xbdf99d87,0xbdce75d3,0x3db282c4,0xbcc2ee85,0x3ce8be01,0xbba40dab,0x3d3e7550,0xbc7e3fc3,0x3d0a5f9c,0x3d10cd9a,
0xbdb822ef,0xbc44c55d,0xbd2860a0,0xbccefb75,0x3b200929,0xbd09c288,0x3c50363c,0x39b99459,0xbc4cfb1f,0xbdc2213d,
0x3d247963,0xbde578da,0x3d7c30dc,0xbb64cb3f,0xbc425edf,0xbd97310d,0xbd748f28,0x3c945b43,0xbd7253a2,0x3db7336d,
0xbd2b5dd6,0x3d449948,0xbd10d94f,0xbc707bf8,0xbc236490,0x3d0314d6,0xbe02b1d0,0x3d6ed293,0xbc94d2aa,0xbd086e36,
0x3e49ac18,0xbdbec2db,0xbd0e47f6,0xbd9bacdc,0xbd0faeb1,0xbd7ab8d5,0xbd33b88b,0xbd5a0c04,0xbd2ab62f,0xbc939ed0,
0x3cece8dd,0x3cbe2018,0x3d00b275,0xbc051496,0x3b9986cb,0x3de639e5,0xbbac7f4b,0xbc957be3,0xbe053f5f,0x3d2a2c2c,
0x3cb98fc1,0x3b060bb5,0xbdcabad6,0x3d3e4a99,0xbb91dcc7,0xbd3a48c5,0xbdadb813,0xbd303809,0x3b8a9a36,0xbe0a1fd2,
0x3d3d7c02,0x3c01b247,0x3e7f1505,0xbd9694a7,0x3c60edcd,0x3dc7cfeb,0xbd71d3fe,0x37cf4550,0xbca9f68e,0x3dbf3835,
0xbd42ab68,0x3d75bab6,0x3c86c9d6,0x3d2e06f0,0x3dc82ac9,0x3c580c2a,0x3d714878,0xbc0b6eba,0x3da51b34,0xbcb3bdbf,
0x3d85c251,0x3d1c4b36,0xbd34987a,0x3e0cdaa9,0xbdb32284,0xbd933811,0x3dc33afb,0xbd1a898c,0xbd9a7cae,0xbd6d4639,
0xbdf443a8,0x3d90177a,0x3dae4d3e,0x3c05d41e,0x3d78f1f6,0xbc47e9bd,0x3d305239,0xbd89d9f1,0x3cb1753a,0x3cc9a759,
0xbdba4c52,0xbd03e6b8,0x3d408d04,0x3d399c2d,0x3e4b3872,0xbc114ce5,0xbdfd4cae,0x3d15e273,0xbcd063ec,0x3d27c3ac,
0xb923c239,0x3d20fa75,0xbd694996,0x3d966db6,0x3ddaf199,0x3c8f7b7b,0x3cc340a5,0xbd077598,0xbdcce06e,0xbd00e630,
0x3d6d415b,0xbcedcc3a,0xbdb48df6,0xbe1a2077,0x3e133ade,0x3d303e18,0xbc093f19,0x3e09a55c,0xbd8ccbf4,0x3db96ba8,
0x3e275cae,0x3d9d2d9b,0xbdb1b1ff,0x3dc8b77f,0x3d0ec470,0xbc6cd25f,0x3cbdb292,0x3d712bba,0xbda4fcae,0x3d746347,
0xbb8097d8,0x3e195efb,0x3be242e6,0xbc1f6645,0x3c800f10,0x3a62af78,0xbd72a1ce,0xbec21a3a,0x3d5ae16e,0xbdf5b6f0,
0xbc915b9b,0x3cea4fcb,0x3cd10ff6,0x3e0305c0,0x3c6f3b63,0x3b00732a,0x3ca9e0f5,0xbed29cfd,0x3e1c0c30,0x3cb9f6b5,
0x3d4f5125,0x3da42c07,0x3d0f5f62,0xbd9c958e,0xbdedebb3,0xbc4e50cc,0xbc803f62,0x3dacc65f,0xbe33acee,0x3ed9fe37,
0x3d371c1b,0x3d1eba7c,0x3ac77302,0x3d6caf02,0x3ce71fdb,0x3ce431e8,0xbd086a4f,0xbcc34215,0xbd5a7d60,0x3d272aa0,
0xba66a5a2,0xbcdb946b,0xbd187cd5,0xbdb38883,0x3c9f3177,0x3dd468c0,0x3c812f06,0x3cedbfb8,0xbbb4dc8d,0x3d0a15ee,
0x3bb5a9de,0xbbfc4ee1,0xbd786b36,0x3cad8744,0xbdeb2fee,0xbd03d9b7,0xba518456,0xbcd7c724,0xb9208b7c,0xbe2c25ee,
0x3bf8b241,0xbc6db72a,0x3d81dd5d,0xbdbfbf3e,0x3c9f2a5c,0x3d2c9217,0xbcd25a18,0x3ceb8586,0xbd41b0ef,0xbdc19406,
0x3b9e0157,0x3cbc5c59,0x3cfd1a52,0x3d26c3c2,0xbe3e4d95,0xbcdf771c,0x3c053095,0xbda1e234,0x3db06322,0x3c9639d4,
0x3b4eb231,0xbd1ee98e,0x3d7f677c,0xbc815125,0xbe21c69d,0x3dd88bf1,0x3d66508c,0x3cba6790,0x3ced49a7,0xbc7806de,
0xbc43254d,0x3b7f2e05,0xbd3ca9d1,0x3d8a2b98,0xbd8a6cb0,0xbbf977c0,0x3d5db308,0xbd1c6f6b,0xbd03ec4a,0xbc2b2e85,
0xbd0fb241,0xbd3dd4b8,0xbdd3db84,0xbde45bba,0x3cd22b1c,0x3d37d351,0xbcb36859,0xbe099b0b,0x3d2f3935,0x3e00ce77,
0x3d8a9134,0xbd2efe95,0xbd64feee,0xbe0a0bf2,0x3d064fc1,0xbd2ff20b,0xbbe30717,0xbc760807,0x3d041c02,0xbcfed159,
0x3ca506d7,0xbd396d99,0x3d683965,0x3d039ce4,0x3d3ecc69,0x3d02cfcc,0x3d02d9b1,0x3e2183f9,0xbd268c72,0x3d3e3915,
0xbcb82d5a,0x3c966258,0x3e2ad039,0x3c9d103e,0xbd390168,0x3d5ca785,0xbd194fde,0x3d620d84,0x3dbc32ab,0xbcbc3431,
0x3d26ec09,0xbd9b2433,0x3dd62235,0x3da39aba,0xbb9285d0,0xbd0169a0,0xbc48df2a,0xbd3f1a79,0x3b979f07,0xbc233ed7,
0xbcd4e893,0x3c9c0d79,0xbb896cb1,0xbc282b01,0x3ddf2c51,0xbd175338,0xbb6dde9e,0xbc4bee05,0xbd1f96c0,0xbb736805,
0x3cfd764a,0xbccadfe2,0x3bde3389,0xbd4c01b2,0xbc083e73,0xbc6d2df1,0xbc329df1,0x3d797b41,0xbd3b8ae3,0x3c8ff696,
0xbd80dd3a,0x3d440118,0xbc540ddf,0xbdac8cda,0xbdd3b9ea,0xbde481af,0x3d946d39,0x3d5dfb3d,0x3ceb1197,0x3b1d44fd,
0xbd9a3c01,0x3bb1b54d,0x3c0e450f,0xbd75c8ae,0x3c2d788e,0xbcca802c,0xbd7093b1,0x3e0bd9f6,0x3cf5b601,0xbc2c2b0e,
0xba87d2fb,0xbd464eee,0x3ce31ada,0x3d1573b5,0xbd204881,0xbd4feaf9,0xbca06437,0xbc82ab44,0xbd007da3,0xbd798fc4,
0x3d076e8b,0xbd6a3bbb,0x3d2bbbc8,0xbd50d249,0xbb9e34fb,0x3c80f9f9,0xbd0974e2,0xbd0cf908,0xbc76f98c,0x3acaf33e,
0x3e1e4bbe,0x3c160560,0x3db18a3e,0x3c84e111,0x3d9ebd74,0x3c4eda30,0x3cc14c7e,0x3e3845a4,0xbc5ec883,0x3dc1c257,
0xbcdd5296,0x3d6913a8,0x3d4ff00b,0xbac77935,0xbd827e97,0xbd53bca8,0x3be00ece,0xbc2e4a42,0xbdfd9233,0xbb9ae8ff,
0x3d6fac27,0x3da3269a,0xbdec267e,0xbca6dc0d,0xbc07be3b,0xbe134a92,0xbe099139,0xbcadd698,0x3dfac80b,0xbcd091d4,
0xbbe7c49a,0x3daf80ee,0xbd295820,0x3ca6fce8,0xbd8bb47a,0xbe65d145,0xbda090c0,0x3b5f462b,0xbc311081,0xbe5bd413,
0xbdb177f8,0x3d5b9d7a,0xbd4a13c2,0xbb7d6c23,0x3cd8c3aa,0x3ce1b97f,0x3e7ddc35,0xbd4993b0,0xbd1a2a2f,0xbe7d722c,
0x3da0ae82,0x3d030aca,0xbd05fe86,0x3d728d4e,0xbcbfbaf6,0x3da049ef,0xbc6077d4,0xb9a4fb92,0x3b67709c,0xbdc04c64,
0xbe31d9c3,0x3d7720c3,0x3d878936,0xbc0a2188,0xbc9309de,0x3d9e8fff,0xbe9d7cd2,0xbd0f8bf7,0x3ea27df5,0xbbf3cd9f,
0x3d98ac9f,0xbce1007d,0x3c560b0b,0x3ee9497c,0xbc29d1f5,0x3cb8c765,0x3dc12ceb,0x3d483ee9,0x3e7ab5bb,0x3c832626,
0xbd4dbd7e,0x3c82feba,0x3d4e1c83,0x3be33c00,0xbddc711d,0x3d223a0e,0x3c6cc44c,0x3c998655,0xbc7429ba,0x3db1589b,
0xbdc816c4,0x3cd14e81,0x3ddda06c,0x3c40788d,0xbe403a1c,0xbe0e24af,0x3e15a2bb,0x3d29aad9,0x3d14b835,0x3d7657e4,
0xbdc5cc7a,0xbcfd1167,0xbd87c2fb,0x3d4c9e13,0xbd2d4e93,0x3dd33228,0xbe66ab27,0xbc78b629,0xbd5a588c,0x3e623cd9,
0x3ddb2160,0x3ce38063,0xbb18caf0,0x3bd21a50,0x3cba5293,0xbc89aab8,0xbd5ae19c,0xb9a526e8,0xbd52728e,0xbcda4231,
0xbca4632e,0x3d8b7026,0x3cd095e2,0xbd26d837,0x3cc84854,0x3c91b4a9,0xbd440a12,0xbce2a7ac,0x3b3c1b18,0x3cbf0254,
0x3c19cf2d,0xbbd8fd14,0xbda4ad53,0x3c990c67,0x3cff1e28,0xbd2dfd89,0x3a0915a6,0xbc71357b,0x3ca9be80,0xbd166cdd,
0xbcf24553,0xbcf785f5,0xbc8fa3ba,0x3d097b6c,0xbcec673d,0xbd999c56,0x3cda554e,0x3b952f50,0x3cda46b4,0xbd21309b,
0xbd43265b,0x3d6bab56,0xbdbce60d,0x3d1fdede,0xbc2553e9,0x3daa4da3,0xbdc544aa,0xbe106202,0x3d6e973a,0xbc9a77bf,
0x3bc824e0,0x3e03a97b,0x3c493e3d,0xbcefdc5e,0xbcf03127,0x3eacc899,0xbcb64d0f,0x3d41284a,0xbc563674,0x3b8436e6,
0xbc215e71,0x3e043a89,0x3e1a6471,0xbbdc3a67,0x3d7e8965,0xbb55a2be,0x3d596978,0x3dc27c57,0x3d804d6d,0xbcfb3b70,
0x3bed9fc6,0xbb912175,0xbc40e63f,0x3cec6aa5,0x3da0bcbe,0x3d265d02,0xbdb6c0c2,0xbce9870a,0xbcdcdbde,0x3d3fa2d4,
0xbcdf528a,0x3da2a9d1,0xbc6955a4,0x3bc0ec7e,0xbd808ef1,0xbb1d358b,0x3c159127,0x3c1ec6c0,0xbae3dc43,0x3cddf991,
0x3da13ece,0x3d19c3a4,0x3d1517e5,0xbd435af1,0x3d225991,0xbdb1dc55,0xbd354eb6,0x3cffe484,0x3e6edb27,0xbd2a57d8,
0xbddbeb67,0x3ce8dbda,0x3de2e1a6,0x3d4fcb11,0x3da6cf49,0xbcefc571,0x3dd25c3f,0xbe279177,0x3da51158,0x3e2ba237,
0x3dac1fed,0x3d844b01,0x3d6f6ba1,0x3d892495,0x3e33cddb,0xbd967e96,0x3e0a56bb,0xbc510109,0xbc8aad39,0x3d83c04e,
0x3c57fb1f,0xbe1cf549,0xbc61578a,0x3c8e267b,0x3e6254d8,0xbe0d1d75,0xbd437f31,0xbdd4cf24,0xbd6321e4,0xbcb97575,
0xbcd66bea,0x3c0a977d,0x3c73e062,0x3a38738c,0x3d35a2f0,0xbd6a2e7a,0x3cf5a866,0xbd67d323,0x3d8137cd,0x3d7bbab3,
0x3e09d841,0xbd4186a2,0xbe4fdc8b,0xbd417836,0x3e54f096,0xbd260eec,0x3e19180a,0x3dd50b62,0xbd68c2f1,0x3d84d7bc,
0x3e3b514f,0xbd52f0a5,0x3ebc9211,0xbd4e3255,0x3cb5bf8f,0x3e95fc6c,0x3cc22682,0x3d0baa70,0x3df84126,0xbdb25011,
0x3da3064d,0x3d3b1695,0xbc62fafe,0x3e09aa1b,0x3ddfbd5a,0x3dcf062b,0xbcfc8704,0xbdc76785,0x3e515978,0x3dad5930,
0x3d261dec,0x3c21795e,0x3e30523a,0xbc7a34d4,0x3e62727c,0x3e0daf5d,0x3de15512,0xbae64e42,0xbccae3d3,0xbdb8f57d,
0x3ec34776,0x3d83d00c,0xbe7ae61f,0x3eb6b53a,0x3d8908a6,0xbd9dc4a7,0x3e6ff1f7,0x3bbfd601,0xbdb5e505,0x3b970fbe,
0x3e27fd16,0xbd6a0178,0x3d6a81f4,0xba52e140,0x3d04971b,0xbba3998b,0x3cfe575b,0x3d22d321,0xbe11b090,0x3e1d5833,
0xbdfe3a13,0x3dcc5cc8,0x3d8e8ac9,0x3d6a1021,0x3e0f9eeb,0xbc875854,0xbe15f8e8,0x3cd16d3d,0xbd8340cc,0xbc865b46,
0xbd58a5ba,0x3dc3b9d0,0xbc4efbfa,0xbc51dabf,0xbcac0bbb,0xbd04249d,0x3d2b6ab7,0xbe5c9e27,0xbdb39bbd,0xbd023300,
0x3d0fe168,0xbcb72946,0x3e172d24,0xbc97488c,0x3d997646,0xbe348e3f,0x3ce0cf6e,0x3d2ab592,0xbedf01a5,0xbce58189,
0x3e107d93,0x3c0ef4ca,0x3da9f1bd,0xbd6439f7,0x3d288aa8,0x3dd94480,0x3ccbf9e5,0x3c8bf3f9,0xbcd25955,0xbccb0f4e,
0xb9955252,0xbd49854a,0x3dee9f65,0xbdbf6aac,0xbd80c7de,0x3dd9e148,0x3cdc60f5,0x3cddd0d9,0x3d56cfbd,0xbeae0040,
0xbd31043d,0x3d81429e,0xbdfe3b25,0xbcfc6a16,0x3e1cd90d,0x3df42079,0x3e193ead,0x3d4f56ae,0xbca3183a,0x3d3335fd,
0xbbb7870f,0xbddeebf0,0xbc881f7b,0xbd0f7692,0xbd7f26ec,0xbc8c35e6,0xbd2862e6,0xbc231597,0x3c097b65,0x3cb44ef1,
0xbd1198d7,0xbe5a2599,0xbcac309d,0xbdf1e436,0x3e03c430,0xbde1fdd1,0x3d31cf22,0x3dd451bc,0x3de6573a,0x3dececcc,
0x3d7ecc80,0x3e060b64,0x3c27f4b4,0xbe393681,0x3ebf22bf,0x3e3e6733,0x3e1b3117,0x3d36edda,0x3cbe62a0,0x3cf848c7,
0x3d37a80d,0xbc385083,0xbd6779e2,0x3d2f1e2e,0xbd828dd9,0xbcf88883,0xbd917717,0x3d76d86f,0x3d1a7e08,0xbd9433ec,
0xbd0c71af,0xbd807585,0xbd28d917,0xbba58515,0xbd0277c2,0xbc124348,0xbbc13401,0xbc1302d4,0xbd381120,0xbce275d0,
0xbc8daae6,0x3ccd1d01,0x3c09847d,0xbc0736b9,0xbe4fe1b2,0xbd7f7417,0x3b2806a1,0x3d9bb75e,0xbbfc5758,0x3c9f8a67,
0x3d5378db,0x3c318494,0x3c91ecee,0xbd49a86c,0xbd6a5263,0xbc2da4ed,0x3ca9b4bf,0x3cc7de0a,0xbd6af8aa,0xbc0f6ad6,
0xbd025d6f,0x3d239fed,0xba4377fb,0x3ccf069f,0x3d8bd10b,0xbcd0ef11,0x3cef4be8,0x3cc6277c,0x3c883f0f,0x3b2560a4,
0x3d01f14d,0x3b776b5d,0x3d0e91ce,0x3d308748,0x3d93817b,0xbdb7f4e7,0x3db77dda,0x3c84d795,0x3d55311d,0x3c9ae5da,
0x3c90223b,0x3aed1403,0x3b5f9fcf,0xbc65767e,0xbd67dedc,0x3e4e016f,0xbc476201,0xbdf83828,0xba8ae6c0,0x3b82d1bc,
0x3be2a67e,0xbcec9602,0xbc492e95,0xbdad9a78,0x3d732300,0xbd410c5b,0xbce75263,0x3d023ec8,0x3bfac3e5,0xbdb8ab58,
0x3cea3671,0xba8a1f7a,0xbbe4a630,0x3ce9ab3e,0xbd5c91f2,0x3d52a9aa,0xbd0a037f,0xbd031382,0x3da9450f,0x3bc8085e,
0x3cea4d9b,0xbc1fad91,0x3bd4e41f,0xbd34a55f,0xbdcc50f8,0x3c135373,0x3ca89c9e,0xbdfdc349,0x3c45328b,0xbd37e2eb,
0xbc7681e8,0x3d4f9470,0xbdaca902,0x3d0038de,0xbd7adc82,0xbd2da94d,0x3cddd010,0xbd5e0877,0xbd924917,0xbdc18cbd,
0x3a7045b8,0x3c68e20d,0x3c90733d,0x3bc6088e,0xbb994fde,0xbc0f2470,0x3d96b48f,0xbd3d95d4,0xbd012082,0xbce64feb,
0xbbc3d27e,0xbcdb2a4b,0xbd2254d9,0x3c934914,0x3d36529e,0x3c1b5f05,0x3db87d68,0xbd8dfb57,0xbc97f18b,0xbb5255c8,
0x3cc4997b,0xbc9b0d2a,0x3d81fe2c,0x3ccb3c31,0xbd7dbc1e,0x3d2a3921,0xbdbefa42,0x3d46fc86,0x3d2c4a3a,0xbc73708b,
0xbc50f51c,0xbb33bfb7,0x3c9ee57c,0xbd41d4fc,0x3c810d49,0xbd53b2cd,0xbc6e1afc,0x3c3541ec,0x3de15603,0xbb62a74a,
0xbda40f87,0xbba4d6e1,0x3c17841e,0x3e081394,0x3c15b7ad,0xbbb6cf07,0x3e1f75ef,0xba8c5d49,0x3d784a88,0xbd85b1f9,
0x3dbdf1d2,0x3c6b8b9f,0xbd5e12fd,0xbe0f391c,0xbd0d6515,0xbc8df5a3,0x3d92ba61,0xbc832f9b,0xbc0c6ca3,0xbd24c3cd,
0xbd9981d3,0xbc10391c,0xbb27f29b,0x3cffce48,0xbd56682a,0xbdb32075,0x3d413ca1,0xbdce156c,0x3d2c634f,0x3d6341b7,
0x3d7c3dba,0xbd6ffdb2,0x3d944ebb,0x3d8ce49b,0x3dcf41b5,0x3d74e37b,0x3d0f6968,0x3d5bb341,0xbc422391,0xbd41a218,
0x3d8aa4df,0xbd1701e6,0x3e10f061,0xbd2012b9,0xbcd5a2db,0x3d2cbb60,0xbd7c56f4,0xbd2f9fe0,0xbc819945,0x3d81ca1a,
0x3d6d76d5,0xbdf70a64,0xbc426bce,0xbc8d6070,0xbbdf5627,0xbaa5a11b,0xbcad37a5,0xbc8973ec,0x3ce349bd,0x3d2ecd2c,
0xbd9daded,0x3db5aeab,0xbdc85acb,0xbce9b7a9,0x3d84802a,0xbbf0729a,0x3c0ce303,0xbc9b97ce,0xbd84a8fe,0xbccaaac9,
0x3cd6277e,0x3d715577,0x3c893050,0xbcb70a42,0x3b9a6af1,0xbbae7b30,0xbceed3db,0x3d1349ce,0x3d0d3d30,0xbcbc2a24,
0x3c50c21a,0x3cc37c54,0x3c19da5f,0x3c777110,0x3b2790f7,0x3cabcad1,0xbbcd4be2,0x3dd2bea9,0xbd29cc55,0x3d6d4b1c,
0xbcf32394,0x3dcfe7bd,0x3d6c8ed3,0xbbff59ec,0x3d206c1d,0xbd3db32b,0xbd8e042d,0x3c61dad5,0x3d3f2d4b,0x3c3337bf,
0x3e79db7d,0xbd22482c,0x3c275f05,0xbd8f78ed,0xbc98469b,0xbc76c410,0xbd1455e0,0x3d1a9165,0xbd037780,0x3cff3e49,
0xbca3e9db,0x3cf039df,0x3c941fe7,0x39b89076,0x3a6c1447,0x3d0eae5b,0x3caf4b2b,0xbd0f5ded,0x3d01b9e3,0xbc2aadde,
0x3d88bc56,0xbda8cae1,0xbd4f8edf,0xbcd32fed,0x3c277184,0xbd46ba99,0x3a2d6a8e,0x3d420e25,0x3d0b140d,0xbc89cbfe,
0x3ddb8a9a,0x3cdabf00,0x3c4e3df4,0x3d2f83c5,0x3d3596b0,0xbd9cd0f0,0x3d0a8380,0xbce2f61d,0x3d506455,0xbd6a5e05,
0x3cef6877,0x3c83b5b1,0x3c3e556f,0x3ccdc3fe,0x3d86a2c7,0xbd1f9fe7,0x3d09979a,0x3dcfb09e,0xbd5ad9a7,0x3db3b3e6,
0xbde97640,0xbd17bde9,0x3dab6f52,0x3ca556eb,0x3ccfee36,0xbdb83ded,0xbd7724ee,0xbd077617,0x3d4e733a,0xbc98b4e3,
0x3cd633e4,0xbdbcaab5,0xbcf67dca,0x3ca528ae,0xbd8803d4,0xbc6f52b1,0x3d992523,0xbe0513fa,0xbcb220e9,0xbdae92a0,
0x3d72c7c5,0xbd7225b4,0xbd85da15,0x3d6d8f4b,0x3d2d4077,0xbda8190e,0xbced2133,0x3d6154d5,0x3d90ad18,0xbd2c70b4,
0x3cc02fb2,0x3d8c6343,0x3cb4e072,0xbd05b716,0x3cff82ec,0x3e035ce3,0x3e4656c2,0xbd3e7270,0xbd03271e,0xbc11cbce,
0xbd61fa60,0x3dee163d,0xbd7d519a,0xbd5b8cfb,0x3e093467,0xbd818e1d,0xbd2fc7d6,0xbeb6ce70,0xbe033ba2,0x3d28ca46,
0x3d490d76,0x3d0219e1,0xbcc683a7,0x3d2f8749,0x3dc17fd5,0xbc29a8b4,0xbdca2983,0x3bb29b3a,0xbc169104,0x3d35eb14,
0xbdbb5f0f,0x3e35e9f9,0xbda88f18,0x3e2497a1,0xbd5e6974,0xbdf74789,0x3d6e273e,0x3e19f6dd,0xbcf90570,0x3caf36a9,
0xbd9a1a43,0xbc935486,0x3ca1b6e6,0xbbf9621d,0xbbfb6fe6,0xbc981671,0xbc7cc4ad,0xbe33cc6a,0x3c8aa916,0xbd5cd7f1,
0x3da98172,0xbd5cda50,0xbd8b6163,0x3d2da319,0x3d9f1379,0xbd59efa4,0x3d824e49,0xbd2c61df,0xbd06870e,0xbcccbd7f,
0xbd53c6db,0x3caa1aff,0xbd63cc28,0xbd84fffd,0xbd14126a,0xbb90ec6f,0x3d1be8bc,0x3d0d12f9,0x3d7a9ed9,0x3d8e7bcc,
0x3da0849a,0xbc31f35e,0xbd635bf5,0x3c8c7935,0xbd58eddc,0x3c8a1505,0xbd0f6a1c,0xbc81fd63,0x3d0ce423,0xbe04026c,
0x3d229114,0xbd1e10c7,0x3c78d3fe,0x3c2768e2,0x3e1a6c10,0xbd7c9e6f,0xbc89e39d,0x3cc279f4,0x3d140c85,0xbcc11c33,
0xbb86fcea,0x3d8905a3,0xbd6f33b6,0x3cf4cbda,0xbe2c950c,0xbd80f1ae,0x3d35c2c5,0x3cc4164a,0x3dcdcda7,0x3d492017,
0x3b2769fe,0x3d45d9e6,0xbcc4b89e,0x3da79f71,0xbd53fe45,0xbcd8cb39,0xbba04329,0x3e2ca4d7,0xbc2946bf,0x3caf52c3,
0x3d358902,0x3ce12754,0x3d99f711,0x3da69194,0x3d9d33fd,0x3e13984d,0x3c4c6e64,0x3db6b424,0x3cb311da,0xbd40a2a8,
0xbdd96088,0xbdf2eed6,0xbd30182e,0x3af575d6,0x3d51ea13,0xbd1cef69,0x3c4b2c26,0xbc118787,0x3c6f0ad5,0x3c9a75ac,
0x3da0a9db,0x3c4ad20f,0x3d419625,0xbd85bf1e,0x3d0edeab,0xbe166e04,0xbc9b8f04,0xbcd045e2,0xbe2b5bce,0xbce0535e,
0x3c1c4c27,0xbba83daa,0xbc1ddddb,0x3e1cad51,0xbb5438a2,0x3defe5e2,0xbcee7409,0xbc04ab02,0xbd996239,0x3b33ffa9,
0x3e15800c,0xbd2b944c,0x3d6ca555,0xbcc48ab6,0xbcab8950,0x3c5d61e1,0xbc0ec6b5,0xbcef4dfb,0xbc9af547,0xbddc030c,
0xbd10efbe,0xbdc5e7ef,0x3bad8d37,0x3ca90a56,0xbae3afb4,0xbc1bf1f8,0x3bb806bc,0x3bd8d24c,0xbdfbfacd,0xbca66d8a,
0x3d6e0236,0xbce70b2f,0x3d157265,0xbbfac726,0x3b326910,0xbcce3a03,0x3cb52ec0,0xbb38d3f1,0xbd6306d3,0x3c6dfc7d,
0xbb937ca1,0xbd027122,0x39116de6,0xbc5bacb5,0xbc9fcc0b,0x3c9ec3b0,0x3d401ca4,0xbd425aea,0x3ccc3af6,0x3c2d5feb,
0xbbf1ff29,0x3cbc3c7b,0xbccce262,0x3bcf2b05,0xbe4f7c2f,0x3ccb9243,0x3bf0c8d3,0xbcc14f5c,0x3d876269,0x3cb5cde3,
0x3dbfa3e7,0x3dcfe6c0,0x3e3486b3,0xbcfd8daa,0xbc15f076,0xbbd8b767,0x3bb07086,0x3c3a1a96,0x3dbe7585,0x3c809c5b,
0x3d83ac70,0xbe9f211c,0xbd2581aa,0x3d0f12c6,0x3c05a90a,0x3d355e85,0xbd1626d5,0x3cdbb53a,0x3cbc0f35,0x3bc26f07,
0x3e238d72,0x3d53b941,0xbd0b52ff,0xbd87c5bf,0x3d6be402,0x3d21fd07,0x3da68ab9,0xbc411507,0x3baf2393,0xbc8ac059,
0x3c1c1ebf,0xbd022e8f,0x3d114b94,0xbd1538cb,0x3d0b0cb5,0x3df0cf43,0xbc03d019,0xbd29353e,0x3ea3cd91,0xbd31e040,
0xbbb1829c,0xbcba1169,0xbcb56de9,0x3ce8286d,0xbd95e93f,0x3cde942d,0x3d747b50,0x3c7650a2,0xbcec91dd,0x3d5a70eb,
0x3da2dc38,0x3c980a33,0xb88db79a,0xbc95b2f8,0xbdcd59a6,0xbd83346d,0x3ce6b908,0x3c847b94,0x3d1ece2e,0xbc635e5d,
0x3e081603,0x3d0e1a1e,0x3d35d79c,0x3e02d949,0x3c2fb0e0,0xbe1e6add,0xbdf4eb5c,0xbd287c2f,0x3ce2d46d,0x3dec513d,
0xbd55b815,0xbd937ed0,0x3e20fa73,0xbcd9fe68,0xbcff315e,0xbce66a30,0xbb8fcd35,0x3afab4db,0xbd961b8c,0x3c6df17b,
0xbd824efa,0x3e740a9d,0x3b917907,0x3bbba95f,0x3e1f2af4,0x3d0ea333,0x3e1e9cd5,0x3d743fbf,0xbccaeec3,0x3d64535e,
0x3d36f472,0x3d7946e6,0x3d040f62,0xbd2b99c8,0x3c8421ea,0x3e380132,0x3ce197e9,0xbc2f0886,0xbda3308e,0x3d9a70c5,
0x3d08d751,0x3a7e3309,0xbd0e9408,0x3e4cfadb,0x3bc136f2,0xbdba350b,0x3e01acef,0x3ba92b11,0x3eddac70,0x3d70a4ce,
0xbc878a68,0xbadfbb97,0x3cb7ab31,0x3d1da2ad,0xbdb66df3,0x3d89d1c8,0x3d6cc5cd,0xbd684d9d,0xbda528b2,0xbddabe70,
0xbd04cda3,0xbd115ba9,0x3defd5a6,0xbd6cf9c4,0x3c871c6b,0xbe662cd8,0x3b84fb9a,0xbb313d64,0x3d3fd890,0x3d7832a5,
0x3d4ba202,0x38ceb814,0xbd1c45fa,0x3d4499d0,0xbb2061af,0x3d7e3753,0x3d68de13,0x3c4c7fed,0x3dd07930,0xbe168d60,
0x3d8953f8,0x3c994686,0x3dc153ff,0xbdefb91b,0xbe1b80f0,0x3c4c59ad,0x3dea8c07,0x3cebe0b0,0x3d329449,0x3cd032bb,
0xbbd25f29,0x3a906e67,0xbce529bf,0x3c95268b,0xbd68f139,0x3d872320,0xbc9437d3,0x3b49cfb8,0x3dd4e12d,0x3d030111,
0xbd83e525,0x3d4256b4,0xbb0dea4e,0x3e7304c8,0x3cf7322d,0x3ded44fe,0x3cd0fbbb,0x3cbf8de0,0x3ce5ef1e,0xbd871973,
0xbdfb9431,0x3b4b876a,0x3d69320d,0x3cc656e5,0xbdd5fc47,0xbd0d70e1,0xbd8ff16c,0xbde31b64,0x3e2a8815,0x3cb04bb4,
0x3cedb887,0xbd037ada,0xbde86c20,0x3d822ef8,0x3dcecd25,0xbcc7577a,0x3ce99fd8,0xbd3e7972,0x3c7d89f7,0xbe5e7567,
0x3e1db9ce,0xbe5407f0,0xbb6b99fc,0xbd77e040,0x3c0b09ab,0x3d132a5f,0x3d102413,0x3e35b8ec,0xbda60657,0x3da420d3,
0x3d946998,0x3d89f09d,0x3ba10f3b,0xbd9be909,0x3b79ecd7,0x3f0907e1,0xbce50b18,0xbdc1aab7,0x3d446e65,0x3db22bfd,
0xbd453c7d,0x3de64919,0xbdbbe0d2,0xbe59e354,0xbe352557,0x3dcd714f,0x3ec5c781,0x3dc182cd,0x3d7c3942,0x3e3d8747,
0x3e48a5d8,0xbddae36a,0x3bca96c5,0x3d3018aa,0x3d847596,0xbdd60197,0xbd31a794,0x3e0ac78b,0xbf0dc97a,0x3c82596c,
0x3b7da70b,0xbd404159,0xbda3acae,0x3db585b9,0x3d0bfc15,0x3d95b8fe,0xbcec6612,0xbca2973e,0x3e58372c,0xbe4afcad,
0x3e85236f,0xbd7f3935,0x3d4c9c90,0xbbe5f98c,0x3caf07b9,0xbda50b16,0xbb994f8d,0xbe02864e,0xbd818f95,0xbdca7b8a,
0xbd51a593,0xbe5ded72,0xbdc391d6,0xbe3e2e72,0x3dbfa9b9,0xbd4cb82a,0xbd103878,0x3b87ef10,0x3df25c8e,0x3d250cc6,
0x3d7f1e8f,0x3c064c8d,0xbd930e48,0xbc2a9cda,0x3d424653,0x3d6aa1bd,0x3d9ba219,0xbe00812f,0xbe193593,0xbd874443,
0xbc1711fd,0xbe3e44a3,0x3c5ec200,0x3e090664,0x3e811659,0x3e1159a7,0x3d433ff3,0x3df4653e,0xbe01a5a9,0x3e1edc9b,
0x3d2cd126,0x3c22fe00,0xbdf273c8,0xbc427947,0xbd7d1e17,0xbb0ba099,0x3b7a15eb,0xbdc881f5,0xbb7ef448,0xbd989ac8,
0x3e2c56fd,0xbddbb579,0xbd2f485f,0xbdae82db,0x3cd729dc,0x3e37ecad,0x3dddd772,0xbd6d5e83,0x3def08ed,0xbe0b566c,
0x3cd10d9c,0x3e78e8aa,0x3c80f228,0xbd1f32aa,0xbdeaf237,0xbe06f406,0x3db04ef9,0xbd00ed7c,0x3e1a192f,0xbe274889,
0x3dac3eec,0x3e15c41a,0xbd10b1cd,0xbca9cb32,0x3e878115,0x3da8d566,0xbcccdcbc,0x3cffe8ea,0xbccc0c38,0xbd93e0ab,
0xbbc315ae,0x3d84d2d1,0xbc1dcbc0,0x3e81ac33,0xbda87ab5,0xbcad6f34,0x3e65a214,0x3d9bf704,0x3e5dd62d,0x3d5435f4,
0x3d03f77a,0xbca64e84,0xbbb8745c,0x3bae5c5c,0x3c9ae5a1,0xbb2e2591,0x3c86e717,0x3a9c3b14,0x3bd5065a,0xbd6e8d81,
0xbd592ece,0x3d0c48ed,0x3d1911e5,0xbd743ede,0xbd84f126,0xbab1e23a,0x3b4e4303,0xbcf21ee3,0xbe1791e4,0x3bde057e,
0xbcd2fdd7,0x3d24a822,0x3d013974,0xbe0dfe9c,0xbc6e4047,0x3b9b7f14,0x3cf8f4d9,0xbc9522c9,0x3c6fe794,0x3d54fb98,
0xbd394b10,0xbcd50c66,0xbc925ac6,0x3db35c0e,0x3d5eaeb1,0xbc0bff50,0xbcb2faef,0xbd9d663b,0x3c1f921a,0xbc700fab,
0x3cfbb262,0x3cb245cf,0xbc7f91c3,0x3d08a143,0xbdcb3c59,0x3c405457,0xbcf7a8aa,0xbd036d70,0x3cff0d72,0xbddc7595,
0x3ca93248,0x3d888881,0x3cc6a531,0x3ceb5ff2,0x3d2b9bf1,0x3cec04f6,0xbad79088,0xbd75e0c6,0x3d28b731,0xbb2b3866,
0x3d3f939f,0xbd5074d9,0xbd2624d3,0xbd07417e,0x3de931d7,0xbd6cae71,0x3ce3ce85,0x3c33af62,0xbd1e1964,0x3e21acc1,
0x3df4ff9f,0xbd49e1a5,0xbccbf693,0xbdce6c2e,0x3d93d0fc,0xbd997002,0x3c17252a,0xbd007cf9,0x3c247c60,0x3b3feb40,
0xbc23037f,0xbd6f5103,0xbd1c4eb7,0xbd35efce,0xbd454b98,0x3d01a640,0xbd6b67aa,0xbd67d540,0xbd0356d6,0xbcb974fd,
0xbcfdc808,0x3c8d5a03,0xbd5a48c6,0x3d8f8fb5,0xb96fa556,0x3de68f16,0x3c1d1091,0xbcd5ede7,0x3d0f1b1a,0xbaa4ad14,
0xbcfb908e,0xbdc2a01c,0x3d99c090,0xbd494882,0x3d3d7e5c,0x3d154fdb,0xbcc7f8d5,0xbd848864,0x3d4bf92b,0xbd5af6bd,
0xbd61a28a,0xbd48ba78,0xbd4e2f11,0xbcfed442,0xbcfe1843,0xbd42d053,0x3d0dad9e,0xbd1b909e,0x3d5df26d,0xbcd163a8,
0xbcf96d0b,0x3d9d91e2,0xbcbdc797,0x3c5925b4,0x3e2b2503,0xbe0756b5,0xbca25f6c,0xbdd64d1a,0xbce5d5d6,0xbde75d24,
0xbd8a2fa4,0x3d155346,0x3cf8197e,0xbd3b68f3,0x3cee7bf3,0x3dd4c4d4,0xbcfc9307,0xbd5e6e6c,0xbd3b0624,0x3c81a625,
0x3df4baa5,0x3d936ae0,0x3cf74623,0xbd0dda33,0xbdd27603,0x3d6a2000,0x3c1ec21c,0x3d806f56,0x3d71c384,0x3e64d27c,
0x3d34fcf1,0x3e1280c2,0x3ca0b39e,0xbd5cda4a,0x3cc69d4a,0x3e130f77,0x3c9dfb9d,0x3c987a05,0x3ce5103f,0xbd1409a9,
0x3d8db53e,0xbd92b587,0xbd779282,0xbd92970d,0xbdddacc5,0xbdfe7642,0x3d6c6756,0xbdf3154b,0xbe3d43a2,0xbcc5c6e5,
0xbbc20f97,0x3d3d5014,0xbbb75307,0xbb0e0f63,0x3dceab1c,0x3cdf5f7a,0x3ca50519,0xbca83386,0x3d34185a,0xbd24ef90,
0x3bcda738,0xbdb97150,0x3e5d35be,0x3ca1f726,0x3affbf45,0x3d61b155,0x3d9d5c02,0xbdf40c9c,0x3bf303bf,0x3d40648f,
0x3d8c095b,0x3c5481eb,0xbd97726c,0xbcadfbd9,0xbbd6e4a8,0x3ca046ee,0x3e4fd73c,0x3bbf9356,0x3db047aa,0xbe1a2cf8,
0x3d8a9fbc,0xbcced411,0xbda2952f,0x3d9f7a76,0xbd2b9243,0xbc9c721f,0x3dd08ede,0xbe52f40f,0xbd190e79,0xbdd411fa,
0xbc26bd5d,0x3e0ab70d,0xbd6d437c,0xbda8ee64,0xbe1d41ea,0x3bf57b50,0x3c6c6745,0x3def646c,0x3d3c6f3e,0x3cba6de5,
0xbbab7871,0xbccce774,0x3e0daad8,0x3d364fbd,0xbddd5c3f,0x3d06479d,0x3d37506a,0xbde1b2b1,0x3d81f2d2,0x3e4469b9,
0xbe56e607,0xbbf5318f,0xbd7c6b51,0x3c2f3e75,0x3d3935f1,0x3d87e10f,0x3d4881a0,0x3e0f6b1f,0x3e94a25c,0xbb25bf79,
0xbecfe2d0,0x3e031b00,0x3d8e330b,0xbc26ba23,0x3df07da9,0x3d10e0af,0xbdf1c10e,0x3d2b8094,0x3ddacfa7,0xbd02c69d,
0xbd94b19d,0x3dd99392,0xbbd2d48c,0x3c5b3ae7,0x3bd4a1f5,0xbd8ad464,0x3e1d74a0,0x3aa92933,0x3ccc77e8,0x3d3b50f6,
0xbb9aff49,0xbd98806b,0x3d0408a5,0xba6ff40f,0xbe01bdba,0xbd024fe6,0xbd426d1c,0xbdd801a3,0x3d89f69d,0xbda8b80e,
0x3d7a08ec,0x3d8e53f4,0x3d339c9c,0x3d1a6f2b,0xbd021e2b,0xbe5e7d2e,0x3d17d1fb,0xbe455626,0x3db80fae,0x3dfb0ca9,
0x3d5d65bb,0x3e0879fe,0xbd1f34e6,0x3da0c7a8,0x3e58297d,0x3db0aadf,0xbdae4c06,0x3dcd6025,0x3e24bea1,0xbe75619e,
0x3d214134,0x38db7f17,0xbbfcfb94,0xbb08d0a1,0x3c6cb1e1,0x3d7ae748,0xbc4b1054,0xbaaa6b07,0xbd377c9a,0x3d1a75e5,
0x3d784a9c,0xbd0a50ea,0xba0943a0,0xbcd98608,0x3d2eaef3,0xbd47d90e,0x3cc61908,0x3b8872c2,0xbc79eac1,0xbcce8a2e,
0xbd54d3be,0xbd086a91,0x3be395a3,0x3c5b51ec,0x3d1dc7dc,0x3da26ad0,0xbd525a0d,0xbce772c0,0x3d23c1e8,0xbc9367ea,
0xbd6482cf,0xbcdc7a7a,0xbcfa107f,0xbcb22b29,0xbbeb719c,0xbc6d5839,0xbd5b1a28,0xbcc9e23d,0x3d0e7d85,0x3ccd9962,
0xbc43bdac,0x3d37f54e,0xbcd9a7d9,0x3dd022a7,0xbc775ade,0xbc5383e8,0xbb802410,0x3cb1f104,0x3d8a99d0,0xbd35fb3b,
0xbbc6d766,0x3c2a4c33,0xbcd47b55,0xbddf35f4,0x3ca5acfa,0xbd60a2f7,0x3b85735f,0x3d1f6f1c,0xbd1e014b,0x3d78b2c6,
0xbcfc1a75,0x3d7f7d06,0x3e013eb1,0x3cc18202,0x3c85f5a2,0xbc916e5d,0xbc3efc9c,0x3cb252af,0x3d60305c,0xbd3a2ba3,
0xbde4e3a3,0x3c61c2ac,0xbd949e06,0xbd23e47d,0x3d1b37f5,0xbd84461f,0x3b652e1f,0xbceac862,0xbd61b0e7,0x3cfd3573,
0x3d0e2b0b,0xbd80ee41,0x3ca0e955,0xbbc0b705,0xbca1ce17,0x3d496404,0x3d69da25,0x3cc4e74c,0x3c46d8e8,0x3d880401,
0x3c2e5a70,0x3d774571,0x3df078cf,0xb97c0f42,0x3cbea0ce,0xbd9a3a9f,0x3df09142,0x3d601021,0x3d3da049,0xbc18b1c2,
0xbcd7e606,0xbd20a387,0xbc8f9850,0x3d5954c6,0xbd70c69b,0x3d30bbe0,0x3e751445,0xbd3add9d,0xbdf8166b,0x3cf607f0,
0x3d86b70a,0x3b500805,0xbcc1793a,0x3dd156fe,0x3d622269,0x3ccf3184,0xbc7b68a9,0xbde4019f,0xbd5443d5,0xbe305b47,
0x3db2c3a1,0xbd811468,0xbe33e452,0x3d4a49ba,0x3e0dfd03,0xbbec02ab,0xbdb5bddc,0xbca67632,0xbc730178,0x3cef2694,
0xbd17eb5e,0x3d19206f,0xbd61e2bf,0x3d13d843,0xbcd4436e,0x3d6595bf,0xbba0eb9f,0xbd02d229,0xbdafff03,0xbda0e296,
0x3e9c84c3,0x3d108be0,0x3d824dcf,0x3dce7d49,0x3dee9d1f,0x3dc46c61,0x3e2bfb30,0x3e6ef157,0x3e1f0cc4,0x3d2a6cf7,
0x3d55ac80,0xbd430d17,0xbd7172c0,0xbdad7443,0xbdba67d8,0xbbff9d8d,0x3da10ec8,0xbd9058f2,0x3d25616b,0xbe0c80bf,
0x3defe87e,0x3e238e69,0xbd5f0d95,0x3e55bdcc,0x3d60564a,0xbd70dd0a,0xbe03b0b5,0xbd063aac,0xbdece1ac,0xbd9a85a8,
0xbd23dedd,0xbd954ea2,0xbdbdf0be,0x3da4611a,0x3e6a4704,0xbdbfbf4c,0xbdfb92ea,0xbe7f3fd4,0x3e0a7dcf,0xbe38ddf4,
0x3bb83f3c,0x3daf043d,0x3da213b2,0x3ebd3400,0xbd72877e,0x3dc24235,0x3dbc48e9,0xbe846003,0xbd2b75bf,0x3d072ef6,
0x3e36cad8,0x3c9ff53a,0xbc651d62,0xbcdc0546,0x3de65b52,0xbd2b3a43,0x3cc9237b,0x3d31da89,0x3d550b44,0x3ca6a801,
0xbc9d8d01,0xbcee547e,0xbd8686be,0xbdcdb807,0x3cd61a33,0x3d8156dc,0x3b692757,0xbc101564,0xbdcb0566,0xbd4babe1,
0x3cb01525,0x3d706912,0xbb293b5c,0xbd94f67f,0xbb41b257,0x3cf798e9,0xbc75c6ac,0xbce3372e,0x3cf46069,0x3cfe102b,
0x3d383c10,0x3dcf93d3,0xbc04257b,0x3cd3653d,0x3ba9732b,0xbde2af42,0x3c7ce7bb,0xbcb13984,0xbc975db9,0x3ca97e40,
0x3b5e6bf9,0x3e277fe4,0x3be56ae9,0x3d850bdb,0x3d30f7aa,0xbb855ba5,0xbb40f396,0xbd2e387d,0x3bd527ce,0xbd220de0,
0x3d43a420,0x3c1e0b0d,0xbbb5e1a0,0xbd889098,0xbd0f5aa0,0x3d7f2425,0xbcd8af09,0xba902277,0xbd57782d,0xbc19a111,
0xbc14835f,0x3e6e28cd,0x3ddf801f,0xbcaee8e5,0x3e18c3bf,0x3c8a3011,0x3d524ae7,0xbba2dc7e,0xbda11ee3,0x3d27cc2b,
0xbd40f0a9,0xbc27aefb,0x3c538116,0xbd8e3e2f,0x3d62bc81,0xbdec81d3,0x3d594692,0x3d00c9b1,0x3ddff9aa,0xbcc05546,
0xbc6b33cf,0xbad27176,0xbb09dd04,0xbe517013,0x3a8d83a7,0xbbc9f0cf,0x3ca3261b,0x3db0745c,0xbc9b2981,0x3d8c1db4,
0xbe3d8ae6,0x3c8a070a,0xbd8dfdbd,0xbdb4cde9,0x3cdb44d5,0x3d780cc9,0x3c11fa44,0xbc59b833,0xbc83ca91,0xbc319f04,
0x3d3522e0,0x3ca2ce59,0xbd9e0159,0xbb3076e3,0x3d21d82b,0x3e0aefb6,0xbd1faa6b,0xbd006015,0x3da58abe,0x3d1e4360,
0x3cf44a4a,0x3d646a14,0x3c7a0886,0x3da934f3,0x3ca64db9,0x3df45bcb,0x3e33ea1c,0x3cd0f3ca,0x3b1a2037,0xbc34befc,
0xbdf3e644,0xbd0bbd76,0xbc7b8a02,0x3cd174b1,0xbc2f0f13,0x3ce35203,0x3d37f3d1,0x3d8bff6b,0xbe0aaacf,0x3d1e032f,
0x3d2d6e99,0xbcd2adfa,0x3c50a192,0x3ca57804,0xbe22c19a,0x3dc7a2d2,0x3c0c3be9,0xbbb2fa90,0x3e0a0a2e,0x3d740c9f,
0xbe08b19a,0xbd32ba33,0x3d53e9ac,0x3d3385e8,0xbcb6c619,0xbe432950,0x3d41f9fe,0xbd9776c9,0x3d9bd02e,0x3db908c1,
0xbdeb2297,0x3d677518,0x3e5f9872,0xbce3e3db,0x3d0771fd,0x3ca556ee,0xbcd283b1,0x3db40cc6,0x3dac8906,0x3d52e2bc,
0xbc7e353d,0xbdc9a37d,0x3e836369,0x3d85289f,0xbca67973,0xbb1b3b29,0x3d86526a,0xbd8682c9,0x3c570ffc,0xbdbfd847,
0x3e4e8c25,0xbd8eab58,0x3c8bf65b,0xbdbc7b7a,0xbdb67bc3,0xbb93789b,0x3c42e692,0xbc9728e3,0x3d53a808,0xbdb5da78,
0xbdbad009,0x3bf10db4,0x3dd75bc7,0x3e1a77b5,0xbd1ee41b,0xbd86971c,0xbd414a73,0xbd60f81a,0x3e26704f,0x3e0ed10d,
0xbd5caff0,0x3da243d4,0xbd2c4954,0xbdaea178,0x3ceccc1c,0x3d22c4ed,0x3baef597,0xbcc6958d,0xbe39fa68,0x3da26210,
0xbc986564,0x3d1e20ef,0x3ca434b3,0xbcf8f754,0xbdfe14af,0xbd4119d1,0xbdbf138a,0xbd0d1d9f,0x3c0439c8,0x3c0ea670,
0x3cbd814a,0x3c3eb3e3,0x3dab89cd,0x3d5b321d,0xbdaaaf1e,0x3ceada7e,0x3d8f8a16,0xbcb32a07,0x3aaee58f,0xbd1203e3,
0x3d2d436a,0xbcbb6dd3,0x3cf333a8,0xbd203ef9,0xbd2d5911,0x3ba3ab43,0x3bd77f92,0x3d592aaf,0xbca458fb,0x3ce741bd,
0xbcd82298,0x3d1ef7a4,0x3d960318,0xbcf7329f,0xbc28745b,0x3d5872cb,0x3dac78f3,0xbb148a21,0xbcd5b334,0x3c357335,
0xbd617443,0xbde90a3d,0xbaa9821b,0xbe7740cb,0x3cf201e2,0x3c7fa368,0xbd3316e3,0xbc6794ff,0x3e1f497c,0x3d81f26c,
0xbde32bc4,0x3d596d06,0xbc91afd6,0x3d313a9f,0x3d87429d,0x3d6fcbd8,0x3c1d2210,0x3c8efcc6,0xbb8b5094,0x3c7652dd,
0xbbff6c9f,0xbc158995,0x3d3533b9,0xbcee5de2,0xbc091ddc,0x3a8a6d1b,0xbcb5cbe8,0xbd9c76b7,0xbe71d279,0x3c81aea5,
0x3e017e92,0x3dd2a7aa,0x3db313c1,0xbb6b6ee9,0xbcd6d5bf,0xbcd4d2f8,0xbc00feae,0xbc09fac5,0x3be6eb8d,0xbd592ff8,
0x3d3600ac,0x3ca3f354,0xbd4f9b5d,0x3da4e98b,0x3e1eda87,0xbdc5b0f3,0xbb2a514f,0x3cb90ab4,0x3ce7e562,0xbd815e05,
0xbd1000e8,0xbd35e8c4,0xbc047fd0,0xbe25ec1d,0xbd70f522,0x3d360e6d,0x3d38828e,0x3cd67078,0x3daf26f9,0xbe0581d4,
0xbdf17e45,0x3d123a5f,0xbd318fff,0x3d6afb84,0xbddc19a0,0x3cc633a5,0xbdb58ca3,0xbb7ab229,0x3cbd42a7,0x3d1befc5,
0x3dabde4c,0x3c8cd13d,0xbc71c6a5,0xbc163005,0x3d3d1b0a,0xbd802579,0xbc88a552,0xbde3e88e,0x3c286926,0x3c2fb1d7,
0xbd17ae63,0xbd67a9b9,0xbcbd7b33,0x3d03cd85,0xbccd2369,0x3bb196dc,0x3d9dc03c,0x3d124863,0xbddebcf5,0xbc587955,
0x3c3168f6,0xbc5bfd16,0x3c40e17e,0xbe9949aa,0xbd78191b,0x3dbb5e3e,0xbcb6b684,0xbdc20fef,0xbdd92e49,0x3d4267c6,
0x3b8f5491,0xbb9a0fbc,0xbdb018e6,0xbb6410b5,0xbd732842,0xbe28789a,0xbc79db83,0x3d347975,0x3dfa46f6,0xbd89d40f,
0xbd28ab1d,0xbd686950,0xbc5af0d9,0xbd683682,0xbce9990d,0x3d1804dd,0x3db996ed,0xbb884adf,0xbd864db8,0x3bd3b1eb,
0xbd37a65a,0xbce7b1d2,0x3d52edf1,0x3d6b31e3,0x3d77560a,0x3e555644,0x3ce7de6c,0x3b15f178,0x3d1bacc8,0x3dab1bbf,
0xbcb4b6c1,0x3d1bf583,0x3dbbe859,0xbd2af7e3,0xbd94a4b1,0xbdfc0c1a,0xbcbb1f7c,0xbc98384b,0x3c3b2118,0xbd376cc0,
0xbdd13145,0xbda988bc,0xbd6cb119,0xbd924885,0xbce3f11d,0xbc317a8e,0xbe110a77,0x3db33db7,0x3ca2d7fe,0xbe8e14da,
0xbce5971d,0xbc6245c7,0x3e1b8d34,0x3d7cc558,0xbd7e122f,0xbd492283,0x3d59f686,0xbae0d0ca,0xbd44a897,0x3c3cee86,
0xbb54383e,0x3cab531e,0xbb88e8d4,0xbc465399,0x3e31f11f,0x3dd02c56,0x3cef10f6,0x3d4fe3fa,0x3cb33316,0x3dedf4b8,
0x3db426cb,0x3ce5078b,0x3c7b35fb,0x3d69ba7e,0x3da7e54e,0x3e0f8122,0xbdb21583,0xbd331464,0xbdeb4ef7,0x3ce0484a,
0x3d0e0418,0x3c96ad95,0xbc8f9661,0xbd0e2375,0x3d9688a7,0x3d766465,0xbc2f728c,0x3d55c3e7,0xbcb85da1,0x3d780381,
0x3e173515,0xbae43459,0xbd2a9964,0xbcde8d2c,0x3d40b85f,0x3d946ede,0x3d29b29a,0xbc630674,0x3d29aece,0xbac2152c,
0xbd65e30e,0x3d9a1598,0x3cab2e0b,0x3df022dc,0x3d9eaa56,0x3d9498a6,0x3ceffb0e,0xbcecab07,0xbd881522,0x3b1b79b2,
0x3d8ee193,0x3ea5e250,0x3e281973,0x3be33aaa,0xbda1e5c6,0xbdee085c,0xbc1fad8f,0x3d8a53d6,0x3dbd4b94,0x3da50954,
0xbab8a72f,0x3dffe6ac,0x3db40ebe,0xbd386d12,0x3c158832,0x3dc87327,0xbd26ce0b,0x3dd00437,0xbab71acd,0xbe7c4fbd,
0xbd078e3a,0xbcfe3c0b,0x3dd0f3c0,0xbda54e1c,0xbd87ce35,0x3cdd9e3c,0x3c44e2bc,0x3dbf199a,0xbde3293f,0xbc87060e,
0xbce08fd2,0x3e001600,0x3e300fbd,0x3d9fe15b,0x3e23ef94,0xbe599ece,0x3e0e8ed7,0x3d874ec5,0xbd6f50db,0x3d9c2967,
0x3b539a79,0xbe01a0a4,0xbe274ad3,0xbd17562b,0xbe04509e,0xbdb82ba1,0x3e42eeed,0x3d21d2f7,0xbd0434b0,0xbe18db50,
0x3dab4745,0xbd8f30a4,0x3c405fdb,0xbd1a9929,0x3dcc2867,0x3d692486,0x3d1d3cdd,0xbd739b81,0x3d3808b4,0xbc43aeb3,
0x3e1bb6e1,0xbcf4c902,0xbd567e55,0x3dc0cbe6,0x3e033e20,0xbce6c0be,0x3cb7bd52,0xbda9f354,0xbc7325d1,0xbdd69a69,
0xbe3e86af,0x3d48d11a,0x3e5aec6e,0x3cf6269c,0xb90efbae,0x3d40eaf5,0x3d75da54,0xbdfc98d7,0xbda77ba7,0x3d3e3438,
0x3d200560,0xbe2cc1c7,0x3cf36d77,0x3d8d0d1f,0xbb89ff29,0xbd991fd9,0xbc0e8944,0x3dcda826,0xbdcea3eb,0x3ebaa706,
0xbd90537e,0x3d111406,0xbd2e7f3f,0x3dbbe16f,0xbcb6e394,0x3e3ead6a,0x3d1a9ae0,0x3e299c26,0x3d206e05,0xbd39ab8b,
0x3abc8b2a,0xbda9eb96,0xbe25758c,0xbdab0c85,0xbd3bd8db,0xbb1ae9f9,0xbd495212,0x3c3f68f3,0x3d2ecf2f,0x3d02fdd7,
0xbe26ccc1,0xbd45739f,0xbd54dfad,0x3ddbe393,0x3d52cddd,0xbe1606c4,0x3db357f6,0x3e24a833,0xbde6c9e9,0x3b884cfe,
0xbd4ab6d5,0x3d173034,0xbd6f47fe,0x3c880bc5,0xbda915c0,0x3e20d25d,0x3d02146a,0x3db6986a,0xbbc9046c,0x3cbab253,
0x3da71bf5,0xbd0e56e3,0xbc63822d,0x3d23328d,0xbd964b7e,0xbd89219f,0xbc68b8b6,0x394ace98,0x3cc6d8d6,0xbcdd1491,
0x3d1dbc39,0xbc97daf8,0x3c0ae9e4,0x3d878b2c,0xbcc0eda7,0xbd08bd26,0x3d47c749,0xbbd0d077,0xbb977e6b,0xbc2c9015,
0xbd19eb2e,0x3c114df3,0x3c8469d1,0xbda317d0,0x3c9f5c05,0xbdd849b8,0x3d3fcce9,0xbdfeb5ed,0xbd382564,0xbd76ebd8,
0xbb5b53d9,0x3d2ea4e3,0x3ae8f738,0x3c02a7e4,0xbd6be158,0xbe15e6cb,0x3cc6b915,0x3d0ceca9,0xbd684f4c,0x3d0da288,
0xbdf0ffbe,0xbdaa14dd,0xbc74871e,0x3e224457,0xbcab8ba0,0xbdae87cf,0x3d8bebdf,0x3dbc32bf,0x3dac60df,0xbd9b722f,
0x3d44936e,0x3ceb2996,0xbcc45295,0xbddea2d2,0x3d115043,0x3cd9a2bf,0x3dc84adc,0x3d23bb9a,0x3c7663e8,0xbb990f66,
0xbcde3a57,0xbdc29e1d,0xbab256cd,0x3c5030d4,0xbd2b221e,0x3dbd8ddb,0x3d5bce77,0xbd842b46,0x3c7f832c,0xbe1a410a,
0x3ddadfcb,0x3d461927,0xba5fd8fa,0xbd5837f7,0x3d2f5062,0x3c061d3f,0x3e61d9a7,0x3d874458,0x3d1a1483,0xbd55cc22,
0x3bb62667,0x3bd0d2c5,0x3cf266db,0x3d6e04a3,0x3c08ad4a,0xbc13f722,0xbd1d183e,0xbda8d7c1,0x3cd9a95d,0x3dd0d3ac,
0xbd27d032,0x3d4ce57c,0xbdd1f7d9,0xbd206821,0xbdb4ab9d,0x3cd6b81e,0xbd1194d8,0xbd88f3f7,0xbc578213,0x3ccc52bd,
0xbcd0842d,0x3dfad3b3,0x3c86b4f1,0x3d10f993,0x3d134024,0x3c17e7b5,0x3d4f5dd9,0xbd5a6f27,0xbd5b5851,0xbb7c8a0c,
0xbd1d19ae,0x3d8ba28a,0xbd96826e,0xbcf1f58e,0xbcdecc4d,0xbb8ce511,0xbc49abf6,0x3d50649a,0x3a95736d,0x3d164166,
0x3cc6a45a,0xbc9d37fc,0x3dac7824,0x3b191892,0x3e2835e4,0x3c1906f9,0x3c9c10ed,0x3dc24f9e,0xbd8da0d8,0xbc860186,
0xbda24e1b,0x3c0cbba3,0x3d7907a8,0x3cdf9776,0xbcf393af,0x3ba88810,0x3ca7b22b,0x3cae4ebd,0x3d037bbf,0xbda91758,
0xbd9632d8,0xbc4a275f,0x3cbfdbfe,0xbc34d3b1,0x3e15cd6f,0x3d8d70ea,0xbe50b1b1,0x3d1e821c,0x3e231574,0x3d6eb48d,
0xbd4084be,0x3d3cf943,0x3aa6e915,0x3bf76419,0x3cfb1e15,0xbcbeb81f,0xbd139be1,0xbd4bbb75,0x3dbddd29,0xbd16744e,
0x3d168329,0xbd560f6a,0x3c64c638,0xbc18be2a,0xbe7f2e35,0xbd854b13,0xbba8e338,0x3d419cf4,0xbaafb149,0xbd1d548d,
0xbd841e57,0x3e25bc54,0x3ca30d43,0xbec4505d,0xbcf68159,0xbdc55d07,0x3d2e5d9b,0xbdadc271,0x3d082b01,0xbd67c47f,
0xbb810fa6,0xbbca9ed0,0xbd6b71e4,0xbcf2bde2,0x3e10bbec,0xbd25a711,0x3e55feea,0x3c89715b,0x3d815465,0x3db82fa7,
0xbc8729ae,0xbda0cb95,0xbcefee4b,0xbe27dbd6,0x3d84fa8f,0x3d8bdebc,0x3d4a7644,0x3d90f556,0xbcfcbe7c,0x3deb0cee,
0xbd177997,0x3e38d3cc,0xbe0b7996,0x3dce3d46,0x3d300b7b,0x3de5f714,0x3d9d76a0,0xbd0f47bd,0xbc0e82e0,0xbd6f729f,
0x3cc1c06e,0xbd41c691,0xbd290862,0xbc1e20c4,0xbd90418a,0x3dcaa639,0x3b837f55,0xbd655af0,0xbc4c7d07,0xbd26c942,
0xbcb8fe9c,0xbdecac8e,0x3da9c45e,0xbd92f81f,0x3e35f7cf,0x3d01f8df,0xbcc11463,0x3d1ba3db,0x3d827cc2,0xbe1101d5,
0xbe108f42,0xbcb076ef,0xbdf17001,0xbd6c4ba8,0x3e362666,0x3cce870a,0x3dd7ed9e,0xbd2d4dec,0x3dc6b504,0x3b8eb695,
0x3d5a61ce,0xbe319a95,0xbcd45c72,0xbdaaf286,0x3b31eb6d,0xbd0c7037,0x3da768ac,0x3e69c033,0xbdb952e0,0x3e42de4b,
0x3b24a1a4,0x3d4fab2b,0xbd6006ee,0x3d26f99f,0x3d7bf1e3,0x3ddccbc0,0x3e69e43a,0xbc50988b,0xbcdb017d,0xbd6df958,
0xbd5870af,0x3d7bb0b7,0x3e07c2d2,0xbd24d639,0xbd9ccf21,0x3e3cb17d,0x3cccc11b,0xbdc1ce29,0x3e1f2d64,0xbdb2167e,
0x3effcf45,0x3d3a392b,0xbd91ccaf,0xbf063066,0x3e08c6f5,0x3db89c1e,0x3d907de6,0xbd497eac,0xbe259a31,0x3d149080,
0x3d4b6946,0x3e1dc842,0xbdcc9536,0x3db4cf92,0xbd83fb3b,0xbd5d2fda,0xbcdb475e,0xbd77d7fc,0x3dbe72ae,0x3c2f28f0,
0xbe724d00,0x3dd20d9c,0x3d2bb47f,0x3de3fa11,0xbcd9361d,0xbbf9db5f,0xba480f3a,0xbc542915,0xbe08ed6c,0x3b89b795,
0x3cefe829,0x3d01fcfc,0xbc339268,0xbe309a6c,0x3e8d2dd3,0xbe0e2c7a,0x3d4a83ef,0xbd80875c,0x3d50b8f0,0xbd8db3fc,
0x3d835ac9,0xbc97a724,0xbcda86b1,0xbd899d8b,0x3e487cc8,0x3de1fa5e,0xbb3e1d22,0x3d8b0e95,0x3d14e20d,0x3cb27458,
0xbc3f4f87,0x3b4883ca,0xbad0e931,0xbc9770e6,0x3e4621e1,0x3e1a3b0a,0x3e4559c6,0x3c843447,0xbdcca27e,0xbd18fc2a,
0x3e20ca09,0xbb8778e1,0xbdfcbea4,0xbe294dfb,0x3d2df1e3,0xbe1b353f,0xbaa959ec,0x3db92859,0x3b162bee,0x3d25ebf5,
0x3e901aa5,0x3c730664,0x3da28ab3,0x3d27972e,0xbc55e451,0x3e145e6c,0x3d936a6a,0xbd564f08,0x3ac4b855,0xbd54671a,
0x3e12ccc1,0x3daa01be,0x3dbe0f9b,0xbbac9385,0x3b78694f,0xbdbb3f8a,0x3d39eb9a,0xbd41a67d,0x3e1a73cb,0xbce488e0,
0xbc2f4808,0x3d282154,0x3e2cf306,0x3d331e6c,0x3e783dae,0xbe0c5484,0xbbd377a9,0x3c7c2208,0x3da4451c,0xbe070504,
0x3e53119c,0x3cd938e8,0xbe2a29d3,0x3e6c0be5,0xbc8446cc,0x3c1f982a,0x3e0ae813,0xbd3905de,0xbc22b9e2,0xbce40653,
0x3e218fc7,0xbc290d9d,0x3a8c2d18,0x3b5f4956,0x3c463105,0xbcf4757e,0xbcfc2228,0x3c40c878,0xbcbee758,0x3cb0fcd6,
0x3c3bbbb0,0x3cbc300f,0xbd4909ec,0xbd28ce99,0xbc7f14cb,0x3bf8f42d,0xbceb92e5,0xbca84f21,0x3c0529ce,0xbcb1b9fe,
0x3c9c3a38,0xbc33b968,0xbd597a2d,0x3cec99af,0x3cc3bc7a,0x3ce82adb,0x3c55bd23,0xbadfe6b4,0x3cac1313,0xbd5b57b8,
0xbc1dd016,0x3c210099,0x3da2e9db,0x3c8717fe,0x3d96c412,0x3d3e9580,0xbb04074b,0xbc9a7a4a,0xbc87f8b3,0x3cfd86f0,
0x3abbd12e,0x3d77f1f0,0xbbe1947e,0xbc857aee,0xbda5794a,0xbd03424d,0x3d62dcdc,0x3d1758be,0x3ce0ef01,0x3d522e2b,
0x3b7a1434,0xbd7e4081,0x3dc9fda5,0xbd994cdf,0xbd8829d7,0x3d84067c,0x3cc56c70,0xbce9e4b5,0xbcd3f491,0x3d0fcb62,
0xba7454ce,0x3b36bd1c,0x3c7bf279,0x3b9fe175,0xbb66d881,0x3d1d7382,0xbba71e04,0xbc580ac8,0xbc73336c,0xbcf569eb,
0x3d0106c3,0xbc568dbf,0xbdabe861,0xbe0bce15,0xbc0313e3,0xbdbdba0d,0xbc980a5d,0x3d34584d,0x3d83ef68,0x3e39a0e3,
0xbd046ccb,0xbcb3e663,0x3cb08e88,0xbd532fcf,0x3db1f88d,0x3c2bd8bb,0x3b92bdeb,0x3c1ae168,0xbd8b6ac2,0xbce32a83,
0xbde05d49,0xbca2d53f,0xbc3eba55,0xbb47c24e,0x3ce460f0,0xbc89835f,0xbcf42aca,0x3cbbad42,0x3d9d1e16,0x3bea280d,
0x3dee891f,0xbd201220,0x3de4002e,0x3d7ed234,0x3d423bb6,0xbcf390a8,0xbc17c70f,0xbe0a6301,0xbe35085d,0xbce3b8c9,
0xbd3b58b0,0x3cb23a46,0xbdd88f55,0xbdd8be3f,0xbd2f7da9,0xbd8bf36a,0x3dc1c56e,0xbdf4c1da,0x3b1bdc12,0x3b8d280b,
0x3dc390a4,0xbcb9155d,0xbc1d963e,0x3d9f1787,0xbd00748f,0x3c5d5d32,0xbd0606cf,0xbd7bad05,0xbcaecce4,0xbda31c75,
0x3dbca064,0xbe1b05df,0xbc77b9a7,0x3c0381cc,0x3d8dc9cd,0xbde38ecd,0x3d8616d5,0x3d0ac41b,0x3e8763e8,0x3e6edad3,
0x3dd334ae,0x3d4a00ad,0xbc4af295,0xbd3ec987,0xbe2153f3,0xbd3e5ee2,0x3c6614e5,0xbe060490,0x3d5c880d,0xbc67fbfb,
0xbd04fe75,0x3d0483bb,0xbd95a362,0x3e3a69fa,0x3cc45bba,0x3e0d2772,0x3df8aede,0x3d35aa7e,0x3c232990,0xbaa6f6e0,
0x3d6fefa6,0x3dbbdcbb,0x3d0e237c,0x3db50fa0,0x3ce83185,0x3da39fa3,0x3e635d04,0xbe69a2a5,0xbce271e8,0xbe032773,
0xbd7a2463,0xbb579591,0xbdc9c16b,0x3d60ac0b,0x3ed8518a,0x3e051377,0xbe265427,0x3d862044,0x3dbe1c81,0x3b2a7ffa,
0xbbcf2393,0xbe63bc07,0x3d6508f4,0x3dbddbef,0xbce912e9,0x3e1f2e6c,0xbe873eaa,0xbc24716d,0xbd082b05,0xbe3659a9,
0xbdee9919,0xbc8f5de5,0xbdd67185,0xbda2de03,0xbdcf2389,0x3dd37b89,0xbdab8f8c,0xbd4d4970,0x3e0a6102,0x3c828023,
0x3cb6d8e7,0x3d001f14,0xbc32ae04,0xbd0710d3,0xbcea0b7e,0x3d1c9a00,0x3d9f658e,0x3db62ace,0x3c8dee1a,0xbd472d0c,
0xbc4c3357,0xbd9bdc6b,0xbdd8b747,0xbdab1238,0xbd30bbbb,0xbb12f9a7,0xbb3397c8,0xbcfac680,0x3da3f680,0xbcf57493,
0xbca5ddf8,0x3d1bafed,0xbd35ed6b,0x3d4d9f6d,0x3c0d1485,0x3d5b67c9,0x3c106a93,0xbb5c3895,0x3d16cd56,0xbc8104b7,
0xbcad1a16,0x3cf68f1d,0xbbf8a862,0xbd3a2d12,0x3d49af73,0x3e0b4982,0xbd6a37ff,0x3d7df08d,0xbca1f355,0x3d0b9e8b,
0xbe2aa7cf,0xbd5c0fcc,0x3b127c78,0xbd920a04,0x3dba391c,0xbddd5871,0xbd4c2f04,0x3d6c23c5,0x3c72bd7b,0xbbd3819b,
0xbce8d21f,0x3d555bcc,0x3cc7705e,0xbc7d7bd9,0xbd18be91,0x3ca8b06a,0x3d47d9e6,0x3da255e9,0x3bbe0664,0x3d812840,
0x3da69a64,0xbdb1480c,0xbdc9e9e8,0xbdc202b9,0xbe1054e3,0xbc2f6caf,0x3c81cd04,0xbd5bb680,0xbd8452f4,0xbd89dab5,
0x3b877539,0x3e166f39,0xbca71796,0xbb70a176,0xbd02cf16,0xbdb4f233,0x3de31d3a,0xbdd15c57,0x3d4bf4cb,0x3d6a7704,
0x3da09faf,0xbcae238d,0x3d5a13d1,0x3e244ecd,0x3d6b329a,0xbd0e5602,0x3debcf22,0x3b55ac3c,0x3d1d982a,0x3dc877ce,
0xbd375cad,0xbd411f5b,0xbd3d620f,0xbdbbd904,0xbddf157d,0xbd1ab5a0,0x3d2a4d86,0xbc97b07b,0x3d1c4a89,0xbdd2c7c3,
0x3d26c237,0xbd083da6,0xbdb73067,0xbdd81c5f,0x3cb6aaed,0xbe24ecd7,0xbd17feea,0x3d7cb286,0x3d93c653,0xbdbf2c07,
0x3d0edf9a,0xbe05e65f,0x3d8af7f9,0x3dddd2f6,0x3d0b65ed,0x3d3a7e37,0xbdc2fcf4,0xbd99a590,0xbd52593d,0x3d704ff6,
0xbdd7df98,0xbda76d62,0xbd2d22ef,0xbd402b50,0xbb8eab12,0xbcd1c250,0xbd2b9060,0x3d4ff63c,0x3da3cdf2,0xbd751e5d,
0x38cffe63,0xbc74439a,0x3e01dbd7,0xbd674f89,0x3e02b517,0xbc92d6b8,0x3d3f855c,0x3bb2ae55,0x3d688878,0x3ca73b27,
0xbda062d4,0xbd239ffc,0x38c49e42,0x3cd5f859,0x3e381e68,0x3cb443f3,0x3da262bf,0x3d78b7ab,0x3c9b3108,0x3c02bca8,
0x3d04c908,0xbcc5bbb1,0x3da25525,0x3d58d161,0x3dc8042a,0x3b47c4ca,0x3d5f8112,0x3dac309f,0x3aedebe8,0xbd36de44,
0x3c1684a5,0x3e022f5e,0xbd2ce293,0xbde17b61,0xbdbce269,0xbb6d2b99,0x3e500a10,0x3bd0f060,0xbd651a7d,0xbd42ddeb,
0x3af3d7e0,0xbc4b279f,0x3e083014,0x3d343116,0x3e06d16a,0x3cc9e34c,0x3ccfb864,0x3dbd7965,0xbd35eade,0x3dac0dad,
0x3dbe8d98,0xbcdcc421,0xbcd173e2,0xbcb6b133,0x3d77ba86,0xbd14ff5f,0xbc8dad78,0x3c063c53,0xbb9a9f78,0xbcf2d745,
0xbd2b281e,0x3bf8b8ba,0x3cfdfa89,0xbc1014a1,0xbca230de,0x3d2a196f,0x3deb19da,0x3da906f0,0xbd04b819,0xbc8b3e12,
0xbdb33fdc,0xbc178dc2,0xbd55f446,0xbc9f6baf,0xbd9cf8a1,0x3a8f1635,0xbd108ad6,0x3cf2931b,0xbb027474,0x3ce231ee,
0x3b88a942,0x3d8b5842,0x3c0d5ec4,0xbaba1a64,0xbd0eb47f,0xbda90bfb,0x3bc3948c,0x3c4b9f55,0x3da9bb00,0xbd321f62,
0x3c1bdaec,0xbbb69395,0xbcb9519c,0xbce31e96,0x3da38185,0x3c76a4b3,0x3c855c58,0x3cb87a32,0xbd9b3cf0,0x3d31372e,
0x3d751e6d,0x3c26ea52,0x3c200984,0x3d95ffc6,0xbdc5a2ee,0x3cef3355,0x3d91818e,0xbbca0560,0x3ccbdb5e,0x3c5ce2a4,
0x3be5ab57,0x3cb6bede,0xbd216ef9,0x3d3d1487,0x3d4ed753,0xbbff01c4,0xbe0e0dc6,0xbca11814,0x3d85867e,0xbcc3774e,
0x3c602728,0x3c54d8ff,0xbc79b623,0xbdc053eb,0xbbdf00cb,0xbdca4c9b,0xbdb75c53,0xbcd88e16,0x3caa07cd,0x3d1c30b0,
0xbb80aebb,0x3a6abc52,0xbc9acf04,0xbd86bd81,0x3cde26d8,0x3c597dcc,0x3c1b6354,0xbd914ecb,0x3d3584ef,0xbde4b231,
0x3ddc1d7c,0x3dc8f38f,0xbe11c742,0x3c0cb7c2,0x3d0f998a,0x3df5a03f,0x3d52a407,0xbc875a36,0x3bc7715e,0x3c6145d2,
0x3d8f5fff,0x3cdbec66,0xbd4c9868,0x3c2083e7,0xbd09526c,0xbc77d35a,0xbb971806,0x3cb86804,0xbc96e9c8,0x3c669696,
0x3ac34f51,0x3dbd5860,0xbcefd593,0x3d209531,0x3cce1538,0xbd13b91e,0x3d122bd2,0xbd1c0341,0x3c480039,0x3c4750f8,
0x3e30cb91,0x3d958ab9,0xbd9f0b87,0xbd5926d4,0x3d76dff4,0x3c4f4f51,0xbb9dc111,0xbc120858,0x3b7cdcd4,0xbc5f61ad,
0x3de18b54,0xbc084f4a,0xbb58c789,0x3c5f8c06,0xbcfa13f5,0x3d5d721c,0xbc47e240,0x3b94b23a,0xbd46efc1,0x3d8a0022,
0xbc5b589c,0x3bffbbfc,0x3e0091a4,0x3d04f7b5,0xbde02bb0,0x3db4509d,0x3db7c003,0xbc9b2dd0,0x3bc6b1b5,0x3d15325d,
0x3da7e6be,0x3cc6112c,0x3d43a782,0x3ccf2989,0x3bdb83bb,0xbc1d486f,0x3e0a7803,0x3c672659,0xbcab271a,0x3d0a254c,
0xbd463d92,0xbc99ddd0,0x3c0675b7,0x3c8b7f9a,0x3d1f45e2,0xbd11189d,0x3c88592b,0x3dee0d1c,0x3cce2cd5,0xbb693c2e,
0xbc3a01f8,0x3c271aaf,0x3ce26aba,0xbe16fc18,0xbc53947d,0x3d3e604b,0x39fe088c,0xbc488c98,0xbdce45fc,0xbd2cb586,
0xbd32cad4,0xbb99e839,0x3d21c22a,0xbe696f1b,0xbc65c975,0xbb7fcffd,0x3c92300d,0x3d57859b,0x3b65bea8,0xbe7bc37d,
0xbd24a5b6,0x3d32579b,0x3d3d6917,0x3e0181c0,0xbd095eff,0x3dc9db6c,0xbd00f21d,0x3c125b0e,0x3e10ce29,0xbba3ce40,
0x3ee9e18a,0xbe349498,0x3d2bbc4f,0x3d231521,0xbe3f593d,0xbc836496,0xbd8d07be,0xbde2a087,0xbd41f804,0xbd25fb61,
0xbc615f77,0xbd22b22d,0xbd04a15f,0x3df2d16d,0x3d0d5fee,0x3d7a80e7,0x3e9e5765,0x3db8e1e9,0x3ca73004,0xbc007a15,
0xbc9ebab3,0x3d8bd29f,0xbd216389,0xbc5ed2f5,0x3d255cda,0x3e21a348,0xbd01cb5a,0xbdab94f0,0xbd190d12,0x3e1c66b5,
0x3d477473,0xbdedb239,0xbca881a3,0x3bbcac3f,0xbd0a2cb7,0x3e225ef6,0xbd9d32b8,0x3e3beb38,0x3d3f9a38,0x3de4a9f6,
0x3d2f8127,0xbd4c45a2,0x3d462bef,0xbd8505f6,0xbc288cac,0x3d641438,0x3d06bf6a,0x3bac8200,0x3d32e4f9,0xbdd7ef40,
0x3cf54a2f,0x3deaa05f,0xbc61afcc,0x3d9333fd,0x3d53b750,0xbd5332fc,0x3c42639b,0x3df9c542,0x3e242182,0x3e1bc7de,
0xbd98147b,0x3c8c9c58,0x3d9b1b0d,0x3ecf1fdb,0x3d32630d,0x3c51052d,0xbd45ef3f,0x3dda529b,0x3d6a8b90,0x3e12dd49,
0x3ed7f487,0xbca63e32,0xbd51ceaf,0xbcd38ada,0x3d35c844,0xbced0326,0xbd3a8ade,0x3d01f66e,0x3cacbab4,0x3e05a233,
0xbd94e02c,0xbdf607a1,0x3e345410,0x3de1c18d,0xbd46696e,0xbc4c8551,0xbe557d6d,0xbe03af39,0x3e25af9d,0x3dd60157,
0xbe2fe7d9,0x3df31616,0xbd96632c,0xbcde6c1a,0xbd0e54b6,0x3cded023,0xbd578e70,0xbdbda666,0x3de509d6,0xbd0bf883,
0x3afcdfc0,0xbd5051bd,0xbd96b717,0xbd85ba00,0xbdb1f023,0x3cbb6d5e,0x3da9c716,0xbc820131,0x3e069481,0xbd2506d0,
0xbbee21e2,0xbd6150cd,0xbd83f7e4,0xbd22aab9,0x3c9fd2b3,0x3d119a6b,0x3b09a500,0xbcde124c,0x3d017e34,0x3dd59470,
0xbd80eb8d,0xbd8a8273,0xbccef3f0,0x3d8f327a,0xbbc60533,0xbd2602ab,0xbb3404a3,0xbcf7e9b7,0x3d593b32,0xbc27fad6,
0xbada7a95,0x3d6e297d,0x3bf61500,0x3d37b0f5,0xbccfcc0b,0x3d8aeec1,0xbe26e48e,0x3d866212,0x3dfdac0a,0x3af6c037,
0x3d78927f,0x3d61d181,0xbc969dbf,0xbe643385,0x3d36157f,0xbd2d69e0,0x3c995b21,0x3bc04b36,0xbb677391,0x3c197229,
0xbda123b8,0x3d71d6cb,0xbbab47ff,0xbaa8a479,0xbd64977b,0xbbbc5ba2,0x3de477e8,0x3e037cd2,0x3cc76bbe,0xbd428332,
0x3b78e06e,0xbbcdf464,0xbd6bce7f,0xbe6692c2,0xbdf2b55c,0xbd0be5c3,0xbda20c06,0xbda7e2cc,0x3d00a9c9,0xbe263a2c,
0x3d9fe140,0x3d86d307,0xbdcc4385,0x3c0a78e6,0x3bcfdc76,0xbdded271,0x3e2875e1,0xbd84b668,0x3d6f7505,0xbd30bc7a,
0x3de5f857,0x3d551daa,0x3c5615f6,0x3e5a33dd,0x3d2ea0b4,0x3d2dfd25,0x3d96c1b1,0x3d3eb102,0x3c7ad7d9,0x3d7938c8,
0xbcbaa3a5,0x3ced5977,0x3d028c13,0x3bc1331f,0x3dbd0dd7,0x3cd0f546,0xbcd0ae3a,0x3c355299,0x3c61be48,0xbdabca4c,
0xbc67bd03,0xbc2d076f,0xbd52bcf3,0xbcc5408c,0xbd2f77ea,0x3c1b24b7,0x3d074a54,0xbdfa490b,0xbd3a3110,0x3d86fdbd,
0x3cb678c8,0xbd39ba37,0x3c9a5a85,0xbd023f2d,0xbc82a771,0xbde5ef6b,0x3d04de6a,0xbd2420e7,0x3d5f8b0b,0xbd24d535,
0x3d2f87f5,0x3c1ceab6,0xbd1157c4,0x3d6b7e23,0xbd1ba7f8,0xbc864bcc,0x3d5d00f2,0x3d04effb,0x3dbd0866,0x3d554d83,
0x3d23ea7f,0x3bab931c,0xbd932b32,0x3b80f0aa,0x3c889428,0xbcdae9af,0xbd19bb54,0x3d5144a7,0xbc1975b3,0xbbd8c91b,
0x3c666ae3,0xbca8a7da,0xbaf4323c,0x3cec37a2,0xbda36590,0xbc37a742,0xbca53be6,0xbd1a12fb,0xbcdb42dd,0x3d6aa850,
0x3d49bfd8,0x3c24c2d8,0x3d0a3660,0x3d1516c8,0x3c8378cb,0xbc9a227a,0xbda9e175,0xbdaf54c9,0xbd0d5d6c,0xbc95849f,
0x3cb54406,0xbd84feac,0xbd345f24,0xbe0370c9,0xbd2e040c,0xbcc96d27,0xbd6457e2,0x3a919bdd,0x3c8e88c5,0xbcc3b61d,
0x3d099c3f,0xbe135aa8,0xbd796bbe,0xbd37f4d9,0xbcf6937d,0x3d429680,0x3bdf0f51,0x3d3766c9,0xbd733593,0xbd830eec,
0xbda1686c,0xbc101baf,0x3d9d74cf,0x3d0e4977,0x3d12b958,0xbc965f43,0x3ca73256,0x3c39f64e,0xbd31f4ee,0xbbf10b6e,
0x3d03da9a,0xbc9b11c2,0x3d1111f7,0x3d5d943d,0xbd5c83a3,0xbcbbc3e8,0xbc9eccd1,0x3d0bcdf5,0x3cd68539,0x3d835cbc,
0x3b9c727b,0x3d1dd270,0x3d55fd20,0xbd54afe2,0x3d969548,0x3d100ef8,0xbdc48b49,0x3b9ffb76,0xbd4ad454,0xbd647935,
0xbcf3ec23,0xbd2e5929,0xbd003c40,0xbd825bce,0x3d95cbe8,0xbd7bac00,0xbdcffa34,0xbd8e871d,0x3d906ef9,0xbdb3bc57,
0xbcdd7ca9,0x3a6e7119,0x3c9e1a58,0xba92f61f,0xbc98895e,0x3da5c6e0,0x3d3762a9,0xbcab5323,0xbd795977,0xbcd44c4c,
0x3c9f4e1e,0x3caf754c,0xbdaab8ab,0x3bbaef6c,0x3b9a289a,0x3c808bbe,0x3e3e6c1b,0x3e288869,0x3d7c5c72,0x3da827d8,
0xbbc926db,0x3d8f092a,0xbd10bd4a,0x3d1164e1,0xbc9124c5,0x3cbe10a6,0xbac2ad9d,0x3d86f85a,0x3d334de9,0xbc5aed7e,
0x3cb9b380,0xbb97f837,0x3c427e5a,0x3d0c29e3,0x3d4813e6,0xbd638950,0xba5c2441,0x3ca281ac,0xbc7f13ff,0x3c9c77dc,
0xbd055f92,0x3c0dd447,0xbcabd6a7,0x3e0fb41b,0x3cc4a046,0xbd990eee,0x3bb6f274,0xb90bc396,0xbc996a88,0xbd38f36f,
0xbd2b2956,0xbd8757e8,0x3db60669,0x3e27e0be,0xbd07df2a,0xbccc362e,0x3c41849c,0xbe02316c,0x3cf8691b,0xbd757f62,
0x3dcfb28e,0x3d787a06,0x3d9323f9,0xbd27f56b,0x3db8000b,0x3dc0bfd8,0xbe1b76bf,0xbcf9c03d,0xbcf71a6c,0xbc4a1321,
0xbd3fd5d0,0xbd997ab2,0x3bd78a49,0x3d9e47cd,0x3d05a33d,0xbe4bb3ea,0x3d607fce,0x3deb9e71,0x3d04a68b,0x3e0d5d98,
0x3d03b2fb,0x3dc75fed,0x3df2508a,0x3bb9a311,0xbd55d93d,0xbe49c9d3,0x3d471f43,0x3d5d4f62,0xbcf701cf,0xbda7d1e7,
0x3e14d54f,0xbd901aab,0xbe36b8e8,0x3d878648,0x3d294209,0x3cdaf5e7,0x3d5240fd,0xbdd16afa,0xbebe1d53,0xbd9a2cf9,
0x3cd1886b,0x3da3abfd,0x3d9f1fe3,0xbd20f6bb,0xbd69f02b,0x3d69b4e4,0x3cd66065,0x3dbc9d23,0x3de962e4,0x3dc3fd35,
0x3e66607c,0x3e15c9f7,0x3db9db67,0xbd97eee6,0xbd397863,0x3e20c290,0xbbcd79b5,0x3c6fac7a,0xbe022009,0x3d8a49ce,
0x3d450ea6,0x3dd8eb35,0xbd588725,0xbd0aa7bd,0xbdd6bbe4,0xbe7ebdf2,0x3dd67fc4,0x3dcb435b,0x3c791a5d,0x3e01b747,
0x3ddb6a7b,0xbde97a38,0xbd9e26cb,0xbd7ec7c7,0x3e146620,0xbcb7b09d,0xbe1446ca,0xbcedd9cc,0x3da9ed47,0x3def93c1,
0xbbaa293b,0x3cddd65a,0xbd4ec047,0xbcafcb2f,0x3e78c22b,0x3dc9e436,0x3dfb3ca3,0xbc27f40a,0xbca0c673,0xbda3bfbb,
0xbd8207af,0xbd5c9fdc,0x3d44dfb3,0x3c4b0eb4,0xbe714859,0x3d5529ae,0xbd8248c7,0x3de5739a,0x3e33a006,0x3bdb3679,
0x3e464256,0xbe327ddf,0xbd00260a,0x3d282659,0x3d044bb4,0xbd9018db,0x3da2c4b9,0xbce48313,0x3ce6ed04,0xbd99eff9,
0x3b213fd2,0xbe1437e3,0xbcefd8bc,0xbdf6a619,0xbdce5a38,0xbd5f0cef,0x3c6253f6,0xbc71a509,0xbbb21951,0xbd0cc245,
0x3db9ff68,0x3dba26c2,0x3d9d633d,0x3dd82933,0xbdd38659,0xbc52fa72,0x3d1e9509,0xbba31707,0xbce35650,0xbdaaf107,
0x3d555738,0xbda2afc2,0xbd1ec36f,0xbd315ac7,0xbcfaf7ab,0x3e40646b,0x3dd242d3,0x3c91aa34,0x3cf30687,0x3d62d0ff,
0x3d2579d4,0xbcb1f206,0x3d82cb11,0x3d549e2b,0x3c8b8472,0xbdf2f84d,0x3d8ff306,0xbde8c512,0x3b61bf5d,0xbc4020b0,
0x3d86931e,0x3dca4dba,0x3b79a054,0x3e05865e,0xbdc0d030,0xbcc0a920,0x3aecdeb5,0xbcc06a08,0x3e43eadd,0xbdc6895c,
0x3e0a7959,0x3dde3f3b,0x3da617c4,0x3df6941e,0x3de9617e,0x3dcb7232,0x3da9944f,0xbc1f8a9f,0xbd78e5b4,0x3adfdea8,
