const static size_t backbone1_11_1_weight_size = 23040;
static unsigned backbone1_11_1_weight[]={
0xbe919684,0x3df91ff6,0xbc9a2ab6,0xbbdcd511,0x3d4c2c71,0xbe1c6145,0xbe27591f,0x3dc5be3f,0xbe071986,0xbe0c0ff8,
0x3e59e77b,0x3ce160ce,0xbe59960c,0xbde023db,0xbdfec122,0x3db885c6,0xbc415011,0x3d9c14f2,0xbd264266,0x3e349334,
0xbd644141,0xbe804f9f,0xbdad2dd8,0xbd1952e8,0xbdce8e14,0xbcd5abc9,0xbe08fbdb,0x3e35d5eb,0x3cfaa267,0x3ca75129,
0x3d9970bc,0x3c199147,0xbe1e68d5,0xbe8da754,0x3c88ee50,0x3e1245ad,0xbd821d6e,0x3df540a6,0xbd16b6ca,0xbd96cd6f,
0xbae57068,0x3de419e4,0xbe10c2e7,0xbd45ac01,0x3da08833,0xbe90b602,0x3e0d00fd,0x3e53fae3,0x3d13cf9b,0xbce1858d,
0xbdc85c85,0x3e48726a,0xbdc4325b,0xbcee078c,0x3e603681,0x3d10d2de,0xbe1f1d80,0x3ea4233c,0x3d32ea34,0x3de2ee63,
0xbd4ee149,0x3e6744f6,0x3e0632d7,0xbcd99fed,0xbc943a6a,0xbe3d062e,0xbd97f681,0x3e0532f7,0xbc31b571,0xbda8480c,
0xbdf1836a,0xbddd59c0,0xbd202213,0xbe9bae7b,0x3cc0a648,0x3b38e708,0x3bd16cd7,0xbdae3015,0xbdb7cc5b,0x3e0d949a,
0x3dce078e,0xbdf17414,0x3c473ecc,0x3c3534ea,0x3e8c1c3f,0xbe1b5011,0x3e056489,0xbdaf576d,0x3d679816,0xbdca7254,
0x3c8d2d28,0xbc9eda78,0xbd10e237,0xbdcca731,0x3cc17c26,0xbd523fd6,0xbbd5c710,0xbd88ba18,0xbec11755,0xbe8c8730,
0xbdd3fad0,0x3cb82c37,0x3e8d836d,0xbde578fa,0xbebb34fa,0x3e8b09d7,0x3e2f122b,0x3d19ffb6,0xbe2b40f9,0xbec01171,
0xbe245dcc,0x3c892420,0x3d88958b,0x3e4fd0b4,0x3e939abc,0x3e4f9c15,0xbddfcf3c,0x3da90985,0xbe88c449,0x3e76a672,
0xbd8705d4,0x3e0181e9,0x3e15de66,0x3cd0c078,0x3cd53957,0xbe9195fd,0xbda63d18,0x3e130803,0xbe47b7e6,0x3cc65105,
0xbd8afc31,0x3ce6b2f7,0x3e2f53ad,0xbcfe9eb3,0xbd85de28,0x3e0ed0a2,0xbd8fa5c6,0x3eab37a6,0x3dfcddb9,0x3d0dc997,
0x3e3ac65b,0x3e6414ec,0x3e308395,0xbd18b60f,0x3e837f44,0xbdcfbf92,0x3e743e88,0xbe81a9fd,0x3e24a04a,0x3d1cc72e,
0xbd6b49ca,0x3d2abd71,0xbdb79567,0xbd4e72e4,0x3e17210d,0x3d8859d8,0x3e10be84,0x3ddd2794,0xbcdefe3d,0x3d188fe9,
0x3de09034,0xbddc0c8d,0xbdf037fc,0xb9cdd348,0x3e541b35,0x3c8c2bf9,0xbe1f4052,0xbe63bcc0,0xbc92f9f4,0xbd537325,
0x3e71dfee,0x3ab1d568,0xbe02d411,0xbc0d7a69,0xbe71c979,0xbc44241d,0x3e0ad149,0xbdf6434c,0xbda7ddda,0xbd954526,
0xbd1b0f1c,0xbe8870ac,0x3db3b4ec,0x3aa4a76e,0x3cd1a3c9,0x3ea9e69c,0xbe27b750,0xbe06f0a4,0xbe576184,0x3d0a18c7,
0xbd969d24,0xbc8ba893,0xbe677cec,0x3cea4167,0x3e1b2598,0x3eaca6bf,0xbd56b080,0x3c239b69,0x3e6dfb9e,0xbd9a77c8,
0x3d80b485,0x3cb0b644,0xbd1ad74c,0x3e0146b0,0x3d98d87c,0xbde75fa2,0x3e8697b1,0x3c6d5ed2,0x3e092d49,0x3e255898,
0x3e98bb34,0x3e32daf4,0xbd274da1,0xbe386554,0xbe96c2db,0xbcac42ac,0xbd858ba8,0x3e05e1fc,0xbccfa42e,0xbce50b6d,
0x3bf9069d,0x3d8feab6,0x3e99b359,0x3d0e85e2,0xbd571fe1,0xbe096d3b,0x3eed8575,0x3e5734c9,0xbc06b6c9,0x3e94e2ef,
0xbdbd53b7,0xbc350f1a,0xbc929591,0xbe31af50,0xbd3dd3ee,0x3da876f8,0xbe977302,0x3d2c2ede,0xbea4c960,0x3e6b26b4,
0xbec515c7,0xbc793b5f,0xbb6dbc16,0xbe3ac3b7,0xbea0c702,0x3d38a3c7,0xbe360559,0xbe74a3b5,0xbdbd3bc3,0xbe444502,
0xbe30e0d4,0x3e788e2d,0xb9d0df62,0x3e8f764e,0xbda7081a,0x3e0e96c3,0xbdebbf0b,0x3b99341b,0xbc2ca788,0x3ce12357,
0x3e3241bb,0x3dac6861,0xbe6e2c81,0x3e399b48,0x3d608c14,0xbdd0b11d,0x3d882534,0xbd8e73a4,0x3e6aaab8,0xbe5ad6d5,
0xbec04350,0xbe2565e1,0x3cf78a64,0x3f087b58,0x3e5d542c,0xbdebd371,0xbe2ee9b7,0xbcf7a49c,0x3dbdcb6c,0xbe160d33,
0xbdf0e4e0,0x3e146b97,0xbacb532e,0x3f015f0d,0x3d20445f,0xbca5bd26,0x3e4cd5e8,0xbe233bfb,0x3cab0999,0xbe0f5244,
0xbde8c72a,0xbe5f0efc,0xbe60d174,0xbce9f9b9,0x3ea4e388,0xbc65192b,0x3ea5b757,0xbdbb32e7,0x3e97280b,0xbcabf9f6,
0xbe7068b9,0x3e2597f6,0xbe20c426,0x3d8c6f61,0x3ab599fc,0x3b25031f,0x3ca6dd7d,0xbd6cbae3,0xbe8af6d8,0xbe6df707,
0xbe7af56b,0x3a89e255,0x3e4d3c68,0xbe054c04,0xbe2c5b41,0xbec9310d,0x3d22eb5a,0xbdda5537,0x3e3cc027,0xbdf38da0,
0xbd3fc2d2,0x3edf3ded,0xbd83673c,0x3d9349a6,0xbe82218b,0x3e02ed5b,0xbe36054d,0xbe80b93a,0xbcca3be3,0x3e455cba,
0xbe34290e,0x3e7b127a,0x3df6865f,0x3d95352e,0xbd97481c,0xbc4d650c,0xbd95c8c8,0x3d8f72ed,0x3ea5ff01,0x3d56dc3c,
0x3c9b1f4c,0xbe01ec22,0xbe853a5d,0xbe3055e1,0x3a148335,0x3de17db8,0xbc831046,0xbda0ff3f,0xbcf27d6e,0xbd827272,
0xbe60c0be,0xbdb6f083,0x3c8235db,0xbd45a20a,0xbd33027f,0x3e9b406d,0xbe301309,0xbf048dc0,0x3dd4b813,0x3df7f938,
0xbd72c3e5,0xbda43f90,0x3e20e138,0xbcc2df59,0x3e061c2c,0xbb48ffe5,0xbaece4d8,0xbe31b578,0x3bfd839f,0x3e1e5471,
0x3d04bace,0x3c575d1c,0xbe290e51,0x3dcb5c8e,0xbe575293,0x3db04a2b,0x3e330809,0x3dba816f,0xbca93619,0x3d7709df,
0x3dda858e,0xb9526255,0x3d08044a,0xbd80f078,0xbd1cf302,0x3c5af321,0xbcac344c,0xbe322d55,0x3d88c427,0x3ddd49df,
0xbc4d834d,0x3d88bf4e,0x3d800f0b,0xbe1be1a7,0x3d4c50d4,0x3cfb3d77,0xbce6e7e0,0xbeb3a803,0x3dede95c,0xbd1b5b68,
0x3cd65ddc,0xbc82b85d,0xbdbf80c0,0xbd184582,0x3e8f4e84,0x3d31df8b,0xbce35c5f,0xbdc0e0e4,0xbe401263,0xbd691c50,
0x3e81054f,0xbd771caa,0x3e085e32,0xbdd4745e,0x3c2275df,0xbdd51e38,0xbe43bc96,0x3e612045,0xbd4188e5,0xbd23bd01,
0x3e2c874d,0x3db24a22,0x3e1d1d77,0x3d74ce8c,0x3e08fbdc,0xbe10797a,0x3e39afa5,0x3da8450a,0x3d307fea,0x3d6caaf3,
0xbe1c732f,0xbe3543c7,0x3de80ac3,0x3e39c273,0xbdbb868a,0xbd9ad66e,0x3e67b38c,0xbd73bee5,0xbc5825fa,0xbcee1d5f,
0xbd37614b,0xbc82726d,0x3dbedbf1,0xbd3a5be4,0xbdab6b25,0xbc9b3444,0xbd90f910,0x3da41345,0xbdbf0779,0xbdc640ec,
0x3acacd84,0xbd9c80e9,0xbdc376ab,0xbe6cb69c,0xbc41b722,0x3d6b577e,0x3e59532a,0x3e116337,0x3cf1a753,0x3dfea7a5,
0x3d0e062c,0xbd5919e9,0x3caa907b,0x3cc52ee8,0xbeb651c5,0xbc916d15,0xbcf38f49,0x3c625d12,0xb773bc1b,0xbd58fe70,
0x3beff96e,0x3cf58402,0xbba1a5b8,0x3c8e892a,0xbd7adacf,0xbd847930,0xbdfa7359,0xbd2b86a5,0xbd890eb0,0xbdb4b330,
0x3c05430e,0xbf09e095,0x3ca8f6c7,0x3d6b9279,0x3e9465cf,0x3dd92372,0xbce3a2a3,0xbe1fc64e,0x3d831f01,0x3cad0279,
0x3d6cd572,0xbd9ba2a0,0xbe9689d6,0xbe2250e8,0x3e8c38bd,0x3d920ab4,0x3e092ce2,0xbdcadceb,0x3ded10b7,0xbe6c4aca,
0xbdd5f96f,0x3e248c6d,0x3ce0c7ec,0xbdb3ca3e,0xbdec2ade,0xbe1c48ce,0xbed9f299,0xbd8d9ad2,0xbd3b905a,0x3d13826b,
0xbdde93e9,0x3a9a2ba1,0xbd3f4ae6,0xbd7fdc35,0xbc86f48a,0x3d5b81a5,0x3cdafe35,0x3c9c6735,0xbe4b17b3,0x3d156367,
0xbdb5d880,0xbe9362a7,0x3e1bb70c,0x3d8f1270,0x3deed45b,0x3cb3a41c,0xbdc3a14e,0x3e01a53f,0x3d721e27,0xbd6e60e0,
0x3e415909,0x3ede4f5b,0x3e8f7c72,0x3db8129f,0xbe1e81f0,0x3d3a2ae6,0x3d90c6fc,0xbd2037b1,0xbe81e06b,0xb9fcbd12,
0x3ec81765,0x3c00257e,0xbe2776e1,0xbe39a067,0xbe19b52e,0x3e991ccf,0x3c48f448,0xbe2b7ca5,0xbeeb6ad3,0xbe81af7a,
0x3e908809,0x3db75d41,0x3e584cf8,0x3e926e7e,0x3ead3dd7,0x3f0fc6a6,0xbe98fe74,0x3d951136,0xbe594377,0x3ea596bd,
0xbe156e56,0x3ec0e653,0x3e3f5c3c,0x3eb55d55,0x3e244200,0xbd5609ce,0xbe56de86,0x3c9d5689,0xbdac287e,0x3ea0348e,
0xbd73a9e2,0xbde8b2ab,0x3e5f3716,0xbe8fd0d4,0x3c36d6dd,0x3d9af1fd,0xbde4350e,0xbe36de65,0xbe8f2c14,0xbdb90612,
0xbdaf2083,0xbb0edf68,0x3d646011,0xbd17c21d,0xbe59d2d2,0x3d872c79,0x3e0151b4,0xbe958624,0x3bbd8dd2,0x3da8162a,
0xbd5fec51,0xba898849,0x3d942a26,0x3df987f9,0xbc313e5a,0x3da1ff9a,0xbda0d446,0x3cce777c,0x3c55a8a8,0x3b123d42,
0x3d9fd11a,0xbd288edf,0xbdbd22ff,0xbe46ec99,0xbe2405e1,0xbdb842d1,0x3e70d179,0xbd51151d,0x3e173fbd,0xbd834852,
0x3d4be504,0x3e327bb5,0x3df67b6b,0xbe777278,0xbd90a55c,0xbdd09019,0xbdfa8cf3,0x3e2b898b,0x3e92527c,0x3d9a1051,
0xbda9aad0,0xbd28c0da,0x3dc883c2,0x3ddfdfa9,0xbdf59c78,0xbe04ad7c,0xbdd62261,0xbe384638,0xbde05269,0xbd838519,
0x3df9c391,0xbdaeba23,0x3c8f44c6,0x3e7b7dc3,0xbd73083c,0x3e1ba76f,0xbd4be28a,0xbda55d8d,0xbe80d6cb,0xbbfb981e,
0x3ec92bd9,0x3e36321e,0xbe048b7b,0x3d05bf40,0x3d829edb,0xbc3313e3,0x3db2ecd2,0xbebaf010,0x3cc277d2,0x3db9d98f,
0xbdfcf1df,0xbc5afc6c,0x3d45930f,0x3e5f04bf,0x3bd15235,0xbe8f2f87,0x3e98dabd,0xbe358d00,0x3ee4121e,0xbd88ae3b,
0x3dd2f53e,0x3dec9419,0xbc544bf4,0x3d53264f,0x3ce6f569,0x3e070a95,0xbea4a541,0xbe3f1423,0xbb4e3481,0xbdaac574,
0x3d48a1b2,0x3e994dc5,0x3dbaeda9,0x3c92ab09,0x3dbf0fa2,0xbe1f5890,0x3e21ee78,0xbd9acb18,0x3df6c1e0,0xbd53e980,
0xbdffe0c2,0xbc5fcb50,0x3b15e2de,0x3e4ee263,0xbb6674fb,0x3d57aac9,0xbd80436e,0x3c53813f,0xbebcce5e,0xbd482ddf,
0x3e442d83,0x3d0a7e5c,0xbea725c7,0xbe8aa1e2,0x3ea3045f,0x3d737f45,0xbd83f75f,0xbd0f7205,0x3ef6e083,0x3dde6d4d,
0x3d7e69ea,0xbd73f1d7,0xbc513fc5,0x3e953464,0x3d27b2f1,0x3e68bfb8,0x3ea8f205,0x3d9e93f1,0xbe030f6b,0xbd2f4a48,
0xbe09cb96,0xbe07d128,0x3e67142a,0xbe0767d2,0xbe611858,0xbd9734a2,0x3d8b1d78,0x3d8221d2,0xbdbce683,0x3e35e957,
0xbdadaee1,0x3df77e05,0x3df9e8fe,0xbdb00882,0x3d60adaf,0xbd8b6b08,0x3c0d53b2,0x3d9b8a03,0xbce2fa5f,0x3e40b69e,
0xbd8aa0d1,0xbdb19806,0x3de4dcd0,0xbe5b2b2b,0xbd9b357c,0x3d5aabef,0x3d05fd09,0x3e03f6e1,0x3dbdebbf,0xbe211d93,
0xbcadb72a,0xbdc8b595,0xbdde77dd,0xbcfa3c97,0xbd3f9628,0xbe6bf282,0xbd94db53,0xbd920724,0x3e570ea5,0x3b36fc92,
0x3d6eeb4b,0xbcc83679,0x3d7e0e80,0x3d602772,0x3c037235,0x3b59f31c,0x3d4f818d,0xbdb91902,0x3db5670f,0xbd114e97,
0x3da95ff1,0x3e8e3bb2,0x3dd2a8f5,0xbd84167d,0xbc9bddfe,0xbde259d9,0xbda7f2ca,0xbd06e29c,0xbb0230d3,0x3da230fc,
0xbe0d4634,0xbda64c59,0xbc0fb468,0x3d13dde3,0xbdae1dff,0x3df097ee,0xbc916404,0x3e31a051,0xbdf5d7e0,0x3deff245,
0x3db2ef71,0xbd68469a,0x3d11f0c0,0x3e001fa5,0x3c2e44ad,0x3e1358aa,0x3e3cda76,0xbd869de9,0x3d7719b7,0xbcc597d9,
0x3e034669,0x3e374a1b,0x3e3fc0cd,0x3dea6a81,0x3df4fa77,0x3d8607f3,0x3bdf99f4,0xbd5311bd,0x3e6e6346,0xbe7bfbb3,
0xbd682bfd,0x3da606fc,0x3dc32cf9,0xbee7d965,0x3d0214b6,0xbd3f1dd0,0x3e0f959d,0x3d14738d,0x3d87d8f4,0xbd116cee,
0xbe2c1fa4,0xbd0cfe99,0x3da5183e,0xbd170651,0xbb2fca3e,0x3e1a87ab,0xbdd0fb70,0xbd0913c1,0x3e1603c3,0x3e4234f9,
0xbce17a65,0x3f018317,0x3cf51fbb,0xbcdfe66b,0x3d1b83e2,0xbda0f53a,0xbdbe7fa2,0xbdc56832,0xbd83afdf,0x3e4b98e3,
0x3d329490,0xbdafc46f,0x3d5250f9,0x3d71c37a,0x3dd80dfd,0xbd5da3e0,0x3c448b47,0x3e87397e,0xbb9d4ada,0xbb846f83,
0xbd14abcb,0xbd3f2dd4,0xbecf40c4,0x3d01ab90,0x3d3c48bb,0x3bd9d853,0x3e9d4987,0x3daae9ca,0x3da6d5d9,0x3e5c65e0,
0x3e4b3409,0x3dc7725a,0x3da1f507,0xbe558c29,0x3d38892b,0x3cc7df05,0xbdd6b70f,0xbe8ce2da,0xbe234fb7,0xbdfb1610,
0x3e34603c,0x3dba0d7d,0xbc866a71,0x3d670fae,0xbdcf3c19,0xbd1acc9f,0xbd234401,0xbe16e2b4,0x3dca24c4,0xbd983d25,
0x3c618d31,0x3de1552b,0xbddef077,0xbdeea7c6,0xbdbd889a,0x3c94aa85,0x3ea98ece,0xbd08bdee,0x3cfeb43e,0xbd2d4c1a,
0x3d5d2c5f,0x3d0cef83,0x3d42230d,0xbd2597a3,0xbcdcd71c,0xbd5cca37,0xbc6fd884,0xbb194a5f,0xbd9e7c21,0xbdfeb787,
0x3e79529c,0x3e8a4a3e,0x3d6cb2ac,0x3cb27e6b,0xbe16a438,0x3d55a22e,0x3dc85113,0x3d10e078,0x3d3cf8ff,0x3dcfe0c8,
0xbd34c571,0xbd9a34c0,0x3c57486a,0xbdf735f6,0xbe061928,0x3aa8aba5,0x3e24add9,0xbc871b3d,0xbd8df70b,0x3d74c313,
0x3e4b1124,0x3dcf5758,0xbdbacd14,0x3cde3e44,0xbdb3187c,0x3d8ff78f,0x3e101dcf,0x3d858871,0x3d3cad4b,0xbd038eb7,
0x3d1d0cb0,0xbdf8c38b,0x3e2433a9,0x3cd3b4c1,0x3dde5129,0xbb3a8990,0xbd802b26,0x3dc8b366,0x3d125a1a,0x3dcc5306,
0x3dc5e796,0x3e06ad84,0x3d339413,0xbd713d18,0xbea6e905,0x3d9150b1,0x3d6c550e,0xbce4aee8,0xbd752273,0xbe339e58,
0x3de78eac,0x3e8a46e5,0xbd17fffa,0x3d5f3e91,0xbd5bd4d9,0xbd8577e1,0x3dce3660,0xbdbf3ae5,0xbd43a719,0xbe2fa03a,
0x3de86a9e,0xbda3384c,0xbd86b2cc,0x3de581bb,0x3d55fd2f,0xbcb9d269,0x3d08b1db,0xbf044701,0x3dc12a78,0x3da12383,
0x3da45252,0x3da788f9,0x3df47ca8,0x3e8e3926,0x3cd4d529,0x3df978fa,0xbc3ddb5c,0x3e4f979b,0xbda15a32,0x3e35e6f6,
0xbe30ff58,0x3e3b7251,0x3d9c8f24,0x3d2cdd98,0xbdbc8de4,0xbe4f55ae,0xbd651e54,0x3ea1ccbe,0xbe338b8f,0xbdada43d,
0x3e3508e9,0x3cde4d78,0x3e88b6c2,0x3c64f886,0xbe46e1b4,0x3d8b22f9,0x3e92e5dc,0x3e20e93c,0xbde7c7a8,0x3d866169,
0x3ebf7caf,0x3e99e81a,0xbd005e49,0x3e3526cc,0x3e09241f,0xbc37dc29,0x3e1b39d6,0xbe4e5ebe,0x3ba21fa0,0xbd2bf3d4,
0xbe6069d5,0xbd7a44c0,0xbe4cdfcf,0x3e084876,0x3e16ac49,0xbd902344,0xbeb9b7d2,0x3dbf331a,0xbd87a480,0xbd4387d6,
0x3d5e7b15,0x3dbbe16b,0x3d7cb7d5,0xbd48101c,0x3d948d7f,0xbc8619bb,0x3d326a7c,0xbdc57b3e,0xbdc8ecb2,0x3df743c1,
0x3df887e0,0x3dada3df,0xbd75aaad,0x3d160453,0xbd77df5c,0xbd870df1,0x3d2a0738,0xbcd80af9,0xbdce0fc1,0xbca867f1,
0xbd8ae344,0xbd350ad4,0xbcf61f67,0xbde8a4d7,0x3bee3a00,0xbe2aa5dc,0x3df46ea8,0xbcae1a36,0xbde35498,0xbd4d52f6,
0xbdef5bdc,0x3c6872a6,0xbdb98f38,0x3d8b257c,0xbc262c9f,0xbd902632,0x3b69e8b1,0xbcf532a3,0xbd80269a,0x3ca8ee7a,
0x3d165ad2,0x3ce223d2,0xbce0bbfa,0x3d96e644,0xbe35b877,0x3e4c6d4c,0x3e461fb0,0x3d2f6787,0xbca4d213,0x3d088193,
0xbe04717a,0x3c959113,0xbde358de,0xbe17be09,0xbd4c57a2,0x3d005785,0x3dcb849b,0xbd0ceeab,0xbcf1a97f,0x3dc24c42,
0xbe1e8055,0x3d16d413,0x3e3de6e5,0xbd14c564,0xbd2a56bb,0xbe5927cf,0xbd243752,0x3e177aeb,0x3d4311d9,0x3b04f01a,
0xbe5de013,0xbd17e03a,0x3ce75e52,0xbe78ddd4,0xbdb9b072,0xbcfa066d,0x3e05bb5d,0xbe16e18a,0xbce58535,0x3e82fcb0,
0xbda66698,0xbd158b02,0xbe173374,0x3c8e50b6,0x3c669b9d,0x3eed4b04,0xbcf3ca3d,0x3de1d29b,0x3d74391c,0x3e802ad5,
0x3d8a3694,0xbdda42bd,0x3e543706,0xbe84df77,0x3da1851f,0xbd929476,0x3dd1ce4e,0x3e324493,0xbc8d590d,0xbe116c77,
0xbbefb5c6,0x3dc7bfba,0x3e2cb73d,0x3d4a8104,0xbdf9b14b,0xbe07ba0b,0xbe53e223,0x39a0831f,0xbe1c940d,0xbe5bb16f,
0xbecb820a,0xbd793d31,0x3d48fae2,0xbc7553a6,0x3b46ec64,0x3dac8d7d,0xbd5a7531,0x3e7c5775,0x3dbdbaed,0xbd4c5b6e,
0x3e52dcf7,0xbe833b5d,0xbd683efc,0x3e0dae63,0x3da86756,0x3d27febf,0x3e906d0c,0xbd63588a,0x3d1b10ab,0xbdd94e64,
0xbe84d23b,0x3ec49023,0xbe3fb318,0xbdb09eb5,0xbd94c83e,0x3e91f828,0xbd7434e1,0xbeb2ab7a,0x3e3fdbac,0xbd0e02c6,
0xbe20eeb2,0xbe6619a6,0xbdd7bfba,0xbdd5b93a,0x3dbef40d,0xbd430ad2,0xbe47bffa,0x3d289b55,0x3e0a289e,0xbe47625b,
0x3d0d4392,0xbc2c0bd8,0xbdfa5c4f,0xbd86687b,0xbdeefd41,0xbe290544,0x3d1e3289,0x3d9b256f,0xbdb9294a,0x3cb85943,
0xbe1a7221,0x3d74d76d,0xbc3ae908,0xbe36570e,0xbe2b3a4c,0x3dc4b4e4,0x3da1bc59,0xbdfc6a7f,0xbe3021c0,0x3e05fe2d,
0x3d8b4e33,0x3cda69b7,0x3e567979,0xbe30db02,0x3d89f171,0xbcdfcc43,0x3e04b640,0x3e1483d3,0xbcdd1828,0x3e1b7f63,
0xbd20f579,0x3d235ce0,0x3caa99dc,0xbd16164d,0x3c8d3f79,0xbe8bbb5e,0x3dbf0e90,0xbdf74a99,0xbd294da6,0x3e288bad,
0xba9e5e57,0xbcc1e693,0xbd778f54,0x3d596f7c,0xbe057d37,0xbda45077,0x3d994b5c,0x3cb36ca6,0x3e458bc7,0xbbe8be99,
0x3df18d5a,0x3dd9fe01,0xbd2ef7da,0x3e596d74,0xbe029ae7,0xbe52bd7f,0xbd1cc8a0,0xbd67317b,0xbe1146bf,0x3d867596,
0xbdaba284,0xbcb0068c,0x3b536b04,0xbe4f900e,0xbdc2500b,0x3d9e4ff5,0xbd53fe59,0x3d9172eb,0x3ce92b9e,0x3d97090b,
0xbe11315b,0xbcedcdc0,0x3c6da14f,0x3d8d1b57,0xbd93e35b,0x3d85801f,0x3d96402b,0xbe10f429,0x3cc28287,0x3e0666db,
0xbdaabe2e,0xbee7f36f,0xbcab8eae,0x3d3f5813,0x3e623c4e,0x3df3dad0,0xbd496191,0x3d446f47,0xbcee0fcc,0xbd262a87,
0xbe5dbbec,0xbc1d0fbe,0xbcd5edc1,0x3e308817,0x3e0424a9,0x3e150909,0x3db2dceb,0xbcb99bc6,0xbdedca0e,0x3cf8eaae,
0xbde172aa,0x3dde244a,0xbe01c009,0x3d3bee67,0x3da784a8,0xbdf7cfd4,0x3d41297a,0x3df70605,0x3e8b0fa0,0xbe06f7ad,
0x3d342bb2,0x3e1de110,0x3daf21e5,0xbd6ac61b,0xbc0d4ba1,0x3d7ddd4e,0xbd730e11,0xbc8cf72b,0x3e83998f,0x3d031401,
0xbdb778cf,0xbbcfd7f4,0x3db4195a,0x3e6b6668,0xbe0982a6,0xbce2c9d0,0xbde6e8c9,0x3e32ceaf,0x3d811f58,0xbe29fe16,
0xbe1bc2d6,0x3c613696,0x3f01d7da,0x3eba9c44,0xbda89715,0xbe0b56c9,0xbd046c52,0xbd88b8f5,0x3c8aa6f1,0xbd2fd896,
0xbe04ad69,0x3d14daab,0xbe6e6d0d,0x3d892c55,0x3bec3ffe,0x3d8111b9,0x3e83cb54,0xbd75ef6a,0xbe28460f,0x3c815cf6,
0x3b4dbaae,0x3d74cf06,0xbc308605,0x3de3a48e,0xbef60c70,0xbd9e88c7,0x3e5734b9,0x3e33ccbf,0x3ce0d0cc,0x3c19b069,
0xbcb26110,0x3d691d7b,0xbae6ddd9,0x3e15eed0,0x3d6f3355,0xbdbc8b84,0x3e2911bc,0x3d998f07,0xbe28977f,0x3db1f2fc,
0xbe11e80d,0x3d779e74,0x3da1d5e1,0x3cb3fcba,0xbc335602,0xbe70913f,0x3d0c5e39,0x3dd3d97b,0x3db7df6d,0xbd9f5aac,
0x3dbcdee9,0x3d931604,0x3e124f91,0x3b8d9085,0xbd66f059,0xbd828fef,0x3cd5fe72,0x3cce04bb,0x3b8bdac5,0xbe47c865,
0xbd00ccd5,0x3cfb12cd,0x3d8065cd,0x3e846eb5,0xbe6b089c,0x3e0a8d32,0xbd2c3506,0x3e2b3f43,0xbe87d223,0xbe9ed2e2,
0x3c77e584,0x3e04e05a,0x3dc0adbf,0xbd80cb4d,0x3e129b0e,0xbbf233c2,0xbe764d71,0xbe1af6de,0xbd5a049a,0xbd0a51d4,
0xbd8fa0d9,0xbd0122b9,0x3de8caa5,0xbd4e52cf,0x3e5ffdae,0xbc7b326c,0x3e17669a,0xbd5730b3,0xbe28406d,0xbe440d61,
0x3c22ee68,0x3de1d2ba,0xbdcdd97b,0x3e1472bf,0x3cba7532,0xbcadce12,0x3e056312,0x3d18c9b6,0xbe38a010,0xbe39bd0a,
0xbc85e065,0xbdbd042c,0xbd0e4709,0x3dbd34ec,0xbe09d32c,0xbd40af74,0xbd48913c,0x3e862ab2,0xbcbc9a47,0x3e179561,
0x3d47a9e8,0x3e3836c3,0xbe81f2d6,0xbde22b85,0xbd96170e,0xbe8000ff,0xbe25ab7f,0xbdbe9bdb,0xbce982b5,0x3d8a3dec,
0xbe3768c2,0x3d82e5cc,0x3df0bc55,0x3dc23727,0xbe6f52e7,0xbd5b4459,0xbd6d9d0c,0x3e7160f8,0xbdcb3b7b,0x3e228d4a,
0xbbe4756f,0x3dfc15c9,0x3e06547b,0xbde15f77,0xbe00ff62,0x3c7c3936,0x3e16da4f,0x3e46b8e0,0x3e988539,0xbdf628d3,
0x3e849b91,0x3e26cd7f,0xbdd958b1,0x3e503d09,0xbdb82aba,0x3e801b3b,0xbc57942a,0x3bb84075,0xbe4d3fb9,0xbdde96d9,
0x3d77dedb,0x3dbec6a9,0x3d4fbf17,0xbd85f2c3,0xbcee453f,0xbb62ecae,0x3d6201c3,0xbc461be3,0xbbefe0a0,0x3dae10aa,
0xbcd2d8d9,0xbd66a5a2,0xbaca3fee,0x3c856a7c,0x3d812ae7,0xbcd5224b,0x3c35ddee,0x3d148ae9,0x3d1de20c,0xbc814f5e,
0xbee915ce,0x3b3dbaac,0xbcacf5af,0xbd12b86b,0x3c774967,0x3c858677,0x3b112502,0x3bf6d74a,0xba0f3b6e,0x3d2587e3,
0x3da45e76,0x3d58b164,0xb99373d4,0xbb2904e7,0xbdd6f70e,0xbd6e134f,0x3d3273a4,0x3d36e554,0x3d47b6b8,0xbd4fb13a,
0xbd7c2d61,0xbd3c884c,0x3db061bf,0xbc02ee1c,0xbce2909e,0xbdeb412a,0x3d251c4e,0x3db1ed3a,0xbcbd17b2,0x3c8f62b2,
0xbd8dfd6d,0x3d7dc3c4,0xbc3d8d72,0xbd3ee32c,0x3dd7be9e,0x3da8f758,0x3ddc3115,0x3dc3b741,0x3dde02f8,0xbccc9174,
0x3cae41e3,0x3d656e57,0x3e025745,0xbe246bdf,0x3c06d2c5,0xbd4d73bc,0x3c4b65f8,0x3d226ac4,0x3b998e0c,0xbbec7136,
0xbd94fcc0,0x3c654722,0x3d6af896,0x3c685a09,0xbd8dde55,0xbbe4b30b,0xbdb6e957,0xbda19df9,0xbc454be1,0xbd8b87ba,
0x3e385d81,0x3d6b758b,0xbc050868,0xbde6bf43,0xbd1f58aa,0x3c5fc304,0x3c30dc7f,0x3bc2ed16,0x3d9337b3,0xbd3b1f4b,
0xbe445eaa,0xbd9ba802,0xbe5231ad,0xbddb3eff,0xbd8acc64,0xbcbe7ef5,0xbb6dd7d0,0x3dda76ed,0x3e1554f5,0x3de15493,
0xbda49d2c,0x3d3df1bc,0xbc6c7c3f,0x3d42c38a,0xbddf566c,0xbd865313,0x3ceb5864,0xbe3da661,0xbdb96996,0xbe0f1281,
0xbd4fca63,0x3d836f36,0x3d2287ca,0xbd04ca26,0x3d5cfb6f,0x3c1d9b3e,0x3eaf2579,0x3d7fb58f,0x3c55556d,0x3d8ba983,
0x3e05d579,0xbd6803b9,0xbecf43eb,0xbe45f9cd,0x3d8c265e,0x3dc6773e,0x3e8249bf,0xbc24fb50,0x3d60980c,0x3c829739,
0xbd92fe3d,0xbd0f5fae,0x3c1fcc51,0x3dfd5628,0xbb2056d2,0xbd51f2ee,0xbd793f7c,0xbd492447,0xbdad71f8,0xbce49d33,
0x3ec7fdba,0x3e1af59c,0xbcf813e4,0xbebc7065,0xbdae71bf,0x3e2ae358,0x3dcfd596,0xbe860d81,0x3e8f91a5,0xbad52fd6,
0x3df375d5,0x3e97507e,0x3df51f20,0xbd801339,0x3eb416c3,0xbc50a6a5,0xbe3661eb,0x3e5d45d6,0xbe6454ad,0xbe23a7d3,
0x3e1a74ba,0xbdd95963,0xbd757362,0x3e2ddd10,0xbd6f8a62,0x3d0008fb,0x3e3a7b23,0xbe5f4a98,0x3ddde04c,0x3e414ff6,
0xbe3929cb,0xbeb7f179,0x3e936f25,0x3ee58e98,0xbdb1e39b,0x3dd5a413,0xbcdc1864,0xbe12baea,0x3c499018,0xbdf96fb2,
0xbe45b01d,0xbd0f48d4,0xbda4492f,0xbdc5c8c0,0xbe7fb9dc,0xbbfefb6f,0xbdce442d,0xbec7a0c9,0x3d8df513,0xbd839a76,
0x3e977fdc,0x3d1b61bf,0xbd4a8d65,0x3dd1f4af,0xbe91c757,0xbdbd8046,0x3db12216,0x3dadac42,0x3edcf93d,0xbd829e9f,
0x3c82bd4b,0xbd970c3d,0x3d9ea762,0x3c244f3f,0xbe08eebc,0x3cbbb6e7,0xba8ae058,0xbccc319c,0x3ef534d8,0xbe8264fd,
0x3db87445,0xbddfca06,0x3e9306e9,0xbddf5f88,0x3e0f5897,0xbec49c05,0x3d054db9,0x3ceeb3a7,0xbd8377c5,0xbd8c593f,
0x3e052216,0x3dbc7e36,0xbb96ba3b,0x3deb7706,0xba850181,0xbdb851d5,0x3df4cf6b,0xbdafcbd2,0x3d253988,0xbdcc9b2a,
0xbd9cade1,0xbe31f5f6,0xbe12d6b0,0x3c97ac08,0x3d7ad3f2,0x3e125ba9,0x3e695ae0,0xbde4f143,0x3e30ffd2,0xbe966bc6,
0x3de0f4cd,0xbddaea47,0xbeadba0e,0xbe10b2ac,0x3cc1911e,0xbdde97a0,0x3cb5eb78,0x3d0bedf5,0xbdc66a89,0xbd836819,
0xbe35c905,0x3ce26d0b,0x3e433087,0xbd1950cc,0x3cc249b3,0x3c4405da,0xbdddc89e,0xbca293a3,0x3e25c7b6,0xbd69bf4c,
0x3dd88696,0xbde9d87a,0x3e087f45,0x3e2b88d1,0x3d8597d4,0xbc9dbcb4,0xbc534a9b,0xbde56af7,0x3d4d0e13,0xbda07d56,
0x3ea479ed,0x3dad38da,0xbd27407d,0x3dc63791,0xbe0105dd,0xbd48ffa5,0xbdbba487,0x3e678a1d,0xbb84b831,0x3de11789,
0x3f11f2a5,0x3e60b53b,0x3e1e2f23,0xbe0e45f3,0x3dc3c503,0x3e02e786,0xbd9d3350,0xbe1387e3,0xbe3389b0,0xbc9a02cf,
0xbde223c7,0xbf0b39f8,0x3cd8c768,0xbe397caf,0xbdd5ebd5,0x3e2068aa,0xbe76f6c9,0x3dbdcc00,0xbd0c8f1d,0xbe5ada22,
0xbd99a907,0xbe364f6b,0xbe090b0e,0xbd78c014,0xbb514b91,0x3c5d62e4,0x3e7b76c9,0xbea81761,0xbd1c8535,0x3e128c7a,
0xbbd815c7,0xbe2110b7,0x3e4b36cc,0x3da713dc,0xbe6b8108,0x3d16cdaf,0x3ec5a341,0x3dedb0e1,0xbd76175d,0x3e329120,
0xbe33265f,0xbd87896e,0xbe806adb,0xbe7e8e48,0x3c83c851,0x3e977a96,0xbe00aa28,0xbe2e78af,0x3e28eb95,0x3df7629f,
0x3d8dcade,0x3dfcc48d,0x3d5bb013,0xbe1df705,0x3ef2f106,0x3d9127d8,0xbe339feb,0xbe0f3f3e,0xbf1802cf,0xbe017397,
0x3dd840a3,0xbe4fad3d,0x3f3cdaa2,0x3e9bb842,0x3e3c9232,0xbf125fd0,0xbeacaf5b,0x3da4227f,0xbde759d2,0x3c7296ee,
0xbe9d0d32,0x3db6908f,0x3d8bffd1,0x3d3eeb88,0xbeb66313,0xbe8512a4,0x3f4392ee,0xbe1f5422,0x3e5f3ba0,0xbeefc7c0,
0x3e16faf7,0x3cf1f4fb,0x3d92ad8f,0xbd46433c,0x3dd1a9ac,0x3ce7f5c0,0xbdcc4c8c,0xbdcb7d7d,0x3dd1b644,0x3d6aa81a,
0x3db06df9,0x3d83bd0c,0x3da472c1,0x3ca15acc,0x3d86de82,0xbd6fab53,0x3e2e3296,0x3e160012,0xbd43b63d,0xbdcb88c0,
0x3cd833ea,0x3d8301b5,0xbc83eafb,0x3e445de4,0x3c835cee,0xbce079ca,0x3ce99edd,0xbc14ec7d,0x3db63f3c,0xbd010a59,
0x3e7e8d64,0x3c2bf92f,0x3cc93329,0x3e179748,0x3daaffc1,0x3db097fb,0xbd557399,0xbe06980e,0xbc948362,0x3c1a5fec,
0x3d2718e9,0xbded40ef,0x3e43afb6,0xbcf2082e,0xbe07d07a,0x3de4f462,0xbdea9587,0x3dab49e6,0xbd4d9699,0x3e297c4f,
0x3d835db5,0xbc192e01,0x3cedb3eb,0xbd6a61ae,0xbddc565d,0x3d7bc040,0x3df44ea8,0x3cc77c36,0xbd002a26,0x3e1074f0,
0x3d67173c,0x3d88e316,0xbe423dde,0xbe4b9df0,0x3e09e2e5,0x3e2ee456,0xbdf5d57c,0x3bee2c3c,0x3ddd3994,0xbe421b99,
0x3cc2e7eb,0x3c978e7d,0xbdab493a,0x3e3d90e7,0xbc772ce7,0x3d535de5,0xbe0180b1,0x3dd9aeba,0x3d9ef8b3,0xbd9efd1a,
0x3d815b15,0xbd82d531,0xbdc06ad6,0x3dc6e6f5,0xbddb08f8,0xbe021294,0xbe6b3420,0x3e9f08a0,0x3d61b77d,0xbd877d10,
0xbda1939d,0xbc9545a7,0x3d2b749f,0x3cc8e8ee,0xbe2f8063,0x3e14d7db,0x3a840145,0xbdffe611,0x3e92e8fd,0xbe54d3fb,
0xbe1b1329,0xbdeac96d,0x3dd5c55d,0xbe58eb70,0x3dc58ca8,0x3ce13d4a,0xbc04ea43,0xbdb2f737,0xbd5f43d8,0xbd927ffe,
0x3ac59ce3,0x3d0a8743,0x3ddd557f,0x3dbf9cea,0xbe7f904c,0xbd912348,0xbe37bdf5,0xbe442f44,0xbe367d8d,0xbec7fa1b,
0xbdde536b,0xbe4398ae,0x3e85d2d4,0x3ddf4e51,0x3e102f53,0xbe172d99,0xbd8b8217,0xbe9c1a41,0x3d624364,0xbe53f4bf,
0xbdcddabb,0x3df7e15d,0xbe55a2ea,0xbe1ab4f2,0x3bb30243,0xbecb87ad,0x3d992b13,0xbd9349ec,0x3d8f6ca7,0xbd1ecb41,
0xbd780047,0x3e5cf83a,0xbdada346,0xbd2616a6,0x3de915dc,0xbce31758,0x3cebe2c2,0xbd4c4096,0x3e26d347,0xbddb5d57,
0x3d8e0127,0xbb8fcafe,0x3d952034,0x3e3d03ea,0x3e7d9fb4,0xbdb04c52,0xbde2dd5b,0x3db3f02f,0x3d5a72fb,0x3de26aad,
0x3dba5f6d,0xbe7323d4,0xbdffb73e,0x3dc5dbba,0xbe094b04,0xbdd2b649,0xbe855985,0x3dd8fe25,0x3cbf944c,0x3bcec46c,
0xbcd10dba,0x3df1ad7f,0x3da4c201,0x3d9d363a,0xbe8c0c0b,0xbd7d3f19,0x3ddd3fb0,0xbdab481d,0x3d7036b2,0x3e390a11,
0x3d29aa20,0x3da20c45,0xbe287516,0xbdecc45c,0x3dca7931,0x3e0996ff,0xbe040798,0xbcb6db7c,0xbe967d16,0x3deb1b48,
0xbe78c5ad,0x3d9641e7,0x3d784a9d,0xbeeb651a,0xbd6f59d3,0x3e4b2e06,0x3dc0ce38,0xbd8c04df,0x3deb0c06,0x3d63637d,
0xbd1a4f6b,0x3e81602c,0x3c8320cc,0xbc4c5b65,0x3c5af343,0x3d0d89d9,0x3cbb601c,0x3d930a4b,0x3e5cbe5c,0x3e2f7e23,
0xbd948423,0x3da0b4d5,0xbd5bdfdb,0xbd9f8a48,0xbe27029c,0xbe7ef5e8,0x3d9bd8c2,0xbd727595,0x3c32e850,0x3d170cb8,
0x3cbb19da,0xbd1b8928,0x3d7205aa,0x3e397d11,0xbdad5db8,0xbd07e4b3,0xbd86ce19,0x3d5f4ae3,0x3d4b7b45,0x3d3bef37,
0xbdd761d9,0xbd600999,0xbd512f28,0x3c06399d,0x3dba0496,0xbe1328b7,0x3d5d0b8d,0x3dd1b387,0xbded513c,0xbd99c829,
0x3e4ad06f,0x3e018ede,0xbb24a585,0xbd004169,0x3f1ef95a,0xbc0a6cf3,0x3c4c5eba,0xbdd15c9a,0x3dc1f7a8,0xbb286543,
0xbd143c82,0x3e0636e1,0x3ddf0c97,0xbd8efd03,0xbd8986cf,0xbca7a5e5,0xbddccec8,0x3e305ee7,0xbe0447d1,0x3d86c7f4,
0xbe03c4e9,0xba9537d6,0xbd0460b3,0xbd792a67,0xbcffd4c1,0x3de35760,0x3e0ea896,0xbd2f38f7,0x3d744aae,0xbd99593e,
0x3dab5001,0x3e2cee23,0x3d508233,0x3dfaa3e9,0xbe068adf,0x3ca34dc7,0xbd31b54e,0x3e63f271,0x3da404e5,0xbe156b78,
0xbd83fd9f,0x3e62b749,0xbc1efa13,0x3dbee8a8,0x3d1ce2cb,0xbd728f68,0xbe4d8a40,0xbdcf5c47,0x3dbea8c0,0x3d9eba46,
0xbc70d40d,0xbedc47b0,0xbcf0ce39,0xbd892e44,0xbd014d4d,0x3e55096f,0x3e32faa3,0x3e503cf6,0x3e070cfb,0x3bf2f072,
0xbdf49242,0x3e1b98ec,0xbe03341c,0x3c47aa4d,0xbd865b9e,0x3e506b26,0x3deea414,0xbe986094,0xbb8560a1,0x3d56c6c2,
0x3d7d5ae5,0xbe0572bc,0x3dacad5e,0xbce47594,0xbde99960,0x3d3349a4,0x3dcd8692,0x3e8166f4,0x3da38541,0x3b575944,
0x3da71a64,0x3e777f74,0xbdbc12f8,0xbe26056b,0x3bf7eec1,0xbc8ae976,0x3d4b6942,0xbe432ed2,0x3d07e192,0x3e767c8a,
0x3cdd3566,0x3df05b42,0x3ecc6076,0x3e290fd7,0x3e3aee43,0xbdba5913,0x3d1d25f9,0x3dc0fe4a,0x3d0dc72a,0x3b3fe510,
0xbd5b5aa1,0x3d994f07,0xbdce2b40,0x3d99022b,0xbe564788,0xbe753eed,0xbee47b79,0x3e59587d,0xbc515ed5,0x3d14ab97,
0x3e30180d,0xbe5f86e1,0x3e18ace7,0x3ea74114,0x3e4df967,0x3d2b385c,0x3ebcad17,0xbea64d16,0x3de2eea4,0x3e5751df,
0xbdc7bb38,0x3e3adc57,0xbd74b214,0xbdb4ba6f,0x3e8b705c,0x3dcfcce9,0xbd8a08a8,0x3e2ab75e,0x3d9cf1f5,0x3e91e20c,
0xbcc89c26,0xbdc3328e,0x3d2622c9,0xbd6ad0bc,0xbd1a784f,0x3d0f0d4c,0x3e1e8b26,0x3dba2726,0xbd3a5875,0xbd5d377d,
0xbc09fdb2,0xbe1a0626,0x3e04bf3e,0x3e16ec0d,0x3e10172e,0xbe4d8126,0x3db29e8d,0x3da518e3,0xbce4eec2,0x3e6dc4f1,
0xbe17ce05,0x3d83194d,0xbdb47289,0x3d7329f0,0x3d566f7f,0xbd19fdf9,0xbd617b1c,0xbcdd8ad8,0x3dc87b72,0xbe19ee22,
0xbd90c2c8,0xbd851f2c,0xbc634612,0xbdb76155,0x3d97a5fb,0xbe961961,0x3e32e9a6,0x3c5010fe,0xbd99ab5c,0x3d4a59b2,
0xbde67d3b,0x3db8af29,0xbd06468b,0xbc80aa3a,0xbe1c35c4,0x3dfa5aea,0xbe668c18,0xbe009ceb,0x3dd76bc1,0x3c5ed23f,
0x3d51e4ec,0xbd63eabc,0x3e6b805e,0x3e98ceda,0x3e360b47,0xbdf8153f,0xbe211f35,0x3e2c7530,0x3e50b0c0,0xbd68af96,
0x3d9f9ca4,0xbdd939ba,0xbda4815a,0x3df9f281,0x3e5b4c21,0x3d30cd4e,0xbd39d296,0xbd14b91a,0x3dcbae38,0x3d59ca03,
0x3dd453fa,0xb9d6cf7b,0x3c74a1dd,0xbcb9d50d,0xbc2930f7,0x3be32ef0,0xbcfda315,0x3dba3c3f,0xbbd987bb,0xbd9f68d9,
0xbdd94d90,0x3bbeb29c,0xbd160822,0xbdd94ddc,0x3cffcfa9,0xbdbaf557,0xbb8db47d,0x3e479323,0xbd7cf526,0xbd46d2ca,
0x3d985271,0x3dba3737,0x3d66dbd8,0x3ef9ef0b,0x3c53b692,0x3cf8fea3,0xbcac8e37,0x3e713885,0x3daab4e9,0x3c873931,
0xba1e460f,0xbbb1935a,0xbda8c526,0xbce61b05,0xbcf2234a,0xbd9575d8,0x3dd82099,0xbde675e6,0x3c294316,0x3d40bfe3,
0xbd2541ec,0x3d978369,0xbdefc6fe,0xbd0ce79d,0xbd331e9b,0x3ca42f64,0x3d0f4488,0xbdcde9ae,0x3d98f108,0x3b6c95ce,
0xbd85eb34,0x3dd40394,0xbdafef54,0xbce37ad8,0x3e049c83,0xbdb4f94b,0xbdda5dac,0xbd1ea6be,0xbe8cf17c,0x3e548ce7,
0xbce48984,0xbddc5f1c,0x3d53b319,0xbdbe579e,0x3dde952a,0xbd811aa9,0xbdc90677,0xbe0d5602,0xbe02722f,0x3ca1af9c,
0x3cd1fca8,0xbde067c8,0xbba7a436,0xbdf6373f,0xbd15f235,0x3c693228,0x3cdd7018,0xbb275f3c,0x3d0aa7a3,0x3cb6dbf9,
0x3cf9786d,0xbbb95ead,0x3d5fe11d,0x3d0baaf6,0x3c2d7808,0x3d260fc2,0xbb1dea43,0xbc814bc2,0xbdc219b2,0xbc7190ee,
0x3e253338,0xbd755460,0xbd411a9b,0xbcd899da,0x3cc4f70b,0x3d802b18,0xbe001442,0xbcfc10a2,0xbe116b59,0xbd3cd37c,
0xbe13798c,0xbd5f4f50,0x3e07c1f8,0x3d2d7178,0x3d2b9cbb,0xbde55f9a,0xbe08285c,0xbdbd3c97,0x3dfc57f2,0x3ddc67a7,
0x3d094718,0xbd718522,0x3ca967fe,0xbd7e9f5c,0xbcc76ad3,0xbc1d372d,0x3c1176d0,0xbd15fcdd,0x3de92018,0xbdbb4841,
0x3d991858,0x3e013ef7,0x3d15fefc,0xbdc17451,0x3d19dbf8,0xbddf5b85,0x3d7b1f6e,0xbe066d13,0xbe89c65b,0xbe689962,
0x3d407adb,0xbbce11b3,0xbe301ac7,0xbd5f5d47,0xbd94ccb7,0x3ced02d5,0xbdb813aa,0xbe5319f3,0x3d3ae053,0xbde182ef,
0xbb1c8460,0x3deda6df,0x3e8411f0,0xbd824c6e,0xbc0109f6,0xbd6dcad7,0x3e8c4c1c,0x3e47b217,0xbdd41b5a,0x3dcabda2,
0xbd5c0def,0x3e5191b6,0xbe16018b,0x3d31ced8,0xbdcedf92,0x3c327ecf,0xbe667354,0x3dbea4f1,0x3cf1a14c,0xbd4edd8f,
0x3e1dc6c9,0x3e8ee6e3,0xbdb907e5,0x3e14f8ec,0xbe02633e,0x3e2a51ae,0xbc873aa0,0xbe1ed971,0xbe9d5b9b,0x3f0d86cd,
0xbd59afca,0xbe5fbdc4,0xbeca6fab,0xbdce88b0,0xbcc5db5b,0x3e254336,0x3e819df8,0xbe8e6eda,0x3d65680a,0x3dabd3d7,
0xbcc27c16,0xbe8e4258,0xbe9a6e76,0xbe31500f,0x3d3fb12d,0xbd0cd15d,0xbed81649,0xbceeff73,0x3dfe7190,0x3d2606f5,
0x3e5ed05e,0xbdf5b3ee,0x3e1471c5,0xbe456258,0x3e4071d7,0x3deb4fd5,0x3e545130,0x3d9cb13b,0x3d70892d,0xbd4ce724,
0xbeac2d21,0xbdbbb0fa,0xbe564586,0x3cc1eeab,0x3e944f4c,0xbe4aa068,0x3cb75c26,0xbac7f3c0,0x3e1f85d4,0xbe6c5540,
0xbd71fa11,0x3bdd6120,0x3ca54c5a,0xbd5dac23,0x3e0f1319,0x3d9d2b03,0x3b8ce9bf,0xbc42ab4a,0x3e4fe2f2,0xbaf8cdd6,
0x3d8ad923,0x3d5961b4,0xbd6cd384,0xbdb49f1d,0xbd8cd7de,0x3c1276f0,0x3d81d201,0xbd19518f,0xbd9294bc,0x3dcd8953,
0x3d1f2c0e,0xbc0c33a2,0x3df3c941,0x3c9d7e9a,0x3d50f494,0xbc4a3508,0x3dc81001,0xbdb6a18f,0xbb4706df,0xbd2a6855,
0xbc50ba1a,0xbdb69810,0x3e1c09c4,0x3d55a6ad,0x3d74b1d4,0xbe3ed1e7,0xbcff1e61,0x3d11d570,0x3b4a99de,0x3e28c4b3,
0x3d64a2d8,0x3cfedc70,0x3cabdf40,0x3cd2d33b,0xbe83688c,0x3d0f2557,0xbe0dedd0,0x3ca2cda9,0x3da53365,0xbe326421,
0xbe08cbb4,0xbe36b3b2,0xbe62aed7,0xbcc00039,0xbd032b1f,0x3c5a647c,0x3d794a16,0xbe0e79d0,0x3e88def2,0xbb4ef140,
0x3e0f7302,0x3db9da35,0xbdd328e8,0x3d9cb469,0x3e965a09,0x3eee2584,0x3e2256e7,0x3c60fdb8,0x3ca8dff4,0x3d261cb7,
0xbdd7d1e6,0xbd1e08b4,0xbe189ed9,0x3d338bf8,0x3d239373,0x3d669ea4,0x3d1c003d,0xbda8ceff,0xbda81175,0x3beae73a,
0x3cfa53bf,0x3d661998,0xbe15170c,0xbd7186a5,0xbd83c48a,0x3ca2da17,0xbda1800f,0x3c7d0289,0x3c4052d0,0x3c994b50,
0xbcb4fc14,0xbba11bc2,0xbcd73343,0x3bf69493,0x3cef18e6,0xbe358095,0x3de749ca,0x3da56d27,0xbd035af3,0x3e0781a5,
0x3db3fa39,0xbe36ffe4,0xbdfc8352,0xbcb30ff4,0x3d607654,0xbe87f57f,0x3e588b8b,0x3e43197b,0xbd39962e,0xbd80f07b,
0x3c4390de,0x3cda56cf,0x3c9070e8,0xbc525fde,0xbe94868e,0xbea3afbc,0xbdae844c,0xbd543bc1,0xbe6348d8,0xbe27710f,
0xbe28a618,0x3dfd6ed9,0xbdd7c353,0xbd02f59e,0x3d7ab0db,0x3d4d69d1,0xbd9f87fc,0x3e2f151f,0xbcc27e18,0xbc4f6f67,
0xbde813e5,0x3cc67dda,0x3cf4b37c,0xbdd11463,0x3da4efd6,0xbe4a1b45,0xbe6fe8e3,0xbda51151,0x3e81753a,0x3e19300e,
0x3e022dc2,0xbb14e7e4,0x3ba8a19b,0x3e472a0f,0x3cce939b,0xbc97ee09,0x3e5e5851,0xbe638108,0xbc368953,0x3d707485,
0x3e2f6aac,0xbe1f6e71,0x3ccda35f,0x3e016e04,0x3e21b79e,0xbdee69fa,0xbd5435dd,0x3da7e7fb,0x3e3c9f79,0xbd8a96ba,
0x3d9fc0d2,0x3b8aa945,0xbe028119,0xbd2a2323,0xbdfc7c03,0xbdbae91a,0xbcfb1262,0xbd22bd71,0xbdc05b3e,0xbd78c80c,
0x3d24aa3a,0x3da694e5,0x3e85e415,0xbe20e684,0xbe087b5c,0x3df1b3d7,0x3d7d27de,0xbbe4fc58,0x3e8f2cee,0xbe75f9c2,
0x3dda0387,0xbe1a7ca8,0x3de60758,0x3e48ea79,0x3bd20042,0x3d6b20a6,0xbe226d7d,0x3ddb141a,0xbe06f55f,0x3b1b331e,
0x3b3d67c2,0xbe012818,0x3cd92dd2,0x3e39cd28,0x3dcd3e84,0xbd93163f,0xbad7ee07,0xbd75eb3d,0xbd8e9315,0x3e2459c0,
0x3e613de9,0xbde96aeb,0xbbf771ca,0x3cb7377d,0xbd470aad,0xbd7c3e6a,0x3d37634f,0x3e11ec30,0x3e0b3913,0x3cead105,
0x3e4c8727,0xbe056b66,0xbd9a50fb,0x3e0f5535,0x3d21827b,0xbddc2e81,0x3e139798,0x3e6d8b75,0xbc67387e,0xbc8d9413,
0xbe0b22e2,0xbd06ef31,0x3c9bc5c5,0x3e1f175b,0x3e73c920,0x3e21480f,0xbe33d5d1,0xbd1e2201,0xbe839720,0x3d1d6955,
0xbe319b43,0xbccf4c85,0xbde18a88,0xbe15dc6b,0xbe2fc7a4,0xbe021ad7,0xbd648ba8,0xbe14d5be,0x3da35f0e,0xbe8c3cf1,
0x3ae197a6,0x3e7a18b0,0xbe27de84,0x3ea653f4,0x3dab9eac,0xbe07cf0b,0x3e5721ea,0xbd09ff08,0xbe16331f,0xbc03e3eb,
0x3c945e6c,0xbe763e28,0x3d03a556,0xbcfaaa37,0xbdd93f67,0xbd2f51ce,0xbcd60bd3,0x3ea96f35,0xbda7d4c2,0x3dde652b,
0x3defbd58,0xbdca679a,0x3e0fd09f,0x3e61a635,0x3d9759bb,0x3d442ed4,0x3dadb6a6,0xbcf1c66b,0xbd9ad584,0xba96d0e3,
0x3da067f5,0x3e777690,0x3ebd71fb,0x3e5d68eb,0x3ca96d46,0x3db4936e,0x3dc8c73b,0x3e23a357,0x3e28e6d0,0x3cf27b94,
0xbe3a386e,0x3d09a7c1,0x3def2417,0x3b9a01d4,0x3d6b4798,0xbdb5d2ee,0x3e03ca75,0x3c264d08,0x3e091154,0x3d003c5d,
0x3ca42150,0x3e01d246,0x3db31dde,0x3cc3aab8,0x3b07a8b9,0x3e04a57e,0x3d1e462b,0x3dd0da5f,0xbd08c8f5,0xbe04a8b8,
0x3e44f43b,0xbd2d9d71,0x3dc82d06,0x3d1ad7e2,0xbd3a8296,0x3d723814,0x3d51854d,0x3d229949,0xbdaf544b,0x3c5e7b1c,
0xbc76d320,0x3dacd86e,0x3d7290ee,0xbd5f3dac,0x3bfe440b,0x3c1d7a38,0x3d84fe21,0xbcad9006,0xbb873b4c,0xbd0bfb4d,
0x3de2d360,0x3cc28a76,0x3acd1527,0x3e073208,0xbf00432a,0x3df70774,0xbd496f63,0x3cb58df2,0xbe075a12,0xbd5372a6,
0x3c0db7a0,0x3cf58ca2,0xbe3386d4,0x3d81cf1d,0x3cfef48f,0xbc392a21,0x3d3021de,0xbdb22e09,0xbc3142ed,0xbbe6e488,
0xbc085c66,0x3d26546e,0xbe024691,0x3d6e4936,0x3d869552,0x3d4a6001,0x3cdc92a8,0x3dc52234,0xbd05652d,0xbca0f284,
0xbe381474,0x3c20284f,0xbe92c7c8,0xbdac8011,0xbcd07e11,0x3e0e8058,0xbd37616a,0x3cd21f33,0x3ad37f43,0xbde101a2,
0xbcc97773,0xbd9f2b52,0xbca668e9,0x3db8525f,0x3e7bf007,0xbd33331a,0xbde2ee9e,0x3c6699f0,0x3e05aaa0,0xbdb6f147,
0x3d838290,0x3d0c9069,0x3d88f064,0xbbfe44ec,0x3aa537ab,0x3d43a64d,0x3d7c6698,0xbda3f6ef,0xbe5886af,0x3e2429c9,
0x3bffda58,0x3da166a1,0xbde66129,0xbd418049,0x3d5bb588,0x3e2a85a3,0x3deeb663,0x3df67195,0xbdcddea1,0xbd3edcae,
0xbc04c575,0x3c84e915,0x3e175ecc,0x3e390cea,0xbc3e2788,0xbdaa450c,0xbdf62aec,0xbedc9316,0xbc6e9302,0x3ba04de6,
0xbe25d696,0x3e743bea,0x3e2e7bea,0x3d3d78d9,0x3e80ea12,0x3d16c251,0x3e106459,0xbe16c0b7,0xbe3716e5,0xbde68163,
0x3dc95702,0xbde7670f,0x3e454ea1,0xbe931069,0x3e496986,0xbe565d6a,0x3dc7e4a7,0x3d50b8ad,0xbd035f97,0xbba7b4e6,
0xbe4c4be7,0xbdf0f9ff,0x3e5075bc,0xbd20a670,0x3ed35214,0x3e36d6f6,0x3e192975,0x3e465e65,0xbed1d90a,0xbdb9bcf0,
0x3da58dd5,0x3cacc132,0x3db10512,0x3e3a3fb4,0x3c206f97,0xbe2140d9,0xbe1ac631,0xbe4a819b,0x3c0d5dda,0x3bcd573a,
0xbdd06c88,0xbd235a54,0x3e06e16e,0x3d9467b9,0xbe012f14,0xbccfa0fa,0x3d13bb79,0x3dd55518,0xbcc49d87,0xbc8f478e,
0xbdde36ad,0xbe222f1b,0x3dc2ea08,0x3d74d159,0xbcb60821,0xba62f22f,0xbde9b2e2,0xbd24d2ee,0x3e2feea7,0x3e4279db,
0xbdb6ce25,0x3e50e990,0x3d758d62,0xbcd8d6f7,0xbccd4a87,0x3dc1223f,0x3d8ca5ca,0xbe178c7e,0xbd1b2f78,0xbe0c9a90,
0xbe89951f,0x3e01e9c0,0x3d88e1df,0xbdb59dad,0x3cdd850d,0x3c06e8f3,0x3d93e274,0x3d80b29a,0xbdae2a51,0xbd7410b7,
0xbe9b908e,0x3c1b727e,0x3deaffef,0xbdcb3096,0x3e235069,0xbdb88a5b,0x3dcd4514,0x3e108c65,0x3d981710,0x3e1ac4df,
0xbe06ce99,0xbc2f766a,0x3e86f610,0xbe0dd7c7,0xbdd09307,0xbd992f62,0x3e7aa389,0x3d8145cc,0xbcb44c51,0xbd92ffc8,
0xbd4ff635,0xbe63270d,0xbd776072,0x3b716403,0xbe3a12f2,0xbe82a175,0x3d25f091,0xbc6d343a,0xbddc0c50,0x3d062ba7,
0xbda136ec,0x3e76470b,0xbd0381ef,0xbda98427,0xbdc2d8d4,0xbdc70a04,0xbdda7da8,0x3c7f2fc3,0x3e87d877,0xbdcff2b1,
0x3d9408af,0xbe877b29,0x3cc5772d,0xbe0e7a0e,0xbe1a139b,0x3d3b1383,0x3d303da7,0xbe01649c,0xbe2b04ad,0xbd9e74a3,
0xbc1a21ad,0x3dc7e35e,0x3dca37dc,0x3e060f31,0x3e129d60,0x3dbb6297,0xbdf55251,0xbe4f54b9,0x3ced37ae,0x3e1b8da5,
0xbd947dca,0xbe2b4432,0x3d9a5013,0x3ebfa08a,0xbe805bf3,0x3e4f9737,0x3cad03aa,0xbd8a5059,0x3de9e3a6,0xbdabc722,
0xbe40f417,0xbd9f9d65,0xbde2acd0,0xbb0b5741,0x3e4417ab,0xbe944baa,0x3eb48531,0xbd0e6d66,0x3deab087,0x3cfb6344,
0xbd91caee,0x3d0c1c9d,0x3c9c61c3,0xbdb0c507,0x3e15526f,0x3d95eefa,0x3e01d546,0x3e7ca5d2,0x3e1396e1,0xbdca3da5,
0x3e8eba3b,0xbda1cc61,0x3d271fda,0xbe02517f,0xbe3b0fec,0xbcbeadb1,0xbee12e2b,0xbcbf00fb,0x3db302bf,0xbcb04fef,
0xbd7e1359,0xbdf202e7,0xbe72747f,0xbda65eec,0x3d3f1447,0x3dd1fb9e,0x3cb7b91e,0xbdd33100,0x3d83a46e,0x3b24c0b3,
0x3e408667,0xbe735f9f,0xbe2f5121,0xbb9a5dae,0x3e104436,0xbdb2284f,0xbdcf6c8a,0x3e4cf3c8,0xbdaa4ba5,0x3a627a21,
0xbd8b9389,0x3cd54d91,0xbe928649,0x3cc56cfa,0xbdd65c03,0x3d106e93,0xbd973343,0xbd6d8cba,0xbe1a519a,0xbd32d3b7,
0x3d796c9b,0x3d4a126e,0xbdd709e3,0xbdc3c710,0x3d7256d5,0xbe06c54f,0x3e00f5fb,0xbe2e4c3f,0x3e489737,0x3dadc4af,
0xbcf95bf5,0xbdb9aa41,0x3cd4df7f,0xbdf33ae2,0xbda598c2,0x3e82daf7,0xbdd474fc,0x3d86efae,0x3e1acf68,0x3d86b32c,
0xbdaedbf0,0x3d81aa37,0xbcd702f8,0x3e439acc,0x3d85abae,0xbe8a2a26,0x3dae47de,0x3e04f118,0xbad10ef6,0xbdacc506,
0xbce1dde6,0x3e0ad47c,0x3db6b0de,0x3e8f0f97,0xbdea7eff,0xbd419da7,0x3e371c4c,0x3c964244,0xb6fbdea3,0xbcc43a3e,
0x3e05d613,0xbd6836f7,0x3d3a1f9f,0xbcc77e43,0xbd26df79,0x3d76bea4,0x3e0c0e7c,0x3c46a836,0x3dd0e674,0x3cba0036,
0x3dab67f4,0x3d641ab2,0xbc9717f8,0xbe127c62,0xbc89b70f,0xbb7e302b,0x3daa725a,0x3a8bee7e,0x3d12b314,0x3c9ada6a,
0x3c876cad,0x3d38b630,0xbd9812d4,0xbda9ae05,0xbcb555da,0x3de70363,0xbd848719,0x3ce23af4,0xbe9d758a,0x3d84edda,
0xbc5228ac,0xbdb0f61d,0xbe867fef,0xbdb68bf8,0x3cb7ed0c,0x3d65252e,0xbde37b15,0xba7148db,0xbdb27580,0x3ecffcc1,
0x3da6a8be,0x3d85f0a7,0xbc096bb8,0xbd45d735,0x3d1dfd8b,0xbdf3888a,0x3ca8bc6f,0x3e1f1358,0x3e0f07e8,0x3ced053e,
0x3d6584c7,0xbcb14ea1,0xbcb10d2d,0xbdafe816,0xba814d4f,0xbe0d9a55,0xbd950450,0xbd75e6e1,0x3e143ff5,0x3e862700,
0x3ddebf2a,0xbd8abf70,0x3dd238a5,0xbdbe7bb9,0xbc1b76de,0x3c710e21,0xbe0abd35,0x3df0bf58,0x3cb1476b,0x3d32f1dc,
0x3d0f8929,0xbc2fd881,0x3b8e30f5,0xbd087918,0xbc9fa8ec,0x3e65f080,0x3e07d19e,0x3dc8a1ab,0x3c71779c,0x3d6c352b,
0xbdece424,0xbdd1b2e9,0xbcd7f1f3,0x3dcbd69f,0x3d0b9e59,0xbe347bc2,0x3d132a91,0xbe048209,0x3c88ce67,0x3e93260a,
0x3d2026d3,0xbafcfb12,0xbdd99e74,0x3e041f2c,0xbd85e6bc,0x3d0fc03d,0xbc4e4685,0xbd7960d6,0x3d9b8e5c,0x3cabb7d2,
0xbe043696,0x3dcd2140,0x3c5d524b,0xbe7780a5,0xbb31be1a,0xbe6d7028,0x3d9d4341,0xbdafaae5,0xbb5019b0,0x3e7af84d,
0x3d7b937a,0x3df7bbf9,0xbe71f7e8,0xbe71379a,0x3e1b0465,0xbe0cbbfd,0xbdcf64d6,0xbd462fa8,0xbd42f285,0xbcc21d01,
0x3e73f054,0xbdf95bcb,0xbe193a34,0x3d8a1fd4,0xbde6d977,0xbd87c439,0xbe5737c1,0x3d264bab,0x3e923058,0x3d384f0b,
0x3e5c1617,0xbdfaf77c,0x3c8838a5,0x3e308768,0x3e3fa565,0x3da6b54d,0x3ece64a4,0xbdf948ac,0xbe6e1517,0x3e4e8da1,
0x3ca2bc34,0x3d28563d,0x3d9f716a,0x3dd734a5,0x3e434ed3,0xbdfb0fe3,0xbd2bb19c,0x3bf5374d,0x3dbd3c44,0x3e163244,
0xbc5c9809,0x3cf92125,0x3babec80,0xbd8572b5,0xbc884893,0x3d5e0a4f,0x3db63f3a,0x3cb58762,0x3cd56451,0xbdabb46b,
0xbdd287a2,0x3b3a4afc,0xbcb25f1a,0xbd376b38,0x3c0d2d68,0xbd2de3de,0x3c78558a,0xbe0241f5,0xbce7dee1,0x3d5961c5,
0x3da75273,0xbca6b311,0xbcd9bb93,0x3d824f29,0xbd6edae9,0x3ce0b326,0xbd42bd76,0x3e0b368b,0x3e29b7a3,0x3dc7e12c,
0x3e4b3bb8,0xbda2f4fe,0x3e305ea6,0x3cccb9dc,0xbb76a3df,0xbce33259,0xbcf2809d,0x3e075121,0xbd63c361,0x3d915d8d,
0xbda9f4c4,0xbc476af2,0x3d0694cb,0x3d0adc2a,0x3ddc0503,0xbe4ef801,0x3d3b859d,0xbd2e9b06,0xbd6691b4,0x3d31dc48,
0xbc28c0df,0xbd8ffbc9,0x3dacf1ae,0xbe8fe8c1,0x3e1b695b,0xbe05c04a,0x3da5b53c,0x3c683294,0x3c86c8df,0xbd919e88,
0x3cc48c65,0x3b662f4e,0xbcdd1d23,0x3d378c07,0xbd3afab7,0x3dadbf25,0x3d9c9cb4,0x3d902bae,0xbc3621b4,0x3c9e0625,
0x3e0cb085,0x3d87eeaa,0x3dbc543a,0x3e64eb94,0x3cd31d32,0x3e58852f,0x3b998685,0x3dd29423,0x3d0a0481,0x3e07a59f,
0xbe4a9f87,0x3d3fc5e8,0xbe3f432a,0xbe312452,0xbdb438d5,0x3db15bc7,0xbe42f5db,0xbc5c5e79,0x3deb0db6,0x3cb81013,
0xbd5f9fc0,0x3d245ce4,0x3bec7d0b,0x3e153d46,0x3d079708,0x3d11d908,0xbdc07c2d,0x3dc794a4,0xbe40b89b,0xbd0d6b3a,
0xbcb4ed2c,0xbd07d23f,0xbdc8f8a4,0x3d5914f2,0x3dd2373b,0x3d480af7,0x3d6343f1,0x3d066075,0xbcd11016,0xbd9ed7cc,
0xbd9425af,0xbd514b06,0x3e37b0e1,0xbb8225b5,0x3e1732a6,0xbde8d1d8,0x3dbde69a,0x3d32ad48,0xbe141341,0x3e0808c6,
0x3e0716a6,0x3c93cb0c,0xbde5aeef,0xbaf19732,0x3bff6e87,0xbe18b86d,0xbcaf563a,0x3d96dc57,0xbd8395a4,0x3e969e55,
0xbdcbb0c0,0xbdc010dd,0xbdff7e1f,0xbb932f4b,0x3d812916,0x3dabc98c,0x3c96d807,0x3db6f912,0xbdf4d99a,0xbcf81d57,
0xbd93e2d7,0x3dd2ee35,0xbdf5e375,0xbcad12c0,0x3d679697,0x3e0c6d02,0xbd4b0052,0x3de6a868,0x3e216433,0x3dce156c,
0x3e1e605f,0x3d363686,0x3df316f1,0xbdfd218e,0x3de5333b,0x3cfea8a7,0xbd598a2f,0xbd943c9b,0x3e79637f,0x3e77f0d8,
0x3deb7d2a,0x3abd09a8,0xbe694254,0x3e03d10f,0xbd9f309b,0x3d3a44ae,0x3d943eae,0x3e1046f0,0xbd858a30,0xbd9b6996,
0x3e3665b4,0xbd93d449,0xbd8a9c67,0x3c1e48be,0xbd885627,0xbd14afa4,0xbbad7559,0x3dacea2e,0x3da6eb86,0x3d267dcc,
0xbe0b5731,0x3ad56cbc,0xbd060051,0x3e253d3d,0xb9280d3d,0x3dfbda03,0x3d8e4899,0xbcb44dcc,0x3d98f585,0x3e359982,
0xbe20bfa8,0x3e2d7263,0xbd120203,0x3e260eab,0x3d58f068,0xbe06bec8,0xbd8272d5,0x3d1692c3,0x3b04a1c3,0xbcdf1ba0,
0xbc3a3696,0x3dd0d568,0xbc81ff7a,0xbd22e497,0xbe3cd6f1,0x3d81f2fe,0x3d01cd73,0xbd9df546,0x3d60912c,0xbdb2493a,
0x3e467fb4,0xbc9dfeaf,0xbdfb3c78,0x3e1266d7,0x3da9b076,0x3da881af,0xbd8f5faa,0xbde7dd05,0xb9583bf5,0xbdb14a8c,
0xbc8e4939,0x3cb6fce3,0x3d571805,0x3d2656e8,0xbd637f96,0xbd8e9c96,0x3cd2df70,0xbc7ef548,0xbd0fad70,0xbe04bfe1,
0xbc8632f6,0x3e3294a7,0x3dcf18d3,0xbe13a959,0x3cc01077,0x3e003c66,0x3dd7ae2c,0x3c9d7390,0x3e236e3e,0x3e23ea7b,
0xbe30c925,0x3d84c426,0x3adfaaf9,0xbd9fba77,0x3cddf004,0x3da6041d,0xbc8e1844,0xbe14e1dd,0xbcb62da8,0x3e0cca60,
0x3d91a259,0x3d256eea,0x3defd499,0x3e2f4959,0x3d3fe815,0x3db8034a,0xbd711cf1,0x3db8964d,0xbd39dd3e,0x3c8fe11b,
0x3d44a3f9,0xbe39fd8f,0xbe61992b,0xbd018ea0,0x3ca0b734,0xbd5a1888,0xbccaea9e,0x3d109890,0xbcd34d71,0x3e2c5ae4,
0x3e3b1587,0xbe74a109,0xbea81375,0x3cf13aee,0x3e796e1d,0xbda69787,0xbe4645f4,0x3e925063,0x3e1f93b3,0xbd3cc106,
0x3de22cdd,0xbd627ffc,0xbda02e0c,0x3e3a5e4b,0x3e0c4d65,0x3d7096e5,0xbcc7814b,0xbd222426,0x3bcb90ac,0xbe0657a9,
0x3e80221a,0x3d7d575b,0xbc656403,0xbca34a1c,0xbb473224,0xbe25e7cc,0x3d69afed,0xbc6fd33f,0xbd721be1,0xbd988d47,
0x3e0b4c42,0xbcc3ed2f,0x3d842456,0xbdacc2ae,0xbcd93daa,0x3e0958cd,0xbdb181b7,0xbe1c6ab7,0x3cee4439,0xbd6e5c0b,
0xbdb04d6b,0x3c4726e0,0xbc69052f,0xbd31c1a6,0x3d9cc956,0x3ca4ed19,0x3e0cd99f,0xbd18ee05,0xbd838ef4,0xba7aa06b,
0x3e3f719c,0xbe859e75,0x3de9519a,0xbd7cb4f0,0x3cd5aaa4,0x3df77df9,0x3e3247ff,0x3d50583b,0x3cbfc520,0xbe4cd53d,
0xbd275099,0xbd5e751d,0x3cb286b4,0xbd0129b5,0x3d35b9ee,0x3d06af4f,0x3dafface,0x3e87694f,0xbdca1ba1,0x3e02cf27,
0x3dbeec06,0xbea2b049,0x3d86fc38,0x3e6627d0,0xbe4d8511,0xbc30b112,0x3d159645,0xbd9591d5,0xbe0490f9,0xbdfa15b6,
0x3d4d486a,0xbda0774b,0xbcb02969,0xbe907cd9,0x3deda139,0x3ca6cb70,0xbe4b3de0,0x3c97a211,0x3d1d0ace,0xbcf1d108,
0x3da45e28,0xbe3b7510,0x3b181814,0x3d02cf0d,0x3cb27fdb,0x3e97bb38,0x3d313a29,0x3cd90763,0xbdd12d0c,0xbdad084c,
0x3da5cd3e,0xbe883696,0xba31f513,0x3dbf7214,0x3dea8a5c,0x3d928db1,0x3dc60b64,0x3e030240,0x3de70780,0x3d3dc45f,
0x3dc6acc1,0x3dec56a7,0x3c16d526,0x3d7b2352,0xbe4ffe14,0xbc8b0f8b,0x3b8bc101,0xbe850f01,0xbe1362b1,0xbde61b7a,
0xbe002d63,0x3ccf4961,0xbd3647bd,0xbd7cf17d,0xbce05942,0x3cd62b8c,0x3eced5a1,0xbd316591,0xbd6b676c,0xbc50adc0,
0x3bafd315,0x3e7bc8ef,0x3defa8b6,0xbd24d74b,0x3e81d3d7,0x3e0a36f9,0xbe240877,0x3d1481f9,0xbd7999d8,0x3cc33de9,
0x3d446639,0xbd8447f3,0x3df97547,0xbe0dcc76,0x3dcaa6e7,0x3d8ad1e3,0x3bdaf5da,0x3c9b0615,0x3c9de80c,0x3bcf22d4,
0xbe8b87da,0xbba3708d,0x3dd0ef44,0xbc800205,0x3cda035a,0x3da6c100,0x3da9188b,0xbc0e9346,0xbe27c7e3,0x3db9b4af,
0xbda5bcdd,0xbdce4f84,0xbd902d37,0x3d53716d,0x3c2124ff,0xbd31dc53,0x3db21908,0xbd399125,0xbc171b5a,0x3e0d43d5,
0x3d8624ec,0xbde19c1f,0xbe5623a9,0x3c1661dd,0x3e013deb,0x3d4abfae,0x3d8993f7,0xbd907224,0x3e0d9e57,0x3e9747dd,
0xbde5dfc3,0x3c54606c,0xbc3ba6f6,0x3d9a61db,0xbe027ae5,0x3db3f443,0xbd83eb01,0xbe0df9ae,0xbb86967c,0x3d8b29dd,
0xbcdf23ac,0x3c21067a,0x3db12cb1,0x3c2aa4c0,0x3dd34fef,0x3dba3559,0x3d4e646b,0x3e449a29,0xbdc4a4ee,0xbd91950c,
0xbbc501d7,0xbdc83380,0x3d71472d,0x3d1f4b81,0x3dbcbd2e,0xbe09fa96,0x3e76c6de,0x3d6784df,0xbebd0540,0xbda870e9,
0xbdcb1236,0x3cfc634f,0x3cd1bc5e,0x3ca3d7ae,0xbd729619,0x3d00b364,0x3dd0fd9a,0x3db061af,0x3c0f6395,0xbd21ae51,
0x3ccfde6d,0x3e1dd6a6,0xbd31b21c,0xbe8804a2,0x3e1e7cd0,0x3dce7100,0x3dc1bdf2,0x3bb89328,0x3dbbfca7,0xbd2e372f,
0x3d453e18,0xbd85bfef,0x3cf2b31c,0x3d9052fa,0x3c8617e9,0xbd8ae5d7,0xbccdb987,0xbdd2e524,0xbdd48e6d,0x3d937213,
0xbdae7373,0xbd5b6fc8,0xbd8d411c,0xbd6b117e,0x3d828182,0xbcf56253,0x3caed00f,0x3ce50ac9,0xbe4c86fb,0x3bcaf127,
0xbd4336e7,0x3e05559f,0x3d90ff07,0x3e37ab99,0xbda95892,0x3e35f8d8,0x3d9daee4,0xbd7aa6a1,0xbdd4a57e,0x3d11ffd4,
0xbd61ddcd,0xbc86aabe,0x3d30d57a,0xbd9adb2b,0x3d80e06d,0xbd920d1e,0xbcac0cdb,0xbe07dc5a,0x3d67933c,0x3dde246b,
0x3d7b800f,0xbc99d16b,0x3dd3be9b,0xbc593526,0xbe28a863,0x3e363c7a,0x3e363c1c,0x3db4f45e,0x3dcb84bd,0x3cbc0dd0,
0x3e235cc4,0xbd9f4760,0x3d75cf70,0xbddd3216,0x3c76a838,0xbe1afb9f,0x3c0f578d,0xbe0362e2,0x3e1bbe14,0xbe8f2e77,
0x3e0b0606,0xbe84888c,0x3e539421,0xbe27205c,0xbdd9c103,0xbde46aa1,0xbb50b383,0x3d800d85,0x3d686aae,0xba0d4477,
0x3dd36fe9,0x3de3a5c5,0xbd778365,0xbd380b4a,0x3e3277c0,0xbd10db66,0xbdc7a8c6,0xbdbf282a,0x3dfe49df,0x3d0833a7,
0xbbe0969b,0xbd971526,0xbd93f5fa,0xbd1f3183,0x3dd35c41,0xbd06d11c,0x3d8f6023,0x3dd07018,0xbcf585af,0xbcdb8d50,
0xbe1f36a8,0xbe1a7d46,0xbe54c8b7,0xbdd018c2,0x3e238dd6,0x3de3c60d,0x3c5d1f89,0x3e3231f1,0xbb3c3e55,0xbd63981d,
0xbd9e4a20,0x3df831b6,0xbd368ff9,0xbcb2ca49,0xbd636eb3,0x3c8b4cbf,0x3d6d7d8f,0xbdd3946e,0x3d0117d9,0xbe11b99e,
0x3e06e6ae,0x3d689e17,0x3d933982,0xbd286094,0x3bac5b19,0x3e30324f,0xbe65ff19,0x3dcac63a,0x3dad02dc,0xbea9503e,
0x3e025925,0xbcfb5419,0xbdd9dab1,0xbe37f7c5,0x3e174600,0x3d95efa2,0x3e92c6cf,0x3d951ae8,0xbeb3909f,0x3dd9a8b3,
0x3de33bcd,0xbeb6d003,0xbe5a3ef7,0xbdd06106,0x3e89ee71,0x3e3ba8b2,0xbd2b0013,0xbdfc1df9,0xbd5d1521,0xbe0a5024,
0xbd3c1c76,0xbd91461e,0x3d54de34,0x3dc34d59,0x3d8c32fb,0x3ca77331,0x3d290fe1,0x3de49736,0xbd5fbf1c,0x3d6a2092,
0x3d10a885,0x3cf50713,0xbca089e4,0x3d1c254e,0xbd189c98,0xbdf7f773,0x3c904e78,0x3d7a91e5,0x3bb83abf,0x3d1e4f2c,
0x3cad782a,0xbb43e11d,0xbe32a059,0xbe0314a9,0xbdfb0704,0xbde25541,0x3d10b78a,0x3d69587c,0xbd5bb423,0xbdb955c2,
0x3e1b8639,0xbd9bb4c0,0xbcf5d3d6,0xbe25eab0,0xbd054886,0xbc1049c9,0x3d2750e3,0xbdf7f2b5,0x3b8fad8d,0x3e1a2c8d,
0x3d5bf59b,0xbca741f2,0xbd6b3edf,0xbe0b35e2,0x3c866c48,0xbce3e9d3,0x3e4a5cf0,0xbdcd6e2f,0xbdb7d9da,0x3e9b1092,
0x3d97b0dd,0x3bd7591e,0x3dca65eb,0xbd8a14ca,0xbcbc55dd,0x3e11d043,0xbde3066c,0x3dc458e8,0xbde72d84,0xbb82f91a,
0x3e24ad1e,0xbdde55dc,0x3e52b04c,0xbdf5f8b9,0x3e1630ab,0xbc7ad98b,0x3d9677ce,0xbe619c82,0x3cc8a2c2,0x3e0ad9c7,
0xbdba5d19,0xbe4470c6,0x3d2433c8,0xbe54eb59,0xbdff56e7,0xbda6291c,0x3e203937,0x3c8172a6,0xbd91ed6d,0x3d620d52,
0xbe1b08e9,0xbe08ca94,0x3e0272c5,0xbc974f73,0xbddba09c,0x3ca45022,0xbd8470f0,0x3e4b0405,0x3e80d27f,0xbdf32f1c,
0x3dd225c9,0x3e3d4bc3,0x3e182cdc,0x3dbe6fab,0xbe2b1cd2,0xbc85a0e9,0xbd96e690,0x3d8f2112,0x3c2262b1,0xbcf8fd63,
0x3d59faac,0x3e5aa9c0,0x3de19e5f,0xbc88c22d,0xbdc630f1,0x3d9cdf38,0xbcd43753,0xbc724971,0xbe061fb3,0xbe075125,
0x3bff1d22,0x3c9b3246,0x3d895349,0x3d40ccd6,0x3dfba73f,0xbe70c06c,0x3e71ae14,0xbdfdeef6,0x3e25161a,0x3b779ee8,
0xbeb00e60,0x3e34653d,0x3dd5f953,0x3c3a3297,0xbe19135c,0xbcc5e6e8,0xbdb5a619,0x3eafc1ff,0x3e61e876,0x3b9e2c69,
0xbe3168db,0x3e9c1824,0x3e291f14,0xbe80b316,0x3df259f7,0xbd9cc476,0x3ebed611,0x3e8e132e,0x3e270b69,0xbe39bee9,
0x3db5c5ce,0x3de818bd,0xbd33008d,0x3da7e20d,0xbd8c22cf,0xbd4278b0,0x3ba58ceb,0xbda782d7,0xbd63e481,0x3dc4e412,
0x3cb58ce5,0x3d36fd71,0xbd59be6c,0xbe1a3d5f,0x3d9ea908,0xbcb24758,0xbe2e269b,0x3d389553,0x3d613794,0x3ca55d58,
0xbda7321f,0x3e07c318,0xbda163b0,0x3dfa94dd,0x3d58cdc0,0x3c6d5563,0xbd5850a2,0x3d293898,0xbe0b2272,0x3dc961a3,
0xbdf1d429,0x3e29cb66,0xbe2c1cf8,0xbdb62052,0xbce4b001,0xbc45f86c,0x3e3d6e05,0xbe3329a8,0x3c53c0f1,0xbd40e980,
0x3d2f0ac6,0xbcc5a7c3,0x3cc322e3,0xbd6716a3,0xbd1e6635,0x3b8d0db4,0x3d671799,0xbe616514,0xbd7e9703,0xbe316250,
0xbd898adc,0x3bf374b5,0xbe583025,0xbd98769f,0x3df9f0da,0x3d8a5df2,0x3dc9733a,0xbdb34b17,0xbe31613a,0x3d98e9b6,
0xbc776f5d,0x3df644de,0x3de518b5,0x3cd58f3b,0xbdf9e5c7,0xbd39fa32,0x3de9789d,0xbd878eaf,0xbdb26d86,0x3c9c2109,
0xbc721c98,0xbdd29790,0xbd9007f3,0x3d180c76,0x3def9a80,0x3cf43287,0x3cb7e00c,0xbc1e1614,0x3e694115,0x3e337a22,
0xbddf02b0,0xbd1e24ca,0xbc1eb081,0x3db08f2d,0xbd24abbb,0x3ccdff6b,0x3debe0c0,0xbce2d1d6,0x3d0569bd,0x3d09d79b,
0xbd25a6c4,0xbd468c00,0xbd9dd6be,0x3e1aa4b0,0xbde62584,0xbd4ad67b,0x3e303015,0x3db7d631,0xbd6cefb5,0xbd763246,
0xbc773197,0xbde3d69e,0x3cfd3434,0x3d9c7fea,0xbdae5353,0x3d5885e0,0xbcb7c700,0x3d10adf2,0xbd9ed591,0xbd23d5a7,
0xbdd4c441,0x3dad0f6b,0xbdc3039a,0x3c11acef,0x3d9e6c80,0xbdda17f2,0x3e08dfc1,0xbdaaf446,0xbdae1edb,0xbddfb6f0,
0x3e0ff6c8,0xbe5f33c5,0x3d74d0d9,0xbdd434f6,0x3cb5be59,0xbbed276d,0x3dff65db,0xbd3aaa66,0x3e136998,0xbcd6fbcb,
0xbd2c0546,0x3db435fd,0x3d8f4b1d,0x38b9b713,0x3dbc2319,0xbc9ce5dc,0x3e341c3f,0xbd2646a1,0xbdcb44d3,0xbdc53693,
0xbe271777,0xbbfc937a,0x3e06979c,0xbd908e2b,0x3d5ff5b1,0xbdbb83f4,0x3d4eea87,0xbc3b9ba0,0x3da67a48,0xbd20211a,
0xbd31bdb2,0xbd97c409,0xbdde6099,0x3e217f17,0x3add0fea,0x3dcdba7b,0x3e16ca56,0x3cacb5a6,0xbd161e97,0x3dc5fae1,
0xbd020d10,0xbcfe639d,0xbd13d5d2,0x3d2cbbb8,0x3de601c0,0xbe259ba6,0xbd0ea2b0,0x3dfd65de,0x3d7bbb2b,0xb9c0fad7,
0xbda1f071,0x3d8a40e5,0xbcda294d,0x3d16f856,0x3cc8bd95,0xbc85b64a,0xb9f6e09f,0xbbbb7981,0xbd439bfd,0x3d90682f,
0xbdb423e1,0xbdeb4457,0xbd4843a4,0xbdb0703c,0xbda733ed,0xbd0bb466,0x3d84c5e1,0x3e691262,0x3d97a07b,0xbd44da83,
0x3e39a5e6,0x3de1af5b,0x3b17d30c,0x3bfc2e4b,0xbd880ab8,0x3d471d6a,0xbca35daa,0x3c42d8dd,0x3d225679,0x3cd4e2d4,
0xbc979591,0x3e069655,0xbe331860,0xbd39718b,0x3e63bac7,0x3da0c772,0x3e6df86d,0x3d09969c,0x3e3573df,0xbda76613,
0x3b3c40a6,0x3e0fdf2b,0x3e61a0d5,0x3e22f2bc,0x3da81388,0xbd962c5a,0x3e47604c,0x3e1611d8,0xbd425f35,0xba1b6a3f,
0xbd90e4ea,0xbde64544,0x3df31c72,0x3d3a8c2b,0x3d76e7c0,0x3e17b1f1,0xbdf001cb,0x3d165a34,0x3dc8a8fc,0x3d6bfa79,
0xbd799dbe,0xbc00a05d,0xbd755f3d,0xbc274319,0x3de75b2a,0xbddcaaa6,0x3cc09622,0x3e0424fc,0x3dde6b26,0x3dbad38b,
0xbc753dc2,0x3d6447c4,0x3de2cc16,0x3dd0943d,0x3d18c9b2,0x3e00b457,0x3c99cf71,0x3da27a09,0xbd078c44,0x3d469db9,
0xbd9d531e,0x3cab905a,0xbe10ff63,0xbc91addf,0xbd9e3e72,0x3d926e23,0xbd18918f,0xbd87571e,0xbe7b51fd,0x3d4735a6,
0x3d43dbe5,0xbc513412,0x3da7532b,0xbcd582c1,0x3d5b011f,0xbd205b63,0xbd354aa6,0x3daee739,0x3d8effc0,0x3d933382,
0x3dd832fb,0x3d13ef85,0x3dc10476,0x3de39252,0x3dcf382f,0x3cd847c3,0xbdac3512,0x3db78dd0,0x3de33ae7,0x3dc393de,
0xbc7aa3b8,0xbd98d4a6,0x3e54929a,0x3be538b6,0xbd072af3,0xbdced689,0x3b32115c,0xbc9a29ff,0xbe10ed8c,0x3d99e06f,
0x3bf9592b,0x3cae0fc1,0x3dffcab6,0x3db18ecb,0xbd8a76c3,0xbd891ef9,0x3ca2f36f,0x3c70c9dd,0x3de5981a,0x3e12c2ae,
0xbe3eb056,0x3e1d4285,0xbd973d5e,0x3e1a9acd,0xbe1c39dd,0x3dae7a44,0xbc3edd0b,0xbc516bd5,0xbd1f8ffa,0xbd3112c8,
0xbd4a89ab,0xbc2fef06,0xbd4e695d,0xbdc4620e,0xbddc9421,0xbd3215e0,0x3d970c63,0xbd5d103a,0x3b20d3eb,0x3b5c8722,
0xbe534953,0xbd771f2c,0x3e1d19c1,0xbd26777a,0xbd941e35,0xbc83698c,0xbe0c795b,0xbdd51914,0x3d6e3b63,0xbde77efb,
0xbe121a77,0xbcc471b1,0x3e10827e,0x3de60cbf,0x3db25806,0xbc0892f2,0xbe294322,0xbe33611d,0xbdc04775,0xbd6b6258,
0x3d3de7ab,0x3df6151f,0x3c944741,0x3cc2ce56,0xbe23e57d,0xbe5f18ce,0x3d82d621,0x3d5ab6a2,0xbc70d270,0x3e007a63,
0xbe61f8f2,0x3d3a4e74,0x3e7f1ded,0x3cbaf4fe,0x3e23ef9d,0xbc3ef526,0x3d049a27,0x3e2a4d4f,0x3e569ac3,0xbe8180a9,
0xbd4358fb,0x3d9ba2ff,0x3d452afd,0xbc8912af,0xbc832c19,0x3e448c77,0x3d53c84e,0xbe53a303,0xbd2703a1,0xbda8f4a5,
0xbd690553,0xbccc6bcf,0x3e8a9dde,0x3dd72d51,0x3c33ec25,0x3d12ec13,0xbe218b28,0xbd9a6405,0x3e124c84,0xbe0d53f7,
0xbc820767,0xbe260fa4,0x3dcd27ec,0xbdb8e73c,0xbdc8a93c,0x3d60d9f9,0x3c87ce84,0x3d398983,0x3d40f7b4,0xbdfdf019,
0xbbf66174,0x3dae1c91,0xbd2de863,0xbc34668d,0xbe33e9fd,0xbd618480,0xbe084479,0xbd8f56b5,0x3dcabd32,0xbdd86973,
0xbda80f61,0x3cbfa613,0xbba27f81,0x3bdb8780,0x3d431a82,0xbd79886f,0xbd7d769f,0xbe6c5976,0xbdbf7a92,0xbdff7b7f,
0x3da64c6c,0xbe7cf3aa,0x3d2440ca,0x3e03af1b,0x3e46b0ee,0xbd18d609,0x3e59746c,0x3d69ec25,0xbc337975,0xbc2156b3,
0x3e6b7afe,0x3c3a7439,0xbcac8f25,0x3d36f25c,0x3dde96cd,0xbce9cd94,0xbe86bb59,0xbdc29d16,0xbd23187d,0xbca12edb,
0x3c1bcfc5,0xbd4eb293,0x3e254606,0x3e4903cd,0x3dfbc39c,0xbcf8d095,0xbb5ef4f3,0x3c9f0859,0xbd1c4c89,0xbd9d7350,
0xbe01a30d,0x3e00f345,0x3cf6bf2c,0x3e18cee3,0x3d3c42ce,0x3d041ff6,0x3c22af7a,0x3c944ff3,0xbd88c1f5,0xbd9a6292,
0xbd20ddbd,0x3d3a44a7,0x3e0e3093,0xbde23dc4,0xbd9cc69d,0x3dedd963,0x3ddb8e79,0x3b62745c,0x3d1d13e9,0x3d41725b,
0xbca1b2d8,0x3c8b183f,0x3d04238b,0xbcbf2601,0x3d827bb9,0xbae819d8,0xbdc87f8a,0x3dd5537b,0xbdc81d38,0xbe0e07be,
0xbda68b73,0x3c8dd06d,0x3dc4715b,0xbd992572,0x3dc0ba3c,0x3d1e3ffc,0x3d2b9aaa,0xbddabf83,0x3dc011c3,0x3d630b63,
0x3b5377c8,0x3dc97388,0x3d8f2306,0x3d30d2f8,0x3c944638,0xbcc2ed8e,0xbcffc22b,0xbd23089b,0xbd258c48,0x3dba73c7,
0x39bc08af,0xbdeadc60,0xbdf52af1,0x3dc9099f,0x3e62a38d,0xbd45f08d,0x3e6d9fac,0xbdbebdfb,0x3c437e46,0x3e26f2f5,
0x3e3169cd,0x3e361032,0x3d6643bb,0xbe1ff310,0x3e20fa47,0xbce9e9f2,0xbe1a3442,0x3d6105ca,0xbddf2ed4,0x3d8ec62e,
0xbe202011,0x3d9d98b9,0x3cf83526,0x3d11c5bc,0xbdae30cf,0x3bb7ded4,0x3e0663f5,0x3e29110a,0xbdad4977,0x3ebc1383,
0xbe19a9ad,0xbdccafdb,0x3e4ea16d,0xbe17b41a,0xbd0a4132,0x3d265d29,0xbe0428b6,0xbd19f34a,0xbe6574b6,0x3c9c4912,
0xbe225b73,0xbe5b997c,0xbdfdf526,0xbe357e17,0xbe3404d5,0x3d87d1f1,0xbcda33bd,0xbce2fc7b,0x3c80335b,0x3cb1b052,
0x3d35d243,0x3e231c5c,0xbdf09cbf,0x3e5afc0f,0x3dbe6422,0xbba2b36d,0xbba95ffe,0x3e59e316,0x3d65f6fd,0xbca06945,
0xbe5eebf5,0xbd195175,0xbe11e4f9,0x3d626deb,0x3d59ca73,0xbdcf30c1,0x3e0b550b,0xbe95c10e,0x3e002436,0xbdefb3d8,
0x3dc40b2c,0xbe1cbf4b,0xbbf64e13,0x3e0f2317,0xbe4b699b,0xbdba882c,0xbe1fd6c1,0x3d80048f,0xbd7afb50,0xb9bd679b,
0xbe1e4084,0x3e3760aa,0x3ecb1668,0x3e7c4cbc,0xbda4e7a5,0xbded817e,0xbd998138,0xbe107d8f,0x3c62bd9b,0x3c2b9f66,
0xbd2ee600,0xbd2c823a,0xbd84aaa1,0x3db92d11,0xbcbd2937,0x3c003b4e,0x3d02cce2,0x3d2bd6a6,0xbcb8ed58,0x3db56ba6,
0xbd4811f2,0x3b6e84dc,0xbe02e465,0x3d7f60e3,0x3db1e42f,0xbcb9d893,0xbce732ed,0xbbea884f,0xbde32a72,0xbccf84e9,
0xbb2c73b3,0x3da9a090,0x3d467e07,0xbd1ee4ad,0x3bf143c4,0xbde6a750,0x3c2aa912,0x3ca94ba3,0x3d008145,0xbd655c7e,
0x3ce898bf,0x3d5e6072,0xbd872ef5,0xbd8fa7be,0xbd4d0eb3,0xbce10f0c,0xbcf65093,0xbc6aa14c,0xbceee3bd,0xbd656e4c,
0xbc0dd9e2,0x3da961fc,0xbd35d4a7,0xbe41e751,0xbdf71f30,0xbe3735de,0xbe7c9d5d,0xbe2ae016,0xbb464507,0x3d78f102,
0x3d9193dd,0xbd2f2d13,0xbd1b97dc,0xbe2e7d19,0xbcd5b640,0x3c4f9022,0x3db23214,0x3dc51508,0x3c08c6a2,0xbd8ca583,
0x3d18efae,0xbd0d38d7,0xbd377fe9,0x3d5c2cf2,0x3c73da5e,0xba51a051,0xbd8103fe,0xbcf0f59b,0xbdba99fc,0xbd8c090d,
0x3d54ecf8,0xbaff2684,0x3c23d1b6,0x38f0427d,0x3dc7a9c4,0xbd6a78a0,0x3c7dbf01,0x3d26c198,0x3c5bd7b5,0x3d1d91d0,
0x3d699245,0x3e04e5dc,0x3d474cce,0xbb4ebce8,0x3d6ddbb9,0x3d3af0ca,0x3aaef1ea,0x3c62cdda,0xbd14b0f6,0x3b2aa5f7,
0xbcdc6c3f,0xbd6388e2,0x3c97380b,0x3ce6596a,0x3cd4110f,0xbd815606,0x3d88ec4b,0x3df56952,0x3b6002e6,0x3dfe29dc,
0xbd04677c,0x3cd0b478,0x3ad0eaaf,0x3c893e7b,0xbdcaa442,0xbd348481,0xbd633ea4,0x3d8d865d,0xbda38d94,0xbcca2767,
0xbdb52656,0xbdaaa2b7,0x3c3dd8a8,0x3d7fba83,0xbda9da8b,0x3d922ce7,0x3d2210df,0x3de564f2,0xbd9fae5a,0xbd87bcb4,
0x3d007e34,0xbd41b6ce,0x3e0b8530,0xbc87abb0,0xbc92058d,0x3c8c47bc,0xbe203b6e,0x3d03b509,0xbbf00dfa,0x3d8b5ff1,
0xbd37aa7d,0x3e09ab19,0x3c08afcd,0xbc0f9608,0x3d05987f,0xbcca8942,0x3e0fc819,0xbd263b59,0x3d338ee0,0x3c8e3652,
0xbdf22c32,0x3ddb0674,0x3d8fc122,0x3d06d694,0xbcb61a3a,0xbe32bb8c,0xbd2e8fd8,0xbbfcaf52,0xbd6f38c9,0x3d99757d,
0x3d870f64,0x3d04a5e8,0x3d89df5c,0xbdfc8f78,0x3d5a5def,0x3df0ddd6,0x3d4dc00d,0x3d11c653,0x3d99f240,0xbe7266d6,
0x3c308ed2,0x3daa8cfd,0xbc9083da,0xbda202ed,0x3c83f0fe,0x3ce84d02,0x3c0912e2,0xbd948ba4,0xbced63da,0xbe2ceff1,
0xbd238c5f,0x3e102df7,0xbd3c0746,0xbd4d40eb,0x3c3e435f,0x3c1396ef,0x3ca17db2,0xbde427d0,0xbcf1e9cf,0x3d8d9950,
0xbd819650,0xbcdff67c,0x3bfb918f,0x3c3cdc72,0xbb6edb11,0xbd8378a6,0xbd72f726,0xbd5c106e,0xbdcef635,0xbd74f16b,
0x3c1d8ef6,0xbd994029,0xbe02c19a,0xbd3a79d5,0x3d4b463c,0xbd9bf9cc,0x3d82c249,0xbdb0c4ad,0x3da3022c,0xbd3e8b00,
0xbd38f3d1,0x3e0e1781,0x3c00bba0,0x3e65a20b,0x3af4afe2,0xbc38217b,0x3e12ae1c,0xbc2f7edb,0xbcb7c33a,0x3e069710,
0x3c1bfba5,0xbdc66cf8,0xbdc12ae7,0xbe025a07,0x3cbd002e,0x3d5c73de,0xbcd68df3,0x3e16d981,0x3dcf9d6c,0xbcf51e65,
0xbd4f26cf,0xbc6ff2dc,0xbddbcf81,0xbd85b3af,0xbd0d50e0,0xbbcad580,0xbd964bce,0xbd221292,0xbc050340,0xbcbd24f1,
0x3da8868f,0xbcf40df2,0xbc940d03,0xb961578e,0xbdbc55b6,0x3cf79370,0xbc3f1fb7,0xbbe93223,0x3c43741b,0x3e13ca67,
0xbc625224,0xbdf19ae6,0xbc4d0799,0x3cc4f469,0xbcff8d0c,0x3db32288,0x3ce1da55,0x3c2d7379,0xbc44a65b,0xbe1b85f3,
0x3d04acaa,0xbdce2b44,0x3d2bc14f,0x3d7eaf3a,0x3de2b2d3,0x3d08135e,0xbcd0cb4f,0x3e02b4ac,0xbca536da,0x3d1ec9c3,
0xba81b140,0xbde27b20,0xbd5331c4,0xbc9eb11c,0x3d9f7684,0x3bf92820,0x3e24da69,0x3d6ee1ce,0xbdf7c718,0xbd914e8a,
0x3cb2d9eb,0xbe0c41d1,0xbdb1d435,0xbe11153d,0x3c45e854,0xbe351dba,0xbcd7ca22,0xbd3f73dc,0xbe202579,0xbd9fa833,
0x3d2577da,0xbcdcbdf5,0xbd392872,0x3d2dc620,0x3d3110a6,0x3d9d2d95,0xbac28c01,0xbda799d5,0xbd331565,0x3d6d07a2,
0xbd403bcd,0x3b601d26,0xbaafe5d3,0x3c5bfaa4,0x3c0d762e,0x3cbdac1d,0x3d097aaf,0x3c8289f7,0xbc2a7d62,0x3d84e762,
0x3c7466be,0xbd73f456,0xbd176e76,0x3d1a5c00,0x3d5bf5b5,0x3be14d3e,0xbcbdc057,0x3d4e8326,0xbc396caf,0x3ca8de7a,
0x39bf2060,0xbb8bfd66,0x3d38ae76,0xbd61e91e,0xbc3492c7,0x3d0e4d99,0xbd024401,0x3cafd972,0xbd399c11,0xbce8ae38,
0x3e0306aa,0x3c7f8009,0xbb1100e9,0xbd210abf,0xbd122867,0xbcd39a6d,0x3c0ce167,0x3d129c47,0x3ce3c247,0xbd4aed11,
0xbbdd9de8,0xbcde9c0d,0xbd1d5dc3,0xbb8708f9,0xbda66b8c,0x3d2f5e9a,0xbadf01f0,0xbd3318e5,0x3d752c37,0xbda8f733,
0xbd74e465,0xbcb210ce,0xbcaf7197,0x3c8aae07,0xbd2348d3,0x3ccf2f57,0x3d3fb87d,0xbcc74b77,0x3cfa9023,0xbcd2fc06,
0x3d145031,0x3d76a177,0x3db73ce1,0x3d8e94d2,0x3d26c1a5,0x3b918a5f,0x3d97789c,0xbd06197e,0x3dcb93d6,0x3db80362,
0x3d2bcdd8,0xbd2e9288,0x3be383d0,0xbc344f26,0x3e13c2a5,0x3c95d340,0x3dc86a58,0x3ceb6c94,0xbb34d734,0x3d7ec103,
0x3c806c94,0xbd00b5c2,0x3c09925d,0x3e0911d8,0x3e16b4b0,0xbde39de9,0xbbff0719,0xbcdd89e3,0x3e0153d0,0x3dc1f382,
0xbd7f7cdb,0xbcb75348,0xbdac1afd,0x3e1809d2,0x3d8fdbee,0x3e394557,0x3a206487,0x3d4627e2,0x3c6c250e,0xbd8c117a,
0xbda21ef5,0x3cc3ea1f,0x3d4e0a7a,0x3c8841f5,0xbda47017,0xbe2d2638,0xbb804a30,0xbd2b59a5,0xbddb64a3,0x3e0cbfef,
0xbdb3f4f6,0x3d183e95,0xbdc4e820,0xbd0ca9c1,0x3c24d2b9,0x3c382f7b,0xbe189257,0xbd45ea15,0x3e09d92c,0xbc4fb708,
0x3e5ca555,0xbdc0be3b,0xbdb4c8e3,0xbcbf25f2,0xbdd31bf1,0x3d90f0a4,0xbd4e1a6f,0xbdcd47d7,0xba26cbae,0x3dc1c236,
0x3cfe3df6,0xbc6b14d6,0x3dcc6d50,0x3b5c18fa,0x3de84d16,0xbc2bf829,0xbcb3dba9,0x3bed6832,0xbe3efce7,0x3dfe0bfe,
0x3bc0f198,0xbd41e243,0xbcafa658,0x3daa0daf,0x39dc7943,0x3d7ef98f,0x3c230bbf,0x3c00a37b,0x3bb2a4c6,0x3d0acac1,
0x3c898c63,0x3de8bedd,0xbdb56082,0x3e1bb40f,0xbb9a0c3c,0x3cbc4962,0x3dc257b9,0x3d1ba81a,0x3bf594c6,0xb9791c04,
0xbc85e1e9,0x3db0d460,0xbdb5c299,0x3b3027a7,0x3e037682,0x3d209321,0x3d49642e,0xbde41b4d,0xbd5db773,0xbb892d92,
0xbbd35ba3,0xbd88f017,0x3d943228,0x3d3c5a50,0x3c0f82ef,0x3b59ceb5,0xbdbc7ce9,0xbd07125c,0xbcb5236e,0xbc975acd,
0xbd5c88ce,0x3d89b265,0xbd8a4af7,0xbcb79561,0xbdb72aca,0x3da7cc2d,0xbe07d309,0xbd436786,0x3c1bd7fd,0x3cc620d5,
0x3e482e59,0x3d8acf50,0x3d83a9dd,0xbd77cbb2,0xbdad5c6b,0xbd3282e9,0xbd7bd381,0x3e022fa8,0xbddd027e,0xbcaeb899,
0xbcfba269,0xbdb28278,0xbd51f533,0xbda11572,0xbb358e02,0x3e072795,0x3e14ed83,0x3e264df8,0xbde9c91d,0xbd8c49bf,
0xbdbf77e9,0x3d77c303,0x3d5b3ee7,0x3d396b9a,0x3b153baa,0xbe06d31c,0x3e2f1c60,0xbdcfd449,0xbd7f0708,0x3d8d48a0,
0x3d434851,0xbc425ef9,0xbd9e3eb2,0xbd0b4730,0x3d880e69,0xbe2c31ce,0xbc98c962,0x3e010e5d,0xbcb8fe47,0xbcfa9ba9,
0xbca806a4,0xbd976aab,0xbd600088,0xbc077300,0x3c127958,0x3c0b6081,0x3d5dbcf1,0xbdbb6ee2,0x3d318013,0xbd2325c1,
0x3d3891eb,0x3e433910,0xbdbec8c1,0x3c981cfb,0x3cbd1f4e,0x3d4f7ddf,0xbc38e368,0xbd8c1852,0x3d485464,0x3d99eafc,
0x3d8f02fc,0xbcb84fd9,0x3d3df24f,0xbe0e34e0,0xbd8b9735,0xbc032c16,0xbd1e9fc2,0x3db363cc,0x3e179995,0xbd07bfd3,
0xbc86d667,0x3d2c050d,0xbd866658,0x3d8f6c4c,0x3dba258d,0xba93f58e,0x3d622346,0x3e2521ac,0xbe540013,0xbdd495ec,
0xbdb24408,0x3d78b4b3,0x3dfefd46,0xbd27de0a,0xbd84d044,0xbc83fb76,0x3d50e4a6,0xbdc39c5d,0xbe196525,0xbe0c88b0,
0x3e541673,0xbd660ea5,0xbc4aebbb,0xbd9227d3,0xbd7e8830,0x3cb0d5f1,0xbe157496,0xbc81080a,0x3cd65217,0x3c1dfba5,
0x3cee624a,0xbe1603eb,0xbd812179,0x3da3177c,0x3daac5f1,0xbdf5dc2b,0xbce4fdc2,0x3e3df325,0xbe3dc2d5,0x3e1cd212,
0xbc5c3990,0xbc80d83e,0xbc23f771,0x3ca2c92b,0x3d1d81d8,0xbdb1edc8,0xbdd118bc,0x3dc457a4,0x3d1337f2,0x3dc72e4d,
0x3d3f6f9c,0xbde1abc7,0x3df9ee07,0x3dc3d526,0x3db1fc19,0x3e26914f,0x3dce9e2e,0xbde3efcf,0x3d796887,0x3d61856d,
0xbb596f15,0x3e48409e,0xbc130412,0xbdd65416,0x3d9c972e,0xbc1936de,0xbd992023,0xbe1169bf,0xbe0fcc19,0x3d054c23,
0xbd2aec4f,0x3c97de0b,0xbc91254c,0x3e107387,0x3cbfd636,0x3e333f72,0xbd147614,0xbdbd811b,0x3db20f56,0x3d93b4f2,
0x3e05f2d6,0x3e13cbd4,0x3d8d4153,0x3d5d7e03,0x3dbf7c4e,0xbdd0d60c,0x3d883bca,0xbd04df14,0x3e341505,0xbcd571bd,
0xbcf97c9b,0x3defd90e,0xbc9e1d26,0xbe35f7e1,0xbe1f1925,0xbdf0ab08,0xbd66f973,0x3c20373f,0xbdb98824,0xbb82993c,
0x3db95b9b,0x3d8cf95f,0xbb43ab0b,0x3bbb97e3,0x39a89648,0x3c6aa13f,0x3da39427,0xbe282e6a,0xbdcbf90e,0x3d938c35,
0xbe43a9af,0x3d0b52db,0x3ce90751,0x3cd5c215,0x3d056680,0x3dc4c7b4,0x3c47049c,0xbe256225,0xbe502176,0xbc486bfb,
0xbde1b0a9,0x3d3c68d0,0xbe4b79c9,0xbd169c11,0xbe11cdfa,0xbc41036b,0xbdde3a7d,0x3d29e0ec,0x3d9cf739,0xbd7aab8d,
0x3dbb5edd,0x3de4224e,0x3e3e18a4,0x3e2d0e93,0x3df0a9bd,0xbde34b59,0xbd08532e,0x3ca11b2c,0x3df68cf0,0xbdc414ee,
0x3de0b19e,0xbe02b660,0xbd76d226,0x3e16eb46,0xbca240c5,0x3c602027,0x3d4b3127,0xbbd68d91,0xbccf0453,0xbdc397d6,
0x3e0c7d72,0x3e896ffd,0x3dac7f96,0x3e08321b,0xbdca1242,0x3cbf3a75,0xbe48e2f2,0x3c482e04,0xbe21e2e8,0xbdd94773,
0x3e04d752,0xbc1ffb49,0xbdab6d4e,0x3da7966b,0xbd0c78b2,0xbd28cf98,0xbe02b02b,0xbdc1dfab,0x3d103136,0xbd82f483,
0xbc0565a2,0xbc854a0f,0x3cf9d6ad,0xbbeccf7b,0xbd168a1f,0x3d587b8e,0x3d955762,0x3c8ea73d,0xbb380b3a,0x3c47faa8,
0xbdce614e,0x3c95cab7,0xbc029b8c,0x3d1f1739,0xbd7368e7,0x3ca629a8,0x3aef96f1,0xba92d3fc,0xbc54a375,0xbd16b49f,
0xbd702ef7,0xbd365740,0xbd6dc1d5,0xbd855918,0xbdba9a5c,0x3d933849,0xbc9d08eb,0xbc1b975f,0x3e02b645,0xbd4a4f1f,
0xbd60dcef,0x3d24b134,0xbced5df3,0x3ce203b3,0xbd565b04,0x3d1005e9,0x3d0328c4,0xbb30489a,0x3d843b95,0x3dc7348f,
0xbd82b5cf,0x3d118b11,0x3d9e060a,0xbdcc6bcf,0xba4226f2,0xbc4c78ac,0xbda40e22,0xbd057bb8,0xbbfe0a8c,0x3cc95c34,
0x3cc2091b,0xbdc37eb0,0xbc9991de,0xbd5e4bbd,0xbd66e3fa,0x3cc1eb18,0xbd043fe8,0xbcaf052c,0x3d5a3797,0x3bb4b562,
0x3d195853,0x3c9d46c8,0x3cf5740e,0x3d31856e,0x3d20d234,0x3d491967,0x3d101147,0xbccb189c,0xbbe247de,0x3de38ff9,
0x3d12b3a4,0x3c07d57f,0x3d5faf1e,0x3c9b9bdb,0xbc8e48f3,0x3b00f851,0xbc31d00e,0x3d86d58e,0x3b496aa7,0xbda7fd00,
0xbdc124f8,0x3c25a6bf,0xbc11906a,0x3c66e0d0,0xbd0167b5,0xbd71ee6e,0xbd538d33,0xbafdc029,0x3bb0bb46,0xbc854e05,
0xbcfda426,0x3d04ab61,0xbb697715,0xbc4beabb,0xbda154f4,0xbba0d5b9,0xbdc2db5d,0x3c179c1c,0xbbf3aebf,0xbdb3fb79,
0x3bdcc550,0xbd12edaa,0x3c93bfd0,0xbd9445b8,0x3d038825,0xbd036e59,0x3d7db13a,0xbde57020,0x3dcb82fc,0x3d8c07cc,
0x3d508024,0xbbe27735,0x3c6c2431,0xbad92d63,0xbcc9e145,0xbd4cbfc9,0xbd3d2698,0xbd5ae19f,0xbd99eac3,0x3bebbf9e,
0xbd29e5ec,0x3cdc6ab1,0xbcc8635e,0x3d4ca744,0xbc3f803b,0x3bbcbd6b,0xbd01c164,0x3d6f1070,0xbb9171d1,0x3d056732,
0x3d7d3e67,0x3d804730,0x3e141c49,0x3c0605a8,0xbd368ed9,0xbd387dcc,0x3d572bf2,0x3d086d8f,0x3b708d74,0xbd77fd5c,
0x3c8afda2,0x3e1cf9ba,0xbc4d8e6f,0xbc712143,0xbda5854e,0xbd486c4d,0x3b82c579,0x3d89a0b2,0xbd1c690b,0xbd91600c,
0x3d55d15f,0xbbd4dd14,0x3bd7fa3a,0xbd4935c6,0x3d451a46,0x3de1fb50,0xbd2c6338,0x3e0d291c,0x3e3295ed,0x3d5e7a53,
0xbdae567e,0x3c0ddffc,0x3d5487a3,0x3d2929e4,0xbe0548a5,0x3d5d5a98,0x3cef09f8,0xbd3d4fcd,0x3dab25db,0xbd31cc63,
0x3d88d7b3,0x3d9a978e,0xbb6e5efd,0x3d7cd853,0x3dcdf06a,0xbc8ae410,0xbc42131d,0x3d4dbfca,0xbc1bfd07,0x3d740916,
0x3d6a2202,0xbc857e2d,0xbdafc67d,0x3dd0bc88,0xbd74b8ba,0xbd76b7dd,0xbd3bf655,0xbd699c06,0xbdb0b46b,0xbd830975,
0x3c3bb792,0xbbfc80bf,0x3dc1898f,0x3e411778,0x3ac37db1,0x3b0eebd6,0x3d38d322,0x3d5fa4b9,0xbd5e1abd,0x3db47d68,
0x3d454f02,0x3db503bb,0xbd6ddc8d,0xbd46c833,0x3d87c4b8,0xbd6754e8,0x3d5607d8,0xbd51fa78,0xbd19a4e4,0x3db1ece4,
0xbd5edb4e,0x3b63470d,0xbd6af174,0xbd978333,0xbd075a8f,0x3d9958ad,0x3d56d478,0xbd819143,0x3d58069e,0xbdeb3907,
0xbe0b80da,0x3d864be0,0x3d2ff855,0x3d92a616,0xbdcb72e8,0xbba10605,0xbd34576a,0xbd7002ef,0x3cea8aa5,0x3d5480dc,
0x3e261234,0xbc1f3faf,0x3ce2e297,0xbd0eadd7,0x3d0854b6,0x3dad19d7,0xbd6e668a,0xbe33de61,0xbc386ea8,0x3cf35993,
0x3ccd0497,0x3c7a0996,0x3cb0b18c,0x3d81d21a,0x3df30e33,0x3d4352b8,0xbd94e136,0x3d377438,0xbcd7d94d,0x3949956f,
0x3c56f28f,0xbd894e4b,0xbd259e4b,0xbe0a1243,0xbc2c3a46,0x3d70d4e1,0x3dfa2401,0xbc062b9b,0xbd112dcd,0x3d3b94fd,
0x3d20b9f9,0x3c058a25,0xbd67c050,0xbcc976fa,0xbc007df9,0xbd277d28,0x3e2f677b,0xbd0c270d,0xbdaf1f3e,0x3df4c422,
0xbb348739,0x3c05e991,0xbd91925c,0x3d2931a7,0x3da491d9,0x3dcadba3,0xbcf90a64,0xbd63ed95,0x3b9cb61b,0x3e01061c,
0x3db21ed1,0xbd5238fb,0x3da358cb,0xbdd5961b,0xbdd345eb,0x3caf3bfa,0xbc35c28a,0x3d4542af,0xbdc3654f,0x3d5c6b32,
0x3da0a636,0x3d8b88af,0xbc1bc4d9,0xbcff6467,0x3d2912f4,0xbd406fe4,0x3dc17a42,0x3de0adb5,0x3dbe25fb,0x3e7e1524,
0x3cf12cef,0xbcc630a3,0x3d4ddd61,0x3ddabcb3,0x3c19d178,0xbd0327b8,0xbc8c1a37,0xbdff3e33,0xbd344880,0x3dcda5d9,
0x3af07512,0x3c13d789,0x3c24b6ff,0x3dbc7599,0xba7a0953,0x3d492505,0x3c8ae2d3,0x3d27fdb7,0x3db0fd44,0x3d3614c3,
0xbd2ee97f,0x3d9b8a4d,0xbdefe588,0x3dc3e8b6,0xbbbe61cf,0xbdb577ec,0x3d3e1616,0xbd09fb38,0xbdb9cb0e,0xbdac7023,
0x3da91988,0x3d55b9c7,0x3cff508e,0xbdb9c941,0xbdd84173,0x3d8a5646,0x3e0f8a6f,0xbd5dd1ad,0x3c912766,0xba0aaacb,
0x3dc373a3,0x3de35fb5,0x3d8bcea9,0x3e327521,0x3da32d4d,0x3dd3b334,0x3c9f75f4,0xbd1557ef,0x3dc1f88f,0xba5cc900,
0xbdb6685c,0xbd4a5cc9,0x3d4a047f,0x3def50e2,0xbda54954,0xbdcf57e4,0xbd52ea0b,0x3d512e4d,0x3c28fb22,0x3d10fa00,
0xbbbf60c7,0xbd818e17,0x3dbc5e08,0xbd14aa40,0x3d8fea91,0xbcc9b753,0x3e06cee9,0x3e7ff44f,0xbdfa9694,0xbc429ccb,
0x3de26172,0x3d60e872,0xbd0a701d,0x3bb73381,0x3d2263f7,0xbda255f3,0x3db15b65,0x3d4e437d,0xbd960746,0x3c53477c,
0xbbde49a3,0xbcfd2700,0xbdf1e24c,0x3c991810,0xbd9b86bc,0xbe24f1cd,0x3d82a5b5,0x3d65b22c,0xbdbe1e71,0xbd3df6e8,
0x3da94581,0x3badb7d1,0xbd7d1014,0xbdaa11d5,0xbc5e964f,0xbd8167da,0xbc687b89,0xbd4cb94d,0x3da14568,0xbb193b29,
0xbd563b4a,0xbce47d4e,0x3a74ce89,0xbd7c486e,0xbccaeb35,0xbe129e0c,0x3d9aea48,0xbe21365e,0xbd8422a7,0x3e1ef0a4,
0x3d17e2f4,0x3da54328,0xbe22c633,0xbd9b8ed1,0xbd054537,0x3c8da1c8,0x3cfbc1ce,0x3d88ddc8,0x3d048fb4,0xba83bb9b,
0x3debc838,0x3bafa38b,0x3e6b5460,0xbe73735a,0x3d8129ba,0xbcc3e831,0x3c549d34,0xbd4b9eca,0xbcfc7202,0x3ddc66f3,
};

