const static size_t backbone1_11_0_weight_size = 2592;
static unsigned backbone1_11_0_weight[]={
0xbec7862e,0xbe5d9b27,0xbe8a4f8f,0xbe8b6520,0x3e7b6953,0x3dc10b12,0xbeff9fdb,0xbea46e74,0x3d9cbb39,0x3edb6186,
0x3f0b571d,0x3d867727,0x3e079920,0xbde533c7,0xbe0c0be8,0xbd7b82ab,0xbcf09515,0x3ca0107a,0x3ea0f79a,0xbed2c81d,
0xbd3abcb8,0x3edb8bb6,0xbef17319,0xbebb90fa,0xbc875118,0xbe282d2c,0xbe605128,0x3e655bee,0xbe4bd1ef,0xbd93eff6,
0x3f92bb74,0x3e1e3e9b,0xbdfc983f,0x3f527442,0x3e9e9b5a,0xbd123686,0xbc85ba39,0xbf7c64bb,0xbf7f6013,0xbd09bf85,
0xbdb18563,0xbefb74be,0x3dae384a,0x3ee09379,0x3eebc038,0xbe10e63d,0xbd822b72,0xbeac11f4,0x3b6a9ca1,0x3f1b1231,
0xbe2ae3fa,0x3ea1f581,0xbdbbc768,0xbeb64f84,0x3ec06633,0xbf6969b3,0xbee06512,0xbd9e22ac,0x3eb20610,0x3e948d53,
0xbece9399,0xbc5614f6,0xbd331ff5,0x3ddd38d8,0x3f03d50f,0x3e2a626e,0xbf190f2c,0x3e235104,0x3e9edecc,0xbf0ce0b8,
0xbf0e77b4,0xbe0f4f06,0x3ae63d9d,0x3e7f18cd,0xbda05cf5,0xbf19f159,0x3eec8bec,0x3e770e5e,0xbe323748,0xbe22bd93,
0xbb5bf907,0xbe0127fe,0xbf00ce45,0xbdd02ca2,0xbe95af09,0x3e91acc8,0x3e820cb3,0xbf34ea21,0xbf07ecb5,0xbe22c43e,
0xbdd4a846,0xbdee101c,0xbedff350,0xbd3d4b84,0x3df11881,0xbf50216d,0xbc41e0db,0xbf06155b,0xbf5b6c08,0x3ec699d8,
0x3f3743cb,0x3efdde93,0x3ca70398,0x3f63e546,0x3e638b90,0x3e7589eb,0xbe40ad5c,0xbddc4ab6,0xbe30ff93,0xbeb7f482,
0xbe2022d8,0xbf18bbf7,0xbf05e195,0xbeb8e36d,0xbe638daa,0x3ec14187,0x3e9c9f87,0x3d2d4755,0xbd240019,0xbe395e7a,
0x3dce1bbf,0x3f6488b9,0xbebf1e60,0xbe95a292,0xbf132985,0xbf7b6514,0x3f207862,0xbd0ab9a5,0x3e16288e,0x3eac48fe,
0xbe9e9406,0x3da18501,0x3e943ecc,0x3ed7c96a,0x3e830bf8,0xbdbe9472,0xbe4c4596,0xbee5a41b,0xbda35246,0xbf426e3b,
0xbea0284b,0xbe371952,0xbdc5d787,0x3e09595f,0xbe25220f,0xbee62bd0,0xbef374db,0xbb4e9ad5,0xbdbd1c98,0xbf02c864,
0x3dd8326d,0xbe3d7112,0xbe837174,0xbde61cd1,0x3e70e3b7,0x3e4d19be,0xbe2e5240,0x3f8f8d59,0x3ee03101,0xbf6d9699,
0xbe9acc19,0xbf03f45b,0x3e38e490,0xbd260261,0xbe2ae174,0xbe0177d2,0x3f6ce6ce,0xbe269782,0xbf2301dc,0x3ce397c9,
0x3dc03927,0x3f0a9071,0xbd406741,0xbed8036d,0x3ef07955,0x3d6ecc8a,0xbe53ca61,0x3de83862,0xbe965e90,0x3e3faf1d,
0xbd838cc7,0xbe6d389f,0xbecb72f6,0xbe33cc38,0x3fc5441f,0xbda7e14a,0xbe824310,0xbe533fc0,0xbef0b771,0xbdf250d4,
0xbe1c5b12,0x3e8088d1,0x3ed1a078,0x3e83432c,0xbe26e77b,0x3e8befc6,0x3f9ce3c7,0x3d0879bf,0x3e1f8ab6,0x3e7104f5,
0x3e4bd557,0x3e5f68d1,0xbe71dd53,0xbee76220,0xbdf46ffb,0xbf1a33d3,0xbf14d6c8,0xbede4d0c,0x3be7577e,0x3e059e73,
0xbe2e15e2,0x3f23d2e6,0xbd0fd74d,0xbee35503,0x3e1fbf7a,0xbcdb6084,0x3e322f92,0x3f76f79f,0x3e492d24,0xb8c32a3f,
0x3dc8816a,0xbd39f68f,0x3c20dd94,0xbe1796da,0xbcac9993,0x3c955645,0x3eaaca5d,0x3e9761a7,0x3ea7cd0a,0x3f068914,
0x3ee55987,0x3f012f38,0x3ee0df1b,0x3ea7dc3c,0x3de49a4b,0x3ec8b579,0x3f7047f3,0x3df6ad6c,0xbf2e3c1b,0x3eb12c00,
0x3e0c2f32,0xbe014648,0xbd1ae066,0xbf680770,0xbf5c2ded,0xbed2525c,0xbf567ddb,0xbfd1d2a0,0xbf2470da,0x3eb4d3a7,
0xbedd207d,0x3cee8784,0x3e7ae192,0x3e21f8b9,0x3e2b75fc,0x3e5f9d3c,0xbf97a7c0,0x3d4f24f7,0xbd30c809,0xbdca81e9,
0xbe15d9be,0xbf88b9d7,0xbf61c71b,0xbf38c6fa,0xbe52ae27,0xbe8e9337,0xbe56b599,0x3e21ef63,0x3e0c34a1,0xbe16728f,
0xbebbb998,0xbf0ac4f7,0xbf1698d4,0x3e9eceeb,0x3f1fea65,0x3df19bed,0x3e376561,0x3db48b2a,0xbeaa9d50,0x3dec064e,
0xbe11d0c0,0xbe612694,0x3e2bf58f,0xbfa68c17,0xbe85223a,0x3e8fdae9,0x3e260045,0x3d86ad63,0x3dbacee3,0x3eb73df7,
0x3e937e01,0x3d3ee4dc,0x3ee8e9b2,0x3c231f93,0x3f22ad41,0x3efffc85,0x3eb56f00,0xbe603ed6,0x3e29d8b0,0x3eb7ae8b,
0x3960506c,0xbf40a334,0x3eea8cc3,0x3d84aaa5,0xbe52f62f,0xbe6e1ae7,0x3f6d09ad,0x3f17dfe4,0x3f4b7ceb,0x3eb21fab,
0xbeb257e5,0x3e4b7ee9,0x3e4a0569,0x3df54f1b,0xbd804c0b,0xbf18b2f1,0xbee09bd5,0xbd89d7d0,0xbf281d69,0x3ecbb2d7,
0x3da7be17,0xbda1a2e1,0x3ea0f04e,0xbe78dbfa,0xbf17a692,0xbf1c072e,0xbd50fd24,0xbebfaae5,0xbead764d,0x3d72ac31,
0x3d9fd1a0,0xbe4b74d3,0xbe003ee2,0xbfa7151e,0xbf72e723,0xbd5aedc7,0xbf542343,0xbe048981,0xbe5b46a1,0xbe8b9735,
0xbdccf476,0xbe709aab,0xbe1ff2d8,0xbc39fd89,0xbf2bb039,0x3ec8abed,0x3faef4c0,0xbe99248b,0x3e37702a,0xbe105439,
0xbe5ebf97,0xbd4324eb,0x3e8b1076,0x3d7b0820,0x3d8ca610,0x3f52143d,0x3e74e04f,0x3d12ede4,0x3ec7df7c,0x3e165a3a,
0xbe5909e2,0x3e048994,0x3eee8286,0xbe0af581,0x3f5493fe,0x3ebcd88b,0x3d06f714,0x3cee4b49,0x3eaeb23b,0x3ed71823,
0x3eb0ea57,0x3da31a81,0x3f2c8293,0xbf6acf7a,0xbf3c0a7c,0xbe074011,0xbdd5ab92,0xbeef8ae0,0xbeeba95b,0xbec268ea,
0xbdacb29a,0xbf48d3ae,0xbed242c7,0xbd868493,0xbedf680d,0xbe3ffb43,0xbe20ef9e,0x3e89f5f6,0x3eab1d57,0x3f6f95b7,
0x3e341119,0xbf748b44,0x3f1ec34c,0x3ebf70dd,0x3e8d8daa,0x3f06dc4f,0xbd2e199f,0xbd960f14,0xbe49daaa,0xbeec2801,
0x3eb8dc9b,0xbeb60001,0xbfab828f,0xbf7418b6,0xbf102d7a,0x3f810f4f,0x3f996d80,0xbdd3a07a,0x3ef68255,0x3ecd267e,
0xbe49f213,0x3e5bfd54,0x3d1ab16d,0x3d5a59d0,0x3d6cdb1f,0xbf4e9ce0,0xbf427af4,0xbf3b698c,0xbf94edf9,0xbf3c802d,
0xbf1c76b1,0xbed7a740,0xbd81a66f,0x3c534c61,0x3eb04110,0x3e8d5d9b,0xbf4e4993,0x3c03818d,0x3e5ff1a1,0xbf89d0c6,
0xbeed44d9,0x3ed6ce9d,0x3edaa6bb,0x3f54417c,0x3e086114,0x3f22b06c,0x3e20fa6a,0x3e28bf36,0x3f4c4caf,0xbe009e6f,
0x3e4f9a51,0x3e984bdb,0x3dc688b4,0x3d1f5651,0x3f99521c,0x3e8132e3,0x3ebc0653,0x3f31df42,0x3f16fb84,0x3ed3cd15,
0x3f95b382,0x3fa7c259,0x3eba5ee3,0x3f708692,0x3f410999,0x3e672e21,0xbebcc3a9,0xbef2b984,0xbec196ba,0x3f8d1eac,
0x3fa42a0a,0x3f1fc637,0xbdcc8bf1,0xbe0e3e6d,0xbd64b24b,0xbf023fa5,0xbef7b8e1,0xbe85db2d,0x3d00ed94,0xbddde3f1,
0xbfad3532,0x3ec9efef,0xbe9871c2,0xbfa0b179,0x3db03632,0xbe8dce2c,0xbf311454,0x3d9c8c91,0x3e73acd1,0x3e967769,
0x3f15953f,0x3f777c6f,0x3e9a2eb6,0x3f09c3a5,0x3e6d0b3d,0x3ef7c55d,0xbf0b9075,0xbf988568,0xbeecd60c,0xbf1b0044,
0xbfa4a20f,0xbf606a3e,0x3ea23d41,0xbdef1ad4,0xbe6657de,0xbdfc985d,0xbe71eb0e,0xbf031113,0xbe75b2c0,0xbef15177,
0xbf396800,0xbf36be84,0xbf44ca92,0xbef7b55b,0x3f03947f,0x3f8422d1,0x3fa661c1,0xbdff29e0,0x3e5a299a,0x3eafd69b,
0xbdf799f3,0xbecd0989,0xbeec4320,0x3c918aeb,0xbf50caf0,0xbedbf375,0x3bd86ac5,0xbfd07687,0xbf634baf,0x3e05a1e5,
0xbf3a5795,0xbed417aa,0x3de61cb1,0xbda0e29a,0xbe5f4883,0x3f013376,0xbf768d2e,0xbf7c1b9d,0x3ec37260,0xbec52001,
0xbf01ff17,0xbee8e72e,0xbedc0f11,0xbd19e81d,0xbe0ffa08,0x3d29a57c,0xbe74a13b,0xbf880aa5,0xbf338807,0xbf999aa8,
0x3f191ea5,0x3e565c4d,0xbf293d9d,0x3ec2269a,0x3f17c881,0xbf499315,0xbebcd593,0xbed2c834,0xbef220f9,0xbea2087d,
0xbe6db9c3,0xbd90ba5b,0xbe2086f3,0xbe153112,0xbf4eaeef,0xbe1640f4,0xbf0c5f8c,0xbf98be6c,0x3f1a03d9,0xbe389497,
0x3e634d01,0x3f43062f,0xbfa70640,0xbf2bd479,0xbe054594,0xbf704cdc,0x3d8fda2d,0x3d560ce7,0x3e98d6b3,0x3cc384ef,
0x3ecb8e64,0xbead78a6,0xbe92552d,0xbf2204d2,0xbf7c0f2f,0xbf812bc0,0x3d0c98b6,0xbf8773f4,0xbf2c7226,0xbf867f77,
0x3e2b8e86,0x3f62d8b0,0xbfb92424,0xbe56775d,0x3f0564d2,0x3fbae1d9,0x3fa45531,0xbe7bfbf9,0x3e244f90,0x3ec7e97b,
0xbe0783ed,0xbfb17dc9,0xbf959737,0x3e134ac9,0x3fa90b5e,0xbe13f66c,0xbf92ef2d,0x3fb8be94,0x3eeefa65,0xbfd9c96c,
0xbe6c4d10,0xbd5885c4,0xbf0222e4,0x3f51b36b,0x3f119618,0xbf598668,0xbd0cf188,0x3d812034,0xbfa4d4e3,0xbf36c8e7,
0xbfb1bdf1,0xbf909f16,0xbecbcd55,0xbf4beeca,0xbf52bb81,0xbfd0583c,0xbfcec199,0xbf87914a,0xbf26a228,0xbe7ebb51,
0xbf159ccb,0x3fb8dbd9,0x3f1d00d8,0x3f9bd96e,0x3edcc6da,0xbe4ef617,0x3f0716c5,0x3f0a6fa5,0x3e15a7d1,0x3e9fffa2,
0x3f940597,0x3f927dbc,0xbea4f4ca,0x3fcf17c5,0x3fd463c9,0xbdfd71d3,0xbe89dfa0,0xbd79fcac,0x3dc85d2b,0x3fe26b91,
0x3fabcd5c,0xbe308bcc,0x3f81ab31,0x3eb27895,0xbea78d22,0xbd3a24c8,0xb8c1e8b8,0xbc962bf3,};

