const static size_t backbone2_4_0_weight_size = 3456;
static unsigned backbone2_4_0_weight[]={
0x3d7f734d,0x3e42c733,0x3e75f5de,0xbd7fe7f8,0x3ea1a9f3,0x3e66173b,0x3d73d6e8,0x3d25a051,0x3eb1b215,0x3ea965c3,
0x3e8c9cb8,0x3e458b3e,0x3e7a6a98,0xbfac9abc,0x3e820dbc,0x3ec53c87,0x3d9c1cf8,0x3e22dfc9,0x3c23fe8a,0x3e837305,
0xbd0e32a8,0x3e5e7289,0xbfb798dd,0xbef8699d,0x3d9c4b94,0xbd9ebff4,0xbe8f3003,0xbd1faa05,0xbe9f0bc5,0x3dbe4c85,
0xbea6340e,0x3f6d7276,0x3e886dca,0x3c01e28b,0x3e88f973,0x3e08c013,0x3da2d96c,0x3f311b7c,0x3f3af57a,0xbf21961f,
0xbde04f4f,0x3f37867c,0xbdc8ef4f,0xbea9303b,0xbe216948,0x3dc44afc,0x3e2f17af,0x3d8d959b,0x3e04e262,0xbfb18db4,
0x3cfe421b,0x3db4349f,0x3d967593,0x3cc5e336,0x385d7e60,0x3e55a432,0x3e2815d9,0xbe0b2748,0x3f5d4d11,0x3ea2d340,
0xbdcd2eff,0x3e1f89f4,0xbca8982a,0x3d81ddd0,0xbea532cb,0xbdfb6b4c,0xbe64cc80,0xbf343252,0xbcdd2edc,0xbcd65675,
0x3d757487,0xbded9b44,0x3ddd8be2,0xbdc2e25c,0x3c4a1e93,0x3db166a8,0x3f7b02f7,0x3dfc11d1,0xbb48172e,0xbd63da48,
0x3cab57c1,0x3d6aab09,0xbe8e90f0,0x3e22fd0b,0xbbacc701,0x3d81cb68,0x3ebfa384,0x3d16fae7,0x3ebadee0,0x3f17b101,
0xbf049df7,0xbf446ab0,0xbe647680,0xbed28b85,0x3e974b89,0xbeb40b86,0xbe1072e4,0x3d2c7e49,0xbf83ae42,0x3df13e94,
0x3a9aac3f,0xbe76fa8f,0x3da69398,0x3f96d5c4,0xbeac42f9,0xbdf9f3b2,0x3e87106c,0xbe651347,0xbe60ceb3,0xbe30ce30,
0xbac31c0f,0xbe705085,0x3f89acff,0xbdafa15e,0xbe70a155,0xbe214ff2,0xbe20e334,0x3d58fd5f,0x3f38471c,0x3e1e3346,
0xbe5fee90,0x3f885c7a,0x3f247da0,0xbea9952f,0xbce2ef3f,0x3e995361,0xbf21ca1d,0xbf39e800,0xbf0af8f7,0xbea22542,
0x3f7bcc84,0xbe8e74a5,0xbea4737b,0xbe3d8f87,0x3c860aa8,0x3d6321d4,0xbe49b542,0xbdde2723,0xbe917be4,0x3dc83ec2,
0x3eda9327,0xbea8a1d8,0x3dff473a,0x3e87231e,0x3dc78a80,0x3da515fa,0xbdcf091d,0x3e04af32,0x3ed1f789,0xbd282636,
0x3eaba6dd,0x3e51bd65,0xbb677e7c,0x3dcee399,0x3ebc7f4f,0x3c3abbc7,0x3f091544,0x3f804f79,0x3d9be953,0x3e322fb2,
0x3d4e4abf,0xbd2ab6c8,0xbde79ebd,0x3ed61ed7,0x3db1e112,0x3e154b73,0xbf7225e0,0xbf254fd2,0xbc990501,0xbf1901a0,
0xbe34e399,0xbdda8def,0x3b7b196d,0x3ba3720d,0xbec93f53,0xbeab6a2d,0x3e818dd8,0xbe1caba7,0xbeace7fd,0xbe49e5d1,
0xbdaaecff,0x3f022117,0x3cc2e32c,0xbe79095e,0x3f4ea0ba,0xbd873d7c,0x3e3eea22,0x3e2da420,0xbe02d8ea,0x3deff544,
0xbe179828,0x3cfb6b26,0x3ece69bf,0x3f913795,0xbe5dd217,0x3de3cb59,0x3eac7856,0xbd2a0445,0xbd26fafa,0xbc1675c4,
0xbd454f8a,0xbe0529ef,0x3fbb7608,0xbe0382a6,0xbe660a22,0xbe9aea83,0xbd71e5dc,0xbdf579ac,0xbee40fd8,0x3cafd146,
0xbebf7e71,0xbe6200db,0xbe1fc8c2,0xbe06f0eb,0xbe89da3a,0xbdf9b594,0xbb9b3028,0x3d39e124,0x3c9aac10,0x3cefd09d,
0xbfbd41e8,0x3d6c17f2,0x3d001b46,0x3d387b2c,0x3d1af519,0xbd11b712,0x3e8ee287,0x3e01d484,0x3f1416fc,0x3f60a5ea,
0x3d56e9bf,0x3ecfb858,0x3f20b874,0x3e5d1055,0xbf2daf7b,0xbf24e93e,0xbed769dd,0xbf0101b5,0x3f5fdcc8,0xbea82e50,
0xbeb71629,0xbecc6f51,0xbe09b33e,0xbe535ad0,0xbdca8c21,0xbe1eece2,0xbd710188,0x3f9c9c6b,0x3e802216,0xbf0106dc,
0xbe7bc643,0x3dcfc685,0x3df541f0,0xbd91e101,0x3d5cf6ad,0xbf0c020b,0xbf93f44a,0x3e0b5b10,0xbe64d1b3,0x3d4bc1b5,
0x3d0d3945,0x3d098904,0x3d989dd8,0xbef3fe94,0x3de37db7,0x3f8ebe28,0xbed8961f,0xbe560c34,0xbefded83,0xbf1c7a2b,
0xbe94a798,0xbecc45c4,0xbf43d0fd,0xbd8cf2da,0xbe775952,0xbedd5734,0x3db3f8e7,0x3d91e884,0x3d062f23,0x3e766076,
0x3e9e1a80,0xbdee94c9,0x3d1f5e53,0x3f9ff7c3,0xbe10ee73,0xbf196bce,0xbf2a0e6c,0xbf0bd9b1,0x3deae483,0x3e434fb7,
0xbd31d63d,0xbda0e0af,0xbf9a81d1,0x3edca3b8,0x3bea81f3,0x3e1340e2,0x3eb78c24,0xbf58bfd9,0xbe2f66bd,0x3e34fa32,
0xbf6c9210,0x3f60ff3d,0x3f378725,0xbf2c310b,0x3e338ac7,0x3e8a452d,0x3e91545a,0x3e9debd2,0x3ea2c764,0x3e3fa430,
0xbed5e6d9,0x3ead3fae,0x3e779a11,0x3e7088b8,0x3e5c8581,0xbd4ab4aa,0xbe0a68b9,0xbda40f53,0x3f0e7125,0x3f46dc0e,
0xbe80c176,0x3da0a459,0x3f1f0509,0x3ea1280c,0x3f57182c,0x3f22a091,0x3edc6fe1,0x3f15ff6a,0x3f01f807,0x3f0e8e25,
0x3e18b7df,0x3ed48754,0x3dd516c2,0x3d83d534,0xbe6c1878,0x3c275f7c,0x3c5869c2,0xbfa1f67f,0xbe70ad41,0xbd95797c,
0xbe5d9506,0xbd84ad48,0x3e821967,0x3e9144c5,0x3e40462c,0x3edb1cd3,0xbeccb63e,0x3e9a17a6,0x3f2c7ac0,0x3da163cb,
0x3f78b672,0xbde3d4c2,0xbe8bd4ad,0xbce76954,0xbf40627b,0xbf3e1fe7,0x3dd56227,0xbdfefd38,0x3e617fea,0x3e213009,
0x3e97befc,0x3ebee074,0x3e24aa03,0x3e8731b1,0xbf98fd3a,0xbd08e0eb,0xbe1c9f62,0xbcf9f92d,0xbb1ce0fa,0x3ea256bb,
0x3c8ac7dc,0xbd42ec24,0x3e2a79a7,0xbf83a60d,0xbe164673,0x3e7c87f6,0x3ba136d3,0xbe8e1aec,0xbe26cfe1,0x3deacb47,
0xbda38629,0xbec88cd0,0x3fd6b225,0x3e152401,0xbe55c3f6,0xbe99d990,0xbdf6ace9,0xbeba7177,0xbecf630b,0xbf80679f,
0x3e9ccda3,0x3d039b54,0xbec82419,0xbe2d9ed2,0xbe73cffe,0xbf8b4a7b,0x3db2947a,0xbe02d82f,0x3db4916f,0xbe152acd,
0xbf9a6862,0xbdbf5bb4,0xbe14bdcf,0xbe284687,0xbd5e5ec9,0xbd75815a,0x3e97c2e4,0x3eea7761,0xbebe74f5,0xbf443521,
0x3eaad2be,0xbe568b4a,0xbe444e33,0x3e3522bc,0xbe64f66c,0x3f278946,0x3ed5e109,0xbe421d82,0x3f36f032,0x3efeb8aa,
0xbf0d3ff8,0xbdac9ff7,0xbe556157,0xbf3464a7,0xbecc1bfa,0xbe96bd92,0xbf20c1a8,0x3d9d9e34,0xbd874a6e,0xbf1d9788,
0xbe3ff941,0xbe4703ce,0xbd7ebd71,0xbc93b06a,0x3c33b30a,0xbdd12f59,0xbf9a4392,0xbe93507a,0xbd7d9697,0xbec9fe72,
0xbe7ba1aa,0x3f2eefc9,0x3f249c10,0x3f188c95,0x3f1378ed,0xbe3d999d,0x3f60a003,0x3e33419d,0x3f42b800,0x3f025634,
0xbe05e59e,0xbe9ff438,0xbe5c80f8,0xbea1deee,0xbfbc2ab9,0x3db91928,0x3d18b7fc,0x3d88412a,0x3db6fbdb,0xbec8cac2,
0xbf196ef6,0x3dc0a921,0xbeb00539,0xbf03ba53,0x3f08afec,0xbda7c112,0x3e7c4cd9,0x3e7faf12,0xbdf86b45,0xbf441565,
0xbef9f731,0x3f01054c,0x3f67209d,0xbf349ac2,0x3de0bbb4,0x3e552855,0xbddce5a0,0xbe936ce8,0xbe5891b9,0xbddd47db,
0xbf33ae43,0x3ebbbbfc,0xbe47fb0b,0xbdf7e8ee,0xbe6ecd78,0xbd0cff27,0xbd3f4a22,0xbf2645b9,0xbe6d5e44,0x3e827ac5,
0xbf8b7029,0xbf34bead,0x3dc3f0e6,0x3e02fcaa,0xbeccbc26,0x3e13bdb6,0x3f03b9ef,0xbefee78a,0xbebed363,0xbf89eb61,
0x3dab0f66,0xbd5798ba,0xbf46cd97,0x3eb7406b,0x3d8ffe01,0x3e9832b6,0x3e89dfe7,0x3e9e9cd9,0x3ed9b1ef,0x3f1970bf,
0x3eab1fc7,0x3f0a5879,0x3f042a15,0xbeaaf4fc,0xbf2aa51f,0xbe2416aa,0xbe6a1cd1,0x3f522cc8,0x3dc7784d,0xbb624edf,
0x3e979bc3,0xbe69d56a,0x3f23e8bd,0x3f71145a,0x3d053755,0x3d00e2d6,0xbf3eb986,0x3e38cae0,0xbeb6e1ba,0xbe42f4e8,
0xbe9368dd,0xbeadf515,0xbf3f7e1f,0xbcce0153,0xbe903398,0xbf7ee6b2,0xbc39a29d,0xbe9a2155,0xbf1832a4,0x3e371cb3,
0xbd5bcee0,0x3e5b9830,0x3e118e17,0xbe318739,0xbf967bb6,0x3ef4aaec,0xbd0e3655,0x3daaf149,0x3e907daa,0xbf0a1c86,
0xbed3070e,0xbecc79fe,0xbf570851,0x3f0f64a4,0xbf33d22d,0xbf0d4686,0xbf3a0e96,0xbebd6d19,0xbe84d50c,0xbf9a1e16,
0x3cf1f80b,0xbd35b701,0xbf47e19a,0x39cd6c32,0xbe35cb1d,0xbf2a7b97,0xbd1fbe40,0xbeebbc85,0xbf1a0f7e,0x3e4b2d54,
0xbde26bca,0x3f9f8cc7,0xbea4c00c,0x3ed58eb6,0xbe5b589e,0xbf12e2e0,0x3d3c0bac,0xbe990430,0xbf33be3b,0x3e219f73,
0xbf8eb37a,0xbee5d21e,0x3d30b01a,0x3ea840c0,0x398c75e5,0x3e1d3204,0x3e3f32cd,0xbcb0138b,0x3e99dfe2,0xbfa5b5be,
0xbf0278a2,0xbe25fba8,0xbecb549e,0xbe4be598,0x3dd0c00e,0x3d1ff3c1,0x3e64e421,0xbc8246e3,0xbe29d6a9,0x3f7f5756,
0x3e202417,0x3f3df287,0x3f5767d4,0x3f73c3a7,0x3e2c3116,0xbcd52992,0x3f668c71,0xbf32f54a,0xbe698b6c,0x3f9c3dc1,
0x3f88ecd9,0x3e327e53,0x3fa1ae9f,0x3f05347c,0xbe19145c,0x3f663de3,0x3d6a1911,0xbe9894f6,0x3ee65a23,0x3e520636,
0xbe98f557,0x3ec89e89,0xbc492042,0x3ebddd78,0x3ecc48a6,0x3e7a3818,0x3d61cfa6,0x3f06f1b4,0x3f241380,0x3ed708c2,
0xbc466474,0x3edaf572,0x3df0488d,0xbdabe54c,0x3fcef329,0x39a0857b,0xbdd76807,0xbe52c3c7,0xbd844975,0x3e40ffc1,
0x3ecd9043,0x3eaf9e9c,0x3df699ed,0x3e1634ae,0x3f29b01a,0x3d96ac21,0x3ee07f99,0x3f4675d8,0xbdad2085,0xbddf4a2f,
0xbec94402,0x3d1738af,0xbd062748,0xbf1f02e0,0xbd4d8b54,0x3c8142c3,0xbf2a8002,0x3eef50e2,0x3f2d3f07,0x3d28e7b3,
0x3f01aedf,0x3f43cf23,0x3e4927a4,0x3f3885fd,0x3f498854,0x3c2d6356,0xbeee8d84,0xbee30d19,0xbe7d3022,0x3ea7e9c0,
0x3f55cbe6,0xbe3516e0,0x3edc42c3,0x3f2450f8,0x3e6ea953,0xbe1504e3,0x3e275f64,0x3e0fd291,0xbf4791e3,0xbf8735bd,
0x3e58f9ff,0x3d03b79c,0xbefb9891,0x3e5daf3a,0xbe97c5e8,0xbe7f5e58,0xbe4d03a8,0xbf6402fa,0xbe85f53c,0xbec063d0,
0xbde083ff,0xbcd57169,0x3ded1a0a,0xbe950c88,0xbef6c8a8,0xbee514ab,0xbe7b4147,0xbe889f30,0xbf3d3c6a,0xbd50e2e3,
0x3e2eba1f,0x3d9d4d60,0xbf2f9c17,0xbefa0f81,0x3d116b6e,0xbf0c160c,0xbed47d95,0x3bd370f8,0x3e65d2d2,0xbf72a055,
0xbd211b35,0xbf142094,0xbf46cf53,0xbf21e89b,0x3d97c616,0x3f878ee8,0xbe9eeb33,0x3d550971,0x3e312ef1,0xbe1e0522,
0xbed7b932,0xbdd0d199,0x3e273d38,0xbe39c0a3,0xbf6d6ef3,0x3ecec24b,0x3e37cb61,0x3f14507a,0x3ec2b538,0x3e3a4395,
0x3ea9ec36,0x3de0beed,0x3f06c433,0x3f68960f,0x3f0d0089,0x3e040810,0x3f514933,0x3f117031,0x3e089651,0x3ea530b9,
0x3d1d4c00,0xbf498efa,0xbfbaa691,0x3ddabaa7,0xbe97df77,0xbe5d6c81,0xbd561ef7,0xbdfd17dd,0x3de3d3a1,0x3ed71b2d,
0xbe5c14d9,0x3f8feb3e,0x3f004747,0x3dfba934,0x3f2713ec,0x3e6e433c,0xbf2a82af,0xbf0b8065,0xbe250ef5,0xbf3a9aed,
0xbed2c523,0xbefd04ea,0xbf22e275,0xbf2b6aae,0xbedc4a1c,0xbed65620,0xbf178117,0xbf3c9600,0xbf046bf2,0xbf18e621,
0xbec08b11,0xbe8ef32b,0xbe738664,0xbda40012,0xbf0d714d,0xbf15dd32,0xbf60fff1,0xbe0a700f,0x3f2be230,0xbf064b54,
0xbeaa778f,0xbe8e8869,0xbf254871,0xbe19c375,0xbf15afe0,0xbf04224b,0xbf01a425,0x3eb0e2ab,0xbf77b085,0xbf6b6320,
0xbf974e59,0xbf2a5cee,0x3e6ad28c,0x3f27cee2,0x3d0d6643,0x3f5e405e,0x3f98580e,0xbeda570b,0x3e10c62b,0xbe7b2e98,
0xbe1e6b7d,0xbf6f07fb,0xbf6cbb93,0xbf0bd622,0xbef4161d,0xbda3b624,0xbf036545,0xbe04072e,0xbec1a0a5,0xbe0c6c6d,
0xbf461028,0xbeaf3a71,0xbcd84803,0xbf7f1995,0xbedc707e,0xbe12c65f,0xbf8acda0,0xbf8e085c,0xbefc3f1f,0xbf2abcd9,
0xbfa69b03,0xbf8222ce,0xbf44cedb,0x3f071494,0xbeaa8501,0xbe623d24,0xbd586cb3,0xbd511ce6,0xbe1ed20e,0xbc3ed16e,
0xbd52db57,0xbf2dbce0,0xbd173ffe,0xbee94463,0xbf73a788,0xbf86e4da,0xbf22b292,0xbf67c860,0xbf6982f0,0xbf00fef6,
0xbf5e3a8d,0xbef7ef7b,0xbe7fa982,0xbeef518c,0xbedfef12,0xbd3ffc14,0xbe138b6e,0xbf27cdf7,0xbf90b584,0xbc140973,
0xbf72122b,0xbf5a12a6,0xbe0e148c,0xbda0a194,0xbbd9188e,0x3e976dfd,0x3f3ea495,0x3f05dcb2,0xbe25da9d,0xbf456046,
0x3f51dd65,0xbec13794,0xbe615feb,0x3c9687cd,};

