const static size_t backbone2_3_1_weight_size = 36864;
static unsigned backbone2_3_1_weight[]={
0x3f0f8d70,0x3d836ddd,0xbdefc4c2,0xbd8adce8,0x3da4fc30,0x3dad07ac,0xbbf256d2,0x3d1fa29e,0xbe24f7a4,0x3c73135d,
0xbbe36821,0x3d9d14b9,0x3c244e4c,0x3d049d40,0xbdf041a2,0x3a754617,0x3d9f1c6f,0xbe679a4d,0xbcf33547,0x3c99fc48,
0x3da7b730,0x3ce5f3ca,0xbc209035,0xbcc52743,0xbbed031d,0xbe5e09a6,0x3da1a2ba,0x3caad157,0x3dc52f8b,0x3e2cfc44,
0x3dce29a5,0xbe302e25,0xbe14ed7b,0xbbab8fbc,0xbcacb81c,0x3d56f8d7,0xbd61b768,0x3d7aed77,0x3e16273e,0x3d7da141,
0x3e1e870c,0x3d38cce9,0xbd80ea9d,0x3defed3d,0xbd24e854,0xbdf3273c,0xbc683700,0x3cd3015b,0xbe1a0bd8,0x3d778a8d,
0xbd94c9d3,0xbd512906,0x3dc15f51,0x3dd9db3c,0x3a8b6061,0x3ded76d2,0x3c2291b4,0xbdbbd86e,0x3cbab1d4,0x3dbba411,
0x3e670c53,0xbddf62f0,0xbe835b1a,0xbcd264f9,0xbdc3a2ab,0xbd6b3cc4,0xbc8438e2,0xba7c0e1a,0x3c34de52,0xbda0a3ea,
0xbd0d6ce4,0x3deda4b9,0xbde8b6ed,0xbda7c76e,0xbd3b38e7,0x3d1bf54a,0x3d8df843,0x3e156765,0xbe5fa74d,0x3e2a1d19,
0x3c3e7770,0x3da946e0,0x3e81e3f7,0x3e42314d,0xbe007484,0x3e03da04,0xbda7bd5f,0xbdb3d0ef,0x3cc3c327,0x3db3fdb4,
0xbd8a62d1,0xbd26affc,0xbd344019,0x3e7bb356,0x3d9bcc63,0xbe3076e6,0x3dbaed29,0xbe1c081d,0x3e05847a,0xbd9300a0,
0xbd1e7d47,0x3e2202eb,0xbb977028,0xbae4337a,0x3db58721,0x3e31e11d,0x3c21d204,0xbe88a815,0xbcc0d544,0xbcaf1fcf,
0x3d442ea1,0x3c4d1b91,0x3dd4f86d,0x3d7f5870,0x3c681739,0xbdf08b0f,0x3e2b8e9a,0xbda4c796,0x3dab346e,0xbc2896f0,
0xbd23eb77,0x3c59abfc,0xbca8a29a,0x3e1fee25,0x3de51dbd,0x3d07843e,0xbd63ae58,0xbd9d65a0,0x3d7dbad8,0xbdb2a87e,
0xbec493bf,0x3e6b1788,0x3e01ad69,0xbdc2acd6,0xbe97c40c,0x3d71b2af,0x3d6bb43e,0xbd98ea3e,0x3d74905a,0x3e0738cd,
0xbd003719,0x3e3d2b36,0xbd62ebb3,0xbd6c4a70,0xbe1249dd,0x3c85ed4a,0xbd072c7a,0x3d9819df,0x3de04a63,0x3e852f68,
0xbdad402a,0x3d1170fa,0x3e16a6b0,0x3cbbd7a9,0x3e3e51d9,0x3df4e77c,0x3d608dd3,0xbcd47b17,0xbcf621c7,0xbe07bc97,
0x3df621f1,0xbd0e813b,0x3ce75f42,0x3c2198fc,0x3ce82455,0x3db48f5d,0x3d23de1b,0xbcba8298,0xba0222b2,0xbe73811d,
0xbe827253,0x3ea1afea,0xbccbb567,0x3da74ea5,0xbcdae4b2,0x3dc218ad,0xbe238134,0x3e1f8c3d,0x3dfa4917,0x3e0cfa1b,
0xbcac923a,0x3da43737,0xbe5d3dfb,0x3bea8707,0x3db9cb0e,0x3d2b50cf,0x3e007fb8,0x3cbaf20b,0x3bf55c5a,0x3cde7a12,
0x3cac505f,0xbd783eae,0x3c23df6f,0x3c2161bb,0xbe8d754e,0xbd130d7a,0xbab5f6f7,0xbc632542,0x3d161d78,0x3d2ec3c9,
0x3d56955e,0xbd104b31,0xbd08c191,0xbc80edde,0x3c3f5086,0x3d351682,0xbdbe5238,0xbd438674,0x3d49fe7f,0x3d021b4f,
0xbd4388bd,0x3b999ec6,0xbd480242,0xbd51d684,0x3b29815d,0xbcef3fcf,0x3e3f73e6,0xbb4ca928,0x3c7e4c57,0xbcb81bcb,
0xbd1d9891,0xbc616c2f,0xbbe22b2b,0x3bd2315f,0xbd3bf8ae,0x3c097940,0xbcba71e5,0x3bf4a5cb,0xbd2d7cd4,0x3ceaafc4,
0xbd3900ca,0xbcd774af,0x3c95437f,0xbb937e47,0xbcb472c5,0xbd0ff769,0xbd938fae,0xbd7435d0,0x3c9e1cd7,0xbd71681d,
0xbca37c5e,0xbb476385,0x3d2c4089,0x3daaef75,0xbdc978ed,0x3d003d7e,0x3dce5ff0,0xbc390274,0xbd0c2f26,0xbc66a444,
0xba32d6ab,0xbbb777d1,0x3e4f2c1c,0x3caaf5d0,0xbc2ab622,0x3bc0a712,0x3d145347,0xba5f665c,0xbad0d889,0xbd2abb91,
0x3d8b6495,0xbe74cc80,0x3d35ad82,0x3d51f97d,0x3c479c16,0x3c957ab6,0x3d533b25,0xbca8d80b,0xbcf44d07,0x3c2131f0,
0x3da8b891,0xbcf4a551,0x3b26aca2,0xbe29a747,0x3d2accee,0xbce8f25a,0xba12e44a,0xbe047b89,0x3d3a96ad,0x3e76eb2a,
0xbdc33c4b,0xbd17285b,0x3d2c3800,0xbbb65e99,0x3d329fba,0x3e29051b,0x3c24533f,0xbdafadbf,0x3c90d586,0x39cd1425,
0x3d7e9be0,0xbe09db65,0x3d7aa289,0xbd4ebc59,0xbbc8edb0,0x3cdbac03,0xbcde350b,0x3cb29c2d,0xbbd5ab7c,0xbdbab719,
0xbd658da0,0x3cd72133,0x3cdf8a34,0x3d4cef5c,0xbd43f155,0x3da73a66,0xbc05fb89,0x3adda122,0x3d8a8c90,0x3cd6a48b,
0xbcec104b,0xbc91040e,0x3c498eb2,0xbc2185af,0x3de0555b,0x3cc87149,0x3d09ce64,0xbca922ff,0xbc92a2c4,0x3c15ef16,
0xbd0b830e,0x3bf77650,0x3d9256b4,0xbcdb9a87,0xbc0a2033,0x3d068cc5,0xbd798429,0x3cb56a70,0x3d84f29f,0x3d2dc6c2,
0x3cb548b5,0xbc1029ae,0xbd8b738e,0xbba453c3,0x3d90a97e,0xbdd47927,0xbcadca5e,0x3d0c1217,0xbc54deef,0xbd51d126,
0x3d429d60,0x3da10df6,0xbce6f4d9,0x3c03cdc6,0x3b7247d6,0xbcea0e2c,0xbc416292,0xbbb70b56,0xbbfaa5ab,0xbcebf6ed,
0x3cd363b7,0x3da0ce74,0xbc439c06,0xbb02b1e0,0xbdbaf0cf,0x3ddaeb29,0xbdcc915d,0xbd5b94b8,0x3d8fd1f3,0xbbf28a63,
0x3cce651d,0x3d086299,0xbd0f8c4f,0xba6facea,0x3d7aaf6a,0x3d03740d,0xbd45b1d4,0x3ca7b960,0xbcf52dc6,0x3d352cec,
0x3da0a2b4,0x3cb52811,0x3cbeeac1,0xbc5afcee,0x3d2021ca,0x3c75086d,0x3c1afe36,0xbc9fc834,0xbd3c5c9f,0x3d835d8b,
0x3c91ec14,0x3d313ef9,0x3ceea206,0xbe67f2ae,0xbbd161b0,0x3b8c8a6c,0x3cf2d528,0xbccf7b35,0x3ed376f3,0x3d66a133,
0xbe1a33a6,0x3d927584,0xbdc30804,0x3d180748,0xbd7f54bc,0x3dea1551,0x3d9aca11,0x3b8a80ac,0xbd27de2e,0x3cd1e2c1,
0xbd0f53ea,0xbcda4dd0,0x3c60f51a,0x3d58e34a,0x3c3405db,0xbdd71522,0x3d9dd8f2,0x3cfc5770,0xbc65979d,0xbd97e156,
0x3d58ce81,0xbdb723e2,0xbd83677c,0xbe025b1f,0x3d8ffd96,0xbd046d49,0x3e0c800f,0x3d9d1583,0xbc7030ae,0xbe084fcc,
0x3cdc3732,0x39debd23,0x3df7ec63,0xbd1d7b04,0xbd56a34e,0xbe80cf0e,0xbce4d49e,0xbd46a8d3,0xbd0341d4,0xbd78c0da,
0x3dc31835,0xbdc21c6a,0x3d1b5ab9,0xbd0bcd4b,0xbdf1d33d,0x3cf459a8,0xbc8616e4,0x3b48ae58,0x3d7f3e4c,0x3e29aaf9,
0x3decf42e,0xbbf35342,0x3d867f94,0x3e2bc914,0x3ddd2fb0,0x3ba64581,0xbe64b85b,0x3c9a59c8,0x3d369ae7,0x3d101c2e,
0xbd2eaa14,0x3dc6aa43,0x3dff4a38,0x3c82606e,0x3d2c34bb,0x3d8068d8,0x3c23cd78,0x3e4d8b8d,0x3cae2b32,0x3d9599ff,
0xbabe0734,0x3dc1f931,0x3d803748,0xbbfb7adc,0x3d3e12a8,0x3d78e459,0x3d962132,0xbd7d4ea0,0xbe0f7efb,0xbe4dee71,
0xbdc5b633,0xbd57539c,0x3ab8042a,0xbcb23887,0x3ddfad09,0x3dbc30c7,0x3c574071,0xbcf08708,0xbd7e0adc,0xbc263db0,
0x3d1f25c4,0x3a81f569,0x3ca11b39,0x3e8c03b3,0xbd7f1aa7,0x3e1bff08,0x3c9f94f6,0x3dc26680,0xbd5b68b0,0x3d79e9e3,
0xbdc5cd06,0x3c8ca6fb,0x3d2b8ea2,0xbd9a774e,0xbd6223b0,0xbca1c8f1,0xbcf33ae9,0xbdefd057,0xbc6fb737,0x3c2589f9,
0xbe854c3b,0xb8f9e879,0xbddab611,0x3e59a3ce,0x3da1498b,0xbd003a40,0x3d3ccb35,0xbc98edf5,0x3e0e290a,0x3e8c6033,
0x3d60e11c,0xbd541433,0xbd7d193a,0xbd163727,0xbcf2daef,0x3d93fcdb,0x3bffb137,0xbda37778,0x3e508fc6,0x3d60dc50,
0x3d632edc,0xbd0913b7,0x3dc014a1,0xbbe9cfad,0x3d134e66,0x3c19b461,0xbc6c7567,0x3e1e1bb8,0xbda644f3,0x3dc5faee,
0x3dc6d1cf,0x3db3e43e,0xbc1552d7,0x3a1c0dde,0x3d638d4c,0x3d4c13c1,0x3b16a54a,0x3cf3eb57,0xbdc66529,0xbd42e346,
0x3e0da70d,0xbdbf10ad,0xbe0cf1d7,0xbe06eace,0xbd90a316,0x3d905605,0xbe5b3dda,0x3cdc4926,0xbcfcc212,0x3c4f8faa,
0xbc18ace4,0xbd61c8d3,0xbd011280,0x3d5c5e0c,0xbd028cfd,0x3cb334b2,0x3d743b67,0x3d8f4b2f,0x3dd2aaba,0xbe2feedd,
0x3d206375,0xbca74f61,0xbb8e565b,0xbd0e23e6,0x3d0ffbab,0xbdb21f3d,0x3d9bb725,0x3e414ba4,0xbec6a247,0x3e1dcc79,
0xbc58d35c,0xbc6905ab,0xbe05bcf6,0x3dd822d2,0x3c65f6f4,0xbd9e0c22,0xbc565b07,0x3b096b24,0xbd43c4c5,0xbe1ce509,
0x3d2a5599,0x3d5500be,0xbe97ad9d,0xbcd0957f,0x3c800e43,0xbd491ceb,0x3d688143,0x3d8a3de2,0x3da75a8e,0xbdadd54f,
0x3d515b63,0xbd0e33d0,0x3d5ffaa0,0xbbcaa8d3,0xbc3213c0,0x3da88b6d,0xbe01afee,0xbdd59b9d,0x3d951d14,0x3d82599c,
0xbdc40ad7,0xbd876fb1,0xbd0b98dc,0x3d6fe373,0xbbc1e6a4,0x3c00895c,0x3e00fed4,0xbe3be233,0xbdb86682,0x3e851274,
0x3c351815,0x3d5ccc66,0x3e05e5fc,0x3d20afca,0xbe0f88b1,0xbd264830,0x3defc0d6,0xbe5cd05a,0x3d98368e,0x3c9baa6d,
0xbd185253,0xbe0ca551,0x3d90ee34,0x3dd43200,0x398ab491,0x3df64b78,0x3d49e39a,0xbbe08996,0xbd09f7c4,0x3d9c8c3f,
0x3c9280dc,0x3cff82f9,0x3b8317bd,0x3da1a8dd,0xbd7b4337,0x3ebe4696,0x3e0f5fdb,0x3d679af8,0xbe7a0537,0xbd931642,
0xbc121b84,0xbd81a24a,0x3d033c4f,0xbdf27e00,0x3d9012b2,0x3b6f07fa,0x3d33f349,0x3d67778f,0x3e556792,0x3d980754,
0xbd212492,0x3d960c14,0x3da5a26e,0xbcc732f1,0x3db36514,0x3e0f105f,0x3dd8c886,0x3d09dad2,0x3dade557,0x3d263d68,
0xbe4f1f92,0x3e10cf38,0xbd498357,0xbe1780ab,0xbe0de898,0xbd08550d,0x3bf70cbc,0x3d5f354f,0xbcb54de0,0xbd959cf4,
0xbdbdf2b9,0xbe45e3f7,0x3d947487,0x3aedd5ec,0xbe0c9929,0x3d6d8b0e,0x3cc628e2,0xbdc5884e,0xbda6375d,0xbec40c13,
0xbe649147,0xbc118e05,0xbd3e5b6e,0xbc15ae5e,0xbdc751bb,0x3e1dc467,0xbd4b55cf,0xbe136fa9,0x3e152622,0x3d997b8f,
0x3deed772,0xbd40d17d,0x3d8db7f2,0xbd83d2e2,0xbd8f7927,0xbbc4125e,0xbcb26527,0x3d9b7ad8,0xbd6d0d33,0x3df17202,
0x3e7fc3c9,0xbc1ec12c,0xbbdd4f00,0xbdb1ceec,0xbddd9570,0xbca73ac2,0xbd2d298a,0x3e47beaa,0x3d9f7d5d,0xbd5c81fd,
0x3e0d6c90,0x3d9bb121,0x3ddbba37,0xbdb1557e,0xbd3cbb1a,0x3e02ca84,0x3dea6a1b,0xbaa8a743,0xbd88eefa,0xbe16af28,
0x3d2e84a8,0xbd0bb997,0xbd6bfb3a,0xbdda3af0,0xbd47c3e5,0x3e061f61,0x3d131e42,0x3e1bbabb,0x3c00b8da,0x3cbce001,
0xbd82b07f,0x3e2cdb57,0xbd0fea28,0xbbe1e390,0x3d15815c,0x3dc97f4c,0xbd5fe12d,0x3c1ed3cb,0xbdb2aade,0xbd1ce968,
0xbcac725b,0xbe88c9e7,0xba55ec2f,0xbad60d37,0xbd23a52f,0xbb9e949b,0xbd2b19a0,0x3d407a75,0xbe2088d6,0x3d58b384,
0xbe61b0dd,0x3c685d09,0xbcbb6a3c,0x3e081f39,0xbd47f4cb,0x3d51df99,0xbeb08237,0x3d7e10aa,0x3e14b203,0xbe5287b5,
0x3c6ead0e,0x3dca13f6,0x3c56d190,0x3c3d4688,0x3d35cf42,0xbd24b9f0,0xbce33ef2,0x3e0d9a98,0xbd95b268,0x3e1af451,
0xbe0dac03,0xbdb02a82,0xbd6acc60,0xbdf8e77d,0xbd18c6cb,0xbb87d6ef,0x3eb3a2b1,0x3ca12b0e,0xbe1c811a,0x3c583fbb,
0x3e2a9b0c,0xbdbfdc43,0xbdc4d457,0xbd914ad8,0xbd3e6261,0xbeb14d87,0x3bdc0783,0x3dd0d970,0xbcbf42c1,0x3d95a7d9,
0x3d469f52,0xbd4090d8,0xbd906372,0xbdd49da7,0xbdc99d80,0xbe1704f9,0x3dd0389b,0x3c4c787d,0x3bec07aa,0xbe058002,
0x3d716935,0xbd9bad8e,0xbde6f068,0xbcfa5ad1,0xbcf07998,0xbe09b45d,0x3e0287a1,0x3d7bc0e8,0xbd59dea0,0x3ce8e00f,
0xbd5b3cc6,0xbdb3889f,0x3d78ebe2,0xbd873707,0xbe807199,0xbc85aa32,0x3dc30857,0xbe382844,0x3afa9ea7,0xbe60d88b,
0xbd781088,0xbe26b934,0x3e0a4504,0x3d708022,0xbd215888,0xbe8a3835,0xbb6f7dc1,0xbce05dc8,0x3e82f93e,0xbc8e34f5,
0xbe244618,0xbc08b8dc,0xbe33ab6b,0xbe08dfd6,0x3d81466b,0xbe4ee046,0xbcef2a2f,0x3e12ebc4,0x3c965670,0x3e114b7b,
0x3e1ac0be,0xbe592c0c,0x3dcd59e0,0x3d1db73a,0xbe1e6406,0x3ca2e6b0,0x3e504f77,0xbdf9969f,0xbc903da0,0xbd3532a7,
0x3d1e4ed2,0xbe0e6036,0x3e15c1d0,0xbe1bfcba,0xbe3d3c37,0x3dc668b6,0xbd08b361,0x3e835575,0xbe1af370,0xbea87918,
0x3b8dc354,0x3e60b7f1,0xbc57a03c,0x3cff8b0c,0xbd99fa53,0xbd917c22,0x3e5a41d5,0xbe69b8f2,0x3e25e50f,0xbd5f6c20,
0xbda070eb,0xbe02f14d,0xbd8aa54d,0x3cf632f5,0x3cfe23f6,0xbd2d3994,0xbd7acd57,0x3e259a95,0x3e1a1011,0x3ddc7908,
0x3ddadd29,0x3e2dcb6b,0xbd0f22b3,0x3d77b392,0xbe1da058,0x3ce51d97,0x3dfaa3bc,0xbd0ec72b,0xbd921579,0x3cc3b610,
0x3df525f1,0x3d074639,0x3e5b000b,0x3dcc68d9,0xbd568436,0xbcd95b32,0xbd204173,0xbdd07555,0xbc10f12d,0xbcc6e0fb,
0x3cf5ba64,0xbdefeee8,0xbdb20e89,0x3df17b99,0x3e122537,0xbe4210cc,0xbc5991be,0x3d9141d6,0xbe6a8bfc,0x3dcf538c,
0x3ded1404,0xbdd9f367,0xbd869d42,0x3c19f95a,0xbd351082,0x3d0b8066,0xbdccd2df,0x3e5ac421,0xbbd1945f,0x3db14530,
0x3d90f666,0xbe138813,0xbd40cfb0,0xbc9d865e,0x3da0045f,0x3dbcba94,0x3d728017,0xbc125732,0x3d4bb8c5,0xbdb6a780,
0x3d91cdf5,0xbcc4ae08,0x3ca033e3,0xbc81943d,0x3e85d440,0x3e17551b,0x3e17314a,0xbd9ae5f3,0x3dcca432,0x3dd99023,
0xbe36ba35,0x3db9193a,0x3da10aa6,0x3eb83109,0xbd580ad4,0x3d1adb87,0x3e565adb,0x3e40e0d5,0x3c208f42,0xbda1ec29,
0xbe159a6e,0xbdfc9139,0x3dce76a3,0x3e37edfc,0x3d362b9c,0x3e33268f,0x3d8b83cb,0x3e1f4876,0xbd41635a,0x3dd9da45,
0x3d528d14,0xbceaea0f,0x3ccd0195,0xbe11bc1d,0xbbee9a16,0x3cb58620,0x3cca2319,0xbe174dca,0x3df5da6a,0xbc962eeb,
0xbe29b6c7,0xbcf8f843,0x3d06c82b,0xbb8e5b67,0x3b45741d,0xbd64e25d,0x3dbddf33,0xbdc7c0cb,0x3d3e877c,0xbcde33e5,
0xbb23367c,0x3aa35cdc,0x3d2d5e75,0xbdbc2477,0x3d0006cb,0x3bca8f35,0xbdd4804a,0xbc9da254,0xbd47b8c3,0x3ddfde3e,
0xbdaf7cbd,0x3c8baac4,0x3cbf71da,0x3d259e61,0x3bd596a5,0xbd6b17d1,0x3cd740fc,0xbd86e419,0xbd47713c,0x3db88b4b,
0xbdc671df,0xbcbeeffd,0xbd56e560,0x3d7446c7,0xbe36d269,0xbd3176d8,0x3d29428d,0x3d568f71,0x3d7e25a7,0xbd83a18a,
0xbddf731f,0x3ddc1ba0,0x3ddd0a25,0x3d5d0f99,0xbce897d3,0x3d827c86,0x3c8ec442,0x3c1cf5fc,0x3cc93256,0xbdad2574,
0xbc23cd98,0xbd521983,0x3d67f383,0xbc84d638,0xbd6ccc2a,0xbde3ae0f,0xbce1dabc,0x3b40e4e1,0x3d3e4872,0x3d971413,
0x3c1912cf,0x3d69b880,0x3c79a20d,0x3c88b752,0xbc11cd66,0xbdca274b,0x3d77a912,0x3d08db5f,0x3e1f2b3b,0x3cdec7a2,
0xbd5821d0,0xbdc826b7,0xbcbac68d,0xbda2d148,0x3c62838a,0xbd47814c,0x3c1ee185,0x3d5ccfe4,0xbd4191db,0xbe034ea7,
0xbd8228d8,0xbdfafd89,0xbe4c854a,0x3ca2ae9e,0x3d584103,0xbdafc585,0x3d1d1a0c,0x3d88cf4d,0xba83e7ca,0xbdc3c937,
0x3cde986d,0xbd4dd8e2,0x3b9f93c8,0xbc389932,0x3d8b2dd1,0x3da4072a,0x3e0e1bf3,0x3e9de3cd,0xbc2f3b42,0x3da6f9ea,
0x3e15057c,0xbd873662,0xbd610964,0x3d401e09,0x3d8a236b,0x3cf3d01a,0x3deb7435,0x3dd90ddf,0x3d9da879,0x3d08a6cb,
0xbd4f2467,0x3bd2f49f,0x3bf39fd9,0xbda63510,0xbb06df9a,0x3e0419fd,0xbd70542d,0xbc6e9142,0x3e0703d2,0x3d4816e5,
0x3dd5a7e6,0x3bd92777,0xbd458f8c,0x3d344f47,0xbc546196,0xbd8e38df,0xbc0c7748,0xbd408b60,0xbde8f140,0x3cea42c2,
0x3d2ef099,0xbd75bd38,0x3db4437a,0xbc0b2ed2,0xbdb7b0eb,0x3bc24f45,0xbc8b3667,0x3d1613fa,0x3c96f42f,0xbbf5c0e5,
0xbb810eb3,0x3cd850a8,0xbd23e083,0x3d938a50,0x3bf627f8,0xbb321ea4,0x3a828027,0x3c17c411,0xbde3854c,0x3d95b78e,
0x3d2347fa,0x3cdbefdf,0x393d1029,0x3d07fcf8,0x3db1f96d,0x3c7a91d8,0x3e2e58b4,0x3d29d13b,0xbcea8d75,0xbdbcc129,
0xbad82a7a,0x3c585b8f,0x3d007f0f,0x3da2bbe5,0x3e561f71,0x3dd5705a,0xbdb7e3fe,0xbe18195b,0xbcc01248,0xbd83ffd1,
0x3d17e40b,0x3d5aaf1a,0xbe8990be,0xbb7582c3,0x3dc9eda1,0xbd3d2945,0xbe61ca98,0x3e0a3a3a,0xbdb6fbe3,0x3cc906bc,
0x3cd82331,0xbc9fb098,0xbcbf5d59,0xbc30c54c,0x3da038d1,0x3bcdedf9,0xbd687e39,0x3e04250c,0x3c25fbb3,0x3d1a282e,
0xbd086d10,0x3c0ca626,0x3bfdce01,0x3e2752f2,0xbdd8084f,0x3e0074fc,0xbdb386ec,0xbd4bab1c,0x3b6ae174,0xbd6d5dab,
0xbd8d6c07,0xbde28012,0x3cb37057,0x3d036b63,0x3e5eb50f,0x3d9ffbc7,0x3debcfad,0x3ddd176e,0xbcc56574,0xbc4fc956,
0x3d87f9db,0xbd5a45a9,0xbdf70c0d,0x3c86ba62,0x3e108186,0x3d8e0654,0x3b859335,0xba10bdb7,0xbcedf749,0x3e03ce4a,
0x3dd509ac,0x3c78ab7b,0x3d9fab6c,0xbcf4f48e,0x3bc898fa,0x3c061484,0xbc533b0c,0xb9b35f64,0x3e537208,0x3c0b8ac3,
0xbd506c92,0xbd7da87f,0x3e025757,0x3cef68a3,0x3e42446f,0x3d4fbb5a,0xbc7aff99,0x3db87cb4,0xbc47bbae,0xbe516156,
0x3d1211b8,0x3e1e8aa0,0x3e4313ba,0xbd5fb8fb,0xbdb24d8e,0x3e075c31,0x3d834efb,0x3b9e1afd,0x3e53d6f4,0x3d10787c,
0x3d91c4f1,0x3d1b1c5f,0xbd8c0aae,0x3daae77a,0x3dd94c50,0x3dbe3c80,0x3d88835f,0x3cf60019,0x3d44bf96,0x3c63b3c1,
0xbdd29bb8,0x3d1be419,0xbe01a2b5,0xbdafa5da,0x3e4c1d2a,0xbd323041,0xbce26ec4,0xbdf35d8f,0xbd9cf31e,0xbc3f0adf,
0x3e5a23ca,0x3dae5c80,0xbc9c6f9d,0x3e11d6b6,0x3e0151fc,0xbad0b53d,0xbe2911f0,0x3e018e0b,0x3ce503a6,0x3d17a0d7,
0xbcb3ba9b,0x3e1587f2,0x3d04a986,0xbce667c2,0xbcec6ecc,0xbd9b29f6,0xbe0a118a,0xbd5667bd,0xbdcc3771,0xbda038d4,
0x3da94e9e,0xbeb697eb,0xbdd36b26,0x3d818a4a,0x3cfd8157,0x3d91f730,0x3cbfab3b,0xbd2432c8,0xbd86ad92,0x3c7496e1,
0xbd8f16b7,0xbe63697f,0xbcbd3a26,0x3d976d40,0x3d58c74e,0xbe5c20eb,0x3d99d8c8,0xbde61977,0xbe203609,0xbe138d2f,
0xbd6a7939,0xbe2bbe24,0x3ccf3774,0x3c398675,0xbe124ae8,0x3d5c09fb,0x3e04ed60,0x3bdb4c42,0x3c95d7b2,0xbd0f0768,
0xbd7f0b2b,0x3d7a22ba,0x3cbea298,0x3c34b191,0xbde7f9d5,0xbd9b305c,0xbdc5659c,0xbdd77e57,0xbe46cd19,0xbd0f9079,
0xbe9bda6a,0xbd3b1d7f,0x3e01d9a8,0x3d820d3b,0x3d8836a8,0xbd7d90c4,0x3d342154,0xbc2fa8a9,0x3db105cb,0x3e470512,
0xbe0cd674,0x3c2cb485,0x3e3d4185,0xbd50c8dc,0xbbf22029,0xbe47d2f8,0x3e3d290b,0x3d41cc0d,0xbc24c0e7,0x3db3770e,
0xbd8889e3,0xbe675b17,0xbcf5008b,0xbd91ffce,0xbd7309dc,0x3daad74d,0xbd9183a8,0x3bfc0317,0xbd9a471f,0x3e02d28a,
0x3dab1c40,0xbd39d704,0x3dca5e00,0xbd5613d9,0xbd14bd93,0x3e323d3f,0x3e107915,0xbd255a7c,0x3c4b9caa,0x3dc6b76a,
0x3e32fcb9,0x3ee63c78,0x3b822785,0xbe517125,0x3dbd0522,0xbc5c3668,0xbcf7f90c,0x3ce8436c,0xbd907ba5,0x3d0f427c,
0xbda17e57,0x3d1d30aa,0x3d66d4f9,0x3d04729e,0xbc4e0692,0xbd3e06f6,0xbd82b6d4,0xbd9a9bec,0xbea95e30,0x3db5a536,
0xbc7a37df,0x3e1fb755,0x3d4149fa,0xbda9e6ea,0xbbd480ac,0x3d572ace,0xbd2a9436,0x3db8c610,0xbd1308b4,0xbc9af18e,
0xbdb3f390,0xbd3edad1,0xbd4cad15,0xbdacced1,0x3dd811fb,0xbdc91746,0xbcb434dc,0xbcc4dd86,0xbe0a430f,0x3d826261,
0xbb3f7517,0x3c3186f6,0x3d73d10a,0xbd8c55f5,0x3c4723be,0xbbaa6504,0x3cf5c2ef,0xbc93c0ec,0xbdb74b44,0x3a13f6ea,
0xbe246414,0xbc0092ba,0xbd60bdab,0x3e00ec33,0xbdfe6543,0x3c85f3e5,0xbd3d7234,0x3d680047,0x3dfe530f,0xbc2be6ad,
0x3dc50efe,0x3d26f79f,0xbd1c7013,0xbb770886,0x3c331644,0x3dea86bd,0x3d037526,0xbe029b19,0x3e11b0c4,0xbdb0dedf,
0x3dc4552d,0x3df0ae4c,0x3e270d84,0xbd86867f,0xbd193720,0x3dddd4d8,0xbd55be58,0xbd46faec,0xbe0bb74a,0x3cf069ba,
0x3bb5037b,0x3d62d937,0xbd3c2348,0x3dc1b8ed,0xbd962885,0xbc669473,0xbd56ba59,0xbcdff38e,0x3da82414,0x3d60a295,
0xbb91f8ab,0x3dfb1bb4,0xbb6275fd,0x3de31003,0xbcdb826a,0xbd034df7,0x3c249b9d,0x3d88d451,0x3cdb2d73,0xbc5ede81,
0x3e104a97,0x3ca590e5,0xbd847cdf,0xbc2bea33,0x3de6b7f3,0xbd70c733,0xbda9d48c,0x3daa4d2c,0xbd00257e,0x3d2dcafe,
0xbc40a8dc,0xbe0d50aa,0xbdebba6e,0x3d4d9c47,0xbd94efa4,0xbd065fa2,0xbd7bb1cb,0xbba3b0fc,0xbd20ea30,0x3d0d3566,
0xb9acc14e,0xbd6552fd,0x3c749a1a,0x3d36fd10,0xbd223ed3,0x3ca3bdf4,0xbd139597,0xbcc1a665,0x3e5394fe,0xbc171273,
0x3c934c98,0xbd737957,0x3c51ecec,0x3e04f1c6,0x3c7d924e,0x3b521b9b,0x3de29e78,0x3d77028e,0xbd7cbcff,0x3e2cba20,
0x3bb703b6,0x3dc2ffc6,0xbdb71034,0xbe2559bb,0x3c382907,0xbde2fb11,0xbce27194,0xbcf31ba8,0x3ccd1be7,0xbccc1286,
0x3cdcf2c8,0xbbcac1be,0x3dde8268,0xbd0897bc,0xbd1fff5b,0x3d58aeae,0x3cd10bd7,0xbdf1de68,0x3ca3776c,0xbce87d22,
0xbd0ec3d4,0xbce06594,0x3d4fd1e9,0xbc8603cb,0x3b153f12,0xbd203c21,0xbd16d064,0xbcacfc8f,0x3c74b4a4,0xbcf769ef,
0xbcb41666,0xbe165835,0x3cee6ee1,0xbd86fc0c,0x3d63f1bf,0x3d822d0c,0x3c99437d,0xbd66d8df,0xbcf54bb6,0x3d2ab1ba,
0x3d0346fe,0x3db34cfe,0x3d2dabab,0xbd1b180f,0xbe8a739f,0x3d01e8fe,0xbc936354,0xbe6270fe,0x3b62baa4,0xbcea9783,
0x3cf284e2,0x3d29efc9,0xbbd3df46,0xbc35497b,0xbd616ede,0xbde08895,0xbd1319c0,0x3c26776b,0x3ca25026,0x3d6f4060,
0xbd1aaedb,0xbdb479b7,0x3e0f96b1,0xbc041d99,0xbd698388,0xbc9f5274,0xbe0180e6,0xba53a34b,0xbdb290b3,0xbdebb7a7,
0x3d5d2a24,0x3ccf997d,0x3e836224,0x3e03175c,0xbc17902d,0xbdb38298,0xbdd6679a,0xbc950149,0xbd309f17,0xbb5d4389,
0x3c67b787,0x3d3b91cf,0x3da2e8e8,0x3a3d908b,0xbd97fffa,0x3bfe819a,0x3dd5e179,0xbcff0943,0x3cff89eb,0x3d21daac,
0xbd6fcdc4,0xbd80b3dd,0xbdade2c7,0x3db078d7,0x3d3d1cbd,0xbe019a6d,0x3dec0d64,0x3d2711c4,0x3d6f0f38,0xbe05c582,
0xbdb540a6,0x3ca59172,0x3d778bdf,0xbe84411c,0x3d617c5a,0xbe4800b7,0xbc19e086,0xbd51f78d,0xbe803ee1,0xbe01b2b1,
0x3de5cd10,0x3cfa1c4d,0x3d9ea60b,0xbd2e0fb0,0x3dc3d4d8,0x3d8ca533,0x3d8e5387,0xbd1ed4e1,0xbccfc75b,0xbd5c7328,
0x3daffb2b,0x3d46862a,0x3e2215d3,0xbe5119f5,0x3e002044,0xbe1e3228,0xbd445001,0x3d3a26eb,0xbe08da7e,0xbd31e6d5,
0xbddafa77,0xbda27879,0x3de3d214,0x3d80151e,0xbd5cda7f,0xbd05cb26,0xbd093e42,0x3e232540,0xbd837f4a,0xbe288e4c,
0xbad22ed2,0x3de51e04,0xbdca93df,0xbdcb2815,0xbd72e077,0x3eb6b6a0,0x3dec07b4,0xbe31d8b2,0x3c848da5,0x3c951371,
0x3c115991,0xbeaf7087,0x3d3f8be9,0xbd804c60,0x3d994494,0xbd8c87ab,0x3ea6fbd9,0x3d7588f2,0x3d8afa76,0x3c36959a,
0xbdeeb499,0x3d8ad180,0x3e186e2b,0xbde781f2,0xbd52a878,0x3bb8102b,0xbdfa3f80,0x3cc4ff53,0xbc044040,0x3e80bf5d,
0xbd9652cc,0xbd6f51b2,0xbdcad5f0,0xbe0a0d36,0xbdec3af7,0x3c0faab7,0x3dbb0549,0xbe7c8125,0x3e2ce151,0x3d3540b2,
0x3e154bfc,0x3d5f61a5,0xbe29c99f,0xbd3c72b0,0xbdf774d5,0x3e5f16c1,0xbd9fc23f,0xbd601e1d,0x3d32d4fa,0x3decadb2,
0xbd8f4c34,0xbd3e1a6d,0x3d3e5856,0xbde35a7d,0x3dde36ec,0x3dc1bca7,0xbcff37f9,0x3dcce8f9,0xbe1ac01c,0xbd39807d,
0xbcd42625,0xbd0982d2,0xbd245470,0xbd372afb,0x3e2ccdb8,0x3d95a4fc,0x3b54d31c,0x3d2fff16,0x3e3c256b,0xbd3e9a07,
0xbc1fe1a8,0x3ea80b3b,0x3ce4f2b0,0x3da39045,0xbcd6bccd,0x3b77530c,0x3dd77071,0x3e39f27d,0xbdd5991e,0x3c04fb76,
0x3dc5fa28,0x3dd243b4,0xbd58f609,0x3e29b4ea,0x3cde2ffe,0x3d84cab5,0x3d852e57,0x3d04cb85,0x3e036405,0x3e0ef71e,
0xbddd40d5,0x3c8a820a,0x3d9f84fb,0xbebe1082,0x3e6ff765,0x3dcb3ae4,0xbd483191,0x3cb6d63b,0xbe1da944,0xbded1a1b,
0x3d6599ca,0x3ca0e8de,0xbe6d3369,0xbcd2b8ce,0xbd1968cd,0xbd10c386,0xbd8ec7fe,0xbe171d8f,0xbbed971f,0xbd8c9945,
0x3c0a23cb,0x3cb9730a,0x3c976995,0x3d50ccde,0xbcacc2bf,0xbd8c6849,0x3d632b1b,0xbda347de,0xbd8fbb1e,0xbbfc643f,
0x3b1a1f2c,0xbcc9f335,0xbd1a0946,0xba83e521,0x3d315513,0xbd652f48,0xbef7a062,0xbd305b96,0xbd59422c,0x3e46776f,
0x3cdd7c7a,0xbd0d9933,0x3cca1464,0xbe361e9f,0x3d1f8e75,0x3cbc3900,0xbc500e79,0x3dfdedc7,0xbd2c4a9e,0xbd53a2ee,
0xbd5b28d0,0x3d44611d,0x3c09e4ae,0xbd286b2b,0xbdd8325a,0x3d21550e,0xbdc0e0e1,0x3c8a384b,0xbcd35852,0xbdd2284a,
0xbd5461a2,0xbd046997,0x3c019b9c,0xbd2ca40a,0xbd502b10,0xbb891e47,0x3d1dbb5d,0x3be33997,0xbde089ac,0xbc5255a9,
0x3d4de84a,0x3db5694c,0x3c859b51,0x3de6f6b5,0xbceb9e5d,0xbb94a826,0xbc085ed8,0x3e3720cb,0xbc56d19a,0x3dcb1989,
0x3daa8f20,0xbca1272f,0xbcbf66ea,0x3d4672b4,0xbc974f6f,0xbd3d6823,0x3c519939,0x3e09c9a1,0x3d880dcb,0x3dccfa01,
0x3d955eea,0x3c3481e4,0x3dd0b52f,0xbb94f9de,0x3aac7c14,0x3e203beb,0x3de841ab,0x3dc79800,0xbd554680,0xbe782b7c,
0x3da1b643,0x3c7f659b,0x3d67fa17,0x3dee4646,0xbc385fd9,0xbdd2c35c,0xbdc9a9da,0xbca46bbe,0x3dc600e8,0xbe2b0c1d,
0xbe2e4be4,0x3d6a6cbc,0xbcca3d69,0xbdb02bb2,0x3d629ab9,0xbcd2f820,0xbe3048c7,0x3e05f3a6,0xbd4d63ee,0xbdd627e5,
0xbd868f29,0xbd8a2cac,0xbde1b273,0x3e53a62e,0x3e24a236,0xbd353ee3,0x3e10ed3f,0xbe29735f,0xbd552e2f,0xbe72de37,
0xbda74f43,0xbdd54a5d,0x3c7f3095,0x3e22ce7c,0x3e33b0b7,0xbe43fcbe,0xbc557837,0x3db0c20e,0x3c0abc8d,0x3d591c60,
0x3cac309a,0x3e4bb0e2,0x3c2cd69c,0x3c28cc14,0xbd9deb38,0xbd070cc5,0x3daab681,0x3de88fa6,0x3e175e75,0xbe099d13,
0x3dd5dada,0xbe62f1d7,0xbcb07dfd,0xbe3e6a44,0xbe52ffab,0x3e20d4cb,0xbdf65286,0x3cd37b08,0x3c848a6f,0xbd21d37c,
0xbdd3f1e5,0x3d064f27,0x3cdad4fc,0xbdfdc948,0xbc9b9e1b,0xbd77bee4,0x3d3cf680,0xbe056c7d,0xbe02e6cb,0x3e471e01,
0xbe15c649,0xbc7a2c65,0xbe25afdc,0x3e2400cc,0x3e6856d5,0xbde3ee80,0xbdb55542,0x3d79da6e,0x3dc8ae0d,0xbd8b36b5,
0x3d98dfdd,0xbd93e665,0x3d949242,0x3da2853d,0xbe0a13dc,0xbd886204,0x3e5fb4ea,0x3c308fd1,0xbe42b556,0x3e8d84bf,
0x3dcdcb9e,0xbdb29feb,0x3dd6bbf5,0xbc44a299,0xbc6c66e0,0xbb6a62f5,0x3e1c181f,0xbe0abde1,0xbea069de,0xbe9dd144,
0xbd6a2f52,0x3d036a32,0x3e46cf4b,0x3da6d648,0x3e23d61a,0x3d1e671f,0xbe588cd7,0x3d386742,0xbdd78736,0xbc7dfec6,
0xbd677394,0xba5eaa9b,0xbe3d17e9,0x3e04c2e6,0x3df85211,0x3d7dce12,0x3d8b539b,0xbdc34393,0x3d41e49e,0xbcc034d1,
0x3a02511e,0xbd222f90,0xbe28f2b4,0xbe143839,0xbd68118f,0xbc1e0de8,0x3cc9af1d,0x3d078396,0x3b9037b9,0xbc47f0ab,
0x3c36f40b,0xbdeb0547,0xbdb9f009,0x3d113494,0x3d24f857,0x3d393ad2,0xbca624d2,0x3cf55bc3,0xbdb60b68,0x3e0bfdc3,
0xbc8aeeda,0xbd22fc3d,0x3d5610e2,0xbd857c2e,0xbc366b3d,0xbe270f10,0x3d8c125a,0xbd19638e,0xbb0ec27b,0xbd17686b,
0x3d73cea1,0x3d04eb47,0x3c5c8288,0xbde6d9a0,0xbdc6f62c,0xbd4222bc,0x3de6deb0,0x3d7f9135,0x3de9a3f7,0xbddd110d,
0x3baae1e2,0xbcebd2ad,0x3e6f5e6d,0xbca56b58,0xbccc662c,0x3e384d8b,0xbd89b35e,0xbd250c17,0x3e4e8512,0x3e7d5ef9,
0x3e2137ca,0xbdf598f7,0xbdb13bb1,0x3d79ae91,0xbc9a9b80,0x3c0ca3ac,0xbdd6ce95,0xbe2dbdcd,0x3d91dffd,0x3c23a67c,
0xbe36e464,0xbe232d8c,0x3dba36ad,0x3c62e282,0x3d8811db,0x3e11044f,0xbd6f97b5,0xbe180dd7,0xbd9c3de9,0x3de739a0,
0x3d365953,0xbd16bb82,0x3dd7dce0,0xbcb1689d,0xbeac388f,0xbe7769c6,0x3bbcc217,0xbd0a20c7,0x3dafdbfb,0x3e1f7345,
0x3c2d26b6,0xbc5f798e,0xbcd36543,0x3da0eb2c,0xbdb06ceb,0xbd9062bc,0xbd63fb60,0xbcd43a48,0xbea3449e,0xbd7d5ba2,
0xbdab1d97,0x3d818214,0x3dc6b2a4,0xbb4d6445,0xbd8dfe4f,0xbc99a297,0x3cc0bb6e,0x3d83fcc3,0xbda25670,0xbcab3a54,
0xbd97ec92,0xbd0508fa,0x3c5719ac,0xbcf5e7f4,0xbdf3f731,0x3cbeb4bd,0x3e00e591,0xbdbe0aee,0xbaec129f,0x3b81b718,
0xbde6d674,0x3d36b824,0xbcd6259c,0xbd1d2f10,0xbd32b557,0xbcb9f0ad,0x3d94a905,0xbd288d80,0xbd8c3d1f,0x3e052912,
0x3d491ec3,0xbdb9c691,0x3ec3fb32,0xbc8dbcb4,0x3e152a4d,0x3d80afd8,0xbe16c433,0xbc08d3f0,0xbe31fbf0,0x3c688178,
0xbe3657c3,0xbe0ef5f3,0xbdd8a282,0xbc8fbf9b,0xbdd24e04,0x3d885719,0xbd48dc1b,0xbdeabd65,0xbd40c7f6,0x3df1e854,
0xbd92d548,0x3d5e504b,0x3e1940f9,0xbd8b50ac,0x3ccc1480,0x3c350458,0x3cef0c47,0x3c81b947,0xbd9e0416,0xbe3fb520,
0x3def399e,0x3dc13705,0x3b97bbb1,0xbe2365b0,0x3d411e25,0xbefe9394,0x3dd30a1a,0x3d1b66fe,0xbdcc6bb4,0x3e82e9e5,
0xbdc79666,0x3d9da9b2,0x3e465e97,0xbd57da89,0xbdc6fc5d,0x3da5049b,0xbda1a81f,0x3ecc0ad1,0x3e800d2d,0xbe27bdcf,
0x3d0b6db2,0x3d01ee34,0xbe393a85,0xbe986a9f,0xbe04aeb2,0xbd4d9c2b,0xbdc802bb,0xbdbc86af,0xbe7ea052,0x3e01b7ac,
0xbca21c7d,0xbd92f3e8,0xbb9fd3fd,0xbccaa5fe,0x3cbf58db,0xbe1fae15,0xbcf2a916,0x3db4662f,0x3c8c2dac,0x3cf3d9c6,
0xbd24bf24,0x3dc83c9e,0xbd10c355,0x3da73315,0xbd65f180,0xbd518e3f,0xbcabc8b4,0x3dd2ca21,0x3c5581d2,0x3dcb4205,
0xbd1a9deb,0xbd712566,0xbda815a6,0x3cd81d60,0xbd1a56a6,0xbbd807d2,0xbbb00027,0xbe7fd2df,0x3d8f4c88,0x3c4a7dab,
0xbd220a59,0x3d68e3d1,0x3cd19816,0x3dbddb27,0xbcc35e14,0x3d9bc7b7,0xbd233414,0xbd7972b0,0xbd84d7f3,0x3cd05eff,
0xbc56ceab,0xbda2050f,0xbce5a95f,0xbdbff8db,0x3d2d502d,0xbdb6dc44,0x3d5cb304,0x3d92e053,0x3e126e6f,0x3cd97dbc,
0x3b9c0751,0xbdc5ff40,0xbdf098d5,0x3e3ad690,0xba3f8cb8,0x3b8b47d2,0xbd4bda08,0x3e117a83,0xbe16d355,0x3e152ce4,
0xbe08bab6,0x3d9c0d4d,0xbba823f6,0xbd5f683d,0xbd9e5295,0xbd90ce11,0xbcff59f4,0x3cedb52d,0xbdd9e266,0x3d98b52f,
0xbd386270,0xbd715592,0xbcae6c78,0xbdc40ec8,0xbe326a34,0x3d2c2dba,0x3d08c53d,0xbcd37ad5,0x3cf6761e,0xbdbe5d2d,
0x3e010e32,0xbc9bd77a,0xbd5d2a32,0xbe8b900d,0x3d954c99,0x3e5a784c,0xbc9532a8,0x3d1e096b,0xbd7987a3,0xbd42812f,
0x3d888081,0xbdefddf6,0x3d882db9,0x3d8466c7,0xbd49d8d3,0xbd3582af,0x3c7a9307,0x3e02a5df,0x3c830d08,0xbd06e66d,
0x3df21cbf,0x3c537f15,0x3dac284b,0x3e17c885,0x3dd68298,0x3e1789ce,0xbe302da6,0xbd8a82c8,0x3e9f25a7,0x3d38afff,
0xbdf16253,0xbdcf1032,0xbcf2a89e,0xbdf7078a,0xbc870fcd,0xbe642937,0xbe03d62d,0x3c507d58,0x3dfa1643,0x3df766a7,
0xbe47da09,0x3db82c77,0xbd2d3591,0xbe22d0ce,0x3e9d3404,0x3d0b5b98,0xbd8d0ad6,0xbeadd925,0x3e9c9cd2,0x3d8ea0cd,
0x3d346006,0x3d295c85,0xbda82fb0,0xbd06acee,0x3d322c8f,0xbc7be166,0x3e090b67,0x3e6c6670,0x3daf78f3,0xbe3ca31b,
0x3e3a1646,0x3e4011cf,0xbd9a8033,0xbca127bf,0x3bf89e35,0xbc9389b2,0xbdb131dc,0x3e9a458e,0xbd17fa0c,0xbd8d22d3,
0xbdf1e3d4,0xbdc8bfcb,0xbe160c9f,0x3d150311,0xbda8e0f7,0xbd160ce0,0xbdaef8e5,0x3855544e,0x3c63573d,0x3d91bc32,
0x3b5d0345,0x3dbe43e8,0x3e202d0e,0xbe0fa1df,0x3e13080d,0x3e77d0a9,0xbe3087c7,0xbe6762ca,0x3da3d34b,0x3b35eb6f,
0x3e0cbee6,0xbc925c13,0xbe025c24,0xbda266a4,0xbd7a9602,0x3d84f6ef,0xbe4653f1,0x3db6ccff,0xbde96776,0xbe12bf5f,
0x3e173998,0x3ec5945b,0x3cc2e9d6,0x3e2e7218,0x3c0c87e4,0xbe2d5fac,0xbe8a51f4,0x3cc9d9d1,0x3d74e27a,0xbe4a0a8f,
0x3e4b8137,0x3d7b5876,0xbde50137,0x3e7d5238,0x3d4202b8,0x3bafb495,0x3e058347,0xbd1da836,0x3c4001de,0x3ca762aa,
0x3e1b7058,0x3d639c6a,0xbcdefc82,0xbd50f6a7,0xbe14c6d4,0x3e014284,0xbdc95e2d,0xbc98f45e,0x3d895407,0xbe04a68b,
0x3c80ff28,0x3ce20188,0xbb1cbd32,0xbdf575d7,0xbd81b205,0x3df6ee7e,0xbc30df49,0xbdcac7e6,0x3f2cf324,0xbc4d4f90,
0xbcb8dc7c,0xbd0800a0,0x3ce749fb,0xbdf9e2b4,0x3c18d4a6,0xbc182453,0x3e031a0e,0x3d945d98,0xbd7a4fba,0x3e27c46b,
0xbc460773,0xbe3b0b92,0xbce02941,0xbca9c1f7,0x3af49aa0,0xbe24c599,0x3c3106aa,0xbc94c12f,0xbe6395c9,0x3ddcd0c0,
0x3df4d0e6,0xbd71ab4f,0xbdcebd32,0x3dfd4908,0xbdd35e1b,0x3d4f62ef,0xbc3c17e2,0x3dbc4bd5,0x3da216b3,0x3eaa5a0a,
0x3d8a01ab,0xbdaf48d9,0xbd3c2e2e,0xbc9e2b4d,0x3c9cb8a8,0x3ce9a0eb,0x3db0df8a,0x3d9c0f06,0xbcefb957,0xbdfdc40c,
0xbd1aa57a,0xbd8c103f,0xbc705272,0x3d8f3921,0xbd1078b2,0x3e144e86,0x3c1d12a0,0x3d99bafd,0xbd070068,0x3d510993,
0xbce08e2b,0x3c015a31,0x3d66f416,0xbd0ca0a2,0x3c40ec7f,0xbcb64a3f,0x3d17d69c,0xbd8f39bd,0x3de71ac3,0xbd5eb122,
0xbddffafc,0xbd3bc39e,0xbc8f8f86,0xbda0bf23,0xbd84ff44,0xbd8461e6,0x3df50388,0x3cdfd47f,0x3cc3a8c4,0x3d5b50f9,
0xbd049040,0xbcc5e5c7,0x3bf32914,0x3c4d5ce8,0xbcd4ecc4,0x3d0eeaba,0xbd9d1689,0xbcd472d7,0xbc17e2a3,0x3d1e2b4d,
0x3c87c2fc,0x3dec1e28,0xbdf022b3,0xbdb73094,0x3d77cd3b,0xbd095659,0xbc2f9704,0x3d30a63b,0xbd3d7c0f,0xbd944b31,
0x3d66d4da,0xbe2df3d5,0xbe0763c6,0x3c342dc8,0x3c6ba717,0x3ccddf0e,0x3de6eca6,0x3e5f44a8,0x3d47c1d8,0x3ccdfcfb,
0x3d4b5053,0xbd44df14,0xbd51987a,0x3bf0f0a4,0x3caa14e7,0x3d46d72e,0xbda4f1c3,0x3e01c77e,0x3d268e43,0xbe79d651,
0xbd0fd008,0x3cb625aa,0x3e06c975,0x3cb5d038,0xbe24eba7,0xbc76247c,0xbd9dfa48,0xbdcff6a3,0xbd38799c,0x3d7a85e7,
0xbe168026,0xbdd09d90,0x3e170827,0xbca40805,0x3bd78c24,0xbcc0fa1f,0xbcb50e41,0x3dfa03f2,0xbd059247,0x3cf61fb7,
0x3d6ebfbc,0xbd3e3bb8,0xbd13885d,0xbd4a6c68,0x3e586e21,0xbd2e0024,0xbe5bf41b,0xbdd58dd8,0xbd529aa8,0xbe3723dc,
0xbcd8e88e,0xbd4efba1,0x3d964c70,0xbd779261,0x3dfa5ac2,0x3e6528f8,0x3e0e4165,0x3da555ea,0xbdc87c9b,0x3d5c7213,
0x3b1c65ab,0xbde02a8d,0x3dc8d81b,0x3d16a311,0x3d97e01c,0x3c1d96fc,0xbc883aa1,0x3d788235,0xbdf41276,0xbda47945,
0x3d741ebf,0x3d5918e1,0xbd93749d,0xbc8f9b2f,0xbc602069,0xbd865dfd,0xbc74dc65,0xbd97e7cd,0xbdfb6b34,0xbbf4504e,
0x3c1d9e8b,0x3de73c17,0xbdd084ad,0xbcb6ac4f,0xbe2682c9,0x3d21c40c,0xbcc7ff01,0x3d1f4bbd,0xbdc72940,0xbc81d3b1,
0x3df1a3a3,0x3bce17b8,0xbd2a5d04,0xbd9f1483,0xbd8caadb,0xbddcf5ea,0x3e1ba920,0xbcaab38b,0x3d7a95ea,0x3d9f2722,
0x3d00ab8d,0xbdc1b206,0x3e339f74,0xbc8a6a17,0x3c5ee2b9,0xbd0b752c,0x3e21328f,0xbdc73a15,0xbd5e4428,0x3e21bde7,
0x3dc4606e,0xbd8b30c6,0x3dcf184f,0x3d9a5ba3,0x3df6d144,0xbcbcdb70,0xbd837ced,0xbca110ee,0xbc1f3136,0x3e34ca34,
0x3c36631a,0x3dd842e3,0x3d2757a4,0x3dca5f12,0xbdcd1227,0x3ccb9d14,0xbe20266d,0xbcdd903d,0xbccfd8fd,0xbd11e1cb,
0xbc335e3f,0x3dcbf4b6,0x3d383ece,0x3ccc3ddc,0xbd822ca6,0x3c51f1d6,0x3b34cd7b,0x3d387dfc,0xbda51791,0x3d070113,
0x3d82dc34,0xbdf4275f,0xbcab44ea,0x3d8ff851,0xbd0c6b13,0xbd00ae7f,0x3dbc130e,0xbd25f88e,0x3d59589b,0xbd28e08a,
0xbd6eb2a4,0x3b8d65fd,0xbbb8041f,0x3e5579f6,0x3d1e0169,0xbe747aa1,0xbd8241ca,0x3d983bfc,0x3cbf64fa,0x3d309507,
0xbb3bdee5,0xbe534a2e,0xbe0944ae,0x3d39495c,0xbda36549,0xbe3760d6,0xbdcfdc3d,0x3cadb68d,0xbdf01e52,0x3d235e54,
0x3de82984,0xbd033549,0x3c3ad10b,0x3c9d48e6,0xbd742763,0x3d436680,0xbd1dc9a7,0x3dae8a22,0xbd56ad56,0xbb89fe54,
0x3cfe01cc,0x3d49f1ac,0x3c3c1f78,0x3d767f48,0x3d7bf01b,0xbe0ed343,0x3d1c6f20,0x3c939a0d,0xbd699e18,0xbdd09506,
0xbdffc4f3,0xbd5556bb,0x3dce9448,0x3b45bd3f,0x3dfeb712,0xbdcaa49c,0x3c0a68b2,0xbdff780a,0xbd30025b,0x3e8f9dac,
0xbd8479ad,0xbca92fe9,0xbcd09730,0x3d6ed271,0x3cc6dfcc,0xbb999437,0xbdc29a44,0xbd0ababf,0xbd8c1ab4,0xba0738ef,
0xbda13ed7,0xbd2a7572,0x3dfe355c,0xbca79fa6,0xbdb5917f,0x3c8ca0d2,0x3d169d1e,0x3d666c53,0x3e407835,0xbd8216df,
0x3aefe9ae,0x3aeb544a,0x3bc2c073,0x3c2988c1,0x3d287a3e,0xbd6af07a,0xbd6916fe,0xbe2dfb01,0xbdb1e58a,0xbe233df6,
0xbe3197e8,0x3e00b67c,0x3d5f6c60,0xbd69b274,0xbeac5e40,0x3cd2a460,0xbb466488,0xbcba43d5,0xbd356fa2,0xbd5e4b45,
0xbd9e7b8a,0x3b84dbc4,0xbddc7fd2,0x3dbcef09,0xbdb93aea,0xbdc0f8f6,0x3d7abb1c,0xbc457ce4,0xbd6fb7cc,0x3ca1542f,
0x3d71e1c2,0x3d6ff332,0xbe0d07e1,0x3e16bacf,0x3e2a4b20,0x3be8a8a3,0x3de00d11,0xba99ab88,0xbe8b292a,0x3c9bebad,
0x3e2ebd6b,0xbd8ff9cc,0x3d07cde2,0x3ceceeee,0x3d59567c,0x3d4005cf,0xbe0296fe,0xbe4a5a6b,0xbcbd9816,0xbca0cbbe,
0x3d318e19,0x3dbdb67d,0xbce518a9,0xbceb176f,0xbe12f929,0x3d29db3d,0xbcd25a8f,0x3c825841,0xbd976182,0x3d92e935,
0x3dd4b86e,0x3ca22010,0xbdc49ff7,0xbde11b76,0x3d2ad33b,0xbdad6657,0xbdcf3795,0x3c2a5fb6,0x3d77a187,0xbd84e9b6,
0x3d73dabc,0xbda731cf,0x3c25e7f3,0xbda82861,0x3e50bb9c,0x3d2c6ba1,0x3edab861,0xbe58bcd7,0x3d29d082,0xbdbb4f9b,
0x3dd7922d,0x3e527c9d,0x3d360310,0x3df104fe,0x3d83f85f,0xbd6538bd,0xbcadeb5d,0x3d401faa,0xbd4d6eb9,0xbd85e090,
0xbd0204b0,0xbd13ac46,0x3c4d83da,0x3d4e41f4,0xbe13c6a3,0x3d927321,0xbd4c1c30,0xbc986f6c,0xbd0f640b,0xbd3381e2,
0xba9ab6af,0xbde3ad73,0xbd0e954c,0x3d837a02,0xbe026866,0x3c959232,0xbe3e9a82,0x3e6ec12d,0x3ea12f3e,0x3d525351,
0xbe259546,0x3db15411,0x3e1e8360,0x3cc54a3f,0xbdcdea38,0xbdeadb57,0xbd06a26e,0xbe35253e,0x3d59a9eb,0x3ca085a6,
0x3e0c4ef5,0xbcc8fe78,0x3dd85172,0x3e25df61,0x3ec66d3f,0xbd90e010,0x3d680164,0x3e4ba88b,0xbd6c8dda,0x3d7fa5fb,
0xbde91e29,0x3d8c24a9,0xbea1f95f,0x3e306ecc,0xbd008917,0x3c5522d0,0xbe67b706,0xbcda8263,0xbdcfe0b4,0xbcf7f175,
0x3d4b2af1,0x3e17e17a,0x3ccb2356,0x3cef6ec1,0x3d360b2f,0xbd9761e0,0xbd99e7a0,0x3b67d59d,0x3d7cfa87,0x3d48123e,
0x3d424dc9,0x3dadeff3,0xbd3b8009,0xbc17d3dd,0xbd8ebef2,0xbd44c493,0x3e017100,0x3d765182,0xbcbe26e3,0xbdee4128,
0xbd09e3b5,0x3c3b6068,0x3d6ab058,0x3e05fa5d,0xbda64051,0x3d748a81,0x3b9b06cf,0xbdb1dbba,0x3dc22f6f,0x3d41bdb2,
0x3e0561a9,0x3d9198c4,0x3cab21f8,0x3e8ed52c,0x3d1ef5ee,0xbcd5cb56,0x3d257bd5,0xbdd5e68b,0x3caa016c,0x3c8d7345,
0x3de37199,0xbdb89268,0x3db0afda,0x3df38467,0x3d4306c4,0xbdf9fc8b,0x3b613470,0xbd0ab15c,0x3d9d351f,0x3d4b7c17,
0x3dc1a4ce,0x3d41276a,0x3d217f1a,0x3de808b5,0xbd5b9525,0xbcb3bcf7,0x3cbf793b,0xbd8c9a17,0xbc1ed6b7,0xbc220311,
0xbcf5455e,0x3dd19233,0x3c865d38,0x3c402c60,0xbd99ee4b,0x3d6e245e,0xbde65d9f,0x3dcbd341,0xbe715bd3,0xbe1efaf5,
0x3d9f3efb,0xbae4f148,0x3d8e3ad4,0x3d6acebf,0xbd6346d3,0xbd4bf840,0x3dd2bbf1,0x3d14b7cf,0x3d664f3f,0xbcb45890,
0x3cfb87ee,0x3cf7add0,0x3c01ff8c,0xbcfbebd4,0x3c68b4df,0xbd9f693a,0xbd915c85,0xbc708d43,0x3c487d8c,0xbd08d066,
0xbdf3897c,0xbd4dd39c,0xbcc7596c,0x3e272c86,0xbc5e1086,0x3e9cf27a,0x3d9637bf,0x3dac69bb,0x3c08b0f6,0x3e83fd10,
0x3d74d32e,0x3c814f5a,0xbdc7649d,0xbd6a9476,0x3e37decd,0xbaacb167,0x3cf9eb94,0xbcef90be,0xbda6dce1,0x3df3efdb,
0x3ce9e99e,0xbc78b0f4,0xbdac29a3,0xbdcad595,0xbcd7d9c5,0xbe307157,0x3c956596,0xbd053787,0xbc568d84,0x3b822c50,
0x3d91a296,0x3cdb1796,0xbc7d5e01,0x3dd38f92,0x3dfcac5f,0xbe0960d7,0x3dc21ed2,0x3d34da62,0x3d4c8a91,0x3b12df65,
0x3f12b78a,0xbe25b75e,0x3e005331,0x3eafd455,0xbc93f4b0,0x3d5e6fab,0x3e142dc4,0xbb0a62e3,0x3ce487e5,0xbc4f96d5,
0x3d4e7d19,0xbd8805a1,0x3d9fcb62,0xbd9bc15f,0xbe9ff5e1,0xbdc6e535,0x3de6cd06,0x3d16f088,0x3d7350d3,0x3df13753,
0xbce3e06b,0x3dbcb93d,0xbbca081e,0xbdcac46e,0xbd9e22d5,0x3daf0e78,0xbd9c2033,0x3d19872b,0x3cb745c5,0x3e083804,
0x3d7aa5c7,0x3d057a96,0xbe4ff19b,0x3b991ec5,0x3def42b2,0x3e156899,0xbe60a2f5,0xbd9485d8,0x3d9b17bc,0x3cd4b858,
0x3deffd3d,0x3d9e3a1c,0x3d537406,0xbcec42cb,0x3e16be77,0x3cfbe361,0x3d0b3c7e,0x3e37e9ec,0xbde27a9b,0x3da170c4,
0x3c8faacc,0x3d68b8df,0xbcb88915,0xbd1c3f5f,0xbe2816de,0xbc6066d1,0x3b528be3,0xbe72f68a,0x3cdde58e,0xbd36e591,
0xbb27dcd0,0x3cf37d60,0x3caee125,0xbc9f88ff,0xbde6920a,0xbd941ff3,0xbd41c688,0x3d2d75d4,0x3ce0d510,0xbdad75d7,
0x3d6fdfae,0xbe3751e9,0x3cfecbd9,0xbcafccf8,0x3d6f72e0,0x3dbafefc,0xbd96a73a,0x3da8a2ad,0x3e149940,0xbb9f2d5a,
0x3c49f5bc,0xbe130596,0xbbf88680,0xbdcda649,0x3dc03b29,0x3cb71827,0xbd839ca8,0xbdc30579,0x3c6b9d6e,0x3c943dd4,
0xbc282dc8,0x3ac62c18,0x3e6920e2,0x3debd47d,0xbd4f8093,0x3da765e5,0xbdd2da7c,0xbe9592ca,0x3dbe801e,0xbdae7d72,
0x3c629221,0xbde5072c,0x3d0edb5b,0xbe081e15,0xbcdecf06,0xbcb514f7,0xbe05d35f,0xbe4ed043,0xbd69b8fa,0xbc220d0f,
0x3d4bd702,0x3caa10a9,0xbe803a74,0xbcb39317,0xbd5f45f3,0x3ca3262c,0x3c06029a,0x3d5ab19f,0x3c817947,0x3cd71c4f,
0xbcab5ea6,0xbd0e36a3,0xbdba634c,0x3d98aa37,0xbe4270bb,0xbd0e7047,0x3d39150a,0xbd715c98,0xbb4734ed,0xbddb36a1,
0x3dafa04e,0x3d5f05ca,0x3d911d0f,0xbe78c2fa,0x3e02df65,0x3dd57944,0x3d8efe3c,0x3c5c3b92,0x3d89489e,0xbe2e74cc,
0x3db1c46b,0xbd20ef28,0xbc4cc6c7,0x3c6ed636,0x3d66ee7e,0x3c7cb954,0xbdcb9991,0x3cada82a,0x3da2dd42,0x3db528f7,
0x3d921857,0x3e229351,0xbdc029f4,0x3be1984d,0xbd0077e6,0xbcecbfbe,0x3e72a175,0x3e141e11,0xbd98f466,0xbc0bd779,
0xbd80181f,0x3e33a913,0x3db82e52,0x3d2d8103,0x3d871848,0x3b8a51f3,0xbd68afc3,0xbc815492,0x3d47507f,0xbd9c9700,
0xbdaa9a13,0x3d1932cf,0xbdd4c415,0xbb9df4d1,0x3d904f4e,0xbc584aba,0xbd22f833,0xbcc0fe10,0x3da04c5e,0xbc8ee5b1,
0x3cdecefd,0x3e06f680,0xbd90ec6c,0x3c0d5d54,0xbbdc03b0,0xbdccd787,0xbd81da06,0x3d54ce51,0x3cd8644e,0x3c2d9ba5,
0xbc7a8670,0x3c4da84d,0xbd903331,0x3cb56e82,0x3e3fc2ea,0xbcea16d3,0x3dbe2bf8,0xbd9a950e,0x3d38f422,0x3d42e34a,
0xbdbbf7ea,0xbc8bdd96,0x3e04c1bb,0x3d63435c,0xbb50828b,0xbd2ced39,0x3c1acf20,0x3d5162d3,0x3dd784e5,0xbe6c2100,
0x3e0e8735,0xbcc89ee7,0x3b855f0c,0xbcfb1b09,0xbe4b790d,0x3daee3b2,0xbda8a205,0x3d618506,0x3de7939e,0xbd939e34,
0x3d46b858,0xbd60aca6,0xbcf7deec,0x3da295a7,0x3d5e730f,0xbd489d5f,0x3e42832d,0x3ce33ef9,0x3d3d44da,0xbe445032,
0xbbf81d2a,0xbd972949,0x3e357685,0x3d1c604f,0x3dd3068d,0x3dcc2124,0xbb675c70,0x3d0ea8a4,0x3e12bbc7,0x3d20a6d7,
0xbca0dca2,0xbd5c2b1a,0x3d16582d,0x3cdf4e16,0xbc5c687b,0x3b3c1827,0x3d126834,0x3db85781,0xbcc15925,0xbe4adb7e,
0xbc18afab,0x3df8c242,0xbce8c16d,0xbca2c2a3,0xbdacd136,0xbd1e6adc,0xbda51026,0xbd8be79f,0x3d4b443a,0x3cc4d5e1,
0xbdc8c94a,0xbd958753,0x3b86bc11,0xbe132c8a,0xbe3ab2e9,0x3e23a72d,0xbd87e282,0x3e5320b5,0x3dad1873,0xbbe447a9,
0x3d9c90ed,0xbacc8476,0x3da27125,0x3bc546ff,0xbdbdde47,0xbd22df21,0xbdd8d241,0x3d840983,0xbc890afd,0x3e01b34c,
0x3caeb4c8,0x3da52516,0xbd12d7f6,0xbe2c2c1c,0xbd248e34,0x3defacf2,0x3d57ea9b,0x3ccd7e14,0x3d8c12ff,0xbbfac431,
0x3d3cc342,0x3f03b339,0xbd61f7b4,0x3d36e494,0x3e08d318,0xbdb15b3b,0x3dc26c88,0xbbda95c5,0x3d53351a,0xbd8ff48e,
0x3e4962c8,0xbd8196a4,0x3bf64d2c,0xbe5ede06,0xbd53e74d,0x3c89ca03,0xbd38d55b,0xbbd66e4e,0xbe12d287,0xbd7c8c0c,
0x3cd2e203,0xbd625042,0xbe48da64,0xbdb94e4a,0xbe364893,0xbd4a2d54,0xbd60cae5,0x3ea2234c,0x3997114e,0x3dc22b43,
0xbd50797e,0xbcff6dd7,0x3e06f93f,0xbc906806,0xbd5931da,0xbdeadc81,0xbd311a07,0x3e073fb9,0x3d40b6d8,0x3e1c0a52,
0xbccc0e29,0x3e5bcab6,0xbd5aadeb,0x3e9511cd,0xbd435e89,0x3e0f10d7,0x3dd8f0e4,0x3dbacfbf,0xbdcce8a1,0xbbb3dd97,
0x3d5f64c0,0x3da36d8a,0x3d1ea477,0x3db870d0,0x3d8629e0,0xbda6bbd0,0xbd99d90c,0x3def947c,0x3eae4854,0xbcc72c25,
0x3dbc5910,0xbd3e0ce9,0xbe2aabf1,0x3daa19dd,0xbb975b16,0x3d25bf24,0x3dccc44b,0x3c5a7c56,0xbd01e51f,0x3dc1b1b4,
0xbd97889f,0xbd139038,0x3d46b56b,0x3c654a64,0xbe18ffb6,0xbd48f05f,0x3d1c085f,0x3cc88a7b,0xbcf3efaa,0xbe2e0d6f,
0x3cb78c76,0x3de205d1,0xbd1e5d25,0xbcdce153,0xbd2fe378,0xbb8986df,0xbd1dd120,0x3c34f263,0xbd40e765,0xbd0b4209,
0x3d900d13,0xbd370a3d,0x3d70ca88,0x3d99722f,0x3db40cce,0xbe1a82a0,0x3da445f7,0x3dd54e6d,0xbec0decd,0xbd365c26,
0x3caaa927,0x3d0616d7,0xbe76b66b,0xbe8994c7,0xbc009089,0xbdb3a19a,0x3ca117bc,0x3dcabf5f,0xbe518506,0x3cf7b5de,
0x3dc2cce0,0xbd692ae1,0xbdd263bf,0xbd086c84,0x3b528f30,0xbd9eaef5,0xbdbec095,0x3e74136e,0xbde77d05,0x3d2479e2,
0x3e4e895f,0x3e180ee2,0x3eba2050,0x3e0224ec,0x3c6bae4c,0x3e8791e6,0x3d9beb54,0x3c955f79,0x3e09ef41,0x3d46df57,
0x3d363bb3,0xbd8f66fd,0x3d01da30,0xbe013f78,0x3ee4ce0b,0xbe3340a7,0x3deee09e,0xbdefdf66,0xbde6569c,0x3e47e2f4,
0x3e2d0fc2,0x3e037545,0xbd8e8f1f,0x3e1dacc8,0xbdbc29af,0xbd6d1604,0x3e364a5f,0xbdb69d74,0xbdcca837,0xbd9b570b,
0xbda8ff75,0xbdbc9b0b,0xbe141e2e,0xbdc62545,0x3bae145c,0x3e37a46c,0xbd6b44dd,0x3de604e8,0xbda27de1,0xbd7f8318,
0x3d61b1bd,0x3d88b034,0xbc1a0fd8,0x3dc717af,0xbd796aae,0x3ba0ef17,0x3c2b7708,0x3d803a30,0xbcc9b1c1,0x3da8d7c7,
0x3b2d83b5,0x3cbdc115,0x3d97d9ab,0xbe9da935,0xbda2608c,0x3db2bd5e,0xbbd2bb4d,0x3cd5bb34,0x3d883b61,0xbcaf39c7,
0xbbf7f384,0xbdb6fec7,0xbd59f988,0x3cdd3129,0x3cd011a8,0xbcbaf8e7,0xbc3faa19,0xbcd5b45e,0x3cb809fa,0x3d758a66,
0x3ddeafda,0xbc6e8dbc,0xbc78e7e8,0xbd016a64,0x3d9b73e1,0xbdf64912,0x3e1edbf0,0x3dfec137,0xbd7502be,0xbd458015,
0x3d1fe682,0x39a033ad,0x3c42e671,0xbd8178c5,0xbe7ffd30,0x3d4d57e3,0x3d4bcbe4,0xbe27fecc,0x3e06caf6,0xbe833b6f,
0x3d6ac20b,0xbcd22ab9,0xbc934901,0xbc32dbf7,0x3dcce9b2,0x3c4f8765,0xbda1ff9e,0x3df2dba5,0x3cde61f5,0xbd84ff0a,
0xbb12df39,0xbd0d1909,0xbd836d49,0xbd1e04f7,0x3e4c9e65,0x3c94dc24,0x3c8a24c0,0xbe5642a7,0x3cf6e26e,0xbde88f61,
0xbb410d70,0x3d36318b,0x3dceb904,0x3d6465be,0x3d903f2e,0x3e262d0d,0x3e8bf40f,0x3e012a7c,0xbdddab09,0xbd3b1d7b,
0xbdd1420b,0x3d8ee5ce,0xbcb4c873,0xbc79dbfc,0x3cdb9cbf,0x3c9a3b3c,0x3c2893b4,0xbe0a7978,0xbcfc6394,0x3c5d1a98,
0xbd8662c3,0xbd0e7fef,0xbdddf5cb,0x3d9b194d,0xbda196f8,0xbe2b34d5,0x3c9adf21,0x3d85497e,0xbdebd4cb,0xbc2b75fd,
0xbd373abf,0x3df22248,0xbd456efa,0x3daad2c6,0x3daa766f,0xbd16b771,0x3e264e2f,0xbd13123c,0xbd9ebb6e,0x3dae8bfd,
0x39362728,0xbe4a67d7,0xbd4170b1,0xbcc66d99,0xbc13194b,0x3c59481f,0x3dc42adc,0xbce4b724,0x3bfe386a,0x3d86b772,
0xbda79fbc,0xbd83df9c,0xbcbe4def,0xbcb32367,0x3e20c7fe,0x3d1dbd98,0x3d365ae9,0xbd9ee29d,0x3d9424eb,0x392eac01,
0xbd1ac1bc,0xbd61fb56,0x3ef2762f,0x3e32b8b7,0xbc099f27,0x3d917394,0xbcfa2834,0xbb458fd7,0x3dc974fc,0x3e0f096b,
0x3d896e6c,0xbd796a10,0xbd0431dc,0x3d987a44,0x3d83fe14,0x3cda6845,0x3d352d43,0xbd3ce48d,0x3d41f63c,0xbd35fe6c,
0x3d83754c,0xbd81f269,0xbc90becf,0x3d2c0717,0x3deec5e1,0x3d501598,0xbd8cd743,0xbdf8a270,0xbd89f894,0xbcc05da3,
0x3d1aebd2,0xbd73a8a7,0xbdf216b5,0x3dcb2ca3,0x3cfced49,0x3d28f257,0x3e2d8437,0xbd9fa7f2,0xbd8bed59,0xbd8813a2,
0x3bcec809,0x3d085d49,0x3be94355,0x3ba44842,0xbe41ac0f,0xbd14bb08,0xbbe5a725,0x3dc6ac86,0xbe00ab1e,0x3d6dbb9e,
0xbe946f22,0x3e0649d7,0xbd066134,0xbe0b4136,0x3e5fdb7e,0xbde018b0,0x3d4f2047,0x3dadb5b9,0x3e173e76,0x3d16df9f,
0xbde8b8bc,0xbcbba689,0x3c2d0722,0x3d936630,0xbdbb6842,0x3daa5cf6,0x3cd93d0f,0xbc3d75b6,0x3e2f0726,0xbd8c5aee,
0xbdeb7fdd,0x3d873253,0xbd860ccb,0x3c2e5f01,0x3c7440e7,0x3dceace4,0xbe1734c8,0x3cee915a,0x3c7add90,0xbc4ee07b,
0xbd88db9d,0xbcb5c77e,0x3d81a466,0xbd801959,0xbd86b9e6,0xbb9618b9,0x3dbca324,0xbe6afdb7,0x3dbcec03,0x3daec238,
0x3b6ed3fd,0xbe25cb56,0x3d378a31,0xbe395828,0x3c37d08a,0x3e9c9ddd,0x3cc559bc,0x39bbfd1f,0x3d5167f5,0xbf264133,
0x3dad7e66,0x3bcd22fd,0xbcfb7206,0xbe32c497,0x3df25eff,0xbe461545,0xbe4026e8,0xbd1a3fae,0xbdfda0b2,0xbdf4ed07,
0x3cf5bf12,0x3cf6f4af,0x3c219374,0x3c3bc8a8,0xbc83879e,0xbdcd4ff9,0xbbcc1397,0xbc6dd5b0,0xbd7cf38d,0x3df90328,
0x3d2bc28e,0x3e95e655,0x3de2642b,0x3d287f79,0x3d4406c3,0x3d8eea1e,0x3e39d619,0xbdaacea8,0x3d0ecae0,0xbc8ba212,
0x3b68b285,0xbe2320ac,0xbcbef569,0xbd0c25c9,0x3e01e038,0xbd50637f,0x3d351f87,0x3e1cbd0d,0x3eb50ed4,0xbe02fd0f,
0x3d1b5e41,0x3cdebcd4,0xbdbe00f6,0x3d153202,0x3dcc99d5,0x3dfb1257,0xbe96c11d,0xbc52e796,0xbd61760a,0xbea8adee,
0xbb9ebae4,0x3d4edec5,0x3d801df2,0xbddaf6bf,0x3d71d01b,0xbe1e288a,0xbe43c1fd,0xbdf5ed73,0xbc1d2a19,0xbd614335,
0x3d2cdef6,0xbc3707ee,0x3d817073,0xbc8be72d,0x3cae34a1,0xbca68393,0x3cda9258,0xbd9ab141,0xbd50c38f,0x3d7c956d,
0xbd0a8f90,0x3cdc3150,0xbca1d5a8,0x3bb2aa27,0xbc5732be,0xbd5da19e,0xbc83cd34,0xbcb7b058,0x3c95bb3b,0xbad3902b,
0xbd81cb05,0xbc8aa141,0x3cb1f8aa,0xbdc3e119,0x3c97c81d,0xbd638d65,0xbd7e13ae,0xbc754c42,0x3ba14e97,0xbd1d9fce,
0x3c9b0782,0xbca2ab7b,0x3d180c71,0x3c411fd4,0x3b47ab2e,0xbc0f8a3f,0x3eade4a1,0xbdc10afe,0xbdba4aad,0xbcc7e7b9,
0xbd78c7b1,0xbca00b66,0xbd87fa08,0x3c34d8f6,0x3a679a29,0xbc60c4ed,0xbd84d7b8,0xbd53f701,0xbd902ace,0x3dc68887,
0x3b6877b5,0xbd1a0bee,0x3d91b3f4,0x3ddd5bf4,0xbd2a54ca,0xbd422ca2,0xbd2b678f,0x3cc6b043,0x3d84d9e9,0xbc43a9e9,
0xbd284fe4,0x3c9afd22,0x3d287ac6,0x3c23d82c,0xbd899a5b,0x38d8b5c5,0x3d492275,0xbc5f6250,0x3d046ea2,0x3d2f1033,
0x3da333e5,0x3ca70d2c,0x3d272eba,0xbc1c1717,0x3d4a3217,0x3d8fad21,0xbddcbbdd,0x3d67576f,0xbe2b4704,0x3d07e56e,
0x3bdd858c,0xbd118f93,0x3d0ede69,0xbc9d8fec,0xbc059542,0xbd680b47,0xbd988d51,0x3d09afdb,0xbd7da2d5,0xbcc7b3cf,
0xbd89444b,0x3d03947e,0xbc8511a4,0x3bed1ff2,0x3c26b041,0x3c5c2980,0xbe4cf63f,0x3c233a97,0xbe1a0222,0x3d98f187,
0x3d30946c,0xbdd06076,0x3ceda621,0xbcfd65c4,0x3d6f02b6,0xbcfbab1a,0xbe293c4e,0xbdb96a72,0xbcbba70b,0xbdf08e18,
0x3ced8803,0xbc35e9d6,0xbd30a1fc,0x3ca84dfe,0xbde2aace,0xbdaa069a,0xbd999d8c,0xbde69bdb,0xbc03a41d,0xbec3ad34,
0x3eaca663,0xbc363caa,0x3dea2507,0xbddcbdb1,0x3d794c26,0x3d9ce676,0x3e597720,0x3e7335cf,0xbdd66ec9,0x3d3a8c23,
0x3d328910,0xbe27dbe2,0x3dda4924,0xbde98850,0xbd9f3f55,0xbd676f04,0xbb316329,0xbdda9a78,0xbde59678,0x3dc5eb54,
0x3dd84c5e,0xbdb247d7,0x3ca2c29e,0xbcfad98e,0xbe2df2d0,0xbd48db5e,0xbdc34641,0x3caa09ab,0xbe2a40c4,0xbd6bdc8b,
0xbbc39758,0x3d373b31,0xbd28c2f9,0x3e8a8c60,0x3ec8dded,0x3ddc62cf,0xbdc36509,0xbd8e6826,0x3e3ee0ab,0x3e201209,
0xbe3a6b5b,0x3dd6fa9b,0xbc11c7e5,0xbe986c41,0x3d731eb7,0x3ddcd128,0x3c4bba5a,0xbd4a679b,0xbc265cbf,0x3eea4f4b,
0x3f2b4e3d,0xbd3fab95,0x3d9acc4f,0x3e3f425c,0xbd1a3a2a,0x3c0973f3,0x3e25655c,0x3d3e6e56,0xbe8fd3d2,0x3e56c64f,
0xbe2e1a96,0x3d8750c0,0xbe992a11,0xbe341f86,0x3d4c30b9,0xbdce0111,0xbed47a4c,0x3f222eba,0x3e2b9f25,0xbd058590,
0x3d21f792,0xbd411801,0x3c1c41aa,0xbe373007,0xbd7e24c1,0x3dfb5a69,0xbdfe245d,0x3ccfdff2,0x3d1fede9,0xbce413ae,
0xbd61280f,0x3d866439,0x3d84f7f7,0xbd13bc0d,0x3c2b8910,0xbd8f4481,0x3d21bc30,0x3e0a5061,0x3cc5dad9,0x3d03bbb6,
0xbdfc69bf,0x3dd9cb41,0x3e7561f1,0xbc69610b,0x3e3a24dc,0xbd760f9c,0xbd7ee302,0xbe5174aa,0xbe38fe6c,0xbbd66f05,
0xbd1ac27e,0xbb2f6394,0xbe479936,0x3e322aea,0x3bc8f9d6,0x3d306750,0xb8c7a573,0xbcc7a76c,0xbce2b03f,0xbe490b56,
0xbeedd50d,0xbd100229,0x3d6adb9a,0xbdc6ce2d,0xbdd1c098,0xbd032714,0xbe776c43,0x3d24cbbd,0x3c8c6317,0xbd96dd71,
0xbc70e33c,0xbe0cf38f,0xbba8a116,0xbca8f4f9,0x3ca3e1cd,0x3bca123d,0xbe52e98b,0x3deee0e9,0x3e0de099,0x3e436735,
0x3e4c81a4,0x3e4da16b,0x3c32047e,0xbe3ac0de,0x3d42a4d7,0x3dbddb7a,0xbde501c1,0xbb94d540,0x3b4f090f,0xbe0cfbfd,
0xbd51d116,0x3dd7694c,0x3e66e940,0x3d8b5193,0x3dd6406b,0x3e83daed,0x3df55347,0x3e3d2ca3,0xbd6c94a5,0x3e57fe2e,
0x3c56142e,0x3cd30a7e,0xbdbff4d0,0x3e2a6c5b,0x3e6be528,0xbd29e43c,0x3d0a8eda,0xbdd8c86c,0xbd2c4a40,0x3c23c734,
0x3de20b3d,0xbe258b6d,0x3c9bb558,0x3e43857e,0xbe13a697,0x3d60bf29,0x3c8e8ebd,0x3cab15ab,0x3d64cf5d,0x3bc19f70,
0xbdb4be4c,0x3dc8970d,0xbcc0a13a,0xbd981e4a,0xbd081ea6,0xbb8cd2a3,0xbc3d33a1,0x3d321830,0xbcabca91,0x3da8cac1,
0xbd9e021b,0xbad2996a,0x3d73df00,0x3bb62add,0xbd38baa2,0x3d8b9e90,0xbdaa35f0,0x3e5bc49e,0x3d382e30,0x3d35a060,
0xbd53270a,0x3c9bf0a7,0xbdcce841,0xbb20c2b1,0xbc2fa8e1,0xbd884948,0xbd936408,0x3d6a77ef,0xbda2e562,0xbba86dca,
0xbbc76233,0x3c07016a,0xbc157a8b,0xbc09175d,0xbc9cd030,0x3d4ace1a,0xbd0909ea,0xbe6a346d,0x3d52d1e1,0x3a95980c,
0x3d0ceec5,0xbd0b8978,0x3b595b15,0x3d30e37d,0x3d72da19,0xbce86bb6,0x3d85e887,0x3d6b4fe5,0xbc9f8f7f,0x3cbd7f9c,
0xbc663aa7,0xbc016f63,0xbc4e9381,0xbd811841,0x3dc111d0,0x3a1fd0bc,0xbdda3fb6,0xbd31f5eb,0x3da120f4,0x3b2eee95,
0xbd22d15e,0x3c7d0539,0xbaeb5c41,0x3d562a1c,0x3cdd51a9,0x3d9d485d,0xbcf01e51,0xbb216e43,0xbdd360c4,0x3c8ffb92,
0x3d9a3485,0x3b96626b,0xbca01d01,0xbcf96947,0x3bb5afff,0xbdca4cd7,0x3d4031bc,0xbd46df49,0xbd35cad7,0xbaef722b,
0x3d01e622,0x3d11fff7,0x3ca83374,0x3d47ddb1,0x3e09fa1c,0xbd9f57b4,0x3e1ce585,0xbe216568,0x3d8a4d50,0xbcb37734,
0xbd7b2c5a,0xbcd3b031,0x3cd880b2,0xbd8dccdc,0x3a76ef71,0x3d5314b8,0x3cf29c83,0x3d326790,0x3e2509c3,0xbd69c0c8,
0xbbe56c92,0xbd3b9dc6,0x3dbd5611,0x3e32a6fb,0x3d368ff2,0xbbcb0039,0xbdb99090,0xbe389eef,0x3cb7be38,0x3d04f782,
0xbda55d2c,0xbb04c154,0xbda13828,0xbe221535,0xbd7f618b,0x39ce9d26,0xbd935802,0xbe0d0077,0x3e0deecd,0x3d8daa37,
0x3d9d9f8a,0xbe072bf0,0xbc99a826,0x3d1ee471,0xbbbefa49,0x3e24a9f3,0xbd9185bd,0x3d654983,0x3e5749a0,0xbe088c2d,
0xbd52adec,0xbbd5bb2e,0x3dd6978e,0xbe147837,0x3e886c1c,0xbd1e7afa,0xbd8ff749,0xbe0e41af,0x3ecf10c3,0x3be8e2b1,
0xbe1a9b87,0x3d7d182e,0xbd6c3328,0x3d4f4689,0xbce115cc,0xbc0a8bcf,0x3d88b0d1,0xbd3d41e4,0x3d3a5090,0xbaadf638,
0x3b6acd18,0x3e6f4ad1,0xbdb92fb5,0xbc0937fd,0xbee503b4,0x3e04086c,0x3d2c833e,0xbd554794,0x3c9687f3,0xbca0066a,
0x3d92bd0d,0x3e1a2513,0xbd36e3d8,0xbd3548fd,0x3bbcaacc,0x3d7054ce,0x3d8c0c1a,0xbc930a1f,0x3e461ad9,0x3d87b751,
0x3ddef97b,0x3e41668b,0x3c329501,0xbaf8c156,0x3e2368dd,0x3e0263b1,0xbe90cd68,0x3e22476c,0xbe35350d,0xbe6dea5a,
0x3e542dfb,0xbdadd07c,0x3dae7042,0x3ddc23a3,0xbe38b731,0xbdd29913,0x3c4cd514,0xbde5b8c8,0x3dc23e13,0x3db264f2,
0x3e1dd058,0xbc8a63ae,0xbb460992,0x3c2f43ea,0x3dde844c,0x3d4bbbc1,0x3daf0461,0xbce43f58,0x3db6f6f4,0xbdb7c8fe,
0xbc009f0b,0xbd432cb8,0x3ae402c4,0x3ca946ae,0x3d8ea685,0x3deba1d5,0x3dbe0ebe,0xbda75f1b,0xbe097337,0x3d0c8abf,
0x3de1c517,0x3d219342,0xbd18ccec,0xbd183499,0x3e2c88ac,0x3d028309,0xbd4cea3c,0x3ca21dab,0xbdfe900c,0xbd3bbde3,
0xbe0409f6,0x3d5e4113,0xbcbd531c,0xbd58c306,0xbe05731c,0xbd8069ca,0x3d3c28de,0x3cf14e5a,0x3d624ecf,0xbe640cdd,
0x3dab0df2,0xbf0f6343,0xbd11cd9f,0xbd773421,0xbde81d25,0x3d303532,0x3d82d1a0,0x3d95e55d,0x3bfef47d,0x3cecacd2,
0xbc8a0650,0x3e24f42e,0xbd9278cb,0x3ddc74f1,0x3c74c063,0xba8339c0,0x3d2b7d77,0x3d1465cf,0xbde11761,0x3d92124f,
0x3c368d6d,0xbb367935,0x3d9f5fb2,0xbde7448d,0xbd83ffe5,0xbcf15c34,0x3e0446af,0x3df106e8,0x3da00d47,0x3d9367e3,
0xbb7a9560,0x3dc1f6be,0x3d28adf1,0xbc4163bf,0xbd138c2e,0x3c28ddcd,0x3e21db87,0x3dad5df4,0x3d0a8ca8,0xbc8c4695,
0xbd1f8746,0xbd621be2,0xbd2725d1,0x3e59f461,0x3ca39404,0xbde9ae94,0x3e29456b,0xbcaabffe,0x3cd166b8,0x3d835f15,
0x3daa9b4b,0xbd0bdab5,0x3a449b0d,0x3e47c3d9,0x3db4d8d7,0xbc4c9ce4,0xbcc2ec2b,0xbb414766,0x3d7d7302,0xbd2e1591,
0x3d4ed0b7,0x3b992309,0xbac1328f,0xbc058083,0xbe05c920,0xbcedfc95,0xbd326d9e,0xbc9a7d9a,0x3d1ee209,0xbd8f6273,
0x3d79f364,0x3db99509,0x3e068503,0xbdacf834,0x3d87897e,0x3d5bbd58,0xba9852e8,0xbd10cad1,0xbd7da164,0x3d139ed9,
0x3cd31b38,0x3d263b8f,0x3d98507e,0xbdd7124b,0x3d6db01b,0x3cd609e5,0x3c76ac1f,0x3c0ee5f9,0xbba2bbcf,0x3c8388e1,
0xbcae04cf,0xbd3530d7,0x3d772d15,0xbcf47fab,0xbd3a205e,0x3d658c77,0xbd5ffb05,0x3da91db5,0xbe3b74f6,0x3d5fbe07,
0xbd0d4f5c,0xbe13c5c5,0x3d442dee,0x3d59f201,0xbdf708bc,0xbd7edd79,0x3dd9ae63,0xbd09b513,0xbe18a4c5,0x3c6feab1,
0x3da27c7f,0x3dcb7f0e,0x3cd92dd4,0x3d867acd,0x3d93e23b,0x3d0d155d,0x3df35923,0x3cd86638,0x3db1d639,0xbc0da804,
0xbd07e54a,0x3d6ddbcc,0x3d8f52ca,0xbdba95a8,0x3d3db868,0xbd9960bc,0x3e6a688e,0xbcf223e5,0xbc49ecd0,0x3c23e5ea,
0x3cd5195f,0xbc8239cf,0xbd35920c,0x3defdba9,0x3b9dc694,0x3c1f2067,0x3dde19d9,0x3d0c5038,0xbdc5e383,0xbe609000,
0xbdacd730,0xbc468772,0x3d00c085,0xbd427320,0xbccc1c01,0x3d2ef567,0x3e303e77,0xbcfcb49e,0x3dda08c0,0xbe426956,
0xbcce7833,0x3bb4aca7,0x3dbf1043,0xbca74a03,0xbd30d097,0x3e07a32d,0x3db7abb4,0xbd98cd06,0x3d6cdb47,0xbe451789,
0xbe52622c,0x3e193243,0x3c84f93d,0xbd5ba7e0,0x3d1b7477,0xbdb61c6b,0x3e4071bb,0x3dce2f38,0xbd9686d6,0xbe06cd11,
0xbccef948,0x3ce34f7e,0x3e09e2a3,0xbd791090,0xbd533656,0xbe068173,0x3b8c0a4c,0x3c37d056,0xbcb30240,0x3d89a43f,
0x3cfa0bda,0xbc394bea,0xbd9eabdf,0xbcc8927a,0xbe3bcf34,0xbd57f916,0xbdbced83,0xbd5cd04d,0xbe18df53,0x3d3bdd74,
0x3c561d20,0xbc2b03de,0x3dfc08c0,0x3d974996,0xbcfdeba7,0x3e3892fb,0x3d815896,0xbcdc4bec,0xbd135fb9,0xbd9e784a,
0x3d0b0f89,0xbd532108,0xbc501374,0xbd5e0827,0x3b3aabb9,0x3dcfe741,0x3bd97ddc,0xbc13734e,0x3e9dfc14,0x3e146e99,
0x3dffe58e,0x3cd77a05,0x3bf6678e,0x3d322b56,0x3d06fb1f,0xbd8da11f,0x3d6badaa,0x3d4fa60f,0xbca21c3a,0x3da68c6d,
0x3dd5c65c,0x3e35c5b3,0x3a7d6bae,0x3d869c38,0xbcf1980d,0x3d8a630a,0x3dbc73c0,0x3cba0349,0xbe4712ae,0x3ddca602,
0xbe47ff8a,0x3e31f608,0x3d78d7aa,0x3dae63f1,0xbe0c7b6e,0x3bb3fa58,0xbd66e03c,0x3d65bc51,0xbc3c3183,0xbdb3d482,
0x3d1222e1,0x3d007dfc,0x3d6396f3,0xbd485abf,0x3e1a06e8,0xbdbabcaf,0xbd9379b7,0x3bdc35f1,0x3d87bc92,0xbc922521,
0x3cfd21fa,0xbda9cdd6,0x3c3839b6,0x3cb1c84e,0x3d07b45d,0x3da768c0,0x3b10cb78,0xbc0a1d04,0x3d0d1b17,0x3d399c94,
0xbd6f4886,0x3d941e3b,0xbd827631,0x3bc7517a,0xbde1d598,0xbd04f67d,0xbd5e56a4,0x3c79310d,0xbd375529,0xbd1fb0c0,
0x3e012b19,0x3d80fa10,0xbbe2a499,0xbd403b76,0xbd645367,0x3cd32ca3,0x3c3ad092,0xbdb6a508,0xbc8d083c,0xbd836f4b,
0xbd195132,0xba86e3e4,0xbd7f0601,0xbd6e195d,0x3da9211d,0x3d3367e8,0x3d94ae6e,0x3c197a24,0xbd53baf9,0x3ceee0d5,
0xbdee8267,0xbd0852fa,0xbe42d94e,0x3d87d4bd,0x3d689b44,0xbd47de47,0x3d8db4cb,0xbdd84319,0x3cd3d00e,0xbc9b56dc,
0x3e175a46,0xbe122e31,0xbd51805a,0xbd12e3e7,0x3d00936b,0xbd0f6b94,0x3e45d0a5,0x3d8a3513,0x3ceb8668,0x3bbc2972,
0x3e0eed84,0xba5436a2,0xbd2c8d18,0xbd895190,0x3c3f92c4,0xbc311100,0x3db76d69,0x3d3e50a4,0xbd5b2f01,0x3e09c1b9,
0xbcbf9010,0xbc2d471c,0xbda3d206,0x3db4365c,0x3d7d50d0,0x3d5ef413,0xbd90f186,0xbe0aae58,0xbd400d88,0x3d14f076,
0xbc1e5b6f,0xbdca4db2,0x3cba0ef4,0xbd1691fb,0xbe3f69c7,0x3b863a3b,0x3d5fdc68,0x3d73680f,0x3cc23f15,0x3db68a6f,
0xbd194a95,0x3daabcfd,0xbd8bb7dd,0x3c555a41,0xbdabddd2,0xbd733d91,0x3d870a10,0x3e19740d,0xbe0d45a3,0x3d0bf933,
0xbdf39fdf,0x3daa1438,0x3e19cb04,0x3d2c9740,0x3eaa4c45,0x3de85413,0x3e15cfcd,0xbe46d3da,0x3d5c906b,0x3e1cc460,
0x3cf3091d,0x3add15e0,0x3df8af06,0xbd932fa7,0x3d8bbdb8,0x3e010e1c,0x3e1667f1,0x3e3a9312,0x3d040e7f,0x3c04eeef,
0xbe16c576,0x3d4e679d,0xbcb20cdf,0xbdedca70,0x3e85f9a6,0xbe0af7d4,0x3d1766b6,0x3d332d49,0xbc8fc10b,0x3c26a617,
0xbdaa2301,0xbd7af2d3,0x3d0f1662,0xbceeeb18,0xbbed26c2,0xbbb2cced,0x3dc4c048,0x3e5190e3,0xbe22dea3,0x3c276289,
0xbea597b1,0x3beb3b04,0x3c029260,0x3e2ed542,0xbe7163a2,0x3e124d0f,0x3e2fec10,0xbd4ef62d,0x3d96ebef,0xbd475f0f,
0xbdc58e9a,0x3d22ffed,0xbd01d635,0x3dde9487,0xbeaa67e7,0x3d5bd1de,0x3dbe33b1,0xbd0c6032,0x3bde844e,0xbe0f458f,
0x3d78cea0,0xbe6903e7,0xbd394cd7,0x3c07fffc,0xbdd79d90,0xbd4e4295,0x3c9d210e,0xbcb7f864,0x3e0a0e19,0x3e6b3b10,
0xbd180fe1,0xbe2b3af2,0xbe964619,0x3e114297,0x3e028c58,0xbe1745bb,0x3d9b80de,0x3e18c3da,0xbc9c1392,0x3cb2addd,
0x3d673c61,0xbd3f223f,0xbe325585,0x3d87b9cd,0xbd32e9f3,0x3dcf9d7b,0x3de58f51,0x3cb560bf,0x3d81b9db,0x3de453e5,
0x3dd28754,0x3dd18e3e,0xbd6c6009,0xbc9242f2,0xbddd6164,0xbd2baa33,0x3c102677,0x3cff9482,0x3db87579,0xbda68919,
0xbdc63db8,0x3dc2c631,0x3d48a6b9,0xbe38b523,0xbd9ad93c,0xbe3f8fd5,0x3d652d79,0xbd7a2ee9,0xbdb04d35,0xbc7ac1d1,
0x3ce8fc61,0xbd62f795,0xbd693707,0xbd8ba98c,0x3e4bfcf6,0xbd1bba81,0x3c0fcf94,0x3d53b133,0xbdb5f29b,0xbc843114,
0xbd8237ac,0x3de3c7b2,0x3b8fb4dd,0xbd9c229d,0xbd8341f1,0x3cf263e0,0x3d0e7e27,0x3cb67868,0xbc92aea4,0xbdf0a028,
0xbcee8dc7,0x3d05efbe,0xbb8800d3,0x3d03eed7,0xbe388bc7,0xbe361fb1,0xbd80b894,0x3d51a36b,0xbdb5b1a3,0xbbc825f0,
0xbd8a5e87,0xbb6b6dbe,0x3d079afe,0xbda0c4e8,0xbd01ff79,0xbc4ee4d4,0x3d2d3979,0x3de5c1de,0x3cba91f1,0xbd470ebf,
0x3e10af8a,0xbe244e5f,0xbd8a395b,0xbd68c052,0x3c87b9a9,0xbce5555d,0xbdb4b975,0x3c3a0057,0xbe0af7e3,0xbe04c97d,
0x3de3e196,0xbe0761a7,0xbd2fe996,0x3d110914,0xbde20101,0x3c9aaec9,0x3e416a21,0xbd8b9eec,0xbcf89cf3,0x3e0d21a9,
0x3c604430,0x3d5fcd2d,0x3c9dc337,0x3cdd24a8,0x3d6550d2,0xbd9bfe62,0x3db7db10,0x3d4ce688,0x3e4f12e0,0x3de0b529,
0xbda9d525,0xbd145a29,0xbd36fa5e,0x3e7897ac,0x3d574fb9,0x3c9bf300,0x3badc8e2,0xbca62d5e,0x3bac20cc,0xbcbb79b3,
0xbd810c5f,0x3d1c4242,0x3d6b975f,0x3dd65316,0xbd92777d,0x3cb1124f,0xbd7046d0,0x3ce8b8a9,0x3d148952,0xbc493679,
0x3d3ba1c5,0xbc5cfc7d,0x3cb2c942,0x3cd95b8e,0x3c898deb,0xbd82feeb,0x3da45d62,0x3d876b35,0x3c159d4c,0x3d798d3b,
0x3d543628,0xbd677e79,0xbd699fac,0x3c505739,0xbd4b67cb,0xbd221737,0x3c7c04e6,0xbcd98093,0xbb9fedb7,0xbd263a08,
0x39d22fba,0x3bd30ba7,0xbcf0b63f,0xba4b2204,0x3c6b1bb8,0xbd22c521,0xbca6c48d,0xbc7d3c81,0x3c63aa0d,0x3d3e9ddb,
0xbd050793,0xbd108e15,0x3d0cd910,0x3d597ac0,0xbd267247,0x3d22fef3,0x3bd6925b,0x3c85ba31,0xbd2b5041,0x3cdf7ba2,
0xbdd4cf18,0x3d62a671,0x3c947677,0x3db3c969,0x3d085a5c,0xbda8a43f,0xbca3861e,0x39d93cc2,0x3c4d1810,0x3dab9efd,
0xbcc5b216,0x3cdcea60,0x3e29072a,0x3d862a42,0xba87f1ce,0x3d7cd3c3,0x3d568d04,0x3d213562,0xbbd8daa6,0x3d24c299,
0xbbd287d2,0xbc0b6924,0xbd0458f5,0xbc9fcb3e,0x3b6a4722,0xbc9abfe8,0x3c74016a,0x3c4b4619,0xbe48745e,0xbe998beb,
0xbe1c6a0c,0x3cf05d4d,0xbc3a3538,0x3d6c6aef,0xbd083c06,0x3c92a20a,0x3d3a43ad,0xbcb65c0d,0x3deee273,0xbb040a78,
0xbd8b05af,0x3d350c1d,0x3d2d7fcb,0x3c8a8674,0x3cd7c787,0x3df7482c,0x3d19a992,0x3e87fcf9,0xbca0656d,0xbe11fadd,
0x3d836912,0x3d8327ca,0xbdb71371,0x3cb8cb6e,0xbe24f7c1,0x3dc3519a,0x3d1962a8,0xbe430408,0xbd8d4392,0x3db0a6b2,
0xbc86d8d9,0xbd79a34d,0xbd7b0ba7,0x3e0850c7,0xbd84fc0e,0xbd2fb40a,0xbccde083,0x3d892cc0,0x3e01e6d0,0xbe12c4ef,
0x3d500e78,0xbd0ce807,0x3d81f819,0xbcdc22ca,0xbbd145c7,0xbd39e244,0x3ce81feb,0x3e146443,0xbd6ed419,0xbd9f154d,
0xbc8dae47,0xbda6b3cc,0xbdac5d62,0xbd66bf47,0x3e1c6e01,0x3c99d575,0xbcc7fb14,0xbba16bd8,0xbd71ce69,0x3cffdf2a,
0xbeb4dad1,0x3c45c77b,0x3d64df7c,0xbdf5eeb5,0x3e9dd621,0xbd68d38f,0xbd920380,0xbe3204b3,0x3cba1def,0x3df0eacb,
0xbd068dc1,0xbdb85dda,0x3d5ebb13,0x3d4849b4,0xbd810d90,0x3c166a80,0xbe11a4f1,0x3de6b1e8,0x3ea7a66b,0xbe5e2cba,
0xbd032efb,0x3e16eca7,0x3daf21ea,0xbc584ea1,0x3db7059c,0x3e1fd6b3,0x3de6a244,0xbd87df97,0x3b4bba53,0xbd93a82d,
0x3ac3f598,0xbd0537a5,0x3d7ae358,0xbd6082bd,0xbea48884,0x3e0e84d4,0xbe07be82,0xbe1039cc,0x3d820c1e,0xbd212639,
0x3ced46c5,0xbe838ecb,0xbaa509f3,0xbd783d21,0xbe20e76c,0x3d41605e,0xbc73f730,0x3d270919,0xbdb607bd,0xbd9527c4,
0x3d7fb8d5,0xbdaeaf2b,0xbda56138,0x3d716789,0xbbb35b58,0xbb190905,0x3c6871e3,0xba85eded,0x3d08f5f4,0x3d26b9fd,
0xbba73c55,0x3d5a26ef,0x3d131e28,0xbd026508,0xba70033a,0xbc4eba7e,0xbcf295b1,0xbd2ad76a,0xbe01a8d3,0x3d6f0e4d,
0x3d10e765,0xbdc11b98,0xbd1907f0,0x3d6b7ba9,0x3b1c60ab,0x3d824c79,0xbccd1a4b,0xbce6b461,0xbdbe598b,0xbd26d6cc,
0x3d44a843,0x3c65ef83,0x3ca5805c,0xbcdbbe38,0x3cc385aa,0x3b397436,0x3cb5cb19,0x3ca13934,0x3d1db585,0x3d19ef87,
0x3d670ad0,0xbd7f07c6,0xbddcd891,0xbacc178a,0xbcfae349,0xbd155def,0x3d267c8b,0xbe201733,0xbd43792b,0xbc68b3ba,
0x3d7cc016,0x3ccd5501,0xbc683e99,0x3c2f2e30,0x3bf63151,0x3db8c0f2,0x3e9a756a,0x3c96ed40,0xbc8b2455,0xbdfaa2ce,
0x3d86781b,0xbd946531,0xbde87a61,0xbc2f7276,0x3d642c95,0xbd4896e0,0x3d5abbb2,0x3d5be4e4,0xbd14300c,0xbbbd8b6b,
0xbbc2a362,0x3cef331a,0x3d704c3d,0x3de3f8fa,0xbdb23cb8,0x3d8e7f4d,0x3b3a3d58,0xbdb83e21,0xbd1f585d,0x3d051cee,
0xbd885eb3,0x3d950c0c,0x3d3fbdcc,0xbd1284b4,0xbe5e8d43,0x3d8723c1,0xbd4cc4f3,0xbd0e3c3a,0x3cb4e282,0x3e1b847d,
0xbdaaeb8a,0x3d96383f,0x3da302e4,0x3b569a3e,0xbad34b3e,0x3d9b70b7,0x3d779f9a,0xbce3198e,0x3d30a5ed,0xba4aac9a,
0x3d98a5b5,0x3d23162c,0xbcf16d8e,0x3d0eb4fa,0x3d84771b,0xbdb90eb2,0xbc316c2f,0xbc878b9b,0x3bb6b2ba,0x3d79ce6e,
0xbc00624f,0xbd6d29af,0x3d165428,0xbd3de6c5,0xbe805e88,0x3ce129a3,0x3cc48644,0x3cba7ec2,0xbd1b6870,0xbd177558,
0xbd917761,0xbd3947be,0x3d172062,0x3d8ea3d2,0x3d61f483,0xbd8dc826,0x3d583d9f,0x3ce63ef4,0x3cd92f57,0x3d8a97e6,
0x3d5b2f28,0xbde36318,0x3d9c9648,0x3b71db9c,0x3d47e350,0x3ce12cf0,0xbcc3d9b4,0xbcc0d6e5,0xbdfa696d,0x3c95ffc7,
0xbd82f764,0xbd225874,0xbc6c302e,0xbdc5337f,0xbd489550,0xbdcdd70d,0x3c4d3e18,0x3dada69a,0x3e3c7fa0,0x3cb0b8d7,
0xbcf702e7,0xbc91e75f,0x3d33f5f4,0x3d852a7a,0xbdd06e3a,0xbd9037b9,0x3e049231,0x3d99fba3,0x3db682ad,0xbd7986d9,
0x3d794408,0xbdcf2a1f,0x3c203de6,0x3dfaf52a,0xbcf4f323,0x3daa9577,0xbb00720b,0xbba65d69,0x3e92a218,0x3c408189,
0xbde31a79,0x3d0c80b6,0xbdff085b,0x3d92fded,0x3d0955a3,0xbd4cb3f3,0x3dbcc5c5,0x3d779d39,0xbc2f8185,0xbcd8f776,
0x3dbdc770,0xbd233a2f,0x3b576515,0x3c934cc0,0xbe47038f,0x3e322dc0,0xbd2780c3,0x3d1ef11b,0x3d9e228a,0xbcc065a7,
0xbd5b8e27,0xbbd19fe5,0x3ca44c69,0x3da9d9c6,0xbd1d79da,0x3d7ec6a8,0xbd076792,0x3c62ca5d,0xbda379df,0xbd0d7ba0,
0x3d74a1ba,0x3d938bba,0x3cfa077a,0x3bd581f3,0x3d901a90,0xbd82edda,0x3d65716c,0x3d4748b2,0x3dd0bd1d,0x3de54a5f,
0x3bfbd0ea,0x3ccb952d,0xbd5732ab,0xbcdc3643,0x3b9e0af2,0x3df725a6,0xbcbec903,0xbd52d57d,0xbdf39b70,0x3dba0d60,
0xbd83eaf7,0xbc845ae3,0xbdad2843,0x3d8515c0,0x3d5f2866,0x3da2a2a5,0x3d93e248,0x3dcff892,0xbd04cc2a,0xbd079037,
0xbd3c5150,0xbd0b06d0,0x3c1d3b42,0x3cf4ea71,0x3d1b3a2b,0xbd2c8f58,0xbd931981,0x3ddd20bc,0x3c749145,0x3d7f2e72,
0xbd9eb1dc,0x3e2a9aab,0x3d7320d5,0x3d5b6874,0xbcfc4ec4,0xbd029abe,0xbe07ff63,0x3c819468,0x3c15db59,0x3d8f781a,
0x3d080638,0x3c875fb5,0xbd8102a2,0x39e28c84,0x3c0d845a,0xbcf851a7,0x3d361936,0xbce47d76,0xbe516a33,0x3e1acab3,
0x3c9b020c,0xbc924782,0x3d17d2b6,0x3cc07a0c,0x3d0d7f1f,0x3c802420,0xbd926ee5,0xbd90b663,0xbd029cb4,0xbd0ff73b,
0x3e12c614,0x3dbfe809,0xbe9fe1cf,0x3c6c8a35,0x3b8a58f4,0xbcef69c9,0xbd2ee2bd,0xbc9934f1,0xbb838a07,0xbda67d2f,
0xbc795698,0x3d6b0353,0xbd73d85e,0xbdc6b91f,0x3d259457,0xbc8b7b76,0x3e05476e,0x3d7ee52e,0x3ce8f820,0x3c8ed905,
0x3dafcb24,0x3d80fc9f,0x3d6c4560,0x3e169169,0xbdfb70c4,0xbe2c4c68,0xbc956406,0x3d0850f8,0xbc1dca5c,0xbd3c8ac6,
0x3cdf9a45,0xbd37d63f,0xbd81dbff,0x3b2ae431,0x3d5065f0,0xbda99caa,0xbc5c8373,0xbc127db0,0x394280d4,0x3d08989f,
0x3da57010,0xbd4db8f5,0xbc929830,0xbd29992e,0x3da5f2cd,0xbdabd575,0x3c99b2f8,0x3bada34e,0x3cd1f904,0x3a9635af,
0x3e38bcad,0x3cfdc4a2,0x3daa8207,0xbd017612,0xbd05c13c,0xbe2e7efd,0xbd7f8f6c,0x3d207bfd,0xbd997d9c,0xbe0b4b3d,
0x3cf9ec63,0xbd3e4f5d,0x3c0aea7b,0xbdb37aeb,0xbd84a7bd,0xbc4b7e1e,0x3e3dbe94,0xbd1da40c,0xbe3a5ec9,0x3c6ec56a,
0xbcc2a2dc,0xbccab736,0x3d353dbb,0x3e79d0c2,0x3d857010,0xbcbf8b43,0xbd293b95,0xbdc7b172,0x3d2531b0,0xbc6d2c33,
0x3df84520,0xbd912fd6,0x3d7a7123,0x3def1d95,0xbd01ade0,0x3bc28d21,0x3d909a5f,0x3d67ad1a,0xbda10e95,0x3d4b4590,
0x3d3b1729,0xbc387a11,0xbd79e345,0xbcff2f83,0x3d032360,0xbd73a8c9,0x3c842502,0xbdcc8409,0xbe16de5e,0xbea9235d,
0xbd263ab1,0xbded4edb,0xbd077e6b,0xbdd4c7e0,0x3e3bf881,0x3bdb9a62,0xbdaa10d3,0x3cb8dd13,0x3d9630e2,0xbde7ebca,
0xbc45acdc,0x3db5394a,0x3ca5dfb0,0x3be7bc16,0x3dacf8fc,0x3bbf892d,0x3db6428f,0xbb819340,0xbd54755d,0x3d80a121,
0xbded4e33,0x3dfde574,0x3d4a7d4c,0xbd5d42c7,0x3d00b90e,0xbd4dfab1,0x3bbbf76f,0xbc64a038,0x3c989238,0xbd89ad7d,
0x3b1f6be0,0x3d254805,0xba876a4f,0xbc62e2f0,0x3cbf9dc8,0xbd9ccf1a,0x3c24e42b,0x3ab79f53,0x3b6c1e0c,0x3d5901fe,
0x3cc806f8,0xbcf55ff7,0x3db60f7e,0x3b71a033,0xbd882acd,0x3d6d71b9,0xbccfc31c,0xbd046b14,0xbc384b59,0xbc76feff,
0x3beec019,0xbc239f4a,0xbcc027da,0xbd667a3a,0xbd5329e0,0xbdbe7912,0x3e23d40b,0x3d10fa13,0x3ce4b2ed,0x3c02283e,
0xbda30272,0x3d6d55c1,0x3dac81f9,0x3d91dc01,0x3b8fd893,0x3e440095,0xbc09c727,0x3bcfd7fb,0x3df71015,0x3ce94a25,
0x3c77d5bd,0xbda03516,0xbe46868d,0x3e016b2f,0xbd1661cb,0xbd53d0f1,0xbc1d54d8,0x3ccb3256,0x3d596efe,0x3d50834c,
0x3d8cb399,0xbd6b6a33,0x3c0db51f,0xbdb45a32,0x3d72d8ed,0x3ce7db0f,0xbd646b56,0x3c793adb,0xbcfc08af,0x3cb06740,
0xbbae2c31,0xbe21bdf8,0x3e0b2583,0xbcbeb055,0xbde0c78f,0xbcdda4f0,0xbce80421,0x3c2a8e24,0x3c73882a,0xbdb2e57f,
0x3dd2c4a4,0xbd788a57,0x3d06897c,0x3d6eaffa,0x3d6bbeaa,0xbe0d5a7f,0xbb9533d2,0xbe08c159,0xbe3782ed,0x3d1347fd,
0x3dbe6e50,0x3dd59a68,0x3e26ceee,0xbcc3305c,0x3da7ed62,0xbdc76399,0xbbf1b104,0xbd062a2a,0xbdb6089b,0x3debdb65,
0x3d366a58,0x3c910cba,0xbdb579c0,0x3ddfce45,0xbe0bf5a6,0xbd4a1dbe,0xbdd700ff,0x3ad115fd,0xbe23df21,0x3d438885,
0xba925d21,0xbe84dfe5,0x3e52865a,0x3e1b621a,0x3dee6ec3,0xbe14790e,0xbdab2871,0xbe2c83ef,0x3e7338ca,0xbde0ab63,
0x3cff687c,0x3d6d9f47,0x3d8298a4,0xbe854c6f,0x3d448d02,0x3db726df,0x3befa99d,0xbc00f2c6,0x3de7fe19,0xbdffacaa,
0x3ddfa620,0xbdf027e0,0x3e095fb7,0xbdbc0016,0xbd310845,0x3de9ccfa,0xbdf60e25,0x3c5edd35,0xbe5cd9cc,0xbd9e43a3,
0xbe0edad0,0x3e416168,0xbe7749cf,0x3e229a1f,0xbc86467b,0x3e07d0c4,0x3ddf8f58,0x3e503731,0xba5374bc,0xbda14f83,
0x3e383ff3,0xbd10f2d7,0xbcdbd89b,0x3cefba41,0x3eb066ba,0xbe252144,0x3e763bb0,0x3e341e6e,0x3e184e8f,0x3c5b3593,
0x3db57628,0xbda15785,0x3eb31e52,0x3a54a197,0xbdc95519,0x3d9b9e45,0xbe5a118a,0x3ddb9bfe,0x3d9e8259,0x3dee8ace,
0xbe7a187b,0xbd931aaa,0xbe92ff85,0xbe92ca54,0xbc99122e,0xbe1363ec,0xbe0fc95d,0xbe414f3e,0xbad17c71,0x3f06b479,
0xbd1f9713,0xbd7ff5f4,0x3d773f20,0xbd421a00,0x3b9077a8,0xbd313042,0x3d32aa16,0x3e1909b5,0xbd7a5a56,0x3d00751c,
0xbcfdc1dd,0x3d570ba1,0xbdf96e90,0x3d385f0f,0xbe1df09a,0xbdd22327,0x3e226476,0x3d0ec2a8,0x3d21c0bf,0xbd434177,
0x3dba4769,0xbc88a262,0x3d634e54,0xbcc22310,0xbd5acadb,0x3d27cccd,0xbcdc4edd,0xbdd79826,0xbad60081,0x3d4b0059,
0x3dcf637f,0x3d1f367e,0x3c8bc2f9,0x3d02122d,0xbd1ab300,0xb76a2a30,0xbdec8bce,0x3da0193f,0x3d3c86bd,0x3a893ab2,
0xbacc1e39,0xba070bbc,0xbe0756b3,0xbdc6d93f,0xbcec45ad,0xbd30647e,0x3dd6d713,0x3dd8c54a,0xbcd62d95,0x3cf63cc0,
0xbda0036e,0x3e25fd03,0xbd63a8a6,0xbdb2ebff,0xbda949f4,0xbd3bd948,0x39a109c6,0x3d9049ce,0x3c8536a6,0x3e2727c8,
0x3dcf57e5,0x3dd4ce8c,0xbc09df92,0x3dfd04db,0x3d7fae0e,0x3ce8ce6e,0x3d4093c9,0x3c8e00f0,0xbc9142f0,0x3dac6204,
0x3d8a3613,0xbccf4572,0xbd9ac598,0x3e37f9d5,0x3d410e43,0x3dbd7a84,0x3d0e2055,0x3d5d044f,0x3e2874c4,0x3de042d2,
0x3c7a5eb0,0xbcc11b38,0xbe00c7cb,0x3da42c3f,0x3df75459,0x3cae2492,0x3c80fce8,0xbbe7e5a2,0x3c957048,0xbd89209f,
0xbd246219,0x3e2c9aba,0x3db34099,0xbc806bb9,0x3d8a2516,0x3da9f123,0xbde34fb9,0x3d54e3b1,0xbccd637e,0xbdb7402d,
0xbaa46ac9,0xbccd308f,0xbcc78503,0xbcb45bf7,0xbc08f1b3,0x3cd3b0c1,0x3c5b46e9,0x3deaa0d5,0xbd4b0d98,0x3c1dbd0f,
0xbc83a36a,0xbd6f90ed,0xb9c6b572,0xbb2f8417,0xbe62069d,0x3cd67bea,0x3ba91c0e,0x3c7e9070,0x3dba6098,0xbdff6a22,
0x3d5f621f,0x3dbf1bd1,0xbcd977c8,0x3d5f671e,0xbd0a6fa2,0xbd514753,0xbcc3aa2c,0xbc4d847a,0x3d8e569c,0xbb8bdc4f,
0x3d57fd1d,0x3d7cf1e0,0xbcd5568b,0xbbd22fb9,0x3d284343,0x3d80fda3,0x3c897972,0xbe22ccdd,0xbd02af54,0xbcfd1c6a,
0x3c9af92a,0xbdbba2a2,0x3db103e6,0xba3c76d3,0xbd4c0dbe,0xbe428da3,0xbc907006,0xbd857b35,0x3d3d2c3f,0x3e05085d,
0xbd847382,0x3de22af4,0xbdb5eacf,0xbadc0894,0x3d5dd8d8,0x3db54f13,0x3ce6d8a7,0x3d290620,0xbd79ec9e,0x3b987e2f,
0x3bc6f401,0xbc0bccfe,0x3d94c3b3,0xbd05860f,0xbbcc332a,0x3d76b484,0xbdfaa043,0xbdf7e6fa,0x3e173b42,0xbd875d1e,
0x3dd27db2,0x3da055a6,0xbd7b4ec5,0x3d71f525,0x3e505f4d,0x3dbd879b,0x3db67003,0xbddcc0ec,0xbdd57821,0xbcedd79f,
0x3dc62641,0xbdcfac84,0xbd875131,0xbdaaf8f4,0xbd41635a,0xbd9a16f6,0xbb72fce9,0xbdfd58f2,0xbe2530a7,0xbd3afccd,
0xbd06a508,0xbda1257c,0xbd77eb9f,0xbe773fd0,0x3d12ecde,0xbd1df6bd,0xbd88fec8,0x3cf68735,0x3e7868e9,0x3dc39ec6,
0xbd92f793,0xbd718529,0xbcf453cf,0xbcd459b2,0x3d76b477,0x3cad996d,0x3d196223,0x3d818aad,0x3de0f424,0x3d49abe7,
0xbd6f864e,0xbc75a7e1,0xbd501714,0x3c9106fd,0x3d51d075,0xbd117efd,0xbc3dfbe3,0x3d5a5daf,0xbdbe0021,0x3df08fa8,
0xbd375af4,0xbbe0a5d7,0x3d2a8df6,0x3d8091ca,0x3d4a0497,0xbbd17fd8,0x3c1da737,0xbbcded94,0xbdebd6a6,0x3cc23361,
0x3e2fcd81,0x3dbf9af1,0xbda9d52d,0xbd50c2a5,0x3d483cf6,0x3d06b8cd,0xbd013421,0x3da08fb4,0x3dc57455,0xbc8995a2,
0x3c04ea26,0x3cd42f9e,0xbd339e6c,0x3d818c53,0x3ce3d031,0xbd9f7e07,0x3d8130d8,0x3d5ad6ca,0xbdf3317a,0xbda53534,
0x3dfeffc8,0x3d925aad,0xbd7390d8,0x3df4061b,0x3cf4218d,0xbe17b80c,0xbcf9e85e,0xbdd01560,0x3ca7dfad,0xbd0ddc5c,
0x3e73c10f,0xbcd36d7d,0x3d715c9a,0xbe3e9e2c,0x3ac2e2c4,0xbe17dea8,0xbdd3fea1,0x3c63631c,0xbd94cdae,0x3af66eee,
0xbc13c51b,0x3e027e10,0xbd933a08,0x3dd4be90,0xbd816908,0xbe682383,0x3d27069f,0xbd8bc434,0x3d7805e8,0xbd794e78,
0xbe41e1e1,0xbdbfe6c5,0xbe1a52e7,0xbd48e2cf,0xbddbcf34,0x3d8dfe93,0xbe4cbab5,0xbca4f87f,0x3de29d2f,0x3d429877,
0xbcabb250,0x3c806f7f,0xbd30c5fe,0x3c3f9a1b,0xbc080732,0xbb4db87a,0x3d1e59db,0x3ca79370,0xbd33b9ad,0xbd2e0aed,
0x3ce07827,0xbc9ad69c,0xbc55d881,0xbd8493fc,0xbd3abb3b,0xbbc9b367,0x3d908dd3,0x3c0c40ed,0x3d264f5e,0xbbb15adc,
0xbc120999,0xbd028b96,0xbca9c0ba,0x3dad6cc3,0xbdabb2bd,0x3ca21da3,0x3d16834d,0xbd40a179,0x3bb96354,0xbc72b567,
0x3d026d60,0xbd7f4700,0x3d489b69,0xbc365b7f,0x3d7e5fc8,0x3c05b1cc,0xbd75fba8,0xbd0784c2,0xbdb58716,0xbc09b350,
0xbcd44787,0x3b2cfe10,0xbd5b3836,0xbc1bdb9a,0xbbd9961d,0xbd5c00d8,0x3cb3f2a0,0xbd902a46,0xbb8b5c21,0xbda17068,
0xbd89902b,0x3d401368,0x3da6a9f7,0x3b697598,0xbce3bf29,0x3c52967c,0x3c8fb849,0x3cdabeae,0xbaddcf21,0x3d3de463,
0x3e02677f,0xbceecb5d,0xbcb40d32,0x3d007607,0xbcc6d039,0x3d828b4d,0xbe1cac1f,0xbd53b9a6,0xbcccc789,0x3d178027,
0x3b0b4095,0xbcba32b6,0x3d0ed9af,0x3dac6f1e,0xbcbd9b1e,0x3cffe551,0x3db7da1b,0xbd022314,0x3dbbbde2,0xbd7263fc,
0x3c1773c3,0xbc992a91,0x3e21ff64,0x3ccc38cb,0xbd34a644,0xbd188e4c,0xbc5bccae,0xbd749c7c,0xbd33b515,0xbcdfeb9b,
0xbdbb2468,0x3d53b5fe,0xbba6d295,0x39d765fe,0xbcc4708d,0xbd043c83,0xbcd6d4c7,0xbcd90d3f,0xbd8de697,0x3c8d78e7,
0xbdb3893d,0xbd92b471,0xbd1fb25f,0x3c16f407,0x3d9cd918,0x3dcc3105,0x3c5e5607,0xbdb72895,0xbd9f1d17,0xbdc84a95,
0xbba9479d,0x3d01b30f,0xbdcf6c20,0x3c80072f,0x3da1d3eb,0x3c878bd0,0x3cf7989b,0x3c81383f,0xbd160417,0x3dd24987,
0xbd8ca89e,0xbc1d4c52,0xbdc47600,0xbe0c8c3c,0x3c6ea6bf,0xbdbb73ba,0xbc846237,0xbddcfe97,0x3d53367c,0xbd7fbb33,
0xbdf789c0,0x3d78e4a7,0xbd3c2b28,0xbd0d8387,0x3d05aaef,0xbc379003,0x3d03c3a9,0x3ce7ebc6,0x3de30dfc,0x3d9cafdc,
0xbcc141e9,0xbb6ce49e,0xbe2a4f3b,0xbd9f2cfa,0xbcd9ca1d,0x3ddd32eb,0xbd72c42d,0x39d9c2f2,0x3dbad066,0x3b997838,
0x3e16973c,0xbcd1b5a6,0x3d06bb68,0x3d3aea23,0x3da71dae,0x3d052426,0x3d12984c,0xbd32311c,0x3bb2bb35,0x3c278250,
0x3d95a20a,0x3d4f5a5a,0x3dc4aa19,0x3d9c4372,0x3e05325b,0x3c80cab5,0xbda97ac6,0x3cd57d61,0xbd9719a3,0xbe178283,
0xbe1ae1ed,0x3e0b0b0e,0x3bc3c943,0xb98005e8,0x3db3cf0e,0xbcad009b,0xbdee4eed,0x3ce0b94c,0xbd285fc4,0x3b8b7dfd,
0x3de4d1fd,0x3ce0f503,0xbd9a3ca5,0x3c99d257,0xbb2753cc,0xbd013efe,0x3d7b2b9e,0x3d07e2ca,0xbd751fad,0x3db4975f,
0xbcb273a8,0x3d80cd80,0x3d667a8a,0xbcf87de9,0xbc0f984f,0xbc1d0fdf,0xbca8784a,0x3c758245,0xbc2aaefc,0xbbb79edb,
0xbd162d9c,0x3ceb23b6,0xbc4ad036,0xbae02e6f,0xbbe970a0,0xbd94befb,0x3be23c40,0xbd22c289,0x3db2186f,0xbcf48793,
0xbd0b60a3,0xbd9d4697,0xbcfbe838,0x3de04518,0xbc4f4dd0,0x3c9ebb68,0xbd096df3,0xbc5f8ce0,0x3d06631d,0x3cfa08d0,
0xbc978f9a,0x3d0bac1a,0x3cb20377,0xbd2f1f07,0x3cbefa5d,0x3d1d5409,0x3c8925f8,0x3c30262a,0x3dc53fda,0x3d2438c1,
0xbd770d17,0x3d7e5e88,0xbd12fb9e,0xbd8f5ba2,0xbdd46efd,0xbd0c53be,0xbb9f2857,0xbd19b17e,0xbe008314,0xbe5709ac,
0x3cc451c4,0x3de12621,0x3ca38d12,0xbcd234ac,0xbd6a669b,0xbd67b895,0xbd6a2b59,0x3d83d0b1,0x3d7c6c80,0xbd6ba81d,
0xbd22d1ad,0xbb7a2b79,0xbaef1833,0xbc27e120,0xbd7fe4f6,0xbe005e14,0x3da2acf7,0xbd5dbc5d,0xbbb1cdce,0xbd7489bc,
0x3dd7740a,0xbe4b90fd,0xbab6625d,0xbc87c2af,0xbd940220,0x3d0dea46,0x3c5b16d7,0xbcfd2308,0x3c55837a,0x3cd958bf,
0xbd81aacf,0x3e0c7617,0xbc062269,0xbd29bd75,0x3c881068,0x3cee2cc8,0xbd9150a0,0x3d335db1,0xbe2e5327,0xbd792c09,
0xbe421a64,0x3e0652cd,0xbc974bf7,0xbd6f3503,0xbd3d954e,0xbded955d,0xbceeeb18,0xbd0fcf98,0x3c8af46e,0x3cf65660,
0xbd85b814,0xbd2d8ade,0xbc36ab44,0xbd40920c,0x3d6587e2,0xbd1538f3,0xbce1b1b4,0x3ca882fa,0x3d2b7b28,0xbd052997,
0x3d8acfd4,0xbd23bcb1,0x3d77c6f2,0x3dd0d366,0xbcb8025a,0xbd5718a5,0xbd7c1948,0xbd9c1321,0xbdd5ba3e,0xbcb41f8b,
0x3dc443f3,0xbc24f432,0x3d447e0e,0xbd503d53,0x3bcf4484,0x3d4f7c40,0x3d554b27,0x3d05f966,0x3b626e59,0xbcd3f918,
0xbae9ee82,0x3e031e2c,0xbd0cde27,0x3d482bae,0x3d724b42,0x3d2e09f1,0x3d1d9a30,0xbc80f46f,0x3c62eaa3,0xbd89afa1,
0x3dc6473e,0x3cff8616,0x3c9cd079,0xbc793b3a,0xbc9e781b,0x3c943f5a,0x3d30de43,0xbdcf9a71,0xbcda80d5,0x3e8acb7f,
0xbd068fb5,0xbcae139e,0xbd103dcf,0x3d9e0dac,0xbdd702a2,0x3c603794,0xbcf574f1,0xbce933de,0x3d57b1b3,0xbcad1489,
0x3cb1410b,0x3cb12368,0x3e0422ea,0x3ad6d0e4,0x3d8168ca,0xbded4fb4,0xbcc9ca30,0xbdf11bfb,0x3d18fc90,0xbd1a951a,
0xbd336a30,0x3be095ae,0x3ba8f56b,0x3d7c7a14,0x3da053ba,0xbcb311d0,0x3dd38a90,0x3da6a8e3,0xbc70c2f7,0x3d24256c,
0x3d4e3cde,0x3e52ecfa,0x3d8dd110,0xbc58b5d4,0xbd890d15,0xbd1d7028,0xbc863905,0x3c6facf2,0x3c9861d0,0x3c9410b0,
0x3c5acf50,0xbdf9dbbb,0x3bac62ac,0x3d23b2e7,0xbc21ee80,0xb9c7dcbe,0x3dda1b3a,0xbc5a945b,0xbd55d878,0x3e19508e,
0x3d1d1833,0x3bb57712,0x3db63929,0x3d58585e,0x3cd864a4,0x3caf6f3c,0x3c906ee7,0x3bc622f1,0x3e13753f,0xbda51d5f,
0x3d9c7a59,0x3b504022,0xbc1630b2,0xbd05b0fa,0xbd2ef805,0x3dc7a2d5,0x3d96a93e,0xbda26c87,0xba9258fd,0xbe20f5c3,
0xbbcbc935,0x3c83d728,0x3d752077,0x3e410b17,0xbd28e66a,0xbd9e85ba,0xbd48d622,0xbc437297,0x3c60b429,0x3d862c46,
0x3bf181e3,0x3d3d623b,0xbd03df66,0x3de270aa,0x3dec95ea,0xbd87ff96,0x3de3c5c0,0x3de4408e,0xbe4c2977,0x3bc2caa8,
0x3e08d617,0x3cbf2a62,0x3dc3192c,0xbc2af172,0xbdba907d,0xbddc97e9,0x3d8229ea,0x3c345a04,0x3e0f3e0e,0x3de14dae,
0x3cb97013,0x3dac3226,0x3dbc2f17,0x3e118b39,0xbdefdf48,0x3de66765,0x3b292ad3,0xbb054d2d,0x3da79a8e,0xbc41fd06,
0x3c8ab2b7,0x3cb892d3,0xbc8243c6,0x3e326664,0x3db2249a,0x3c572578,0xbd4b310c,0x3e48753b,0x3c293c0f,0x3cbe6947,
0x3cf9416e,0x3c050cba,0x3d2467eb,0x3d73292e,0x3d73455b,0xbe468ca4,0x3da33fc7,0xbddca470,0x3d1c30ba,0xbd14a79e,
0xbb333c4e,0xb7a29e65,0xba8a1a96,0xbd9aac34,0x3da85a65,0x3c525f19,0xbc849fc6,0x3e039d95,0x3d7c8454,0xbe45355a,
0x3d5bea9f,0x3c9e0c70,0x3db19bde,0xbdba53ed,0xbd5a669a,0x3de56a0e,0x3c716a3f,0xbca5adef,0x3d8976c4,0x3ce6306b,
0x3d5a4e84,0x3da20b37,0x3d4f09e7,0xbd6453b5,0xbd74ce40,0xbcb86e3b,0x3d93d531,0xbcc83ebe,0xbd8f331d,0x3d45c772,
0x396d5cb1,0x3b7f26f9,0x3cd52a4d,0xbe0c766e,0xbcedd0b1,0xbe0ccf6f,0x3df3b62f,0x3d7a6f5b,0xbd32200b,0xbcdf94ff,
0xbc1c0bb3,0xbc031c9a,0xbc9fde64,0xbc0ba102,0x3d342e2e,0x3d2f11a5,0xbc4e0f1b,0xbbb5edec,0xbd96eaed,0xbe00b8c9,
0xbd74aabc,0xbdba7bbc,0xbbec487d,0xbd3ad6d1,0xbdb598a6,0x3d3ec2fc,0xbd841ca2,0xbd735ffd,0xbd93569a,0x3ba5461e,
0x3cb2d9a2,0x3ce74011,0xbd38e617,0xbdca41c9,0xbd03c689,0x3c066dec,0xbd8b58cf,0x3dad88bd,0xbd6cda4c,0xbd8a200e,
0x3e0a2a2b,0x3de401a2,0x3c2c98ca,0xbc5136a7,0x3d9b94a1,0x3ebd60d4,0xbe37f7d9,0xbc8910ef,0x3d14bdd8,0xbe3e19cc,
0x3cf6b077,0x3d938ff9,0x3de6f3b2,0x3c93ed83,0x3dfe590b,0x3df4e482,0x3e4e1afc,0xbcbc1b26,0x3c496eb0,0x3e37345b,
0xbdadb175,0x3dc01837,0x3c1fd174,0xba649926,0xba30d30d,0xbcdbc84c,0x3dff6e51,0x3d31a569,0xbdde9371,0x3c2c7c51,
0xbd9b4f21,0xbd436b36,0xbde37bc9,0x3e0c81eb,0xbe51d1de,0xbd238965,0xbd962391,0xbce2caa5,0xbd0794cc,0xbd66638b,
0x3ddbd307,0x3e101915,0xbb71b0f3,0xbd180c46,0x3d76bb2e,0xbda24f53,0xba41ed1c,0x3c446871,0xbd1b8f4a,0x3c8f7ce5,
0xbd1199a2,0x3c7063c8,0xbd4f84ec,0xbd865ac7,0xbdd5a546,0xbd0a9d39,0x3dc8bcc0,0x3d9826ef,0x3cff1bb0,0xbc989cdb,
0x3d0fff3b,0x3dc036d6,0xbe268797,0xbdaf3fb0,0xbac555dc,0x3cfcd6dd,0x3d9dcb9f,0xbd7bbdd2,0x3b91e3f4,0xbc8099e9,
0x3bf0becb,0xbd7aef9e,0x3d8e3a28,0x3d07cf1a,0xbd00ebc0,0xbb88f95b,0xbc963477,0x3d5970e1,0xba923581,0xbd96471e,
0x3c6f9d59,0xbd10e924,0x3d01ba15,0x3dd098b4,0x3dbdb4b2,0x3d0cb3b2,0xbcec2cd7,0x3dde69af,0xbcc030f9,0x3c96b021,
0xbd7c6135,0x3cc81521,0xbda48355,0xbbafb943,0x3be08a92,0xbb93aa2f,0x3d2f832e,0xbd227a88,0xbc1c6335,0xbdcb68d4,
0xbc6eae82,0x3d87856f,0x3e5c1c75,0x3e0a81bb,0x3ea25447,0xbe23d336,0x3d12de12,0xbd4b4d77,0x3c6f3a30,0xbd199801,
0xbd06d19a,0x3d5902d9,0xbd4d9e16,0xbd143711,0xbd1c0bf9,0x3e36cfe2,0xbd52b37c,0x3d58f1b7,0xbd8a1f7b,0x3e33e8e3,
0x3a82ffb4,0x3d2538d5,0xbed82ab8,0xbdb191e8,0x3da89fe5,0xbde38e11,0x3b434522,0x3e22af7b,0x3c8f3a57,0xbdbf3c8f,
0xbd1e89d8,0x3b9c5f6c,0xbcb74f28,0x3b878108,0xbd3f1805,0xbb0d4730,0xbd45a1ba,0x3c55a512,0xbc90cee5,0xbd45190b,
0xbdab36ad,0x3d9dc1c3,0x3cb882ff,0x3e11f86d,0x3d8b88db,0xbd5ca674,0x3d8e45ec,0x3c98c562,0xbd6bf3a3,0x3d2c686f,
0x3d072b84,0x3b80bc60,0xbb7287d6,0xbd0fd40c,0x3d69769a,0xbc843735,0xbca4265c,0xbd9fbd4f,0xbe0f1bb0,0xbe39328c,
0xbd40f241,0x3ca2bf9a,0xbd9bf4f3,0xbda09aff,0x3e2c2634,0xbcfd2707,0xbd2bc8bd,0xbd174f67,0xbd2e77e5,0xbd5b9e09,
0x3d5d0485,0x3b501c14,0xbd768a37,0xbb993da8,0x3de873e6,0xbb0d0c59,0x3d9f611c,0x3de21562,0xbd501b6a,0x3e0ff737,
0xbc996592,0xbd0fc0a5,0xbe012e69,0x3d07a8fe,0xbd0fb5a6,0x3d069dd2,0xbb150dff,0xbdd41235,0x3aabcf89,0x3e0288ac,
0xbd3d69f8,0x3b98fbaf,0x3cd781e2,0x3c8508fb,0xbea03f4d,0x3ce667e3,0xbd066364,0xbcb4259b,0x3c2bac59,0xbe6eecc3,
0x3d346942,0x3d952f98,0x3ce93b98,0xbbfa4d60,0xbd15b677,0xbdb0b7d4,0xbd2178ac,0xbcc77c01,0x3b9c7d4e,0xbb078989,
0x3c6d23f2,0xbda17580,0xbc8ebf0c,0xbd26d230,0x3da67e5b,0x3b589246,0x3c503bf9,0xbd96c131,0xbb62d477,0x3d348de8,
0x3ce61b6c,0x3d3b21eb,0x3d8f4b55,0x3db39fa0,0x3ddec034,0x3bc05b7e,0x3e19dc70,0x3b9da4e1,0x3da9d628,0x3d293b39,
0xbca05ccc,0xbdaa3204,0xbd9a0929,0x3e244ced,0xbd1efa84,0xbb0f29f5,0xbcc47d15,0xbd98aa7d,0x3c7bd591,0xbcf0edae,
0xbd69a9d0,0x3dc8986b,0x3d31707b,0x3ce70cba,0x3cff9760,0x3cde0db5,0x3cb025c5,0xbdaa6812,0x3d5ceec8,0x3c33eb2c,
0xbd48e731,0x3d37d653,0x3ce07a3d,0x3d47b53d,0xbd70f44e,0xbca6535a,0xbd293a2d,0xba855af8,0xbd19e1ff,0xbe348d9c,
0xbd6dd667,0x3c224730,0x3b57318a,0xbda6faef,0xbd9a32a6,0xbc0544f5,0xba4e9a6b,0x3d6a8c11,0xbcb382b0,0x3be17cdc,
0x3d83e2be,0x3d17e4aa,0xbd705007,0x3d64f5f3,0x3cd8e601,0x3ce6c3e4,0xbdfe1c5b,0xbdd656c7,0xbde087ca,0x3dd3e172,
0xbc95c0eb,0xbb9244c8,0xbd005733,0x3dc95691,0x3df39150,0x3d2c88b0,0x3d6b9c27,0xbdc4ceec,0xbd299c95,0x3d1720d2,
0x3ce4260a,0x3cc5bd85,0x3c75916a,0xbd702add,0xbdd1450d,0x3d571f00,0x3e5aeb54,0x3cafb811,0x3d5d5098,0xbc5f1247,
0xbd6b8067,0xbd2800a1,0xbd70d1d8,0xbd478c62,0xbdfed760,0x3d26cae4,0x3d316f70,0x3b94b4fd,0x3d5bafcd,0x3d8ee45a,
0xbcf7d90e,0xbd77e7f0,0x3cb10154,0x3db6cf6f,0x3cdf03d1,0x3da295fa,0x3dbe0fab,0xbe113dfd,0xbdcd7aea,0xbe35bc80,
0x3df7a154,0x3c062f74,0x3e4458fe,0xbdee26af,0xbd22c7d0,0x3cd1df73,0x3dbd5b05,0x3e043c47,0x3cc8224c,0xbd7dbfcf,
0xbd2cbcb7,0xbcb1f069,0x3e0785db,0xbd8f768a,0x3e0b5d01,0x3dad0615,0x3cc092ad,0x3e00778e,0x3caabbe3,0x3c8cefbb,
0x3b08a117,0x3da99a93,0x3d42e3e0,0xbd0e4abe,0x3d10fa3a,0x3d8b914c,0xbd5ce93b,0x3bfcb455,0xbdad8b3a,0x3d7ff9ad,
0xbd542744,0x3cefa698,0x3d51226e,0x3dc503cd,0xbcc17f38,0x3d4777b8,0x3d814047,0xbdded730,0xbc669b20,0x3d60bac0,
0x3d1da27e,0xbc1c304b,0xbd1d9f46,0x3d57b218,0xbd6b8043,0x3cf010a1,0x3dbc09c4,0x3cc59c3f,0x3d9d3883,0xbd97e599,
0xbccfbaf9,0x3e36b5fc,0x3dc809fb,0x3de2033f,0x3d63f712,0xbd915690,0xbde3d388,0x3dbc81f7,0x3daf1f80,0x3dce1e17,
0x3d8f9944,0xbbe8c350,0x3e408785,0xbd33f565,0x3c64d103,0xbd512748,0xbd6023ab,0x3cbba7a1,0xbd90c979,0xbd8591ef,
0x3d246a74,0xbd1a674f,0xbda85ad5,0x3ce2c014,0xbd11c82a,0x3c291fc6,0xbc2fdb95,0xbd1fb3fd,0x3d5db998,0xbdbfa46d,
0xbd2cd0af,0xbdb26a2b,0x3dbc484e,0x3c395d93,0xbd2ddadc,0xbe4d74d9,0xbdbdb820,0x3e038f25,0x3d569ceb,0x3d2dc737,
0x3d6bbb6f,0x3cbc6030,0x3d9235f8,0x3d232228,0x3db0a5be,0x3dbaa1fa,0xbcea71dd,0x3e030e9a,0x3d872ab3,0x3e136470,
0x3d0bee0b,0x3d66755c,0xbd1fdf74,0x3ce3a096,0xbcebd6cc,0xbc471343,0xbc49564f,0xbd131b25,0xbb8084db,0x3c895452,
0xbc1c519a,0x3bc99d7f,0xbc78b567,0xbcfe49aa,0xbd0f381b,0x3c3f1a91,0xbd55b86a,0xbd364b30,0xbbf32294,0xbc959bc5,
0x3d7017f1,0xbd10cb1d,0x3cf79983,0xbcd0f451,0x3d1ca3f8,0x3d7fb2a0,0xbd699a7f,0x3d646119,0xbd46506b,0x3c38b4ad,
0xbcb79c56,0x3ba28e20,0x3c346aab,0xbc225b58,0xbcbaa2c8,0xbc7bfdd6,0xbd1a895f,0xbc722d86,0x3d011031,0x3b86f90d,
0xbc2dca08,0xbc80631b,0xbc839ca5,0xbc20b8b7,0xbb744e76,0x3d51a8bc,0x3de76dd9,0x3cc8e8f1,0xbd7706b1,0x3d2713c7,
0x3d145af3,0xbc1364be,0xbc42556d,0x3d41e896,0x3c0765ea,0xbcd7d07d,0xbd1b1013,0x3bbba13e,0xbdb95e32,0x3d8e7cee,
0xbce9f868,0x3cb5a7e8,0x3b458f7d,0x3d68f1ae,0xbd710a7b,0xbd6e5a51,0x3b5f9971,0xbdee3203,0xbcb16b5f,0xbb674074,
0x3d4dc69b,0x3c8ccade,0x3d607a6a,0xbd0fbcd0,0xbb07650e,0x3d6634a5,0x3d408f21,0xbc2ac354,0x3af70087,0x3cd84a3b,
0x3d511ce5,0x3d6e7ae0,0x3df0344d,0xbd1e0064,0xbe2f10d3,0x3cf8dd4d,0x3ca9ef47,0x3d6a5672,0x3b117203,0xbc5d79ff,
0x3d2968d5,0x3cf611d6,0x3d592e36,0x3d699ea6,0xbb5c69af,0xbdfbca27,0x3d5ddc98,0x3d3ac7b6,0x3d1cf13a,0x3d7a1cbb,
0xbd67de8a,0x3d5f2b11,0xbdf71a0e,0xbd5378a8,0xbda6cc3b,0xbde43aa4,0xbce9a367,0x3e237db6,0x3d29dfab,0xbbb3f7dd,
0xbd7a3cc7,0xbbb76e03,0xbcaaad0e,0xbd86513e,0xbc9e333c,0xbd9c143a,0xbd981e74,0x3c280aaf,0xbd9bf9eb,0xbdf79c3b,
0xbcd1ac76,0xbd1b75f6,0x3d81a7ae,0x3d1ca568,0x3e129ef6,0x3dabf231,0xbccab2bb,0xbdf9ee5b,0xbd426c09,0x3d9f5602,
0xbcb48e42,0xbd301f35,0xbc237c08,0x3cc4e5e4,0x3c90e6f3,0xbbf202e6,0x3dad145b,0xbebfaaf1,0x3e3d0f1e,0xbd599a92,
0xbd8f0729,0xbd69665b,0x3e774cd1,0xbdab386f,0x3cd43dd8,0xbd59a70b,0xbb740fc9,0x3d941bd7,0xbd0c4562,0xbd8cd8a0,
0x3d5eded0,0xbccddf83,0xbd09db8b,0x3c2743f4,0xbc8d9158,0xbc220928,0xbcb944a1,0x3db68db1,0xbe0b2b2d,0x3d9a49de,
0xbcf39529,0xbd2b06c8,0x3cc4a9cf,0xbdbdd871,0x3bfd3e0a,0x3e0769c7,0x3dae7a30,0xbe79b8b5,0xbd601393,0x3d04b332,
0x3d356319,0x3ac6f356,0x3d9ff46c,0x3d179f31,0x3e1dd555,0x3ad195a1,0xbd829c0c,0xbd2bb759,0x3deff36b,0xbd1e63af,
0xbd9dc57d,0x3c0585a4,0xbe998a2d,0xbcdec5cc,0xbc3b949f,0x3a88c316,0xbca1e9d4,0x3d4058f6,0xbe1546ae,0xbe163244,
0x3ce3c2eb,0x3daeaedd,0x3a709a14,0x3d05b41d,0xbcb28bad,0x3d993928,0xbd7f8ab5,0xbd93b75e,0xbdb206d5,0xbd0d6187,
0xbcffd94b,0x3d1e8496,0xbdf7b56f,0xbc10836f,0x3c99af6b,0x3cf66563,0x3c9bf97f,0x3ce3aa96,0x3c8a4309,0xbe142b30,
0xbdeb221b,0xbd562539,0x3d11edec,0x3dd0bb92,0x3cc8fad2,0xbd1d3e05,0x3d2c297b,0xbe18c801,0xbd9a0259,0xbbcb8acb,
0x3c0c1185,0x3db956f3,0x3d3e8078,0xbd965738,0xbc0d8325,0xbb1c8919,0x3c7e3f0e,0x3da7dda1,0x3ce5a7e7,0xbd89bc2a,
0x3d8ea026,0x3db4925f,0x39e56a99,0xbe051ece,0xbc5b473e,0x3db60b4f,0xbc054df3,0xbd0aa499,0x3a658b25,0x3d8b1bea,
0xbc3bf43a,0x3bbc9711,0xbd2e97ec,0x3c3ce507,0xbdbe2b72,0x3d2694b0,0x3d3af374,0xba8adb2e,0xbdcf4e69,0xbc97909e,
0x3d3dbf15,0x3e122f7b,0x3e51a79e,0xbc049600,0xbc827715,0xbda5ae24,0xbc71e183,0xbdb39db3,0xbd727489,0x3adafd0f,
0xbca0550d,0x3cae19f9,0x3d1f4f5c,0xbcae220a,0x3ea9b203,0x3e554406,0x3c9c9be6,0xbd1ce8f6,0x3c75abcb,0x3c1fcc2d,
0xbd321f34,0x3e045c97,0x394309ae,0xbbb56148,0x3d0ea376,0xbc7f0165,0xbca4c7cf,0xbcb459b3,0x3ce3c4e5,0xbe0ab8ac,
0xbe1df062,0xbda2e818,0x3e1790b7,0x3d9e20bc,0x3bee741e,0x3cf2f340,0xbc1c7e7c,0xbdc48020,0x3d3f8fe7,0xbccc9a94,
0xbc81a971,0x3d24ffab,0x3d59256d,0x3c1da008,0x3d516f5d,0x3d1dffb4,0xbd450459,0xbd41c148,0xbb91c9d4,0x3c2ffba6,
0x3b800880,0xbcb5d0d1,0xbda07b2e,0xbc8216b9,0xbd1348e1,0x3d980dd9,0xbdb5ad71,0xbe00ed27,0x3d71316e,0x3dc0da93,
0xbc993a44,0xbcad13e9,0xbcbcf3b1,0x3c99dfd7,0x3c3869ac,0x3b27d9ec,0x3de287e3,0x3b83df5d,0x3d7b57b4,0xb9aca487,
0xbaf6464a,0x3e0ac0c2,0x3c97ab78,0xbc9d01c7,0x3d18c20b,0xbc740076,0x3ccfad01,0x3dc44b5c,0x3d85d1dc,0x3d67325e,
0xbbd46c52,0x3c6da1b5,0x3cbfe2ff,0x3d067b35,0xbd75d32c,0x3da473d0,0xbcf2b47c,0xbd100e86,0x3c8acf19,0x3cd050c8,
0xbd470f70,0xbd0dc9f5,0xbd64e219,0xba357f08,0x3df74c03,0x3dae615e,0xbc7baacf,0x3d1703b4,0x3cc0ce95,0x3e0ebd56,
0xbd280611,0xbdf38161,0x3d4b54fb,0x3d8b6def,0x3b1e6a9c,0x3b1d3710,0x3d8d6c13,0xbe6efa87,0x3da9685c,0xbd7b4a84,
0xbc086e2e,0x3e6d40a9,0xbdc2b27d,0xbb67567e,0xbb8a005f,0x3e076f78,0xbd178ece,0xbd2351bc,0xbd1bd0a1,0x3e04d048,
0xbd0c75d7,0x3d8a158b,0xbd5b9fdc,0x3d1acd92,0xbe35c6dd,0xbdeb9b67,0xbd09c039,0xbd6a4af1,0x3ca8b68c,0x3bd94ed4,
0xbda197c5,0x3e8585dc,0x3d3c0fc4,0xbce14870,0x3ce2d533,0x3d4a7e7a,0x3cbb6b7e,0xbd831c43,0xbc48e7d9,0xbca466da,
0xbce4aa4b,0xbd0d023d,0x3c6299fc,0xbcb328d6,0x3ca66279,0x3d91031e,0x3d0b9d85,0x3d15190a,0x3d28fe86,0x3d06d871,
0x3cd5afb6,0xbad41eca,0x3d3d30ab,0x3d9ebabe,0x3b09f140,0xbd2316ec,0xbd934a60,0x3c8609e7,0xbd7ef8c3,0x3db31aa3,
0xbcf81e61,0xbc3759c6,0xbd2f1abf,0x3e3dc3a2,0xbc4273da,0x3d8c8765,0x3cb57ef5,0xbd233896,0xbc3262cd,0x3d04df9c,
0xbcc58c5a,0x3d2280b2,0xbd52d653,0xbdb55f43,0xbd18b977,0x3da45500,0xbcc27728,0x3c7b62ac,0xbd29ac39,0x3d875eba,
0xbd70c002,0x3db3780a,0xbdab3d99,0x3d27f86b,0x3d49147f,0xbd82f1ba,0x3d03c179,0x3d129ab8,0x3cbd2cba,0x3d79bc72,
0x3da55382,0x3d5df0a8,0x3ce80183,0xbd4cea45,0xbceae4c8,0xbb413f9d,0xbd95cfc6,0x3d61f894,0xbc2210d7,0xbc7b14de,
0xbd5ac936,0xbd74f9ca,0xbd88cf8c,0x3d829e03,0xba68f9fd,0xbc775c54,0xbd3f0663,0xbca8a848,0x3f09f63e,0x3ce3b06c,
0x3dd3948e,0x3c94152f,0x3d1e4ef5,0xbcefe88b,0xbe2404a7,0x3e44b5c9,0x3d475916,0xbcf7e2e2,0x3d7fd01a,0x3e357d99,
0xba64afa7,0x3d8298e5,0x3cf031b0,0xbd72fdea,0x3c7ef9bc,0xbceaf427,0x3d782e51,0xbd648f69,0xbd0db0ed,0x3d609c23,
0x3d701641,0xbc862446,0xbde431e3,0x3c889787,0x3bce4ba2,0x3ce5694e,0x3b83a465,0x3ce18491,0xbd3e2bad,0xbd84f37a,
0x3d5b7d2c,0x3ca3704e,0x3ce2d69d,0xbdb608cd,0xbcbc8309,0xbe028948,0x3cf79b1e,0xbdc8dd87,0xbd05402d,0x3bde39ab,
0xbce55f86,0x3d125155,0xbd4f6b77,0xbdc506a9,0x3d5c4009,0x3d0be5ef,0xbd8a1c41,0xbc0276a6,0x3c02bd94,0xbdeb6df7,
0x3dc53fc5,0xbca90284,0x3d262569,0xbcf7cf6c,0xbd4c84c5,0x3d581cca,0xbbf6e435,0x3b9ddde8,0x3e074e49,0xbcec6bfc,
0x3d4fcd7f,0x3d0fd438,0xbd0e8bf6,0x3cd8b891,0x3def49cc,0xbdabafbf,0xbca3250f,0x3d76a741,0xbd8fd672,0x3e289de2,
0x3d7e700c,0x3e133082,0x3c8d0965,0x3d0aacaf,0x3ca81e95,0x3c4f571b,0xbddb87b6,0x3d900916,0x3de060ce,0x3d5e07db,
0xbc3bf3b8,0xbde97b54,0x3d3e45b6,0x3dd331ad,0xbdc061bc,0x3cc61d17,0x3d2a24dc,0xbd324fc7,0x3c7f8bb5,0x3ce3bd10,
0x3cffa768,0x3ddbd20a,0xbb416ada,0xbc2b659c,0xbcd45ba9,0x3e9cf78e,0x3d635448,0xbd98af03,0xbd648cc4,0xbd95275a,
0x3cff511c,0xbca2dc20,0x3cc16819,0xbcf7e603,0xbd808dc5,0x3ce83dcd,0x3ceba346,0xbd5f8720,0xbb12b428,0x3d727b1d,
0x3be68bce,0x3bd743c1,0xbd3d7e99,0x3b9cf5b9,0xbc7fdd9f,0x3a23d845,0xbcaf7672,0x3d4f9b7f,0x3dc9afb1,0xbe622edc,
0x3e201e7b,0xbdc3bcf8,0xbd0cf5ce,0x3cccf057,0x3c99ec5c,0xbb59f73b,0xbdb6c8be,0x3cbcd9cd,0x3df06263,0x3dfc866e,
0xbcb3fa50,0xbd6b62a6,0xbe0235bc,0xbdb1a1aa,0xbe45ed9a,0x3e4ad7f6,0x3cb9bb31,0xbd65508d,0x3b70ca1f,0xbda718cb,
0xbc495ec3,0xbc221367,0x3d38d2da,0xbac109cc,0xbdb25b9c,0x3d8f04de,0xbdc171dc,0xbd35571e,0x3e28ac05,0x3c6e9e92,
0x3d4d9889,0xbcda1aa4,0x3cee2d26,0xbba75c72,0x3df48415,0x3c197507,0xbe092278,0xbde9babc,0x38d4c293,0x3dde4fb9,
0x3da675e9,0xbd52b412,0x3df6384a,0xbd9f4656,0x3d872643,0xbd915793,0x3c8b8b31,0xbb1d2402,0xbe323647,0xbd8264e0,
0x3df8d673,0xbcbf6d80,0x3cb39caa,0x3dcf93f8,0xbc1384a2,0x3ce1252c,0x3e046823,0x3ca36cee,0x3d3c6020,0xbe3537ee,
0x3d739233,0x3e798333,0xbdf82adf,0x3e332063,0x3ca86dfb,0x3bffa210,0x3dbfdb0b,0x3cb82088,0x3e53cfa6,0x3cbd611a,
0xbc6129ff,0x3da60fe1,0x3e21234a,0xbca7b5e2,0xbd9ba81d,0x3dd60b4c,0xbd80354f,0x3c824b23,0x3d12aced,0x3dab8132,
0xbe59e37c,0xbecbeebb,0xbe601777,0xbdee2d74,0x3dda731b,0x3d72be3d,0xbdaf2911,0x3d5ea97e,0xbc595933,0xbc870237,
0xbdedda59,0xbb821bb7,0x3dedcd36,0xbd7b84f3,0xbde52f7c,0xbd09eb09,0x3d5470e4,0x3dd22504,0xbcd400e3,0xbd3bbb72,
0x3d5b6b6f,0xbd493a1b,0x3d7f4601,0xbc7e1750,0xbe1c0ed6,0xbde822d2,0xbe2a5858,0xbca6195d,0x3d9980ed,0xbdcb4768,
0xbde39e2e,0xbc1f67e8,0x3c0be345,0x3c78b753,0xbe4330fe,0xbd6af696,0x3cefa132,0xbdc93f84,0xbdab7171,0xbdcdabbb,
0xbd8ea2b8,0xbd64066d,0xbc903c18,0xbd630468,0x3e1f63c4,0x3c4e75d6,0xbd0cf13c,0x3d17b8fa,0xbd5515fa,0xbb80116d,
0xbd93a957,0xbe27272e,0x3bd17683,0xbdf580ab,0x3cca51ff,0xbc33a87c,0x3cc209a0,0x3dc54b5c,0xbc925a3c,0xbcc60655,
0xbda2b07c,0x3e5aafb5,0x3b8f9f6c,0xbbf5108d,0x3d9a837f,0x3de4875e,0x3e2e8696,0x3e176de2,0xbd082c98,0xbe9d17cf,
0x3d8d1968,0x3e68f7fb,0x3c141ce0,0x3cbe44de,0x3d9a6182,0x3d84c9f7,0xbc65f072,0x3d692464,0xbdf9e901,0xbd5c2c5b,
0x3e01db84,0xbe992302,0x3c0fe17d,0x3e7919f3,0x3d1d4c42,0xbdbca954,0x3d24dd93,0x3e0beba6,0x3e04b512,0x3e13b9d6,
0xbce1f449,0xbe8828f0,0x3c80517f,0xbc0e8800,0x3d930494,0x3c6ad8fd,0xbeab246f,0xbeb90955,0xbd9f8cbb,0xbe062559,
0x3dd3ee63,0xbd805229,0x3cfe7aca,0xbe63bcdc,0x3dabdf2a,0xbd34625c,0xbe7196de,0xba373bdd,0x3bf9a6a1,0x3d033aea,
0xbce3a762,0xbd4c3488,0xbd8cf3df,0xbcb9f9cb,0xbd093475,0x3cc30137,0x3cea1b75,0x3d3321cc,0x3cd58e90,0x3cd33edd,
0x3d492662,0x3d06c4bb,0xbd939a31,0x3d9a249d,0x3d93d92f,0x3da1dbcf,0x3be74304,0xbd76a605,0xbc6bac60,0x3a6dd057,
0xbd0deb77,0xbd75e731,0xbd8dcd92,0x3df97cae,0x3def18c7,0x3c060075,0xbca11893,0x3cbfc0ba,0x3da5e2af,0x39be7e7a,
0xbbd0195e,0xbdab67c8,0x3c0db4f7,0x3e314efd,0xbd3d04ea,0xbd186ff5,0xbd518b88,0x3afa9c33,0xbaa3dbe2,0x3d8cc7c4,
0xbdf118e2,0xbc9345d9,0x3b8a291a,0x3d30a1b6,0xbcdf606b,0xbd486279,0xbe1afe0d,0xbbe47910,0xbca7300b,0xbde111e4,
0x3b118f84,0x3aad3166,0xbd238066,0x3d058827,0x3ba2b83c,0xbd0d8e8e,0xbcb81c05,0xbd27d5e8,0x3d9a0317,0xbb762654,
0x3c3bd43b,0x3cfaafa0,0x3d54ffcc,0xbba11ade,0xbc18b039,0x3c973727,0x3cae2096,0xbde53cf6,0x3a52ba95,0xbd97d91f,
0xbd1f11e2,0x3e1d9cf9,0xbd029dfc,0x3c629196,0xbdaabcd2,0x3dea8c83,0xbe76e96b,0xbbbe4c29,0xbd522a25,0xbe1d839f,
0x3dfb06f1,0x3bd0dc9e,0xbc8abd38,0x3d86df46,0x3d069a0c,0x3e32b00b,0xbd4267c2,0xbd7d54af,0x3bd94116,0x3dad490d,
0x3c32bdfb,0x3e94012c,0x3d5706c7,0xbe3246ed,0xbdcdb5a4,0xbde082a6,0xbe00afd2,0x3c390810,0x3c733027,0x3d800881,
0xbd46ad85,0x3d0abdee,0x3d40206f,0xbe0a309c,0xbbc192d2,0xbd12aecc,0x3d0feb71,0x3d6bbf82,0x3da69d85,0x3d1bece0,
0xbd9f1d62,0x3ce15ddd,0xbe325bea,0xbbd88142,0xbe2cc00e,0x3cd1a9b5,0x3da6b06a,0xbd2abf2d,0xbd3768ec,0x3dee0848,
0x3d6e4967,0xbca36aa0,0x3c212f70,0xbd245e08,0xbd731c12,0xbd9c5d47,0x3da8a9fa,0x3d2020a9,0xbd94acc2,0xbdf0537a,
0x3d1bfaf6,0xbd5c0932,0x3de93701,0xbd5b6f8d,0xbdad1ce1,0xbda615e4,0x3dd4aba3,0xbd907666,0x3e03b35b,0xbbeaeaff,
0x3e1f4082,0xbc310679,0xbd15340f,0x3e25a003,0xbdfc85a1,0x3d03c8c0,0xbd2f2488,0x3da3de5c,0x3e3ddcbb,0x3d47edab,
0x3d2d4967,0xbd1c9a92,0x3d12389d,0xbc8b9c3f,0xbce9aa1e,0x3dd3166c,0x3c14b869,0xbcb34bbd,0x3c997832,0x3d891e1e,
0x3e05bc29,0x3def6c5f,0x3d5da2c3,0x3c589061,0xbda3424d,0x3d606ebe,0x3e0f6db0,0xbc09c472,0x3e13edce,0x3d0cab8b,
0x3d3de177,0x3da346b1,0xbc48ab6b,0xbc5c2916,0xbd5258cd,0xbdef1852,0x3decd20e,0x3bb59e07,0x3e209152,0x3d1d8802,
0xbdd52a80,0xbcb1596f,0xbdb3486f,0x3e0ef385,0xbcf6e001,0x3dba631d,0x3ccc91bb,0x3bd23f9a,0x3d97b0b8,0xbcc9093a,
0x3d82d458,0xbd8287b2,0xbceb98dc,0xbe7065e6,0x3d9e1a23,0x3c4401d7,0x3e759644,0xbdac6c45,0x3dd93ee8,0xbc479475,
0x3dd4c1f8,0x3e08b96c,0x3e19bd6d,0xbdabe62b,0xbdd47fd7,0x3d5902ec,0x3e380339,0x3dc45480,0xbce39225,0x3db513b1,
0x3d35a97d,0x3d877abd,0xbd98b572,0xbcb0ef4b,0xbcb4900a,0xbe038657,0x3dd83fd2,0x3e96eec3,0xbcf95ab4,0x3d84525a,
0x3d960791,0xbc1b0408,0x3b81ba4e,0xbca4662b,0xbdb3e312,0xbd5f9109,0x3e0cedf6,0xbda618e7,0x3c5eb956,0xbb969b67,
0xbdb9b961,0xbea2cf73,0xbd2af3e3,0xbcd51a49,0x3e0a4369,0x3e480a52,0xbda17807,0xbd82f42e,0xbdd58f0b,0x3e1b8872,
0xbc78eda8,0xbe7522c2,0xbd183ff6,0xbe02f2ed,0x3d6285fb,0x3e80d9e1,0xbcad66f8,0xbdc3e0a7,0x3dca0cee,0x3ea6ef45,
0x3e3e8e37,0xbd65fffc,0x3cf72727,0x3d1fbce7,0xbd796188,0x3e3c415f,0x3e12ad88,0x3bb91094,0x3e4c3b5f,0xbb82947c,
0xbead96c3,0xbd9492df,0x3e12e2e3,0xbdecd42d,0x3d4c9d38,0x3db65fb2,0xbdd49c2c,0xbd9a238e,0xbc1333fd,0xbc5385df,
0xbe81fef5,0xbdbe9f53,0x3def7538,0xbd6907ac,0xbd127c3d,0xbe9edaf7,0xbe2fb284,0xbd04aaa2,0x3dbd63ac,0xbd9b059a,
0x3dde732f,0x3db0b590,0xbd8f71c9,0xbe3a7bc0,0x3d4c1478,0xbe59bc05,0xbd55910d,0xbd21a709,0xbcee606a,0xbe0bda31,
0x3d079779,0x3c984a0a,0x3da32cd1,0xbc3a50a7,0xbca3abb7,0xbd49f6c9,0x3d4b7c3b,0x3d8d89e1,0x3d0556b2,0xbbb9948c,
0xbd32c654,0xbd0f530a,0xbaf0e14e,0x3a42af4e,0xbdbafafd,0xbc99f715,0x3d206d18,0x3c985a12,0x3d93f162,0xbd476f00,
0xbd91fb1a,0xbcb9d51a,0xbc44cad7,0xbbfc20be,0xbc604270,0x3cbc029c,0xbc73056c,0x3d3f5dd0,0xbd18a620,0x3d2c993b,
0xbd0e9a84,0x3d4b92c6,0xbb890d06,0xbe1a45f8,0x3d556ed4,0x3dba5805,0x3d97a7d1,0xbd4d019c,0x3dcb23dc,0xbd0e37aa,
0xbd60c617,0x3c0a7edc,0x3e2f36ab,0x3d42cb83,0xbcdf883b,0x3c9393e3,0xbd144463,0x3c9314ff,0xbd866152,0x3d3e0ebb,
0xbb368e46,0xbc22090b,0xbda6eebc,0xbd08e98b,0x3d92aa75,0x3e00d459,0xbdece2cc,0xbcd2b404,0xbdca9e6c,0x3daef144,
0x3d3fd13a,0x3d1879bb,0xbdb9aa3f,0x3c6ca8c0,0xbbe9534a,0x3cef96a9,0x3a3d27b4,0xbb90eff2,0x3c11b36f,0xbd2982a4,
0xbcae3d4c,0x3d2d821b,0x3dfc61c6,0xbd16417b,0x3dbe0649,0x3c0c8f6b,0xbd365eec,0x3c8d011b,0x3bb9b817,0x3d079a2c,
0xbda44642,0xbaa6ec31,0xbe0f0174,0xbc6dfa55,0xbbdca514,0xbd990286,0xbd400400,0x3dfc368f,0xbd1f97c3,0xbd6c649c,
0xbca17395,0xbdba8496,0xbd0ab5b9,0xbdc0ca31,0x3b65b72a,0x3d5f0f18,0xbc3f6bc7,0xbccbafba,0xbd2a6474,0x3aa1c851,
0x3d0fbd3e,0xbd2be8ae,0x3cab240b,0xbc3c07e4,0x3dda4411,0x3b4e4662,0xbddb5d45,0x3db25296,0xbd13bd3c,0xbe08fcd9,
0x3c49b1f8,0x3ba5ac68,0x3d3a0ac4,0x3b70994e,0xbe28acef,0x3b751ca2,0x3d55102f,0x3d0bad16,0xbc11d6f4,0x3dd08644,
0xbcadf645,0xbd9a49cf,0x3d406747,0x3c3efa08,0x3d8de221,0x3cbf04c0,0x3c73dc30,0x3d93ed22,0x3cb510b6,0xbd2be205,
0xbd3b3390,0xbd46b95c,0xba969af0,0xbc2410fc,0xbe0dc5f4,0xbdb04f7f,0xbde170ad,0x3d9ff3b3,0x3cf59dce,0xbdb2bc5c,
0x3dbbbfa0,0x3d89a0e9,0xbde7b6ae,0x3e123bb9,0xbc38cab4,0x3cba574f,0xbdca4fe7,0xbd3c7b20,0x3bafa0f2,0x3b7c8501,
0xbcbbb563,0xbd2fcf2f,0x3c26e4ab,0x3d961ff4,0x3daad88f,0x3c844de0,0x3d627686,0xbd449799,0xbc87fdfb,0xbb4899d8,
0x3ce7fcaf,0xbe0c12f1,0xbd9bfc1d,0xbd9d1343,0x3e0660b2,0x3cccd55f,0x3d2494ab,0xbb4e6562,0x3d0295bc,0x3d3ebc5a,
0x3d53c01c,0x3d0fccdf,0xbd3cce22,0xbcb44d29,0x3e80ee9e,0x3bbcf3bb,0x3d8a91e7,0xbe386029,0x3cd5efc6,0x3d456cf4,
0x3b21060e,0xbc41ad1e,0x3dbee513,0xbc23e5d1,0xbcd78227,0xbcda9826,0xbd38da47,0xbdb4941d,0xbb68bc70,0x3d15d45b,
0x3d8a0993,0x3d2a8422,0x3dc166aa,0x3d127d85,0xbd2541b9,0xbccca44f,0xbc20e1c9,0xbdc2c414,0x3e27f4a7,0xbd329764,
0xbcc45b88,0x3da6d644,0x3daf425c,0xbcca1d68,0x3d57b8ce,0x3dd54fba,0xbd990032,0x3d6a3c69,0x3d05d538,0x3cbb6e27,
0xbd44fdcc,0x3e13c60e,0xbba38e0a,0xbe34f4b5,0x3e7b292f,0xbb41b3d3,0x3e53ac7a,0xbc888e84,0x3d566fbd,0xbc8ae46b,
0x3d51d442,0x3d52d27c,0x3d653fa3,0x3e3f1797,0xbace0e12,0xbd38d6f4,0xbd297fbd,0xbdfa7987,0xbd295093,0x3d5a47bc,
0xbd678e4d,0xbd8c6697,0xbdb22615,0xbd0220f5,0xbe141361,0xbddc6725,0xbb957975,0x3dfab116,0xbe4de4af,0xbd87d909,
0xbd046adc,0xbd2b6593,0xbe46587d,0x3e4b49ac,0xbdbcf6ef,0xbb2d1479,0xbdb76ddf,0x3d8ee8b2,0x3e2f2ba6,0xbd95d001,
0xbcd8d0d8,0x3cfe1e07,0xbd944d79,0x3d3743f5,0xbea6ac3c,0x3d8acd23,0x3cc5b9f0,0xbda68d05,0x3e6f1742,0x3e116680,
0x3d726bfc,0x3ccdbc00,0x3c1d5791,0x3d621ced,0x3e04fe0b,0x3d431c50,0xbca65d8c,0x3e059853,0xbba03e2e,0x3e329569,
0x3d87edaf,0x3e8d93f8,0xbe062307,0x3cf6056b,0x3cd9c9ff,0x3e0efdf7,0xbd9ea746,0x3d131df2,0x3c9b5b1c,0x3d3fefb8,
0x3df90603,0x3e4e3cd4,0x3cf16cd6,0xbdf7022d,0x3d78f8c2,0xbd541c86,0x3d0983b4,0xbd007613,0xbe09bcf5,0x3dd5ecee,
0xbe1b7b6d,0xbdebc828,0x3da437ad,0xbe1a32a2,0x3bee8d48,0xbba57e20,0x3bb82f9d,0xbd73e3ed,0x3ddfe5a9,0xbc96584c,
0x3cb78288,0xbd9d0316,0x3dc2a98c,0x3d9099ae,0xb9a47494,0x3d9bb57b,0xbca0f7e7,0x3d4fe14b,0xbd4da473,0x3dd7111b,
0xbe35ae01,0xbded3048,0xbd99bc17,0xbdec9dc5,0xbe2731b8,0x3c8af3c7,0x3d4fb4ea,0x3cb1c268,0xbdeee57d,0x3d429d46,
0xbd4656c4,0xbdee2beb,0x3c5be758,0xbbc9d592,0xbd718358,0xbc8e0de1,0xbb9dcb2e,0x3c8c57c2,0xbd195e34,0xbdb62462,
0x3e9df462,0xbd94ac20,0xbcee35c5,0xbd962d94,0xbda26e77,0x3e801cfb,0xbdb2aac4,0x3c917428,0x3d006f71,0x3cece637,
0x3d82b939,0xbd181185,0xbc697df7,0x3bd568cd,0xbcc8b966,0x3e1ce60d,0x3d57fea1,0xbc08828e,0x3d497447,0xbd52b967,
0xbe16591d,0xbda36f10,0x3e034bfb,0x3d65fef0,0xbc41fae6,0x3cc73891,0x3c65aad5,0xbd6a7fa2,0xbdb61ae2,0x3c4ff1db,
0xbdee78d8,0x3d25167b,0x3dc841f4,0xbe28ff88,0xbdfa8bef,0xbe5a64e4,0xbd90eb14,0xbe1b78a1,0x3b4c209f,0xbe53b266,
0xbde24b61,0x3defc041,0xbe9d1619,0xbe1dda63,0xbd52ef62,0xbbd3f4bc,0xbdd8ee58,0xbcaad3ae,0x3c580bb3,0xbd2e65e7,
0xbd65247b,0xbd231a78,0x3d68de97,0xbc9afe2d,0xbddc4853,0x3d5510d5,0xbc8f5f3d,0x3d822c4d,0xbd916076,0xbc88ac50,
0x3d3ab1ca,0x3daa6917,0xbd9b7ad0,0x3c172b1a,0xbd5b5741,0xbc69439e,0xbd51fa56,0x3cc90e39,0xbdadd102,0xbc0a006e,
0xbd48821d,0xbd987eb6,0x3d64e374,0x3cb38f0a,0x3ccd8e5a,0xbe00d800,0x3d5a05f8,0x3c18d5f6,0x3d84f3a0,0xbb9d5284,
0xbb3b2081,0x3ae30760,0xbd694cfb,0x3db401ab,0x3d188455,0x3c4e6262,0x3e04ffdb,0xbd6321b0,0x3d6e7c70,0xbbc6fe99,
0xbcaf8ac1,0xbcfb166f,0x3d413172,0x3c2d1359,0x3caae2e2,0x3e0cc7ec,0xbe455177,0x3d597798,0xbdd5224c,0x3cf8a936,
0x3da95efc,0xbdb93bab,0x3d4785ef,0x3c0b4bd4,0x3d90f39e,0x3c566adf,0xbde3470d,0x3d2cb24f,0xbdac20f2,0x3de707bb,
0x3dac7c06,0x3dc9e65c,0xbdb139d7,0x3d16d1fc,0x3d9d8df9,0xbd984566,0x3dcb035a,0xbc532293,0xbd79054c,0xbd201354,
0x3c864bdf,0x3c8458b5,0xbe1b3af6,0x3d10d4f6,0xbd1136e1,0x3d0b2bd5,0x3e3ebd7f,0x3cd4d64a,0x3d69a1fd,0x3d60ef86,
0xbd574c03,0x3dbda270,0x3b408ad8,0xbd6dcf56,0xbe42b145,0x3d57a5e0,0xbba86d5a,0xbd0bc4ec,0xbe0fab09,0x3d6aca3d,
0xbe91890d,0xbd48554a,0x3d99b1a5,0xbd346638,0xbe14feef,0x3de90a53,0x3b1ac325,0xbd0f360c,0xbd43d270,0xbc51b444,
0x3d7d77b1,0xbd5d20b7,0xbaaadb51,0xbc23b485,0x3d28bd05,0xbd12cdeb,0x3d291f3c,0xbc04a9b6,0x3c5ffc70,0x3c8f7644,
0x3cfdf920,0x3d154532,0x3ce3241f,0x3ba16b6d,0xbd46dd3c,0xbdc9bcec,0x3d4b7d4a,0xbcf3b4b1,0x3c315f05,0xbc793acc,
0x3d1702ab,0x3d1b09b2,0xbd10d195,0x388a90e5,0xbd950d87,0xbd1ef1d7,0xbae80e26,0x3ce07000,0xbbd9d0c3,0x3d481303,
0xbda274c5,0xbd30799c,0x3ca97676,0x3bd56873,0x3dd0972b,0x3dcd7969,0x3d6e39cb,0xbd1b63b1,0xbc500d90,0x3d881387,
0xbba431e0,0x3d0a003b,0x3d977509,0xbdd7c9e8,0xbd160759,0x3d1d3c7b,0x3d71db56,0xbdbf3a17,0x3cd38e01,0xbc2880e2,
0xbd3bb0f7,0xbc35cca7,0xbd4477f1,0x3d8abba9,0xbcf55ca9,0xbac327d1,0x3d66e8d5,0x3be67f09,0xbc5503d2,0xbd2979e2,
0xbbc5be7a,0xbd94fd02,0xbd4984ec,0xbd091e10,0x3d6e7476,0xbdecfaf7,0x3cbb3d60,0xbc9eed2f,0xbdc53b2c,0x3b072f98,
0xbd125d6a,0x3c5ff0d1,0xbd2d8abd,0x3d456dc4,0x3dfa981a,0x3d2c3ab9,0x3cab4ecc,0x3c0d4c46,0xbd707205,0x3cd02c75,
0xbc2ff377,0x3cc6345f,0xbdb140c2,0xbc9aa658,0x3b9321f1,0x3e115f3e,0xbd63afbf,0x3d96ca96,0x3dc9fa66,0x3bbbfbea,
0xbd52388c,0x3cef64fc,0x3ca60f32,0x3cda0bb8,0x3c4db31e,0x3d33ca3c,0x3e74dd0a,0xbc50434e,0xbccfe819,0xbd2a5c21,
0xba3d4573,0xbc9cfc07,0x3c1bcd91,0x3cad2932,0x3d35bdd6,0x3d2f5b60,0x3cbb6da0,0x3c8dd0bb,0x3c7cad0a,0xbc0562fd,
0xbcc59204,0x3bb65496,0xbc2f05d2,0xbcb6fd50,0xbd687034,0x3ccbddc1,0xbc8e7fe9,0x3cfc8431,0xbd0129d2,0x3ce9479a,
0xbc8617e1,0x3ba141bc,0x3c73a5ac,0xbc0b6db5,0x3c2e0724,0x3d87355f,0xbd3c6916,0x3c068726,0x3d4d43f4,0x3cfa232b,
0xbce36aa8,0x3c3a8836,0x3d8dbf61,0xbd0afabf,0x3c4f611d,0xbb34ad6d,0x3deb2a92,0xbc4f14d7,0xbd49a495,0x3d3fac3c,
0x3d0c4e4a,0x3d711de6,0x3c2147b4,0xb7a2dfc2,0xbc97d322,0x3d411941,0xbcaeafcf,0x3d01cfd5,0xbc32df17,0x3bc33fae,
0xbce42019,0x3dd1e593,0x3d21ebb6,0x3c22553e,0xbd117a50,0xbe1d1c7e,0x3ca87ff7,0x3e086cfb,0xbbd5935b,0x3b8d38fa,
0x3e2c1d93,0xbe127978,0x3c25434c,0x3db64c41,0xbc9d809c,0x3c74c3ff,0xbd3f5bc6,0x3c992c88,0xbd66bdcc,0x3d3ba8be,
0xbdac414c,0x3d949823,0xbc94edb5,0xbe15a8ec,0x3bd3f4c7,0xbd3ba508,0xbbae06e6,0xbb89ba21,0xbdfd2462,0xbe3d2bfb,
0xbd9efd41,0xbc8654ec,0xbd97da55,0xbe5183bf,0x3c950b06,0x3e13755e,0xbdaa6155,0x3db91156,0x3c3dded9,0x3dc8895e,
0x3dc0a24e,0x3d56802f,0x3d20c651,0x3d046f10,0xbdd673e7,0x3daa4db2,0xbd63582b,0xbda875b1,0xbd38c4f6,0xbd930cf1,
0xbd7eba5e,0x3b5444e1,0xbdfa7e95,0x3cbebb11,0x3d32692f,0xbdd789d6,0xbdfe2c35,0xbcdd7488,0x3d1436d0,0x3df81b8d,
0x3bc125a6,0x3d2004eb,0xbdc9ef5c,0xbddfccce,0xbdd17a38,0xbe06af64,0x3d8aeaa4,0x394dfb54,0xbcc77946,0xbce97768,
0xbc4d18ad,0x3d265413,0x3d1cedd9,0xbd11c483,0x3e1d144e,0xbb6ef2c8,0xbdfb6dbf,0xbd144869,0x3bae56dc,0xbc8df7bf,
0xbc857112,0xbdd414e4,0x3e1b77f3,0xbcd30f5a,0x3e11f1eb,0xbb558c82,0xbd38d657,0xbd3a2f97,0xbd73b89d,0x3e30ae2a,
0xbda0154c,0xbcdf6572,0xbd231cd7,0xbd82c317,0xbc795c06,0xbdeb6310,0x3c917a5e,0x3db4a260,0x3d1722ad,0xbc24be8b,
0x3ce32df3,0xbd170e0c,0xbcd49cb7,0x3e357812,0x3cb651be,0x3db233bf,0x3db695b6,0xbd9fd198,0x3cfa7764,0x3e2c1850,
0x3e24b681,0xbd584d55,0x3e0272e5,0x3e00ab50,0xbd24a224,0x3e00fcee,0xbcd400be,0x3d8e4f77,0xbd33bae5,0xbbb1a012,
0x3dc36ed8,0x3dc32ad9,0xbde5f062,0xbe93244b,0xbe5aa655,0xbd602023,0x3c8d6db9,0x3e1eb56e,0xbdf86ce9,0xbd01cfc4,
0x3d65f803,0xbd6f27b1,0x3b388c96,0x3c57469d,0x3d7369df,0x3cd5616b,0xbce98f96,0x3c30ecf2,0xbc7c7b65,0x3d45491b,
0xbd626c57,0xbd2e3490,0x3dd632a0,0xbd7b329c,0xbd82f706,0xbd583c82,0xbe1c0698,0x3d240c59,0xbd9155ae,0xbd3dde1d,
0xbb86493e,0xbd2471e2,0xbad2ef98,0xbd7225a6,0xbc979158,0x3d92c910,0x3d849edf,0x3d13014e,0xbd328889,0x3e191a1f,
0xbdfbc8e6,0xbc5a8636,0xbd938091,0xbdde6d2c,0x3b69ee99,0xbd48aa87,0xbb2513d4,0x3d057e57,0x3d0a4081,0xbd181e08,
0x3d178619,0xbd9e8690,0x3dcc8f54,0x3ca588f1,0x3e053a51,0x3b948248,0xbe295d58,0x3c97d51a,0x3ce77b8f,0x3dfe139e,
0xbd31dafd,0xbd590c60,0x3c8ec752,0x3dc50222,0xbd98fc98,0x3e452e7f,0xbd869553,0x3d5acdd5,0xbdcb81ac,0x3a152411,
0xbe1680d2,0x3cfa1590,0xbd9fbca8,0x3db574cb,0x3d6064b5,0x3de5e8e1,0x3db3570b,0xbdad40af,0x3daf2507,0x3b041ce8,
0xbbed0a6b,0x3bac8888,0x3df1e475,0xbd2f7ddf,0x3b979c86,0xbbbd7ed1,0x3aa1cf55,0x3d43c531,0x3b2861d3,0x3c068bea,
0xbd7d7b29,0x3d2c8740,0xbdcb72ad,0x3c7eb6a0,0xbdcad5c2,0xbd2a6ac4,0xba763cf1,0xbd97c401,0xbbdd6411,0xbdc1fce2,
0xbdda9216,0x3d9c69c1,0x3e1d4f26,0x3dc5f160,0x3c946046,0x3c4ab188,0x3e0f28b3,0xbcc3d91b,0x3d811e65,0xbe4ac77c,
0xbd0f5ff1,0xbc838248,0xbd8b5754,0xbd53d5d3,0x3d4d78a9,0x3c420ce9,0xbcb3de8f,0x3d89d70b,0x3d78e343,0x3d51993a,
0xba9c30f3,0xbd9a0d40,0x3d007453,0x3d54b245,0x3bcf94c0,0x3c0ed534,0x3c3df94e,0xbbc15925,0xbdb81bec,0x3cb30769,
0x3d847443,0x3c88ae2d,0x3cb67e18,0x3c532ffa,0x3d00a2f5,0xbc9bd28f,0xbcad1d90,0x3d105d39,0xbd8ecd8e,0x3c66561d,
0x3c1eb684,0xbccaf05e,0x3c92f95b,0xbb325dc6,0xbcdc837b,0x3d848829,0xbd0677ca,0xbd555ce4,0x3db90c02,0x3d9c4783,
0x3cc02b47,0xbd8354ba,0xbd216dd0,0xbcdbd6ba,0xbcc8632c,0xbc598f4b,0xbd9b03c4,0x3c7bf5d0,0x39b52fcb,0x3b7fec99,
0x3cf0d5ac,0x3d3f9819,0x3c01ee86,0x3d154d13,0x3c38867e,0xbca51c52,0xbd4ae07c,0xbd19711e,0xbcc7603f,0x3d80472e,
0x3e031ca3,0xbc975837,0xbc691185,0x3d5f88ce,0x3d8b96c8,0xbda9f1dc,0xbd95da93,0xbcef9b77,0x3c4303ef,0xbd482dfe,
0x3ce467ee,0xbd53a603,0xbd8a4516,0x3d9414f2,0xbcfb92c5,0x3d3091f1,0xbd2c843c,0x3d479bf8,0x3d057d23,0xbc3841e4,
0xbcea8f2a,0xbdcf3876,0xbd86a68b,0x3c902f76,0xbd7700ea,0xbd88f173,0x3cbc7d15,0x3da90dac,0xbd1a4002,0xbd57ca7f,
0x3e80b74c,0x3cbef480,0x3d9928a0,0x3c9bba65,0xbd124e11,0x3d775a08,0xbc0dd010,0xbd614bc9,0xbd489dee,0xbd2c0d95,
0xbd08f4ec,0x3bb70d73,0xbc0e79c3,0xba1ace4f,0xbd15342a,0xbb98f137,0x3c833901,0x3d1905be,0xbd49b38b,0xbd11498b,
0xbc9a6730,0x3c82327c,0x3d5f232e,0xbd2059bd,0x3b386c0d,0xbd47aaa4,0x3d2fd8dc,0x3d68c18f,0xbcd6824b,0x3d32a561,
0x3d42fcbe,0xbe110068,0x3c2265a7,0xbd2d0e37,0x3c258ad2,0xbd36e751,0xb98acf20,0xbd9af0e4,0x3c27097d,0x3d66ffbb,
0x3d5f75f2,0xbc13a84b,0xbd1a7ed1,0xbcc18aca,0xbcd6b943,0xbcb5b933,0x3d66ddc3,0xbc34e573,0x3d847ec6,0xbda1fe9c,
0x3cdb6190,0x3d4151be,0x3d69e886,0x3c9f23e6,0xbd92479a,0x3c11e5a3,0xbe14b14e,0x3d14962c,0x3cc7935f,0xbcb3985b,
0x3a8279d9,0x3dbf3551,0xbd28979d,0xbc98fc85,0x3c8e9270,0x3c24b8e5,0xbd173e3a,0x3e202808,0xbd1f0fbd,0x3d3f48de,
0x3c290b2b,0xbd9b0d56,0xbdee4dbe,0x3d390767,0xba26bdf1,0x3d7d08b8,0x3d184e00,0x3dbd745c,0x3d28d5a6,0x3d568cc8,
0x3d9db07b,0xbce2f10a,0x3c5b8092,0x3e3613fc,0x3dca6098,0xbda77a74,0xbd811209,0xbc08f606,0xbcf4ac20,0xbd19d36e,
0x3d974129,0x3d375a87,0xbc6ec6f5,0xbdfee7ed,0xbd16c7ff,0xbd86e086,0x3d821b41,0xbdeff085,0xbd94804a,0x3d8720a5,
0xbe3151a8,0xba882128,0x3cb9bc63,0xbd48a331,0xbd0c977e,0x3db67fb0,0x3df67d9e,0x3b6ceb3e,0x3ddaa51b,0x3c011d47,
0xbd1498fc,0x3cb922f0,0x3e6b5390,0xbd81a7c5,0xbd17571b,0x3dc820a8,0xbe34e7bb,0x3d77e867,0x3cf31231,0x3ba2b156,
0x3cf0d307,0xbe5b3e66,0x3c3a748d,0xbd48faea,0xbdb8415e,0x3dd17c44,0x3d40aec5,0x3d8bd3f6,0x3d53958c,0x3db2e18e,
0x3da99d70,0x3db058da,0xbd9a5ed3,0xbd861f24,0x3d2b8bbc,0x3e6fffaf,0xbd26b5be,0x3d04fa90,0xbc8d2e86,0xbccfd731,
0x3ddfb2e4,0x3c4fb381,0x3b29b978,0x3b85fa05,0x3c3b74f6,0x3d8a0bcf,0xbddfeddc,0xbc8acbae,0xbdf0a319,0xbccc7fa1,
0x3d504b0f,0x3cf5023d,0xbc929fa6,0x3d6a38dd,0xbd4ccabd,0x3c34f7f4,0xbc89deed,0x3d83b08a,0xbb9a7dbf,0x3da14833,
0xbd9af0f6,0x3e4abfeb,0x3d79d2d3,0x3ddd8ef4,0xbd79dc53,0x3db4d945,0x3e379fcc,0x3ded08b1,0xbdfda20f,0x3c89fd8f,
0x3e2c6542,0x3dff0df9,0x3d2448ce,0x3d1ae576,0x3c707980,0xbcf3eb68,0xbafbf44b,0x3de7af06,0xbd0b59e3,0xbd5c8219,
0x3d5ff128,0x3bbedb5b,0xbd28f80b,0x3d0869dd,0x3d93a108,0x3dd632eb,0xbe0d473e,0x3d1fed86,0xbe1ccb7e,0xbd5146b9,
0x3d3adea8,0x3c7b11b4,0xbddab3d0,0x3c243226,0xbe2dee6c,0x3d335c5a,0xbd955349,0xbc11f1df,0xbc2ed41f,0xbd8f4869,
0xbd28c98f,0xbcc63749,0xbd17cf91,0x3cb94cd9,0xbdc7f309,0xb89c7657,0xbdb21b6e,0x3d8546c0,0x3d96e88f,0xbda9b3c7,
0x3cd9b59f,0xbd2a31cd,0x3d8170fc,0x3d056f87,0xbcf1aec1,0xbe12dcde,0x3d5f7c12,0xbd74d282,0x3e3e2669,0x3c9783e1,
0x3e3e23c3,0x3d94747c,0xbd68c4c6,0x3d38582e,0xbdb2b177,0xbdef119d,0x3ae492bd,0x3d133665,0x3c66c097,0xbca518d4,
0xbc7ba55f,0x3d3b423b,0x3d92a3bf,0xbd241ad5,0x3d0a8eeb,0xbc65ea5c,0x3d9b2b74,0xbb91b6be,0xbcfafe90,0x3cd5950d,
0x3c0c005f,0x3c47b9af,0x3dadc3b4,0x3dc53840,0x3e0e2b1f,0x3d669a0e,0x3bce8b10,0x3ba719fc,0xbd8a9a46,0x3e07aea0,
0xbd07d78e,0x3cf86680,0xbd085ccc,0x3cab81a4,0x3d8095b7,0x3c34ad0c,0xbd8316ba,0xbd82038f,0xbd9093bb,0x3d3c1666,
0x3d330924,0xbc9d6de5,0x3cbe818e,0xbcac4ac3,0xbd0bac23,0x3d52fe67,0x3cdb1fee,0x3e034233,0x3d2adfc7,0xbe11b6e0,
