const static size_t backbone2_0_1_weight_size = 33792;
static unsigned backbone2_0_1_weight[]={
0xbda542b2,0x3dc9a97c,0x3e07f8f3,0x3e193058,0xbe041d03,0xbcb8edcf,0x3cb10233,0x3d479a43,0xbdf21ed4,0xbe1814c3,
0x3df5fb5e,0x3cab8812,0x3c505e59,0xbdc2d3ed,0x3e249f7f,0xbcc75bc0,0x3c073a61,0xbd98b15d,0x3c2dbd83,0x3d7253e4,
0x3e426dab,0x3d7b2f6a,0xbe0a8b4d,0xbe04de8f,0xbc8f820f,0x3d0165e4,0x3d9d5ceb,0xbd9160fe,0xbde5e298,0x3e04e3dc,
0x3df9d4a5,0x3dd7defd,0x3c369af9,0xbcb65add,0xbc6e9fd3,0xbd46b557,0xbe012a99,0x3db173a0,0xbd987417,0xbc9d396c,
0xbd9762ad,0x397a3b39,0x3dcd8947,0x3e193bdc,0x3c336659,0xbd8f289f,0xbe4fc65a,0x3e0f3c66,0xbd9f09e3,0x3d1b4138,
0x3d23ec5a,0xbd18ced4,0x3c8f5847,0x3d785a1d,0x3c2eb65f,0x3d975b74,0xbe36f546,0xbe2097ae,0xbe21c944,0xbd94aab6,
0x3d92c8b9,0x3c19b9b5,0x3d7b4541,0xbe2b74bf,0x3d9d7e14,0xbcc229b4,0x3e0da86f,0xbd9e8f6c,0x3cfe7cf6,0x3d64f72a,
0xbe2c91a3,0x3e072a20,0xbce4476c,0xbbd88d9e,0xbcf33c1a,0x3c294657,0x3ded86db,0xbc8b9c34,0xbcac9885,0xbdf5b560,
0xbcc1e5b9,0x3ccaba2b,0xbd627714,0x3c06e183,0x3e1358bb,0xbd2ca015,0xbe0f29f2,0x3d816636,0x3ba00f12,0x3d6abf92,
0x3bc8a7e6,0x3c4ee980,0x3c840c58,0xbb8b105b,0x3d9f0b83,0x3e6836c3,0xbd406673,0x3d75c4e1,0x3cd18654,0xbd2a7508,
0xbb43f18b,0x3c917e47,0xbd81169b,0xbd371be1,0x3d735199,0x3c678c4d,0xbdbc9863,0xbc520a14,0x3d2f9a01,0x3d5d67e9,
0x3d16ba0b,0x3cf5e7b5,0x3dcf621c,0xbdb23bd9,0xbaeeba88,0xbc5eade5,0x3c6fa5e8,0x3d031884,0x3d047995,0xbb7abc7b,
0x3a903872,0xbdb94c74,0xbd709632,0xbc7feaf8,0xbd144028,0xbda17bd5,0x3c67f775,0xbcc23436,0xbd850f66,0xbcf00cbf,
0xbd265a51,0x3d159bc6,0x3d975b0a,0xbd2c648f,0xbdbc698b,0xbc213b3f,0x3d115e7e,0xbb7e2374,0xbd613191,0xbdc3f9ff,
0xbd5c0612,0x3c9cad80,0x3dba3379,0xbd291e49,0xbdf28e9d,0x3c138de1,0xbd45e8e8,0x3d3b9241,0x3ca79503,0xbce99993,
0x3c2bc638,0x3d5247c6,0xbd450b01,0xbd49934b,0x3ca827c3,0x3afa585d,0xbd95682d,0xbde54f76,0x3da2820c,0x3b83bbbe,
0x3ce116e2,0xbdcd27dc,0x3d64fe8e,0x3ca9cf1f,0xbcf96f06,0xbdb056ca,0x3d084525,0xbd0219bb,0x3c8faff4,0x3da274d7,
0xbdf2d65a,0x3d582f9c,0xbdd95c86,0xbd64f312,0xbdcfb209,0xbc6bbded,0xbdb02870,0x3a5a5445,0x3c8172ad,0xbd3ffb7a,
0xbc85980a,0x3da3894b,0x3d357200,0xbd7615f2,0x3c7cbf37,0x3d7c8548,0x3d1f6456,0xbd5b820c,0x3d7408d7,0xbd54b825,
0xbc84c9ff,0xbc60fdeb,0xbca92221,0xbdcf3860,0xbccc3a14,0xbdbe6580,0x3d8a0bd9,0x3dae0660,0x3d51e2fd,0x3c4641bc,
0x3e01b37e,0x3ded167a,0xbcd7e0e2,0x3d1b0c5e,0xbd3778c9,0xbd932fa4,0x3dec3a30,0x3ddb43d6,0x3dd00c66,0x3be62a39,
0xbd61c432,0x3ccd82be,0xbcf5c23b,0x3c7fa57f,0xbc0521f8,0x3cc9f374,0xbd9dd346,0xbdc2131a,0x3c989b55,0x3d57adc0,
0x3de6c71b,0xbcd33d14,0xbd311593,0x3cbc699b,0x3d299821,0x3c1133ce,0xbb9594db,0xbce4aa45,0x3d37e02c,0x3c7c42a0,
0x3d7fb88e,0xbddaf0e7,0x3c9a7414,0xbd00bc44,0x3cef43bd,0xbc01ed74,0x3cd837a0,0x3d172c06,0x3a929f67,0xbcb58a91,
0x389d1905,0xbd155357,0x3d45a6e2,0x3d8060c9,0xbc2e64aa,0xbdb15b70,0x3d82ab3f,0x3c00587a,0x3b870559,0x3ddc1f25,
0xbde80ec2,0x3d511503,0xbd763921,0x3d025b08,0x3c82e4b5,0xbd066c49,0x3c204fa9,0xbc157b70,0xbcd3ec7f,0x3d44e7a4,
0x3da6f138,0xbbe766a5,0x3d1a0211,0xbc970413,0x3c8f5de0,0x3d12b286,0x3ca2f171,0xbe01c5ba,0xbbd21914,0xbc016946,
0x3bf932ae,0x39c42eea,0xbd0e601a,0xbc8f28ff,0xbaaa5a22,0x3c10f398,0xba709325,0x3d1e2fae,0xbd025d9a,0x3d804f81,
0xbc8da734,0xbc828aff,0x3d461019,0x3cd0a2fe,0xbd103597,0xbb185fab,0xbc97c623,0xbde452aa,0x3b2a2883,0x3d4da2ae,
0x3cb92e8a,0x3d8a5e69,0x3a874756,0x3c3e8003,0xbd0862dd,0xbccc9e29,0x3d525d62,0x3d5409c2,0x3da4886f,0x3c2dd32d,
0x3d4d63de,0x3dc18e4c,0x3c90c58f,0xbc47ce86,0x3cb819a1,0x3d0cb4e8,0xbd7fef88,0x3cf65c49,0xbd9d2d5c,0xbcc883e7,
0x3b88c952,0xbd70c000,0x3dbdcf30,0x3d06bc46,0xbd00a35a,0xbce1bb09,0x3d4a30a3,0xb8d8b7d5,0x3bc20390,0xbd7c55f5,
0x3da98012,0x3a99492a,0x3a89f7db,0x3d5240af,0xbe2f3f49,0x3ce9b664,0xbc392405,0xbd312189,0x3e0aa568,0xbdb05d3e,
0xbda4c4e2,0x3c702f1f,0xbcf28eab,0x3c8b578f,0x3dc96d11,0x3d4f5184,0x3caa43e5,0xbcc46e35,0xbd3d3a38,0xbc829a16,
0x3c4a5c7a,0x3cc595c0,0xbd9f1888,0x3d2116dd,0x3d817953,0x3c64401b,0xbd10991c,0x3c007610,0xbb1aa7f0,0x3cb5f177,
0x3b8c38c3,0x3d93fbab,0x3cd6bb5e,0xbd44b9a6,0xbd89b35e,0xbda676c6,0xbe183a4c,0x3da634ec,0xbe0223b8,0x3ced2c40,
0xbd70e779,0x3d88c430,0x3d892c9c,0xbe08b158,0xbccfea35,0x3dd30d0d,0xbd84a78c,0xbd187705,0x3d0f9edf,0x3d8f127e,
0x3ddcefae,0x3d05c367,0x3d799b26,0xbd4001db,0xbcc71b04,0xbccabdd4,0xbe1f1913,0xbd9cc787,0x3e050d05,0x3c136be4,
0x3db233dd,0xbda71289,0xbd17aa28,0x3bc52794,0xbd08f80d,0x3e0e6d54,0x3d30b700,0xbda0dd11,0x3e285345,0x3d92464a,
0x3e289b58,0x3dad73a2,0xbe02ec58,0x3a38fce9,0xbe070779,0xbbbe5365,0x3d3ae849,0xbc00241f,0xbd8b3e3a,0xbdfce536,
0x3d15dfcf,0xbc34ba4a,0x3ddf5682,0xbe26229e,0xbe00523a,0xbc13d28c,0x3c1430ef,0x3d5d89f6,0x3cca175f,0x3d89ee04,
0xbd1523ff,0x3cfb0969,0x3d732bab,0xbcfb4d34,0xbc2794a2,0x3d74d060,0xbe08dae7,0x3c267fe7,0xbdd39c7c,0x3c854c48,
0x3d78c6cf,0xbd6113bc,0xbc7a4ab0,0x3e1d3186,0x3d9a498d,0xbd8dff43,0xbdee843d,0x3e06c058,0xbd752967,0x3c3acfd7,
0xbe43e4bc,0x3d43320e,0x3ce5273f,0xbce87c61,0xbbd64d6a,0xbdb113c3,0xbda0fac7,0x3e90be96,0x3e5b5767,0x3c909e43,
0x3d2f4a89,0x3cb944d7,0xbd1696c7,0x3c45ce28,0x3e0666ae,0x3c47d191,0x3bf2051d,0x3ddad4e5,0x3dd66263,0x3d537ccf,
0x3d06f6e0,0x3d669242,0x3b36e322,0x3d102943,0x3c1229c4,0xb814fc09,0x3d7f9315,0x3d9ad166,0x3cd7059d,0xbb159047,
0x3d80964c,0xbca3eb20,0x3d604704,0xbcf60407,0xbbf8c023,0xbc1eeb98,0xbd114df2,0xbd0fb6c9,0x3d167a32,0xbd11ab59,
0x3d1431ec,0x3dc90c6d,0xbb9509b6,0xbc4b2029,0x3d104a59,0xbca038f4,0x3da42aa2,0x3cb805ca,0x3dc81d24,0x3c960fb6,
0xbd38f793,0xbd7be0e5,0x3c9f9ee9,0xbc9ab650,0xbb7a8184,0xbc13b04d,0xbc7ad3ad,0x3d8d63f9,0xbd83609e,0x3bc8038b,
0xbd0b5b82,0xbde572a9,0x3d57efc4,0xbd6d8162,0xbd0f1090,0xbb46e052,0xbb8f1a12,0xbc6a624d,0xbb4c995c,0xbba99a07,
0x3cf6e751,0x3d2d464c,0x3ccf67dd,0x3d1cfd52,0x3b623a16,0xbd03d1e2,0xbcfb0ee4,0x3da4b464,0xbd4544a5,0x3a5b9247,
0xbd738715,0x3db835ed,0xbcf0901a,0xbd68b553,0xbcf30869,0x3bc1886b,0x3db5a33e,0xbc6f1709,0x3d280cac,0x3c9345b2,
0xbd0b0c7a,0xbcf41a17,0x3e284af5,0xbd1b3949,0x3d392820,0xbd565f8c,0x3bff5b36,0x3d29dc5f,0xbdc93e2a,0xbc0f7bcb,
0xbdf50690,0x3cc590b4,0x3c0c1d13,0x3db4a157,0x3c31c099,0x3d7b0f26,0x3d254c30,0xbc2d3331,0xbd8c1c8e,0xbca2b238,
0x3d07653d,0xbd05acc7,0x3bf58bb4,0x3d4bb80f,0xbd42a9a1,0x3cfb0230,0x3c8e17ef,0xbb62fd88,0xbd4b40a6,0xbc9a6e6f,
0xbcf49301,0x3cf45845,0x3d16341e,0x3de032f9,0x3de65944,0xbd13b0be,0x3c14f817,0xbd43d184,0x398f5299,0x3c3ce670,
0x3dd98913,0x3d2acdf4,0xbc0e8c1a,0xbd8a666f,0x3d45f07a,0xbcb03fba,0x3d787d26,0x3d200932,0x3bd73ed3,0x3d85f54a,
0x3cf02f68,0xbd306449,0xbcd2a039,0xbd5a376a,0x3d3ec01a,0xbd212f2f,0xbdc47d3a,0x3d0a7f09,0xbd0d4344,0x3cfb9aea,
0xbd8ecd09,0x3d4fbc68,0x3d655eb2,0xbd969c61,0x3d1e96f3,0xbe0a6ee3,0xbd77a910,0x3db024f4,0xbd34a051,0x3ddd8fe8,
0x3c4267d9,0xbdbc7cea,0x3c85da51,0x3dfccac4,0x3d949d2f,0xbd26e378,0xbca9432b,0xbb662f04,0x3d5112ef,0xbd49da58,
0xbc11d32f,0xbd453789,0xbc20e648,0x3d7d43ae,0xbdb13fcf,0xb9bfa9e8,0x3b44c59e,0x3d563250,0x3ac797c8,0x3b7798f8,
0x3ce1d635,0x3d2f812d,0xbd2bbf44,0xbd97b115,0xbd54a5bd,0x3b60d601,0x3d96763a,0x3c1ce4af,0x3d5414a9,0x3bd9d6c9,
0xbcf86e1d,0xbd354da7,0xba961eb5,0xbdd304c1,0x3b45a3da,0x3d59d3be,0x3d8f6335,0xbbc4dbcd,0x3d0d2715,0xbda21e22,
0x3ca05f5c,0x3c83d237,0xbd966a72,0x3b96daf1,0xbd27b05a,0x3cd00a59,0xbd126094,0xbd04649d,0x3bbc11d6,0xbd3b5960,
0x3cce01be,0x3d5d4d6b,0x3d8e933e,0xbcc29a01,0xbc2e4e4d,0xbd06a1c6,0x3d5d9a3d,0xbd58deef,0xbd256638,0xbd792eab,
0x3b176c20,0x3cc83315,0xbdf0ce99,0xbd52d0fc,0x3d2432d6,0x3c9052d7,0x3c04f81b,0xbd8be4d0,0xbca2a68f,0xbc8a95c8,
0xbcc838c8,0xbd80cab7,0xbd105ed7,0x3d3e9093,0xbdad251e,0xbc131a25,0xbca86cdd,0x3c928ce9,0xbce1e928,0x3bd96c94,
0xbdc5f4c2,0xbcd42ada,0xbd16c8f8,0xbd857854,0x3cfaf423,0x3d4c7672,0x3ce8f917,0x3c58eea9,0x3d07f50d,0x3d342095,
0xbd114dd7,0xbd43f765,0xbd2914c7,0x3d66444b,0xbc19e948,0x3d47bb89,0x3d6d8f51,0xbc903b23,0x3c69936e,0xbdb39d93,
0xbb69e22c,0xbc3c88a9,0xbcd1e0dc,0x3ab6d305,0x3c7713a7,0xbd3447fa,0xbd8049b7,0xbdb28abc,0x3ccc836a,0xbd400bb9,
0xbc9abc01,0x3d5cc2d0,0x3abf13e1,0x3ce261c0,0x3d3a273d,0x3df38e6b,0x3e12da5b,0x3ddc92d0,0xbcc02c15,0xbd752c0d,
0x3c820c0e,0x3c815216,0x3d1e7b9b,0xbdd9f6e0,0x3cb6f316,0xbd0860b8,0x3d3a5f57,0xbd70ce48,0xbc5b1a62,0x3c865672,
0x3dd396d1,0xbd3a2cf4,0x3cf3112c,0xbdf42fa5,0x3bdd48a4,0x3c4b0461,0xbc4917a6,0x3cf73285,0x3d728b78,0xbd7d6dd1,
0x3c906698,0x3d18b495,0xbcafa345,0x3c630a33,0xbcf2d979,0xbd580d4e,0x3de56f12,0xbcba2e9d,0xbdf0c05b,0x3dacc111,
0xbd182a9b,0xbd0f5816,0xbd77e3e0,0xbcaf5857,0x3d91902f,0x3cdb58ac,0xbd11fb0a,0x3cbf0374,0xbde74c1a,0xbe2979b2,
0x3d0684c3,0x3d9a7fda,0xbdbd336c,0xbded68e7,0xbdce6e07,0x3bf05921,0xbe09f83f,0x3c54cd8e,0xbb785ef4,0xbcaa2def,
0xbd4174d9,0xbb51fd9b,0x3d7ec47b,0xbda79606,0x3cb19d48,0xbd1c88d9,0xbc80f247,0x3a9e05f0,0x3d1f194b,0xbd4a1675,
0xbd8eae40,0xbc1c3759,0x3cd57459,0xbd9657ca,0x3d36cecd,0x3aafdd2c,0xbd4481a3,0xbd5007a3,0xbdc7eafc,0x3d062c7a,
0x3d0e9f04,0xbc931da2,0xbcc67b4e,0x3da69424,0x3c07a300,0xbd829335,0xbe3bf19f,0x3c3e1125,0x3dc1ee07,0xbd8d8ed4,
0xbd511e85,0xbc9f5bac,0xbccd421e,0x3dcacf3c,0xbd191506,0xbd96915e,0x3d0a257a,0xbdde4975,0xbd0446d6,0x3d6f9cd4,
0x3dac3e68,0xbd9dfd07,0x3ad9936b,0xbc519d37,0x3d588fc1,0x3982288c,0x3cbcf49e,0x3c9b004b,0x3cb6f29a,0xbd45f6c6,
0x3dc3daa2,0xbdab6196,0x3d6f098d,0x3cb27c77,0x3bd0a1c4,0x3c5932de,0xbc7b8dbb,0xbd1bec5f,0xbdb09048,0xbc309bbc,
0x3d22caa9,0x3d339ae5,0xbd3c93b0,0x3d000ca4,0x3d66c3a5,0x3d26cc11,0xbcca63b6,0x3d250594,0x3db74f25,0x3dc33523,
0xbd58273f,0x3d5355eb,0x3c4ba1b3,0x3d888eb8,0xbcc4e092,0xba89066c,0x3d27f703,0xbd74a1f4,0x3d87f25a,0x3c89a51b,
0xbb1a3a06,0xbb1dcb29,0x3de6e7ec,0xbd917bac,0x3c93eb32,0x3d085933,0x3bd01ef7,0xbc66cd4a,0x3da28174,0x3d3584f5,
0x3c3bd77d,0xbd829785,0x3cfb1334,0xbd509cc0,0x3ada6b5b,0xbd2358ec,0xbc959845,0x3e256344,0xbd8d5f38,0xbd840a68,
0x3cb59b25,0x3c94a2a4,0xbc6cb4fd,0x3d8e576b,0x3db45054,0xbcb486ef,0xbc3080c6,0x3d7b7bb4,0x3b76362e,0xbd26ee72,
0x3e27bdc9,0x3d0eb9d1,0x3d5bfb19,0x3d9648a3,0x3cad51c1,0x3d54ead6,0x3d9dce81,0xbcccc690,0x3d6795e7,0x3e4ee355,
0x3de6df67,0x3d66a540,0xbcec768e,0xbb9dfb91,0xbc499895,0xbc445487,0x3bbeae16,0xbd139955,0x3d9c748a,0xbd88926f,
0xbd9f4dbc,0x3c7bec1e,0x3d80b6ff,0x3bc6982e,0xbd28c53c,0xbdc478c8,0xbcbb1353,0x3d026881,0x3c938dd5,0x3b1ac747,
0xbd7e264c,0x3c4ce67b,0xbd4e2cd8,0x3c503fe8,0xbd2fae53,0xbcc8cbb0,0xbd02bd5a,0xbd04273e,0x3ccfebe7,0xbc63ffc5,
0xbdae77ca,0x3d1037e6,0x3dcec7aa,0x3c1f7f5a,0x3d91c952,0x3dc00a1f,0x3dc9d174,0xbc904c21,0xbd7602f1,0xbb6c6c70,
0x3da26199,0xbcad9e2b,0xbdc6d7b7,0xbd981810,0x3d4cfadf,0x3d53358b,0x3d2815cd,0x3d641ff1,0xbb43fc60,0x3d0d7363,
0x3d865a68,0xbe07da88,0x3cbdc936,0x3d49fcc9,0xbde83c4a,0xbc537b48,0x3c64f6c4,0xbe09addb,0x3dc07b6c,0x3d1edb63,
0xbc7e8d24,0x3ca1f06a,0xbd0c7409,0xbb376937,0x3bec133b,0x3c1aff21,0x3d28ba6a,0xbd23bb7f,0x3dba4c38,0x3b066240,
0x3d54c522,0xbbf8f076,0x3d256ecc,0x3b3b1bc9,0x3d24a75d,0x3d7a9ef1,0x3e13f6e7,0xbb8f6ce3,0x3e5ae1f2,0x3c1b6a34,
0xbd82c2fd,0xbe02f55b,0x3d21ad0d,0xbccd6e87,0xbd3a3b89,0x3bb60dd3,0xbe3a3251,0xbcdc409b,0xbcf9402a,0x3c400370,
0xbdadee53,0xbdd055da,0xbe070ffc,0xbdb987a3,0x3c04c815,0x3e33d8e9,0xbab9ece8,0x3dc6af2a,0x3d89dbb5,0xbe1c18a3,
0xbc81ab50,0x3d848618,0x3d5c51a1,0x3cdd040a,0x3d88dff1,0xbc8543c2,0x3c2dfa48,0xbcb90691,0x3d193033,0x3dacfb34,
0xbcfacaf6,0xbd85d2ab,0xbc0f65be,0xbc3e60de,0xbd31de88,0x3e124241,0xbd1e492d,0xbca0868d,0x3d2989ab,0xbcdfdaa3,
0xbdc9e0f3,0x3d5ee2a0,0x3d703b41,0xbd94dd4a,0x3dbadd41,0x3d118950,0x3d8e76e5,0x3d89e911,0x39337e40,0xbe0318fe,
0x3d4d0336,0xbcaf89ae,0xbe034c3c,0x3d3cb34c,0xbdbe4890,0x3dd2a738,0x3d09d595,0x3d4042bd,0x3dbc870f,0xbd0db651,
0xbd5ba885,0xbdac91d8,0xbd97ccde,0x3d6e3219,0xbda0ea33,0xbd68c0c7,0x3d749128,0x3c917d1a,0x3e367621,0x3cee4f2f,
0xbe3d0c0e,0x3e23b497,0x3de10f14,0xbcb7fb05,0x3da31747,0x3c1d709f,0xbdf8c077,0x3cf22a26,0x3d493958,0x3dfc22c3,
0xbdba0d8e,0xbd81cdc6,0x3cf29e71,0x3dd10817,0xbe24d953,0x3d979d9a,0xbe17af25,0x3d583b8c,0xbe4afc6e,0x3da5ea03,
0xba65d49e,0x3ddfb37c,0x3d559aec,0xbcb4d000,0xbd9c254f,0x3d36b3a5,0xbd87b3aa,0xbd6ac094,0x3e4f7a7b,0xba844910,
0xbd1562f9,0xbe176595,0xbbb6cb90,0x3cb7903a,0x3d0cb6e4,0x3dd6c340,0x3ba2126f,0x3a004be9,0x3d648781,0x3dce140d,
0xbd1a0257,0x3d6d6f9d,0xbd8d51a4,0x3c9c5f44,0xbd3e79be,0xbdb8187f,0xbb82ddef,0xbbae95db,0xbd11f5ef,0xbd94f019,
0x3d9ab1bc,0x3d7a5605,0x3e144a21,0xbde19022,0x3da450e0,0xbdc7b6c5,0x3c82c4bf,0x3d9b3b1f,0x3d097e8a,0xbd287b6f,
0x3ca13b76,0xbcb4af2d,0xbd953f57,0x3ce6e2a5,0x3d2b1911,0xbdd86485,0x3d7d46eb,0x3d20c911,0xbde169f6,0xbd477aa2,
0x3c695e07,0xbc404555,0xbd471e91,0x3c72a2b7,0xbd0fb69e,0x3d65c968,0xbd80f1f0,0xbc91845f,0x3da9fb9a,0x3cb3bbba,
0xbc21eee2,0x3d37fed1,0x3cef4350,0xbbea57b9,0xbc18461c,0xbc7aec6c,0x3dc36776,0x3d960c60,0x3c4bd055,0x3ddd1ac9,
0xbd14d236,0x3dc68b39,0xbd00f759,0x3dc7adef,0xbda5ca50,0x3e0b1b3b,0xbd077433,0xbd5464aa,0x3c04a130,0x3c66199b,
0xbde19095,0x3d4dff45,0xbd72fd9e,0xbd549db1,0xbc162463,0x3dc6d269,0x3d8f1ab4,0xbc80d505,0x3bc7c117,0x3d6e8c64,
0xbced3b86,0xbdad772e,0x3b4d4272,0x3d0be9ac,0xbcd8a5d7,0xbd9a61ba,0xbd782701,0x3b6d1328,0xbb2efa60,0xbd0d1551,
0xbd8d88cc,0x3d130793,0xbd8e0eaf,0x3cb70dd7,0x3dbfbda7,0xbdd8845e,0x3c83b833,0xbd83aa58,0x3d830450,0x3d95c51e,
0xbb8e4eb1,0xbd108b54,0xbe2dc361,0xbc9abd3a,0xbdcae05d,0x3d93839b,0x3d234883,0xbd360639,0x3d9aab4f,0xbdea98f2,
0x3dd9986f,0x3b72d485,0xbc275af0,0xbd3825c0,0xbd720f96,0x3daaf92a,0xbe0695ba,0x3b738b45,0xbc45baf9,0xbda92591,
0x3c0a4037,0xbdd7b1e3,0x3cfb8cb2,0xbc9bf525,0x3c292277,0x3db0a9ce,0x3d81805d,0x38dc362b,0x3e22e01c,0x3d910489,
0xbe105a3a,0x3d82e941,0xbdc16bb0,0xbd605589,0xbd8f56be,0x3da84b4a,0xbccb7fdd,0x3d072468,0xbc19fbf1,0x3cd5c35b,
0xbd671188,0x3cf055ae,0xbd0e0fe8,0x3cc7b573,0x3c8d2530,0x3d229f24,0xbdc8a54f,0x3d0126df,0x3daf99e6,0xbd4516d1,
0x3db87407,0x3d301551,0x3dd6f108,0xbe003945,0x3eb630c1,0x3ca91c0c,0x3e2059a3,0x3b16de8e,0xbd347d77,0x3d0b4c8e,
0x3d250657,0x3c9bc784,0x3d687875,0xbc7b491f,0x3e12bd77,0x3cb1dec2,0xbe0a3451,0x3dba572c,0xbe36e2ae,0x3e06b477,
0xbd571d25,0xbcfc5a40,0x3c2cc465,0xbc27c261,0x3be558be,0xbd648933,0xbc889ef4,0xbcdd6d09,0x3ceb3471,0x3d9c304a,
0x3cf8e9dd,0x3c6bd52d,0x3acab9f8,0x3d956c0c,0xb9d6c8a9,0x3cdeeb74,0xbdc8ba3e,0x3d82b234,0xbd61a1dc,0x3c460251,
0xbd1c6226,0xbc916556,0x3d41f980,0xbc575d36,0x3d7b34a4,0xbdacdc47,0xbce88063,0xbba0c778,0x3ce8e9f3,0x3d4a97d6,
0x3c7568b4,0x3dcdd348,0xbc8ec57e,0xbcff89ba,0xbdc88be7,0x3d90c0dd,0xbbd46490,0xbc194026,0x3cd60e9b,0xbcbf2071,
0xbd98a724,0xbccad15a,0x3dbef99f,0x3d94f5a5,0x3dca6a3f,0xbdfb2124,0x3dd096d7,0x3dbf090e,0x3b1aacc1,0xba992b0b,
0x3c2b71ed,0xbd75f89d,0xbc802698,0xbc05ecc9,0x3d78e945,0x3b8567b3,0x3de1e443,0x3c130629,0xbc86170b,0xbda164de,
0xbd6db432,0x3d65186a,0xbd1178cb,0xbcf1428f,0xbd49a81b,0x3d8c18a2,0x3dc51d42,0x3b07a7d7,0x3e2f20ea,0x3d1f1f12,
0x3ca966a8,0xbd849f01,0x3dc8e559,0x3b59595f,0x3dae9089,0xbc3add3a,0x3c3244ad,0xbda805ad,0xbc745e64,0xbd8ff22c,
0x3e5af8a1,0xbdad6eaa,0xbd7c666f,0xbc5614b4,0xbd5fbf7e,0xbc8a2192,0xbdc449af,0x3d9e372c,0xbcb67327,0x3b9fcf34,
0x3db2c1b3,0x3d3f014d,0x3dd98aea,0xbce547cf,0xbdb09116,0xbdafcf52,0xbd919bae,0x3d88d3b3,0xbcaee0cc,0xbb844673,
0x3db09486,0xbbd02447,0xbd8341c3,0xbdc179b6,0xbd3bef6c,0xbdc010c2,0x3e007c8f,0xbcaeefef,0x3d07a4c3,0xbdb4456a,
0xbd0b1983,0x3d94a5da,0xbe16129c,0x3be6526b,0xbd4369ab,0x3e1af67b,0x3db16071,0xbdb2a87f,0x3bf50fd8,0x3912c1d1,
0xbd866b48,0x3cd2c4e4,0xbd51da9f,0x3dfe0592,0xbd3a3aa3,0x3d4cd040,0x3d51ab52,0xbdd47a27,0x3cabc42c,0xbd927492,
0xbd7fc238,0x3b918bb0,0x3ddae336,0xbe0d64f3,0x3d6845ec,0x3b1e1ab6,0x3c81510b,0xbc804b98,0xbd1d8275,0x3e055e9c,
0x3d24bd14,0xbd0d621b,0x3d0492d4,0xbd605379,0x3d1147c0,0xbdea9cf5,0xbdb84d85,0xbcf91252,0xbe62dfd0,0x3de66c30,
0x3d888616,0xbc38452f,0x3ccc0eb0,0xbd827403,0x3ecbe000,0xbcadef23,0x3db37e03,0x3e18789b,0x3d207b45,0xbe093e4d,
0xbd4e43b2,0x3dd757f6,0xbc566964,0xbd9b4cf5,0xbd9c0e19,0x3d85e2c2,0x3e1bb95e,0xbdb5e484,0x3e330bee,0xbd6fe94b,
0xbda0e72f,0x3d6067d2,0x3d9f63e2,0x3da10b36,0xbd873743,0x3e12216a,0x3d28f7af,0x3d0a0875,0x3d772fdb,0xbd4a2eef,
0x3da220d5,0x3e03b1a5,0xbd8845b9,0xbdde4081,0xbd3d184c,0x3d2a16db,0xbd0775e2,0x3cc5061c,0x3da2db7b,0xbd2bd10f,
0xbe1ae713,0x3c8641c4,0x3da176da,0x3e2e613e,0x3e5e39a1,0xba31131b,0xbe272461,0xbdc5d480,0x3e231b4b,0xbb218004,
0xbdb86540,0xbd1b017d,0x3e33f8ad,0x3d820d50,0x3e4127fb,0xbcb04541,0x3cd5c80d,0xbcf88c2e,0x3dd6e3d3,0xbdd3af7e,
0x3b4323b9,0x3d738cac,0xbc9b6b66,0x3cdf8f42,0xbd6e9f2a,0x3d3ec52c,0xbcb23a1d,0x3daabaf6,0x3dd44b40,0x3d85b3f9,
0x3d63b211,0xbd6f2ae1,0x3d5682c6,0xbddfdc62,0xbd00bb82,0x3d85a105,0x3cca2730,0x3cbf4f2f,0x3cc14c15,0x3c8cb151,
0x3d2682d5,0x3d071f79,0xbd50ad68,0x3bf1662b,0x3ccebc6e,0x3e0d3d97,0xbdcd7675,0xbc0f3af3,0x3c2c1717,0x3d87065c,
0xbe09558c,0xbc95d546,0x3e78ce03,0x3c0dffc9,0x3c98c529,0x3e2c47af,0x3e5013bf,0xbd7132fd,0xbd90cf17,0xba12d6d0,
0x3cdf50d8,0xbd6ef745,0x3d515941,0x3db0163a,0x3e213a0f,0xbdc719be,0xbd525248,0x3da4a85b,0x3e9b9b20,0xbd82c208,
0x3d27110b,0x3dd861ad,0x3e50fec6,0x3ddc3399,0x3cca27ab,0xbc96f686,0xbdc5fecb,0x3e15114e,0xbdb74625,0xbd5d77a3,
0xbc760a98,0x3da5bbaf,0x3cace549,0xbd5a6707,0x3c2517d8,0xbcc38996,0x3d34d5fa,0xbd1cb601,0x3e0b388e,0xbcebebc7,
0xbc6c401c,0x3a9269b5,0x3c84a134,0xbc90a734,0xbcb62f8e,0x3ce7eb3b,0x3e12a5ad,0x3d942309,0x3cf6cb88,0xbc93d728,
0x3d14af95,0xbd797b47,0xbd6a92e0,0xbb3a5896,0x3d5e4f13,0xbd616688,0x3dbbd255,0xbd4fd6a5,0x3dd0dda2,0x3cb2cf96,
0x3be0aefc,0x3d7ae79f,0x3dc35dbe,0xbd8331a6,0x3cdc6f28,0x3d4a728e,0x3c672245,0x3c9f0896,0xbdb9328a,0x3dc51bc8,
0x3a130495,0xbda8709b,0x3e0f1474,0xbdbe65e5,0xbbd43c20,0xbd87d73a,0x3cfe07f0,0x3d86d3ac,0x3d628740,0xbc10da9d,
0x3dae9f5e,0xbdb42515,0x3dc66cd5,0xbd9fd8df,0x3caa778f,0xbd0e4d58,0x3dd7de0a,0x3da46603,0x3d26f12f,0x3d999f35,
0x3dd2af1a,0x3cb11217,0xbcc09ad9,0x3ccf0d36,0xbbc4b4b2,0x3ca972cf,0xbd301835,0x3ca36e58,0xbda8de9d,0xbd504973,
0x3c44eba7,0x3c994c93,0x3c6e2833,0xbc9d5688,0x3d2dcb53,0xbda72d03,0x3d13ab99,0xbad05452,0x3d7c17e5,0xbc02a67b,
0xbd083989,0x3d5ab438,0x3d214e0e,0x3da3d059,0xbcc2e93c,0x3c1921cd,0x3d7a06a5,0x3d1fd62b,0x3c705cb1,0x3db31fd9,
0xbe0aab91,0x3bf6fc2c,0x3e049bc7,0xbb239102,0xbdaa5ebf,0x3d6acf6e,0xbc18eb38,0x3c4201b7,0x3b0c0acb,0x3c8fb2ea,
0xbcfd94f2,0xbd19ee54,0xbd095398,0xbd698e09,0x3d79913b,0xbc73d501,0xbc5cb2d4,0x3cd92990,0x3dca24e3,0x3cec2410,
0xbcc59199,0x3db1a1d3,0xbd8fe978,0xbc8496f9,0x3cbcdf71,0x3d18352a,0xbcc323e1,0x3b103843,0x3b6465dd,0xbcb3cef5,
0x3dd94b26,0x3c8449e8,0xbd907f5c,0xbdd0aa58,0x3c859791,0xbcf599bc,0x3d54250d,0xbdd6fbb4,0xbc9ee65c,0xbd378f31,
0x3db246f0,0x3d82bde2,0x3ded91bf,0x3cda23b4,0x3bcb4425,0xbcc3fa2c,0xbc00f315,0x3bcd8354,0x3daf02f8,0xbd871a9b,
0x3cddf03b,0xbd87d67a,0xbca1aef3,0x3cc782bb,0xbd7911b2,0xbd2890db,0x3c6aa973,0xbd4070f8,0xbd26cbf0,0xbd8f6561,
0xbdb51c74,0x3e069483,0x3c3ded5d,0xbc12b074,0xbdeebb7f,0x3db472f3,0xbd4f7cf9,0xbd19a366,0x3d6e6afb,0x3da7d460,
0x3be44188,0x3d830130,0xbc6c1e51,0x3b263f54,0x3c074a53,0xbbcdd40e,0x3d51c8b8,0xbbabc3d4,0x3d930167,0x3d7aa068,
0x3bbb9b3d,0x3d523aa0,0xbb1a1c6c,0x3d80de2e,0x3dba8e96,0x3acfe65b,0x3ccf4b3c,0x3ce63521,0x3d89bad8,0x3d933b02,
0x3baafd63,0x3e01fc32,0xbd39047e,0xbd835824,0xbd5b318c,0xbd01430a,0x3b5c46cb,0x3da4186f,0x3e2cbba4,0x3e03d70c,
0x3d73888b,0x3e4df6b7,0xbc8a32ee,0xbc0aac24,0xbd30f109,0xbe6e9230,0xbbd4fbe8,0xbd0668e2,0x3dd72679,0xbc9432f5,
0xbcca894c,0x3e55a641,0xbd7a379c,0x3caa9e12,0x3ba2b9ea,0xbd6714f8,0xbdf69b21,0x3e007ce4,0xbd1a9629,0xbe09a765,
0xbbf10edf,0xbc8f2166,0xbe45a544,0xbba8faa5,0xbdac3a80,0xbd2a494c,0x3e2b5275,0x3e3d9fde,0xbdf6e516,0xbd81ca21,
0x3d998d23,0x3d836fae,0xbd929191,0xbd6b689b,0x3d3dea8e,0xbd991379,0x3d9c978d,0x3e03d22d,0x3d892727,0x3dc5bf46,
0x3dd639d4,0x3c10f393,0xbe835de6,0x3da0cf2b,0x3d7d2f27,0xbc410470,0x3d66ba70,0xbdc72161,0xbe1f7acc,0xbd10395b,
0x3e6f8725,0x3d42727c,0xbdfe2338,0xbdeb08bc,0xbdd5681b,0x3dae39ac,0xbcf72b30,0x3e16efd3,0xbd161dd8,0xbdbca42d,
0x3d8bc06f,0x3da057e6,0xbd34e5ed,0x3c36f831,0xbb3d1031,0xbd72569d,0x3dd3e52c,0xbe20d289,0x3e0552a5,0xbc3133be,
0xbdadeb77,0x3d895b1a,0x3db846fe,0xbd3ab63b,0xbda26a89,0x3cb583ff,0x3d0d872d,0xbcc96e3b,0x3c37d559,0xbd1c9626,
0xbd51ea71,0x3dc59fe9,0x3dfaa830,0xbbb1c112,0xbb97c071,0x3d442043,0xbbde05e5,0xbc376178,0x3bbc6e16,0x3d94bbce,
0xbe1c14fd,0x3cb0f08b,0x3cc701c1,0x3d6ba723,0x3bbfb645,0x3c8fedf7,0x3e02391f,0xbccb286c,0x3a8f237d,0x3de2f091,
0x3d805879,0x3d43cedd,0x3ce6d95d,0xbaa28ac4,0xbd0bea35,0x3d4b6ab6,0xbc3088eb,0xbd117976,0x3d02f806,0x3d23934f,
0x3c812e50,0xbcf433a4,0x3d522d06,0xbd7207d1,0x3d8d1745,0x3d0b6839,0xbd1aa5c6,0x3d4c04a7,0xbd2d95e0,0xbcaeb801,
0x3d1d14b8,0xbc99005c,0xbd7c7ca0,0x3d98df01,0xbd4ea842,0x3d7e4d24,0xbc8c9d4d,0xbd7ed276,0x3a949963,0xbd1e1879,
0xbdacd6be,0x3bed4d67,0xba970547,0xbe04e827,0x3defd037,0xbc18b04c,0xbd40b8c1,0x3c5a60e2,0xbd1d117c,0xbd822ba9,
0x3deab237,0x3d9f7a3a,0x3c54a4bc,0x3c9bbb27,0x3d0a3969,0xbdb9e5b4,0xbc94cb48,0x3c9f9c14,0xbdd845a1,0xbd810e09,
0x3de09876,0x3d32c2cb,0xbdac274d,0x3d059ba1,0x3ddf7a7d,0xbd58e9f2,0x3d8cb465,0x3cccce9c,0xbcbd1239,0xbd72b43a,
0x3c71dfff,0xbcffadff,0x3d896a4a,0x3e0b14aa,0xbd83f352,0xbe1b2023,0xbdf35cd1,0x3dd04e22,0xbdbb88f1,0xbdaef321,
0x3de7a168,0x3c9a343d,0x3b76a713,0xbcf4948f,0xbca38096,0xbd19428b,0xbd245159,0x3cece70a,0x3aea785c,0xbd97495d,
0xbc45a7dd,0xbc93d596,0x3d5a265b,0x3df9f482,0xbd383cba,0x3d9ddcb2,0xbd678f1c,0xbd63acf3,0xbe0484ea,0xbe0eb6d7,
0xbce06710,0xbd96a74d,0x3dc16f77,0x3cf614b0,0x3e2a13d9,0xbbda6a10,0xbd28d3af,0x3cb0419d,0xbcc194ab,0xbd96fedf,
0xbda74362,0xbd6870d5,0xbaa7077d,0x3d44bc8d,0x3c13a3c6,0x3d640081,0xbd0c650c,0xbd611ac5,0x3ca52519,0x3db681a6,
0xbcee655e,0x3d818ca6,0x3d14d323,0xbcbd0186,0x3d69d122,0xbd315d17,0x3df830a5,0x3e11a4ab,0xbaa9b2d6,0x3d9dca5e,
0xbde4ad88,0x3e0529a4,0x3e6cb8ba,0xbd255b8b,0xbe0e4fd6,0x3cb36092,0x3e567c2b,0xbde800c7,0xbc015f0e,0x3c5deea8,
0xbdf54497,0xbcf0db48,0xbdfd2a7f,0xbdef4792,0x3d93f5e9,0x3d338159,0xbe14f931,0x3d13566d,0x3e15af44,0xbd662101,
0xbd4609ac,0xbda0992a,0x3e7f1b31,0x3e2677b5,0xbca9651f,0xbba21ec7,0x3c365a4e,0xbdacd643,0xbbc40520,0x3e2248be,
0xbd219f51,0x3bd41f9d,0x3e23c072,0x3da8d806,0xbdb65549,0x3e05d27a,0xbe95f8de,0x3d7c113d,0x3cfecfcb,0xbdebdac8,
0x3e30db5f,0xbb6755bd,0x3db76588,0x3d418f43,0x3d55ba44,0xbdb0ebad,0xbe072751,0x3d19c4dd,0xbe9d47a2,0x3dd5cb6c,
0x3d2ee3e0,0x3b073db6,0x3e0e1819,0xbd324d60,0xbde65a51,0x3da03e22,0xbd5cda7b,0x3d413117,0xbe353b2a,0xbd991478,
0x3c2df485,0x3e264690,0xbe5bf2b7,0x3d72339c,0x3d9e4d7e,0xbc284ef2,0xbc116777,0x3de19931,0x3dfc893b,0xbd9f170e,
0xbe05a21c,0x3e2fb10b,0x3d7eeef2,0x3e0d6cc1,0x3bff4abd,0x3dca2c7a,0xbbfa4c05,0x3d8a99ae,0xbddb11a4,0xbd8ef80c,
0xbc6d513c,0x3df4e8ea,0xbda4af11,0x3d93653f,0x3cbb3df1,0xbe2aca19,0xbe9702e8,0x3c860270,0xbdec9641,0x3c35dd61,
0x3e2585e2,0xbe46ef64,0xbe09b648,0x3e15e638,0x3e014bfa,0x3e5d4a39,0xbdd66239,0xbd28ba18,0xbddb2329,0xbeadd045,
0xbb8b63dc,0xbdd4c1b5,0xbdd666e7,0x3e499e60,0xbe62fa90,0xbe7e5de1,0xbe94afd2,0xbda75483,0xbce3e16e,0xbd4d1ca8,
0x3d98856c,0xbe7ee6dc,0x3e69b809,0x3d2ad082,0x3cd958ff,0x3ddb5e80,0x3cbac0a9,0xbe0fa1c2,0x3dbabef6,0xbd541e37,
0xbdb6f584,0xbc2ce7e4,0x3bdc87b0,0xbda0ef90,0x3d58f422,0x3e298389,0xbd58cac3,0xbd935beb,0x3c9dfcc7,0xbdb6df82,
0x3d8964ff,0xbd117376,0x3d89fe54,0xbd5b9579,0xbd35dc67,0x3d8eb9dd,0x3dd5e7a0,0xbbd3282e,0x3d8169d1,0x3d44f5e4,
0x3df343af,0xbd1837d3,0xbe201113,0x3d73968f,0x3d62d7f6,0xbbcfe0f5,0xbd16071b,0x3d204798,0x3daab2a5,0x3d9bf1f7,
0xbdbc6185,0x3dedb1c1,0xbcb54085,0xbda04339,0xbd5e4bdb,0x3dd54682,0x3d863055,0x3ce0facd,0xbd739ba7,0x3c00912f,
0x3db0b392,0xbdf808b8,0xbbee509b,0x3d9d3afa,0xbd114670,0x3db59da2,0x3d9fb572,0x3de0a976,0xbd169291,0xbda33556,
0xbd884199,0xbd6a0c4e,0xbda82d2e,0xbd6cc9a0,0xbd3f1cc2,0x3d097754,0x3c0b777d,0xbdac9f2b,0x3e20c8d1,0xbbf5b945,
0xbc48cb23,0xbd8d0436,0x3e22f3e4,0x3e516cd7,0xbe07ee78,0xbe13df4e,0x3dc3af7f,0xbce890a3,0x3d9e5185,0x3d536251,
0x3e19353f,0x3ccc87fe,0xbe57c907,0xbe29dfd7,0xbcfaf2e8,0xbc90df48,0x3db6d231,0xbe486320,0x3e49fe3b,0x3cd5b76b,
0x3d677ace,0x3d107687,0xbcc71766,0x3c5a6a04,0x3d32dc91,0xbcd674f1,0xbd376d94,0xbda1dd3f,0xbd87a2a3,0x3c2ce010,
0xbd8ca552,0xbd762df6,0x3e115f4d,0xbd99ca79,0xbcf6cc9c,0x3c9d88ef,0xba6a29f8,0x3cd7c36f,0x3d3008f2,0xbcb4f0c2,
0x3d885d87,0x3d2dbea2,0x3e072402,0x3dbf2750,0xbd75046b,0x3d179b3c,0xbd2cb400,0xbdd3064e,0xb95708ca,0x3da2c7ae,
0xbd638633,0x3dcb6f49,0xbcc7c38b,0x3dd3b02f,0xbd58eda3,0x3e2497db,0x3cb376ba,0xbc69bc84,0xbcb9101c,0x3cb566c0,
0x3da40b33,0xbd26f294,0x3cb2b153,0x3e0eec09,0x3c9ff3c4,0xbbc9cc5c,0xbdb6f638,0xbd19ac4b,0x3c98745c,0xbc8db62b,
0x3c27e7b9,0x3c9a0c51,0x3c9ae096,0x3ca06c84,0x3cc3d568,0xbdcff094,0xbd32e1e7,0xbdce1872,0x3dba4cec,0x3bad5232,
0x3d939fef,0xbd2f4a6f,0x3c85e5a7,0xbd703ca6,0xbd92bb14,0xbc69a0c0,0xbdab109a,0x3ba3f8f5,0x3d3c7057,0x3d8330dc,
0xbd98a851,0x3d0fb7ff,0x3c4a6939,0x3ca106d2,0xbd11b4c0,0x3dc48317,0x3d6708f1,0x3d9c04fa,0x3989a3d5,0xbdaf858d,
0xbd80957e,0x3c92db12,0x3d67cdb4,0x3d3f37ec,0xbc7bf4a6,0xbd6d9cc9,0xbd90417e,0x3d4c0e38,0xbdcdb835,0x3d31f652,
0xbce000a8,0xbc70f789,0x3d7805ad,0xbd70f9aa,0x3daf9e7e,0x3cee0cac,0x3d0aa88a,0xbcbcbf95,0x3bc515d3,0x3ded7c53,
0x3d659c08,0xbd22d367,0xbd137a8b,0xbd2e4a52,0x3da6ef1f,0x3dbbac5d,0xbd8813b9,0x3c539163,0x3c7f4755,0x3d78a653,
0xbda4cde1,0xbc0db30e,0xbc58deb8,0xbd80eb32,0x3b5cfb58,0xba96760f,0x3bcbfe23,0x3b192938,0x3d5a12ec,0xbd1d8379,
0x3cb3bb82,0xbcbdaf94,0x3d3fcca3,0xbd55218c,0x3ca032c6,0xbd27999c,0x3df0f237,0xbd02dfd4,0xbcb212a6,0xbcee9ab4,
0x3d134879,0x3d6c03a4,0xbb200c72,0x3ce64288,0x3df844af,0x3c894f95,0xbcc1ac1a,0x3d34845b,0xbdabd9c9,0xbd290ab5,
0x3d4a234e,0xbd7bac49,0xbdb1001f,0xbbf43a66,0xbd77064f,0x3d08d227,0x3d186f96,0x3de78ccf,0x3d705031,0x3d3ba1bf,
0xbde13acd,0xbd2e08f2,0xbc91a910,0xbd408582,0x3c11a243,0x3dd4a9df,0xbc9b610c,0xbc5f9a41,0x3cb0877c,0xbe0e08ff,
0x3dc30bec,0x3e05a291,0x3dad6f25,0x3c4b0734,0xbda9543c,0x3d1be60e,0xbc9d6053,0x3d3ab4d9,0xbd7e861b,0xbb74e885,
0xbdb3cb2e,0xbc604440,0x3d6e4224,0xbd243b15,0xbd23ae84,0x3dc96ed9,0x3d9b8ec1,0xba7cd860,0x3d117216,0xbd4c4042,
0xbe58f029,0xbd2407e4,0xbbeeb09c,0xbd209ae9,0x3da8ddc0,0xbd3650aa,0xbd00d4ca,0xbbbf48a5,0xbc208328,0xbd91331d,
0xbdad3fcd,0x3d940fb1,0x3d8b027b,0x3bd58d94,0x3def9915,0xbd6b6f48,0xbe083a81,0x3d324575,0xbe014ba3,0xbb8c7244,
0x3c31b06f,0x3cf24142,0x3d11f6dc,0xbde124b4,0x3d93595f,0x3c51eab5,0x3ca01993,0xbd20cd4c,0xbd7fa21b,0x3d34bb4c,
0xbccaf472,0xbd11ad92,0xbd7c65eb,0xbdf53527,0xbcf5978a,0xbd609e07,0xbbf0ca26,0x3d67a8b9,0xbcffd3ad,0xbcf2a266,
0xbc0d7487,0xbc00a140,0x3ddbd2d1,0x3d5646d6,0xbc541f8b,0xbd2286f2,0x3d9c59a4,0xbc5143e9,0xbd1796a6,0x3db162c3,
0x3d0d284b,0x3ccdd951,0x3cc3b603,0x3d5dee93,0xbd789174,0xbcaa0904,0x3dc2e4c4,0x3d5e737a,0x3d7c33e3,0x3dd3cecd,
0xbc6f2178,0x3d264cab,0x3d816597,0xbced7907,0x3d2bcbca,0x3c230cba,0xbe0c1493,0xbd9d292d,0x3df7a360,0xbc04b79b,
0xbcefa986,0x3ca0fdea,0xbd45ed0a,0x3ddde337,0x3d782de4,0x3e067d57,0xbb785102,0x3ddbdd64,0xbd325683,0xbd2b7df1,
0x3bcad28d,0xbdbd8dfb,0xbd5e2eb3,0x3dfe6c91,0x3d9ef3a0,0x3c91a97e,0xbe15ca7a,0xbd8cc4b4,0x3da7f643,0xba2ebcc8,
0xbe12ac4b,0x39f2d5c3,0x3e01a8b2,0x3de2b54e,0x3c9c71f8,0x3dc8bcb7,0x3c536d01,0xbe331407,0x3d786442,0x3e53b74f,
0x3d1fa07a,0xbd5177a4,0xbc834b46,0x3dad71dc,0x3d1fa443,0x3caa0847,0xbd4d110d,0x3dcfeea1,0xbd4e6728,0x3c99c155,
0x3b35dec1,0xbd114063,0xbcc4124d,0xbd4d114c,0xbc3c1c69,0xbd4f7dc4,0x3ddda956,0xbd5f9f11,0x3cc21503,0x3d15bc1c,
0xbd86f707,0x3d01fa5f,0xbbe74f52,0xbdc0a85c,0xbc967e41,0x3d2871a1,0x3d412ea1,0x3db0ab84,0xbde4ffbf,0x3d00801b,
0xbd78ecc1,0xbdbb9767,0x3d95c485,0xbcf91af2,0x3dbb9693,0xbd6edebd,0x3b231401,0xbe44df64,0x3cf662ec,0xbdf540e1,
0xbe0a84d2,0x3da7fdc0,0xbdef995d,0x3d6ca254,0x3dbe6faf,0xbbf34753,0x3c02cc92,0x3da53e3d,0x3d901e1a,0xbd222c88,
0x3dfd43d3,0x3cd518f0,0xbc382c86,0xbcf2d56c,0xbdc7ce30,0x3e11be36,0x3dd8c73f,0x3d6dcc6b,0x3dc1a330,0xbd0045cc,
0x3c274c7a,0x3ba96be9,0x3e6c4672,0x3db46365,0xbdcce7da,0xbce40da1,0x3af2aee7,0x3d9a3d48,0x3c9d0433,0xb95fefd9,
0x3cdc3660,0xbe38b820,0x3e932de9,0x3e3ab4fc,0xbadc4126,0x3da3f06b,0xbcf593bc,0xbddee6a7,0xbdaa80f3,0x3d0c8569,
0x3d467b14,0x3d12eac6,0xbd311ff3,0x3e278c7b,0x3e7f8ec4,0x3d01f5f2,0xbdc77f72,0xbd504058,0x3a147856,0xbe1ae789,
0x3cc10849,0x3d43e33a,0xbba877d6,0x3cdd900d,0x3d9e0532,0xbbf498aa,0xbbbaaacf,0xbc857728,0x3db29bd9,0x3d97b0ea,
0x3c8003b7,0x3e4084ea,0xbe3a78c1,0x3cbf3300,0x38a9772a,0xbca0b7ed,0xbd8e73f2,0x3cf1862a,0xbcf4f3db,0xbda77575,
0x3d82cc79,0xbeb7a150,0x3cd723b0,0xbd2d7d4b,0xbb13254b,0xbdcbbb62,0x3d2fe426,0x3cac84b7,0x3e80ed1d,0xbcc1f4a9,
0xbe4793e0,0xbd430944,0x3c8a09dc,0xbd975f4f,0x3e7eaf84,0xbe1aaa42,0x3cecbee4,0xbddcfbdb,0xbe0f82dd,0x3d9cd1b6,
0xbc307561,0x3d1b9868,0xbe19c9de,0xbc5d121f,0xbe6f3151,0x3d93c9c3,0xbe2e401b,0x3dc40a4b,0xbc97d82f,0x3e29bec5,
0x3cfc56f5,0xbdc13360,0x3e000f06,0x3c3b6bcd,0xbc818790,0xbe5e8cf6,0x3ad2d127,0xbdfe29a7,0xbdb9e4f1,0xbcf83fdc,
0xbe124166,0x3d6c9f3b,0xbe7adfe8,0x3c3c2cf0,0xbe6fbe99,0xbc599f90,0xbdcb19ec,0xbc17df44,0x3bca0546,0xbe12e2da,
0x3d65030e,0x3d832463,0x3d155302,0xbce49e62,0xbd9233c8,0x3d9fe2c4,0x3d8e509e,0xbd681c0a,0x3d3fd597,0x3dce63f1,
0x3d14baa5,0xbd67e91a,0xbcb95e22,0x3c2a3a16,0x3c4eeb7b,0x3dd4bf0f,0x3d05da6a,0x3b209449,0x3c7d08ab,0x3da2f99e,
0x3c961596,0xbd3ff35b,0xbbb269e0,0xbcb2d4e7,0x3db25b4d,0x3d0d057a,0x3d04f0f9,0xbc40c477,0xbe1165d2,0xbd69e6f6,
0xbd4f17a7,0x3d891a3c,0x3db7054a,0x3dbd6d5c,0x3d1a502d,0xbd1b3497,0x3b82c5fd,0x3c937651,0x3dc4ed4d,0xbcc40cb8,
0xbd020fc4,0xbe04c322,0x3d36d1b9,0x3d63857d,0xbc7eabbc,0x3c65de76,0xbd8a9c5c,0x3be52f2d,0xbce7a9b7,0x3cdf1d70,
0x3c0014d9,0x3d8fbb8c,0xbc0d056b,0xbcae458d,0x3c4d6aa2,0x3c84fe85,0x3cc5ad77,0xbd731197,0xbc02ed49,0x3c92d5a4,
0x3c78e272,0xbce01cc9,0x3c839161,0x3bc69ca1,0x3c80cef2,0xbd0d666f,0xbc8d398f,0xbd6207d8,0x3ca00f74,0x3db8c2a3,
0x3b80309f,0x3cd9397d,0x3d169b9d,0x3b8f6e7f,0xbd31d946,0xbcbced33,0xba22a1a8,0x3dc08b12,0xbd8da867,0xbd4f78c8,
0x3dc685e0,0x3dcf0e62,0xbd32d25a,0x3d1aa2b7,0x3d204ae7,0x3c7523c6,0xbca6798a,0xbcf113a6,0x3ba2261c,0xbc38987d,
0xbd0611f5,0x3d1114d3,0x3d3033cd,0x3e16b136,0xbd385d40,0x3b2fd22b,0x3d768a2a,0xbcd34f64,0x3c850ac8,0xbd73a0c5,
0xbe0398ad,0xbd356aea,0x3bb7137c,0xbdb38748,0x3d516c8c,0xbd3da285,0x3d4b3709,0xbce2e1a3,0xbd74ed34,0x3cc04487,
0x3c7c2f0b,0x3d2f21a8,0xbda9bc24,0x3d8437a4,0x3cf251d2,0xbe15b1b8,0xbcb99938,0xbcd41b24,0x3cd44490,0xbc4eb8ea,
0x3d68105f,0x3baa25e1,0xbd5b14b0,0xbd3c4893,0x3d3acf01,0xbb78f811,0x3d19dd15,0x3e4c2e11,0x3d4d3c85,0xbab0f083,
0xbde0cdee,0x3d8ec785,0xbce4157d,0xbbe7be68,0xbdce8035,0xbdbf44d1,0x3e331bb7,0x3d4871f4,0xbc718465,0xbd925174,
0x3d804096,0x3d862538,0x3c321d9a,0x3db29e93,0x3b4c32a2,0x3d82cab5,0x3daff690,0xbd81bd70,0xbc91bb40,0xbdc7b3e3,
0xbce7bb37,0xbcc4f352,0x3d0a879f,0x3d8adeb1,0x3c6be636,0x3d742587,0x3cced7b7,0xbde8f862,0x3da907c9,0x3e1352cb,
0x3ca627d8,0xbbb241ed,0xbdf48450,0x3e08c530,0xbb3d39b2,0x3d817d3a,0xbd8750a3,0x3c3045fd,0x3dfd368d,0x3ba935ab,
0x3d0bb94f,0xbce5bdc9,0xbbe9b859,0xbda78ea5,0xbc84b19f,0xbe09d73f,0xbd048bdd,0x3dc16947,0x3c94b081,0xbca9f5d2,
0xbbde634f,0x3d9dc4a8,0xbdb5001f,0x3cf98307,0x3c57b9cd,0xbd129870,0xbd0774fd,0xbbec68f9,0xbcfcbbb4,0x3d4a5dc5,
0x3d151444,0xbd610018,0x3d9a9d8e,0xbbcb1009,0xbcfa87cb,0xbe2146d5,0x3d52ebe2,0x3d675999,0x3da36307,0x3d3c7e2c,
0x3cc28ba3,0x3c9f4177,0xbd567dee,0x3c8e367c,0xbb886af3,0x3dc815fb,0x3db18c0a,0xbbf92d59,0x3c129ec4,0x3d37c38d,
0x3c597734,0x3e279948,0x3caf9e5b,0x3d288156,0x3da0f221,0x3d7ed171,0x3d887b8e,0x3da53acb,0x3cb8ae85,0x3bb2583b,
0xbb3b28ea,0x3cfe6307,0xbd149232,0xbde4de55,0xbda6226a,0xbd196ca2,0x3c5dec2f,0xbd9770b2,0xbbb31f23,0x3d1eda32,
0xba72d42b,0xbad24eef,0x3d735950,0x3d804f4e,0x3db70cfc,0x3d1deace,0x3e5d2b2e,0xbc91b292,0x3dac0b9d,0x3dd9a932,
0x3c1c45fa,0x3de759c2,0x3dfee2b3,0xbdd13925,0xbd81537f,0xbd8ce7db,0x3d960817,0x3d07b4a8,0xbdffad75,0x3c61f6c2,
0xbd11b160,0x3bd5ca3e,0xbc7b4702,0x3d449429,0x3c9dcfdc,0x3b62caf9,0xbe098fcb,0xbd2759a7,0xbd5a414e,0xbd158a76,
0xbd925566,0x3d4f7781,0xbca42991,0xbd1bd475,0xbd84fa6f,0xbdca8894,0x3bbc97fe,0x3d789118,0xbde2c609,0xbca73c0d,
0xbd5cd3f4,0xbd91573a,0xbcb26024,0x3ded5f75,0x3dc596f4,0xbd271423,0xbdafd709,0xbd15a5e7,0xbcf8bf81,0xbc5cf696,
0xbcf68b8d,0x3d7c02e9,0x3d66f7ac,0x3cd5a036,0xbd855fb3,0xbdf0e542,0x3c66b726,0x3d735260,0x3d7c3fb5,0x3c386fc4,
0x3d96b294,0x3e03e750,0x3d8071e6,0xba8029de,0x3d817c60,0xbddeb3bc,0x3c7d35f7,0xbc5a6bed,0xbce05a17,0x3d8768a7,
0x3cd1948c,0x3cfdf8d1,0x3dd77672,0x3b43c8dc,0xbced1027,0x3c6164d9,0xbba5a9ed,0x3b0d890d,0x3c144d4f,0xbe3cc9ef,
0xbe0610b5,0x3cc1787d,0xbc22b600,0xbd8bb2a8,0xbae9bace,0x3dd4b7d8,0xbaa16f75,0xbcc3c32c,0xbc454795,0xbcc220d4,
0xbd3805ee,0xbcfb6f7a,0x3d0bf958,0x3d68b4bd,0xb8560b32,0xbcaadebf,0xbd996514,0x3d4bc1e7,0xbcb04e8e,0x3bbdd60b,
0x3dfb47b9,0x3d63a6ce,0xbe0e10fc,0x3cc57516,0x3e3ea2fa,0xbcf34706,0xbe2ed1c1,0xbd557044,0x3d5eb38a,0xbb45d745,
0xbdecc70f,0xbca73ad4,0x3d5b7ca8,0xbc9c87f7,0xbd9235c8,0x3d8d7a95,0x3b46e428,0x3b3cd402,0x3d08de04,0x3e00bbfe,
0x3d350d41,0x3dd9d92e,0x3d2ea52b,0x3da2003d,0xbd54c258,0xbd100510,0x3c1ec039,0xbca20fd7,0x3d62b6a5,0x3d793fb8,
0x3d1fabe8,0xbd87e7c7,0xbdf2408b,0x3c8a761f,0xbe0ab3c4,0xbd6523eb,0x3cd21cc1,0x3cb3817e,0xbcc1929b,0x3d61e12e,
0xbd126b08,0x3d3bb52c,0x3d00df1f,0x3d81cdb3,0xbc9857ec,0xbd2ac2c8,0x3d2cf58f,0xbd0742e5,0xbca0b46c,0xbd55e675,
0x3c03683d,0xbcc11f52,0x3c66c76f,0x3c99718f,0x3d285574,0x3b219397,0x3c42f39f,0x3d35de2a,0x3dc6a245,0xbb3e5938,
0x3db2f30d,0x3d1dce07,0x3cd2cbe6,0x3bd4e20f,0xbc98cc37,0xbd17bb45,0x3d682b29,0xbd14c280,0x3bd3f472,0xbbdd32aa,
0xbcfa713b,0x3cb9a737,0x3cd0a7d5,0x3db316fa,0xbcea08dc,0x3d0d0237,0xbcb09d08,0xbd89fcb1,0x3d09827a,0xbd4fdbdc,
0x3d443f44,0x3d8cf789,0x3ccd896f,0x3b4390e6,0xbd9809df,0x3d32460f,0xbe16af90,0xbd46c201,0x3d5fbc33,0xbd53bc43,
0xbb5c6b51,0x3d6bdf54,0xbdf07773,0xbc981618,0x3db4ed7a,0x3cfd344f,0xbd8b60ca,0xbcab85b3,0x3d5a6c44,0x3ce9262c,
0xbcf7cc08,0xbc6f5e70,0xbd1f3d50,0xbde49777,0xbd30b443,0xbc4a293b,0xbd1d6fc4,0xbd71e813,0xbcfef4ed,0xbcf2e5ca,
0x3db565d7,0xbda05d63,0xbbc11e93,0x3dc9f576,0xbd85ab39,0x3e0f8159,0xba8e5865,0xbc12fc18,0x3df15136,0x3dc45243,
0x3da0b8a0,0xbd62c36d,0xbd20390c,0xbd220873,0xbe124619,0xbc73a641,0x3d0704a1,0xbcc26571,0x3e03e065,0x3d7d0e86,
0x3b8c9aa1,0x3d0c91b0,0xbcc991ea,0xbc4b9e6b,0xbded5328,0x3d4eb495,0x3d56b634,0xbd84ef0e,0xbe372d26,0x3cf25ac9,
0xbddf0ebb,0x3ccf168b,0xbcfea96a,0x3dee6741,0xbbb0f16f,0x3d6ccfff,0x3e1f3e29,0x3b8bad32,0xbcf4e1bc,0x3d0c2c27,
0xbdbcfd99,0xbdb494b4,0xbde856ca,0x3da638cd,0x3ddc260e,0xbe126756,0xbd86437f,0xbd741c3b,0x3cc073ec,0x3d1c7891,
0x3c8c57d6,0x3d130aa9,0x3e220686,0x3da59181,0xbda0a452,0x3cfd3bf5,0x3c1651c6,0x3e11cb9d,0xbd0523fc,0x3dee8197,
0xbdf639b4,0x3d8935f1,0xbd5931fd,0xbd14f7bb,0x3d93ea7d,0xbd0c748a,0x3caca41c,0xbe29d954,0x3bfb24f8,0x3de79123,
0x3ce260be,0xbd227048,0xbb937b21,0x3d8a48b7,0xbe23a5cf,0xbdc40023,0xbcde969c,0x3e2147a2,0xbd33c964,0xbc6a5870,
0xbcc30801,0xbd5055c1,0xbe4f8b48,0x3d0d879b,0xbda23d9b,0x3d8c0e4e,0x3d0b25ce,0xbcc1f189,0x3bbd7695,0x3bc20259,
0xbd85418e,0xbad49d4d,0xbd625f61,0xbd463617,0xbcb884d2,0x3d52798c,0xbcd3f4c1,0x3deff1be,0x3dde5704,0x3d03cf88,
0xbe89c8da,0xbdcc73da,0x3e74739b,0xbd84182e,0xbcdedbbc,0x3d66bd56,0xbc26e208,0x3d9bd855,0x3d755a88,0x3d7c299a,
0xbd0aa80a,0x3a8e1afb,0xbda57a9a,0x3d70be28,0xbc0e8f25,0x3d905af1,0xbd357016,0x3e103495,0x3cc91640,0xbbe8fdcd,
0x3d9d903e,0x3db83a78,0x3dc0966d,0xbcdbd42a,0xbd0b16b6,0x3e18c6d4,0x3e4237fa,0x3943d98a,0x3d96ee40,0xbde67d73,
0xbe557d5f,0xbe53c711,0xbd0ae571,0xbd70099c,0x3dbd3858,0xbe0847cd,0xbd187d67,0x3d38faa8,0xbc865c34,0xbda91aa3,
0xbd9484bc,0x3c49691a,0x3b116291,0x3d8820e3,0xbde7c4d6,0xbd6e831d,0xbdc5bc50,0xbdb78ef3,0xbd8e004d,0x3de4e639,
0xbdcff4c7,0xbc3359f1,0x3d738c9a,0x3e090465,0x3d95b191,0xbdaf4f99,0xbd5823df,0x3c78a7d6,0x3de4213b,0x3db755f3,
0xbe4e8c27,0xbd875dd7,0xbe2e0596,0x3cfbfc37,0x3d856c08,0x3e7f63f9,0x3e20bf34,0xbd323167,0xbd99e57e,0x3d526f64,
0xbcb916ef,0xbc2d66ce,0x3e2b5c0a,0xbd15dfd2,0x3caf3e12,0x3d7c2012,0xbd76ab7b,0xbdfc303b,0xbc52264e,0x3d1fdad4,
0xbd48324a,0x3c84f361,0x3b1e0250,0xbddc98dc,0x3da3ec93,0x3e1a0242,0xbd6cd324,0x3ce51a90,0x3d414048,0xbc8510d5,
0x3d9faee5,0xbbc4f640,0x3c1f13ba,0xbb318b51,0x3ce1d444,0x3ceb324c,0x3c7b9fea,0xbd5cc023,0xbc19ab2f,0x3d9a008b,
0xbd58c803,0x3c4a0e53,0x3cf15425,0xbd2a8529,0x3a93da7f,0x3d1a1e73,0xbd43acf0,0xbc9a4e6e,0x3d862471,0xbcbda83a,
0x3c2a3ad2,0xbbc5c6c6,0xbd98ee1f,0xbd869bcb,0x3d053182,0xbd251483,0x3d7b83a3,0x3b61ec60,0xbdc2a584,0xbd009943,
0x3a0a085f,0xbc837baa,0x3cbdc55d,0xbd32c04b,0xbc01f242,0x3d2a08a4,0xbd77caf6,0x3d1ccba7,0x3d1f2bd3,0xbdaa9780,
0xbdaf0892,0x3dcdfdbb,0x3d2eebf0,0x3dbcbd28,0xbd35922c,0xbd77ae2b,0xbc1b7849,0x3dc6f62a,0xbb8f2fe4,0x3c9af759,
0xbce21cb8,0xbd1fc4c1,0xbd9343df,0xbd2111b8,0xbd3ebbc1,0xbc079723,0xbd222ac5,0xbd86c0f6,0x3cf83bb6,0xbcd43a71,
0xbc1d4625,0xbc459625,0xbc4d479c,0x3e267189,0x3d99bc3e,0x3cb77f1c,0xbdc0675a,0xbac62220,0x3c09a9de,0xbd864759,
0xbc7271bf,0xbd874dae,0xbda923ca,0x3e1c43f7,0xbd4d30e2,0x3cd2c4d6,0x3d455fd0,0x3d7d2914,0x3c7330e7,0xbc04ee65,
0xbd12e483,0xbce76c22,0xbd35022e,0x3ce40bc1,0xbd1e58e8,0xbdd7e35c,0xbc02d415,0x3c4a8a54,0xbda59ec5,0x3cd75eba,
0xbd6f2129,0x3c03575e,0x3d8d09e0,0x3beef268,0xbcbbe4ac,0x3bea2183,0xbd30251d,0x3e4eb8a4,0x3d1edc5d,0xbbb3446e,
0x3e02c3ce,0x3d30b711,0xbcdfbf36,0xbc3ab857,0x3d0aff72,0x3b9ec0b7,0x3c90095a,0xbde28424,0x3dba2193,0xbda3a7f4,
0x3d61b4ea,0x3dd0800d,0xbdf22ded,0x399ce5f9,0x3d694d16,0xbbec0b27,0xbd025c5e,0xbcf5081e,0xbdbe8be5,0x3d21a477,
0x3b9d1ce2,0xbdea1f70,0xbdf34685,0x3ce2d94f,0xbe0e7449,0xbdb8b3c3,0x3c4f7fab,0xbe2b0d4f,0x3c535570,0x3c341572,
0xbcd89051,0xbd1841a3,0xbc27fdf6,0x3b8849e9,0xbd30a29e,0xbd93b58e,0x3d2c31ad,0x3d2d7c84,0xbd90e832,0xbe19dfbf,
0x3dc25751,0xbd4e116e,0x3d826156,0xbdb4935b,0x3d52635c,0x3d3c341b,0x3c2167a8,0x3b5b39ef,0x3cc62b9d,0xbd626e1f,
0x3d872997,0xbda12a14,0x3c576e15,0xbd18e5db,0xbcdb990d,0x3e1c540a,0x3d06c022,0x3e0bf5fc,0x3e0083f9,0x3e1a044f,
0xbdb2e38b,0xbd322249,0xbd194098,0x3ce70116,0xbd97e98a,0x3d99dcea,0x3ca206a7,0xbd266d0e,0x3de1a6b6,0xbda0abe0,
0xbd2cc6e1,0x3cdbc4cd,0xbdf9ea17,0x3d6fbb93,0xbd526c26,0xbd45ffae,0xbd064fd9,0x3d4ec31a,0xbd894199,0x3cbd5528,
0x3d14ee79,0xbdc93dc7,0x3d9d6e99,0x3db6b543,0xbd0ed98e,0xbd186b19,0xbc2839e2,0x3cf7a487,0xbd04668c,0xbd3dcf69,
0x3dad36d6,0x3c99c4af,0xbd7f0851,0xbdb063b7,0xbcead31f,0x3d55a0b4,0xbcc96a5f,0x3d8e54f4,0x3c1e08c6,0xbd93cc6b,
0xba98cb60,0x3b34cd26,0xbdebac3b,0xbdf762c8,0xbca9cae4,0x3d2ff70c,0x3d9ebdd2,0x3d36c0bc,0xbdd7e856,0x3d43e78f,
0xbdda0047,0xbd596973,0xbdf4a938,0xbd0a34fd,0x3e15a578,0x3db422b1,0xbcdea205,0x3ce2e751,0xbcd1e40c,0xbb6ea1fe,
0x3d832394,0xbd095366,0xbddd3ffb,0x3da829c1,0xbd8e55b8,0xbd7b8a08,0xbd023b00,0xbcf4b51d,0x3e30ac3a,0xbdc2c4f6,
0x3e0d27b9,0xb91086d2,0x3ca65d6e,0x3c33f616,0x3dc468a2,0x3dd00d7d,0x3d1ffcee,0xbcd41e88,0x3da476d4,0x3c9f27f1,
0xbd7a86da,0xbd7a1c95,0xbe0df464,0x3d3d6453,0xbcb44cc1,0xbe1d6339,0xbbf9cdc3,0x3d1d393d,0xbc350c02,0xbd9fcd7c,
0xbcdcb8b4,0xbe162cdd,0x3ddb3ec1,0x3d808c74,0x3d859b95,0xbb8bb6e1,0xbb5ad7b3,0xbbbc6a46,0x3daa689f,0xbe184d57,
0x3da4516e,0xbdce5000,0xbdca4cb2,0x3cf55838,0xbc8dbce0,0xbc7952da,0x3d4622bd,0x3da1ed03,0x3d08db99,0x3d6bba46,
0x3c77162a,0x3c5fed16,0xbdb23aa2,0x3c7de788,0x394db7cb,0x3d7a6ce1,0x3dac6768,0x3e86eb9e,0x3e1f053e,0x3d86d765,
0x3c98b1c1,0x3cbfc697,0x3b9995e1,0xbd811d98,0x3cd6ec87,0x3e5c0e37,0x3de9f3c6,0xbd468840,0xbe00f00a,0xbcf6a1eb,
0x3c9fe427,0x3e5c3ddf,0x3d1568fb,0xbe020797,0x3db239bf,0xbdc1edc9,0x3db4d235,0xbe909994,0xbe5f1c42,0x3d377da2,
0xbcdcd927,0xbe128fb9,0xbde88d70,0x3ce1764a,0xbc606fd1,0xbdb7151f,0x3d826afd,0x3e19fd63,0x3d2c2ed4,0xbdeb6c08,
0xbe2d4450,0xbdc8ede2,0x3daf3ca0,0xb9fdb9c9,0x38f9351d,0x3e215e05,0x3d8c50cf,0x3daeff95,0xbc994c07,0x3d32d288,
0x3e0e0000,0x3dd24985,0x3cab9446,0x3d9867fa,0xbde53793,0x3dba3fc9,0x3dd4d147,0x3ded179e,0xbe0e79b1,0x3dc50624,
0xbda542d0,0x3d98c8d4,0x3d4c4cbf,0x3e03d2b0,0xbc851144,0x3e31925c,0xbd9752de,0xbe233aa5,0xbdd4bf66,0x3e10f8ea,
0x3dedd11d,0xbde860d0,0x3aae9bae,0x3dbc95b7,0x3d290690,0x3c851c8a,0xbd850cbe,0x3c7d5bae,0x3d9d205e,0xbe2b0f8b,
0x3d5290c2,0xbda1f77e,0x3d2eb2be,0xbb136a7f,0xbdcd3ed9,0xbc2c1fa0,0x3d2e3890,0x3d7feb03,0xbd1285b2,0x3d92c0eb,
0x3da9c7d5,0xbd0e130c,0x3cded943,0xbc014bde,0xbdaf4219,0xbdc8a035,0xbc63271d,0x3d020cd9,0xbc92f6be,0xbbc29f5b,
0xbdbc6601,0xbd01b5e8,0xbe049966,0xbd004409,0xbe37a2bd,0xbd884d13,0x3c81b92e,0x3d06394a,0x3cda6d1e,0x3d6568c3,
0xbdf05a40,0xbd01bf8a,0xbd82b26a,0xbba64d0d,0x3bd1fdad,0xbda1f1fc,0x3d8dc51d,0xbdb347af,0x3e28a35a,0xbcce7e0f,
0xbd13c1fb,0x3ddb951e,0xbdc29a35,0x3c2081d7,0x3ce6ddd0,0x3d960585,0xbdf4f6b0,0xbd802c38,0xbe1e0330,0x3db31f35,
0xbdc06234,0x3c81a766,0xbd665ae3,0x3b95c552,0x3c82f3ea,0xbdd1593f,0x3c8c97f1,0x3d777da4,0xbcb7636c,0x3d284dd5,
0x3db480d1,0xbd09d0b4,0x3dc9804a,0xbe23ad5c,0x3c82dbbe,0x3d4dc181,0x3d05708b,0xbda6bf89,0xbc8b91dd,0x3dffba69,
0xbc5c2705,0x3db25cf1,0xbcf45990,0x3d8659af,0xbe3b8477,0x3d890032,0x3d94354a,0xbe0efb82,0xbda08df5,0x3d5806c0,
0xbda46283,0xbd90fbb3,0x3cba18c3,0x3c8eae5f,0x3cfae6af,0xbd0537b7,0x3c230945,0xbd98766e,0xbccee473,0xbda8cea3,
0xbd2e7cbe,0x3d1522f9,0x3d08e4ab,0x3d225c54,0xbbc658cb,0x3d49447f,0x3d23e5e0,0xbc1cca79,0xbb9facac,0xbce64898,
0x3d550ada,0xbb99199b,0x3baafa4f,0xbbbf6e02,0x3d3aeaa9,0xbc78ecb8,0xbd3cce63,0x3c1dc9a4,0x3d13683e,0xbe01be39,
0x3ce6c9c3,0x3b09f788,0xbba33b88,0x3da7affe,0x3cb412de,0x3d4809ea,0x3c72f397,0x3c9e2fdb,0x3c404cc9,0xbd3ba93d,
0x3d52f0d4,0x3d459712,0xbd9deb21,0x3da7b475,0xbd837cf7,0xbdaf0d49,0xbd09ca67,0x3d65e987,0xbd982382,0xbd10abec,
0x3c3a7d81,0x3de0e16e,0xbddfdb14,0xbd32217d,0xbd444324,0x3cdf016e,0x3db817fd,0xbbaf687a,0x3dddbded,0x3e22761d,
0x3cd889ce,0x3e464422,0x3e2b5118,0xbd39cead,0x3b9ef20d,0xbdd48c68,0x3d84a086,0xbcfcab73,0x3d18253e,0xbdb22b8a,
0xbccb160b,0xbdd26a95,0x3ce57468,0x3bfb6d9f,0x3e12f66e,0xbdc93bb7,0x3d4d1ebc,0xbb134d30,0xbd0e3f40,0xbd383b60,
0x3bcd5bda,0x3d61162a,0x3e31539c,0xbc0765c1,0xbd213910,0xbd386652,0x3cea835f,0x3d8a1019,0xbc981d75,0xbdb2df0b,
0xbdb06c90,0xbde5574a,0x3d104eee,0xbc9fe160,0x3d071d34,0x3d06868a,0x3d4b977a,0xbc428e83,0xbdbd988f,0xbd112002,
0x3d870717,0xbdb71fe0,0x3d9c320f,0xbc9eafbb,0x3d327b01,0x3c16898a,0xbcceaa77,0xbd236f10,0x3da7d846,0xbc0b1503,
0xbcc1398d,0xbdb3e21d,0xbd515813,0xbd99c694,0xbba5937d,0xbe06672a,0xbde081e2,0xbd7e2925,0xbdda74be,0x3e0f1a3d,
0xbd334c71,0xbd613eba,0xbd32b43c,0xbda4bf22,0x3d2ad72b,0xbd3d010e,0xbd8e6fa8,0x3d232e4c,0x3cdb2cbb,0x3d8c78e0,
0xbdb8d9e6,0x3d716d3a,0xbd2b7330,0xbbe7ee99,0x3de7ecad,0x3cbfcedd,0xbd3d33bf,0x3e1904e0,0xbba5692e,0x3d277ce3,
0x3cf03ed1,0x3d81d2fd,0xbd04ec4f,0x3ca2be98,0xbdff27a1,0x3cf32145,0x3db0f762,0xbd044c4d,0xbd8b92fe,0x3bebad46,
0xbad15640,0xbd1c185e,0xbbdece6d,0x3d6cdcf8,0x3dddc6be,0xbd15d877,0xbdbcb734,0xbca0dc87,0xbdcf6216,0xbccbfac6,
0xbd7ca28d,0x3e313584,0x3d9fa29f,0x3d1a724f,0xbdd8a118,0x3cd8b083,0xbd6a27f2,0xbd601aaf,0x3db9afa1,0xbb3e8410,
0x3cd82809,0x3cfa5187,0x3db3e6fe,0xbd26dbf7,0x3c3688de,0x3dd88c01,0xbcd24d4d,0x3d0d29ec,0x3dd054e9,0x3d36348f,
0x3d17c769,0xbdd90aaa,0x3ddff8b1,0x3cd40d25,0xbceef630,0x3da149f7,0xbcb1eea7,0x3d552a22,0xbe2a3ac5,0xbd19df19,
0x3cb71a4e,0x3d96917e,0xbc04b056,0xbceeeb13,0xbd842228,0xbad01b60,0x3cce63dc,0x3a6a033b,0xbd5556e9,0xbda2ba89,
0x3d0a6f5f,0x3d654f18,0x3c084530,0x3cc6004a,0xbe06ac78,0xbde6d23b,0xbd800730,0x3c9c4b3c,0xbd1323b9,0xbd7f1193,
0x3d50bb4d,0xbbbe66ab,0x3c3640cb,0xbd09bb5b,0xbd872b49,0x3bffc767,0xbbc31ce5,0xbd3c5b52,0xbd6995f8,0xbcb20e0b,
0x3d33f317,0x3d8fcdf2,0x3c4838d2,0xbaf1ff93,0x3d3f6404,0xbdee7960,0xbd73594d,0xbcfae773,0x3dcaff7b,0xbd5fdc4d,
0x3d15ee7e,0x3cd150c5,0xbd66ad79,0x3ceeb803,0x3c272a94,0xbcf05fad,0xbde885d4,0x3ca15bf2,0xbd9f372f,0xbc7e2ace,
0x3dda6bd9,0x39caf946,0xbc5583f0,0x3d17d890,0x3ca405c7,0x3cee058f,0xbdf1a17f,0x3d34dbd1,0xbd4646a5,0x3cf81821,
0x3d65bbab,0xbc841304,0xbdc18632,0x3c932445,0xbd7fdec5,0x3d927773,0xbdb5b54a,0xbc999166,0x3d818b51,0x3da4053c,
0x3a9f92c7,0x3c87f92c,0xbc9f56c6,0x3d9977fc,0x3b4ec734,0x3be3ce8c,0xbaeee131,0xbd687c90,0x3d041eef,0x3d2b1f61,
0xbd1d0930,0x3d3e7725,0xbc403ca5,0xbc872d9d,0x3d27e46b,0x3c204052,0xbca6a72e,0xbc0c6a69,0x3c0052d8,0x3be81bd9,
0xb9508f2b,0x3d19933f,0xbc453765,0x3d489923,0x3cca0beb,0xbcbab1fb,0xbcc61f1b,0x3d66ff3e,0x3d5f2fda,0xbca35b2a,
0x3d28eddc,0xbd0e0439,0x3d36d58c,0x3c371af6,0xbb45a93c,0xbc10cf99,0x3d28aced,0x3d0867f3,0x3c8fc560,0xbc993f66,
0x3d05703c,0x3b7a90e2,0x3bab2d07,0x3c6d3b29,0xbd1b0079,0x3b8e6027,0xbd24af86,0x3d0b1dee,0xbb526faf,0xbd55e6a0,
0xbc0237a4,0xbcb362bd,0x3c8cb03b,0xbd9cef8d,0x3972f288,0x3c3727a1,0xbcc1e92b,0x3dc33876,0xbcd0b190,0xbcde9382,
0x3d5f4c03,0x3b5b61ba,0xbb5026df,0x3da13566,0xbd72d42c,0xbc66b776,0xbcb1f34f,0xbd33be59,0x3d661083,0x3d674c2e,
0xbc2a2f66,0xbcb2fc02,0x3c9380fb,0xbc27b4a1,0x3ca24650,0xbbc482c0,0xbca50b42,0x3cb60893,0x3d448cdd,0xbd19c773,
0x3da8d2b1,0xbc097e0f,0x3b57af03,0xbdc5c6d3,0x3d136df0,0x3da5734d,0x3c64dba3,0xbc80fd63,0xbce03be9,0xbd019ab5,
0x3aa00a88,0xbc94ecea,0xbb3707ea,0x3cd776ec,0x3d305765,0x3cd6802e,0x3cab0c04,0x3cc857ec,0xbd3755b6,0x3d7a743f,
0x3d53fd99,0xbd6a1529,0x3d27d1d9,0xbd6881c1,0x3cd610ad,0xbbc01b5e,0xbc7f6cda,0xbd097871,0x3cd94f57,0x3a24ea0e,
0x3d813394,0xbd5674a3,0xbdd2a43d,0x3b8ce584,0x3c3c67b9,0xbcfd9169,0xbc5a0bb5,0x3ce34dbd,0xbc1ce8f9,0x3dd0a3df,
0xbda40097,0x3dc98061,0x3c2e5564,0x3d9e5cb1,0xbd9b082c,0xbcfe1a51,0xbd79288c,0x3c5a4be4,0xbdbcca0d,0xbd8a19f7,
0xbd9cbb4c,0x3c01915f,0x3c1af75a,0x3d3093e0,0x3ccc3657,0xbd67018e,0x3cd3ab07,0xbda2e60e,0xbcf40e21,0x3cb527e7,
0xbe183bb6,0x3e63f0f4,0x3d334e13,0x3d81e0dc,0xbd2a3357,0xbd923a0f,0x3d9271f1,0x3bdaa1f8,0x3d7c8e5f,0xbe4476e6,
0xbdecb36c,0x3d1a042f,0xbd084bc9,0x3ce9e40f,0x3d8bd2f5,0xbd11732e,0xbdfa9be4,0x3cddc69e,0x3db41557,0xbbc2f6a5,
0x3cdf1f42,0x3e0e47bc,0x3bc2a710,0xbd9300e4,0xbc342e59,0xbca0dd5e,0xbd9a4b0a,0xbde39859,0x3c7e91c2,0x3d8ff346,
0x3cddf594,0x3c889674,0xbd4ed534,0xbbec15de,0x3d883806,0xbc62f938,0x3cc01eb3,0xbd029968,0xbcb9c823,0xbb9f6281,
0x3d131b0f,0xbdb664f8,0x3c23f94f,0xbcc4ae1d,0xbbacb1cb,0x3da61f16,0xbd07630f,0x3dd74e1f,0xbd91a487,0x3e07ba7a,
0x3c1f574b,0x3c42068a,0x3d8e8da8,0x3cf52565,0xbd6e7c6b,0xbd287212,0x3d2ac4c8,0x3d0dc060,0x3c1b6a68,0x3c759450,
0x3ce2fec5,0x3d20f8a2,0x3da7ce1b,0xbdc7a6d2,0xbc5334cd,0x3b62cebe,0xbd7d2ab8,0xbd8e7846,0x3da1fe1d,0x3c581cf9,
0xbd8f5486,0x3c1fa9a1,0xbc3dc5da,0x3d327432,0x3deddfe4,0xbc9b38dd,0x3dd3b258,0x3cfc4cf8,0xbd93566d,0x3cf5ea79,
0xbccae120,0x3ddf4173,0x3d83253e,0xbd0ca3bf,0xbcdb17c2,0x3afffa9a,0xbd9544de,0x3ca7cfc1,0x3ddba38a,0x3d3fc234,
0xbd01350f,0xbdee61dd,0x3c3b0ee8,0x3e3aaa1d,0x3d07ecf9,0x3d3b2bd2,0xbae4eb1c,0xbde22dda,0xbdd6b555,0x3d874301,
0x3e111b94,0x3e398e0d,0xbc425c36,0x3cc65ac8,0x3da817ef,0xbdd68606,0xbd3377c4,0xbd408be2,0xbd7226d4,0x3db9e182,
0x3db07f49,0xbde8600f,0xbd32f7d6,0xbd048d1a,0xbd6b60de,0x3dfe67e8,0x3d779d3d,0x3d16ffe4,0xbdfbe181,0x3bb01d80,
0x3bad551d,0x3d030237,0x3da0b7c9,0xbdf83f62,0xbdceaeff,0x3d48affa,0x3d6a687b,0x3cdb2cc7,0xbdc2671c,0x3d32bf77,
0x3d9704bf,0x3d3f1374,0x3af2bd89,0x3d3f077f,0x3d9f3cc5,0x3c7d62f7,0xbd8c69c2,0xbd17d3b1,0xba8a5822,0x3db39473,
0x3bbd44d8,0xbcd8fda8,0xbb15769d,0x3de6d6d5,0x3cb4fc98,0xbce4a1d4,0x3dbe0566,0x3c78299f,0xbcf8c4b6,0x3d3486d0,
0xbc36ab51,0x3d05c4dc,0xbd97bc7a,0xbbfb7007,0x3bc06cdb,0x3e070797,0xbd24c5bb,0x3dcd316e,0xbc444188,0xbd88eabe,
0xbcc5774d,0x3d7bfb9f,0x3d345569,0xbdd7e564,0xbdb632fb,0xbc78e849,0xbc6d0483,0xbc6aa69e,0x3d81f083,0xbc9210fe,
0xbca49cc8,0xbb6475d9,0xbd26c1bd,0xbc8d4d91,0x3d0022a6,0xbcba0f83,0xbb1707df,0xbcbcac80,0xbd4f16b7,0xbdf0d30e,
0x3d0cd2e9,0x3cee77a0,0xbb744995,0x3d8cd1b3,0xbc498bca,0xbd207c23,0x3bbf3fc7,0xbc8d68e2,0x3d8a0873,0x3d1262cc,
0x3cdf7503,0xbda2c0a0,0x3ca9edf6,0x3d3947d7,0xbdae3f6d,0xbd61eb6a,0x3d184481,0x3d6d3a8f,0xbd9a4845,0xbce4652b,
0xbc9101c6,0xbd33b3d3,0xbd01b98f,0x3bd678dc,0x3de26a86,0x3d76a15e,0xbab6e0e0,0x3d1ee59d,0x3be31b5e,0x3d457923,
0x3e08729d,0xbb731d9c,0x3c8c7320,0x3c40424c,0x3db672f1,0xbc8dd3fd,0xbcb626ab,0x3d419845,0xbd2e4aa3,0x3d38a857,
0x3a21ae37,0x3d95322c,0xbd882c59,0x3cccae08,0x3d3f2328,0xbd1f4e0c,0xbc215291,0xbc546985,0xbd8079d7,0x3cb97c76,
0xbd0b1039,0xbca0635c,0x3daba9c8,0x3d8ff1d5,0x3da055d4,0x3cb80b5a,0xbcdddc45,0x3ba92c04,0x3d974b1c,0xbc84aa73,
0x3de66adc,0x3cd123ae,0xbc9d85e4,0xb8b20249,0x3da013de,0x3d785a6e,0xbd2c9832,0xbb711852,0x3c5bdcd9,0xbe06bb10,
0x3c9811a3,0x3b4ecc88,0xbde9b063,0x3c74afd6,0x3df8ab5b,0x3cd5f3aa,0x3e12decf,0x3dc9522b,0xbd4e09b1,0x3d2c9c55,
0xbd3f3a7a,0x3c43399e,0x3d908ca1,0xbce61c70,0x3d6ae55f,0x3c229438,0xbc81e3a2,0xbdb8ed33,0xbc28a251,0x3c9d14aa,
0x3c102b14,0x3c22c15f,0xbd842c7b,0x3c420f11,0x3ca4fbd8,0x3dd50b69,0xbc46ad60,0x3d2aae1b,0xbc983753,0xbce33dd9,
0xbc7b52b0,0x3d3a68c2,0xbd1d646e,0x3dbcf5ae,0x3cced4a8,0x3a768c1b,0x3d039280,0xbd49ee2b,0x3aff6f97,0xbcb0ef7d,
0xbb71a7ed,0xbd0effc2,0xbda783cc,0xbd959574,0x3ceafd92,0x3d04223b,0x3cfbfd34,0xbd83085a,0xbc14a4ef,0x3d51b3f2,
0xbda5fba0,0x3d708dc4,0xbc46991b,0xbce28907,0xbd47c003,0xbb83b4eb,0xbaf439a3,0x3de93043,0xbd3b0eb0,0x3d9b4db5,
0x3d575a60,0x3d2eb646,0x3cc69213,0xbce99cfb,0x3dbbfe02,0x3d3eef82,0x3d02a1b6,0xbda88755,0xbdbc26fc,0x3d454588,
0x3cd2f24f,0x3cfb5f1c,0x3b8a9b54,0x3d1307c6,0xbd55739e,0x3dc1dd46,0x3d3b303f,0x3d346247,0xbd42dda9,0x3ce49143,
0xbc8eced3,0xbcac3649,0xbd3800d9,0xbd81ba60,0xbc9664d5,0x3c7029b6,0x3dc1ca5f,0x3c6d51ce,0xbce18fbc,0x3d321343,
0xbc82e1aa,0x3d71982b,0x3ddce43a,0xbb9dddb9,0x3a424cb1,0x3cb6d922,0xbc4ec449,0x3d1abb10,0xbd0b619c,0x3d2876f2,
0xbd2ffb93,0xbe51bb57,0x381e712f,0x3b33b1e6,0xbd17ca79,0x3d90af09,0xbc045b1f,0xbd6ef15f,0xbc971398,0xbda3f633,
0xbcf67f7a,0x3cdb3bcb,0x3d37374c,0x3b905d8c,0xbd8ea6e3,0x3cac0eed,0x3d01670f,0xbcfab6b6,0xbd3f3458,0xbd290ce3,
0xbd7272bf,0x3d8e9dbb,0x3dd04e15,0xbddb8872,0x3cd7690e,0x3d93a92c,0x3da1ed7b,0x3c46f6d6,0xbd4f4ec2,0x3d9436ab,
0xbbcbdc56,0xbd24ab93,0x3d316668,0x3cad8188,0x3c975866,0xbc7edf2b,0xbd5f9116,0xbc494ba6,0xbe255df2,0xbd90fec4,
0x3c65da5d,0xbd3cdab9,0x3cf271b0,0x3d93cf9a,0xbca6751c,0x3ca593df,0xbc976928,0x3db9815a,0xbd12f80c,0xbd4dfa92,
0x3b6b991b,0x3c81609e,0x3ddac5da,0xbd9cf098,0x3d07da75,0x3c9d26a7,0x3bb81acc,0xbda711f7,0x3d3f0c60,0xbd6babae,
0xbce6e148,0xbd80c850,0xbcd56aa8,0x3d2264ec,0xbcb24ae3,0xbd7a7a12,0xbc4b1378,0x3de6af5d,0x3d4082e7,0x3ccb2631,
0xbd69e6e8,0x3c1f120a,0xbc0d6b29,0x3ca0d54d,0xbcc1aff0,0xbd3a30fb,0x3cdfdc2a,0x3c436ef0,0x3ca0d78f,0xbd7d1229,
0x3d4c6653,0x3de45042,0x3d399ff6,0x3d01b7e6,0xbdc94d1a,0xbd0a5208,0xbd12a352,0xbc62c22c,0xbd96ab46,0xbce5c3b2,
0xbd239cbc,0x3de7ffdb,0xbd1a8a27,0x3e07e646,0xbd21ec39,0xbd0631ff,0x3cb0f405,0xbcbc2030,0xbabbcaea,0xbdb9fb16,
0xbd391fe2,0xbd806b06,0xbc1efbbd,0x3de21a1b,0x3b3b83ca,0x3d3eedcc,0xbc662d12,0xbd4ec1b4,0xbd9d4d80,0xbb75305a,
0xbc41c6b7,0x3d93b886,0xbc0b76e8,0xbd98597f,0xbd6ca4c8,0xbc2d0028,0xbd8b7793,0xbd98fafb,0x3b8b4dca,0x3d8f4246,
0xbbfab89f,0xbda69438,0xbd8809c3,0x3d8103d9,0x3dd77efd,0xbd07ba51,0x3c962d10,0xbd1e6fb5,0xbdf1e724,0x3dfc98c5,
0xbc3ad649,0xbe2d7856,0x3c4e2231,0xba0fec5d,0x3c22da24,0xbc966763,0x3c97aa48,0xbdb26f43,0xbc950dca,0x3d383dae,
0xbc2a0f49,0xbdf4f182,0xbd9ce263,0xbe09ac90,0x3dc3cf73,0x3db692be,0x3d41751d,0x3cd1d2b1,0xbcafb16b,0x3d23015c,
0xbd5b2c11,0x3a29c841,0x3c2926b9,0x3cfbbf5a,0xba88f193,0x3cbc1a0b,0xbd700117,0x3d9b4106,0x3d8735a6,0x3c1f9b85,
0x3d0a8547,0x3df79bd2,0xbcd74c72,0xbd825d99,0x3d41acca,0x3da72f3c,0x3c08b801,0xbc564ba8,0x3b6ca070,0xbd96c425,
0xbc857586,0x3cda1644,0xbd373069,0xbdf003b3,0xbcfa970a,0x3c47f42d,0xbddfa7cf,0x3cf39490,0x3c7019ea,0x3dc82ac9,
0xbc57a3f9,0x3c78c3da,0xbd07cdc3,0x3c2b7fc7,0xbd11709e,0xbd2f8e9f,0xbdfdfad1,0xbcfc3b5f,0xbd3eaee4,0xbc553524,
0xbb7b6fe6,0x3ca3fd80,0x3ca478ed,0xbc3c286a,0xbcae552f,0x3bff0d60,0xbd68856b,0x3d899e51,0xbd3d1d43,0x3d0fcc31,
0x3c435dde,0x3c4a3b2c,0xbd871d20,0x3d8d1792,0xbc9137c1,0x3d03e115,0xbc6d4df0,0xbd977862,0x3dd9d3b4,0xbd871199,
0x3d7fb94a,0x3dfb2693,0x3c95577f,0xbd304171,0x3dea0242,0xbde00f5d,0x3ceeb730,0xbba7b4d1,0xbda62b4a,0x3cb52a94,
0xbd5155a7,0x3d5c5a86,0xbd8c72bc,0xbd9e8a1d,0x3dc240c3,0x3af0907b,0xbda50649,0xbd356686,0x3d61dcb4,0x3d4c9fb8,
0xbce80fd2,0x3cf163f7,0x3de78cce,0xbd85819e,0xbd6ee5c6,0x3b850700,0x3d1ff7c3,0x3ddea8ba,0x3e00e5e6,0x3cb9075c,
0xbc8bbef7,0xbd179e70,0x3bc75fb9,0x3cbdcb21,0x3cbf0f89,0x3d018507,0xbb02c7fb,0x3cb6a08e,0x3b8d3e60,0x3df61d36,
0x3a66c774,0xbd14050c,0x3ceb2887,0xbc70b315,0x3be7a301,0x3da0c1dc,0x3cc49376,0xbb8af0e4,0xbd4abcb4,0x3d174ffd,
0xbca4714c,0x3c28a2e5,0x3c5b5bc4,0xbcc02ae0,0x3d933a7b,0x3cf55ee2,0x3ca9abcc,0x3d82d7fb,0xbc880c98,0xbb6430da,
0x3d93909b,0xbd107e8f,0xbd23c45d,0xbc9cb4c0,0x3d988613,0xbd4e1630,0xbe15255a,0x3d6e6a68,0xbdfef112,0x3af1e463,
0x3db0936c,0x3caf5369,0x3c80d660,0xbd54bac4,0xbbd19093,0xbac9f84f,0xbca4b1c0,0x3d80ada7,0x3dc0b67e,0xbd81486f,
0x3d7e414d,0x3cc3e4bc,0x3cdb993b,0xbd50f30b,0x3d90c141,0x3db14992,0x3d69b78c,0xbd99461e,0x3d89f648,0xbddbb0df,
0x3cf3feeb,0x3c1daf9c,0xbd1251f8,0x3d98179a,0x3b8b3fb3,0xbd6b8538,0x3d842314,0xbc8a6aac,0xbcf67a7d,0x3e112a6c,
0x3cfc46a6,0xbcaeb8ba,0x3d3e29b7,0xbd576a95,0x3cac61d6,0x3dddd2c4,0x3a3d5051,0x3e003f2b,0x3ced4bec,0x3c84c2cb,
0xbbb32662,0x3cf03e8e,0x3d183863,0x3ce8bce8,0x3cc8bfb2,0x3c3f6073,0xbd977d74,0x3d1ed9aa,0xbb4ee44f,0xbde54426,
0x3cfd6ea6,0x3d99ecb8,0xbdd312b6,0x3e216389,0xbda4aded,0xbe10891f,0x3da322ef,0x3c7f3d7c,0x3c9796cb,0x3da3f2fb,
0x3c90fa91,0x3d211557,0x3cafc09a,0x3d1bc73c,0xbbbb0a62,0x3d9f30d4,0x3d232e4d,0xbdb9dbba,0xbde50d1f,0x3c2e66e2,
0xbda17253,0xbdf6d74e,0x3e061dab,0xbc7d9a1a,0x3aada912,0xbe138cce,0x3e21b61f,0x3b3b77b0,0xbe10b83a,0xbd0fdf42,
0xbc970ba6,0x3cfc5b7a,0x3e251322,0xbd228617,0xbba66f47,0xbc11af47,0x3d24fe95,0x3ace066b,0x3d5f0b0f,0xbcc49be0,
0x3c9d4e5b,0x3d7dc373,0xbd88e1ea,0xbd76e6ee,0x3da9415d,0x3d459500,0xbd5435f0,0xbe6f9dec,0x3d22de4d,0xbd231438,
0x3d922227,0xbdd73a06,0x3c6cd288,0xbe0f965e,0xbddbd140,0xbd90b091,0xbd106fb1,0x3d5fbb03,0x3d75ecb9,0x3cc995db,
0xbd435dc2,0x3d6836e1,0xbd055494,0x3ca9a4b2,0x3de9064d,0xbc644e9e,0xbdaceb9a,0xbaf43b95,0x3d7997ad,0xbdf9165a,
0x3d45066d,0xbdebf507,0xbd02f813,0x3dc6c4f0,0xbd6881a9,0xbda5c657,0xbb98c182,0xbc1a60bf,0xbc12c298,0x3d5ab736,
0xbd9f8391,0x3cea7210,0xbc4b302d,0x3d08818c,0xbd128cc4,0xbd4f2d72,0x3dcca8a0,0x3d4d5ad4,0xbc2b344e,0x3d1c8ce3,
0x3bacfdf2,0x3cca7d8b,0x3db0cc78,0x3d0a256e,0xbdabfb4b,0x3dbc502f,0x3c88087f,0x3ccb9de4,0x3d82e5cd,0xbcae8f7c,
0x3b01ea9f,0xbda546f0,0xbd51ae82,0xbcf70bac,0x3cc1d1c5,0x3d210bdc,0x3d39a638,0xbd9b04bf,0x3cd418c0,0xbca16d9e,
0x3dccd017,0xbccf359d,0xbdb2500f,0x3e0455ba,0xbe0aad66,0xbd32c106,0xbd8db139,0x3cc47425,0x3cd3bcb8,0x3d1b5c2c,
0x3bc8b46b,0x3d1a06cb,0xbce7d77d,0x3d28dd3a,0xbd91f8a0,0x3dc6d9fe,0x3d8829af,0x3ba1ad09,0x3dd24284,0xbdab06dd,
0xbdc505ee,0x3d80baa9,0x3d67e2b1,0x3e8617c8,0xbe065176,0xbd619ef5,0xbd9fe96d,0x3c82d663,0x3dfac256,0xbdc6e519,
0x3c63882d,0x3dcad019,0xb992c4a0,0xbd3d2d33,0x3ccbc93d,0x3d1ef8e0,0xbe0ea764,0x3da99a45,0xbdc6bdf5,0xbd9192ee,
0x3d4f1551,0xbdc07eea,0x3d74d569,0xbccc1a94,0xbd0bd0df,0xbc212082,0x3c9046b0,0x3bd62656,0xbd86431b,0xbcf9b402,
0x3d57c1b4,0xbd8e7fe4,0xbc2e62ba,0x3b8e15f0,0xbe0f6cb1,0x3d9763a8,0x3cdd9f28,0xbd77c32f,0xbcd74300,0x3d1e3407,
0x3df90ddf,0x3d4ebd4a,0xbd2d90bc,0x3d5314d0,0x3ca7edf9,0xbd0582f9,0x3dc9123d,0xbd864503,0xbd74c83d,0xbd62507b,
0xbc55ff30,0x3d65f306,0xbc7ce1e1,0x3daeb95c,0x3de67eac,0xbbd34ecf,0xbd7de29c,0x3e013d16,0x3d9d2737,0x3b9d86af,
0xbcd1e2ef,0x3d52cd78,0x3d1aa225,0xbd127833,0x3e0db913,0x3dd34022,0x3c1093da,0xbd87dc59,0xbd68e0d3,0x3c980db3,
0xbdffe9cd,0x3e0bbdcf,0x3d90ab8d,0xbc96c767,0xbc4178d0,0x3e254fa0,0xbcbc8a1c,0xbc5ac2a2,0x3d4b55b1,0xbd9d92d4,
0xbcbcf961,0x3db35d24,0x3a58fabb,0x3daa894b,0x3dd628fd,0xbe08297e,0xbdbf7023,0xbcc6bee4,0xbdfeeb3e,0x3dff1632,
0x3e50f21d,0xbd3cf39e,0x3d778470,0x3d4d47fa,0x3dfbf87a,0x3d002e9a,0xbd941f37,0xbe106df3,0xbe45de80,0x3d98d5f7,
0x3e0c6ced,0xbdecfd7d,0x3df1c672,0xbdbfb2c5,0x3dc2360e,0x3e0c73b4,0xbc9376fd,0x3d629e0d,0x3e06786a,0xbd4ddbd3,
0xbd7a564f,0x3b56fcf3,0xbd36438c,0xbcff23db,0x3cfee7bd,0xbdd8e056,0xbc4ebcbc,0xbe0d98e0,0xbbfc1b26,0x3c2e3596,
0xbdc1216f,0x3c895efc,0xbcd8e511,0x3da63397,0x3e23ae17,0x3df177ff,0xbda55b27,0xbd93ae9a,0x3d35c508,0x3cc86c9d,
0x3df26c16,0xbbf7e497,0x3d407464,0x3c50279b,0x3e3535b3,0x3d84ad39,0x39d888c7,0x3d26d6bc,0xbcfdd91c,0x3b451b68,
0x3d82e07e,0xbd221d38,0x3bcdccd7,0x3d3a45ec,0xbc0eb0c9,0xbd5f50f5,0xbd900b02,0x3d5e0da5,0xbca36b7c,0xbdbea688,
0x3ba18eb5,0xbdd99a1a,0x3ce702dc,0x3c855ad5,0x3d01dc2d,0x3aedad63,0x3dbcfc36,0x3aa06bcc,0xbdf0bd0b,0xbcef6dca,
0x3e4115c8,0xbd3c0e63,0x3c39b3e1,0xbd735ee8,0x3e396ac3,0xbcd5b637,0xbcc1615a,0x3e0306f8,0xbe0baad4,0xbd94c8a2,
0x3c25e2b7,0xbdce369a,0x3cf319cb,0x3d51b257,0x3cf5309e,0x3e2a94cb,0x3d9f2db3,0xbdb38564,0x3dd55208,0x3d95e9ca,
0xbd0d8b04,0xbd922063,0xbdf80f6d,0x3dad8768,0xbd95b7f1,0xbdaadde6,0xbc907848,0x3d2e66df,0x3dd78782,0x3dcf7a70,
0xbd3c0437,0x3d7c66e0,0x3cb45793,0xbe13dd02,0xbcb11f68,0xbcd2bcbb,0x3d192417,0xbdbcce55,0xbd55e5f2,0x3cbb035a,
0xbd0cb1e1,0x3db598f4,0xba917c40,0xbd71cf38,0xbcdd3196,0x3bc575fc,0xbd5bf637,0xbd9baf2b,0x3d35b034,0x3d5ea9c2,
0x3d11afc8,0x3d038d4b,0x3cb7cac4,0xbd8adcad,0x3dcb84f3,0x3d49abc6,0xbda1d7e4,0x3b9df94f,0x3d0b1185,0xbd246da0,
0xbe577f90,0xbd8049e1,0x3d995259,0xbb330397,0xbd256ef0,0x3e0bd3ad,0x3d374061,0xbc9986b1,0xbe1066f9,0xbd3fc781,
0x3d461e6e,0x3c855c13,0x3ce01e10,0x3e49349d,0xbe1c7ee9,0xbe10d8a3,0xbdf5c90f,0x3db2675f,0xbd4fca2a,0x3c8e137d,
0xbdb2d991,0x3cae66e6,0xbccab332,0xbdb2b4ce,0xbcebf6fa,0xbe1d08d7,0xbd849938,0x3c996f8e,0x3c3f393a,0xbca89b4d,
0xbd704d17,0xba09c89d,0x3cfe9c7d,0xbd98a45d,0x3d92959b,0x3d347f9a,0xbdbf7260,0xbc20e471,0xb9fd6803,0xbd34fd10,
0x3d7883f1,0x3bb42b26,0x3b054866,0xbda49d4b,0xbc4d8a61,0x3c9d793e,0x3e1e04d0,0x3de0dd7e,0xbd824b1a,0xbd8d5d1f,
0xbde715f8,0x3d9b4970,0xbe17a79d,0xbd203fce,0x39f18f21,0x3d1e8317,0x3cad30e7,0x3cb00406,0x3c16d8cc,0x3dcebee2,
0xbc8d94b1,0x3ccccdc6,0x3d24c242,0xbc031f13,0xbcb287e0,0x3de708d8,0xb88d5546,0xbd6b1191,0xbda88539,0xbd019fca,
0xbaccc795,0xbbae54ef,0xbcb23cd2,0x3d430fef,0xbc58af82,0xbd83fc00,0x3d3feace,0x3d2bf0c7,0xbc0a3c8a,0x3d173e4e,
0x3d37b3d2,0x3c661c17,0xbd53901c,0xbca29717,0xbbd5b7f1,0x3b6ba4cf,0x3c8edff6,0xbbb11a0c,0x3be33ff3,0xbcf375a2,
0x3d0bba60,0xbaa780d3,0x3cfaf0f9,0xbdd00570,0x3d43701d,0xbd22a7ec,0x3c833028,0x3cbc7aae,0xbcf0e5bf,0xbd3ba5aa,
0x3d7dfd1d,0xbd9bca6e,0x3d745f6f,0x3d0d8ff3,0x3d3fe0e6,0x3ce55551,0x3c9e8624,0xbe1ba6e9,0x3d7322f8,0x3cac9b2d,
0xbdb664d8,0xbd5be3fb,0xbd1cc198,0x3de16358,0x3b99c583,0x3d095768,0xbc5b3ac1,0x3d365f78,0x3ce42441,0x3dafa2af,
0x3c820408,0xbe044c12,0xbe1b2e04,0xbbc6a9e0,0x3c190a28,0x3c8ad19e,0xbd55a455,0x3c6c8676,0x3d280d49,0x3cdbeb4f,
0xbdc1f923,0xbb8e0ef2,0x3d3e529d,0x3d83cae8,0xbdf36672,0xbce4db5a,0xbde7d507,0x3d18814f,0xbd2ae39b,0xbd682bdc,
0x3d73fc83,0x3c1a8789,0xbd9ecb7e,0xbddf72eb,0x3d32a01f,0xbdc7447a,0xbb81a990,0xbdcc25f0,0x3caad34f,0xbc39ec54,
0x3cace026,0xbd5697d7,0xbdb0602e,0x3d404aad,0x3bb3e5e7,0x3d92d3bf,0x3d448173,0x39d4dd77,0x3c5eb7cc,0xbce0e245,
0xbcf345ce,0x3cc49146,0xbb799452,0x3cf43186,0x3c5ed654,0xbcde9288,0xbd098bb6,0x3d0b2a53,0x3c95e0ca,0x3d247c7c,
0xbaf5e0e1,0xbd3a72c2,0xbd1e3a23,0xbd63c3c3,0xbd1f8e2b,0x3c5c67f9,0x3c23ea81,0xbd3957e3,0xbcefb042,0xbc033623,
0xbd849124,0x3ba8adb7,0x3d47c8f1,0x3c6f98c1,0xbca385e5,0x3bf784d9,0xbd99509f,0x3cf1ce44,0xbd67f813,0x3d114c56,
0x3d9d021e,0xbdbe56fa,0xbd74d52d,0xbd42172f,0x3d8481d9,0x3d474631,0xbe064e14,0xbd9bbbb4,0x3d8cf7ca,0x3ccac0c2,
0xbdb63d56,0xbd2327e9,0x3c27cd6e,0xbbbb1300,0xbd5bb34e,0x3d917ef7,0x3daa6a53,0x3d7e87a0,0xbd41a4a3,0xbc7975c4,
0x3975f4af,0xbe1f6966,0x3d10cf34,0x3d496b63,0x3d3c0ba3,0xbd09e168,0x3da4396d,0xbd4385d5,0x3df01807,0xbcba614a,
0xbb11f115,0xbddae4b9,0xbcce36cf,0x3d50b5ec,0xbe03b0f8,0xbe10a8d8,0xbbf31ad3,0xbd3f39d8,0x3d06f412,0xbcb8bcb0,
0xbe1dfd77,0xbc4209c8,0xbdbeba1e,0xbd8d2c9d,0x3d47f3f6,0xbd7ad56f,0x3da185f4,0xbd6aea69,0xbd4f6c6b,0xbd655eba,
0xbd08afc4,0x3cf38abc,0x3d3bfa52,0xbbf1cade,0x3d074082,0xbcfc102e,0xbcd18107,0x3d367f90,0xbb93996f,0xbc91e15b,
0xbb041693,0xbd0f225b,0x3d27de82,0x3bc4b2cd,0xbd67cf50,0xbc8dd529,0xbcdd5f89,0x3ce209f9,0x3d2e55d5,0x3b9ccbdb,
0xbcc13224,0xbda29e71,0x3a680b4e,0xbccdee55,0xbd48583d,0x3b7d840d,0xbcb490dc,0xbe208a8d,0xbd4e2442,0xbd8edfb4,
0xbac26c2c,0x3d26a8b9,0x3d48901a,0x3d3c2714,0x394ebf92,0xbc92edf7,0xbc8ea69d,0x3b886dac,0x3d3f207b,0x3d754c35,
0x3c16623e,0x3d122293,0xbd3458a9,0xbd42db46,0xbd8a563d,0x3cea115e,0x3df7696a,0x3d20b1ac,0x3dd1b145,0x3ba960a6,
0xbc178267,0x3acfe918,0x3cd40e95,0x3d4b344b,0xbcd2a487,0xbd1be209,0xbdcf4106,0xbb4afa84,0xbce8109f,0xbd0eee90,
0x3c563c91,0x3c9007f6,0x3d3c59ab,0xbe12c796,0x3ce6e519,0x3d221a52,0xbd291c58,0xbc4b9649,0x3cc77479,0xbcbfa2d5,
0xbdad5549,0xbcf75876,0xbc125f1f,0xbd2e5136,0x3d1f950c,0xbdbaad8c,0x3dada0e5,0xbde2b27b,0xbddb1951,0x3c62752c,
0xbd0905e5,0xbd4a70bb,0x3d9fe376,0x3d0bbb6e,0x3d843b7f,0xbd3bed3a,0xbe2a9472,0xbcdaf10a,0xbda7b70f,0xbca7398a,
0x3c3b2496,0xbe5d1c8e,0x3c5e51ae,0xbc868b79,0x3df80473,0x3d7fb430,0x3d89b1d8,0x3d0b8190,0xbdb483a1,0xbd7d7820,
0xbdcf4ba8,0x3df0eb78,0x3dc1b9a5,0x3d4aa863,0xbe1d7fb2,0xbd400811,0xbdc043f8,0xbe3ba377,0x3bf9d919,0xbbca3d3e,
0x3d7b2fe4,0x3d60e7d3,0x3da23c82,0x3df118a0,0xbc4500c4,0xbda2a4d2,0x3cc9ec65,0xbd0680f7,0x3d83cde7,0xbd1e9dfe,
0x3e2302ba,0xbe14ee6e,0xbda288af,0x3cd2dc83,0x3dc922dd,0xbd5787ab,0xbe3de2ef,0x3ddfe970,0xbdd3836f,0x3d312213,
0xbe422c21,0x3b85f24c,0x3d574c85,0xbd2cdfd1,0x3d04b8ce,0x399efa0c,0x3987349b,0x3d0e9c5c,0x3d5e1cb9,0x3c057d74,
0x3d71b07a,0x3dbbbc87,0x3c887ab0,0x3d5782c1,0xbcbf540d,0x3d7dc7aa,0x3c581b24,0xbd91d277,0xbda18338,0x3da09e5e,
0x3d7c5420,0xbd60196c,0x3d338621,0xbd1b5d69,0xbe33a560,0x3e058430,0xbd754c29,0xbd59d5b3,0x3c1a9c75,0x3cc70b6c,
0x3dcebbad,0x3d80aeca,0x3ae874a0,0x3b731325,0x3dd5d0d2,0xbd0adfe9,0xbddfb8e4,0x3cd0348a,0x3e107b2d,0x3d19773b,
0xbdd33d2b,0xbac6d0a8,0x3df2171f,0x3e36ddf1,0xbcebd26f,0x3e900f10,0x3d0519b4,0x3ca1ee19,0xbd3acf44,0x3c69a937,
0x3c12360e,0x3d056286,0x3e26b684,0xbcd41ac7,0xbc092d5c,0x3d6a8137,0x3d590fbe,0x3d19f3d6,0xbc8bdfc5,0x3c81a70d,
0xbbca1416,0x3d1822f5,0x3d50296e,0x3dac647a,0x3cd65c35,0xbd1c98ca,0xbcf54b66,0xba0c84c9,0x3c95e215,0x3d884e89,
0x3d102de0,0xbd3c213b,0xbca551aa,0xbd61c69a,0xbbcd1ace,0xbca780ee,0xbd169451,0x3d6a82e3,0xbc86d6f8,0x3d017482,
0x3c4ce53f,0xbc2f55fc,0x3cf7527d,0x3dd79a93,0xbc507502,0x3dacc46a,0xbc8bdb46,0xbcce4bc5,0xbc122a1c,0xbd14bf00,
0xbb34d890,0xbc859827,0xbdb254a8,0xbde0369d,0xbd33cca1,0xbc1a8187,0x3d086d4d,0x3decd515,0xbb171a8b,0x3cf17b8d,
0x3c83b7f6,0x3ceb57ea,0xbd09e7c2,0xbe2c4497,0xbd9a2041,0xbe46b284,0xbd7e8a5f,0x3da2ac28,0xbe2301f7,0x3d9bd4f7,
0x3d3a4779,0xbd28ee86,0xbce5fbc4,0xbdd1a959,0x3e075b81,0xbbd5d0e5,0xbe09d276,0xbca42957,0xbd10b77e,0x3b3610b7,
0x3c762d88,0x3dec33a4,0xbd7513ca,0xbe40c667,0x3d8781e9,0xbbcc9a4d,0x3e3a5dba,0xbcce5d09,0xbb9d7ec8,0xbc05ecfe,
0x3c82f1bf,0x3d7d5810,0xbd0ba584,0x3e2a2d33,0xbd7c25cb,0x3da98077,0x3e200114,0x3c97a41c,0x3dad2d43,0x3d8cf246,
0xbd04f17a,0x3b2d1b43,0xbd2fc5f3,0xba908bf4,0xbb619a8d,0xbe0bc3f9,0x3de81861,0xbc26a553,0x3c15c5b5,0xbd724e01,
0xbd897a78,0xbe1d4eca,0xbd2b5ff1,0x3bb3a8b0,0xbd58742d,0xbc138851,0xbdaeb860,0xbc1aaaa9,0xbd8b90b7,0x3d018ac2,
0xbdf50925,0x3e49db77,0x3db20858,0xbdf26edb,0x3b26ed6f,0x3c7ced0f,0xbe318acd,0x39e8c4dc,0xbad3e9e6,0xbd8d851a,
0x3e071d5c,0xbd67b95e,0x3c4086c7,0xbd7d6de6,0xbc98587a,0xbcc0d848,0xbbbf70fd,0xbd09b2b6,0xbe41fa92,0xbcb0d792,
0xbd74647e,0xbda24b67,0x3da7dd60,0xbe022dd2,0x398c2f28,0x3e008721,0x3d8b609f,0x3cb20b32,0xbd47a786,0xbd35e3a6,
0xbe00e2df,0x3c568ed8,0xbe097c62,0xbd984d6a,0xbd1e97d5,0xbdf32a5c,0x3e741911,0xb9a39a2a,0xbc34bc5d,0x3d0d0d6e,
0xbc83a7f5,0xbd2efa9a,0xbdafaa42,0xbc3be560,0xbd0cb9a0,0x3da1375f,0x3d7e5512,0x3c9b0e34,0xbb9f636b,0xbcfbaede,
0x3e2b8899,0x3d336384,0x3d964b33,0xbdd3bf00,0xbe2c2431,0xbd5fac19,0xbe2aa50f,0x3cc96956,0x3d54b3a0,0xbc809a6d,
0x3e17b4f1,0x3e1d9b06,0x3ae58320,0xbb239085,0x3cc5a2f9,0x3bd1e4a6,0x3d3d524a,0xba5011c7,0xbc81eca1,0xbc28292d,
0xba112d58,0x3d8f2d9f,0xbc0688cd,0x3ca26900,0x3ce90b04,0x3d961acf,0x3d188755,0x3bf1d754,0xbc125b03,0xbc53a624,
0x3cd7d3e8,0xbd9064c8,0xbd27f419,0xbcd2f700,0x3c09ffd1,0x3b899058,0x3d070ebe,0x3cb87c40,0x3d29102f,0xbb8dde80,
0xbd02a170,0xbb765d09,0xbb90f92c,0xbcbd4d25,0x3bf8234b,0xbb21614c,0xbcde4d10,0x3c8615cf,0x3d620dc9,0x3d9488e9,
0x3ca23cf5,0x3c3212c8,0x3d1b218c,0xbd5a8554,0xbccb9796,0xbd44ff7e,0x3c77a114,0xbc7d5c8f,0xbd015629,0xbd5da164,
0x3b98dcbe,0x3c7a1539,0x3bfbfafe,0xbc0a1631,0xbd54566d,0x3da5eb01,0x3d26ff6a,0xbd7f35fc,0x3d444a68,0xbd581330,
0x3d1c7961,0x3d243ca3,0xbd307826,0xbb5f5124,0xbd280730,0xbcc27212,0x3bd9db03,0xbd6ce954,0x3d5f99de,0x3dd5cfad,
0xbd0e9fc3,0x3c6f9c84,0xbd219b3d,0x3ab3ac4b,0xbc346fff,0x3d9e0ac4,0x3da18ee8,0xbafed38d,0xbd215cda,0xbbc23c10,
0xbcd8b0d9,0x3d903e7a,0x3c106e12,0xbd461f68,0x3cc5f487,0xbd8acd2d,0x3b190b24,0xb9f79a52,0xbcc64de0,0xbd051390,
0xbdf81e33,0xbc46aa72,0xbd3f5a1f,0x3c0183a5,0x3e1213d5,0x3d644330,0xbe00c36e,0xbc955918,0x3d5e248d,0xbd6ebece,
0x39dc5f3c,0x3c94483e,0xbd1c2126,0xbe212c59,0xbd673447,0x3d45d307,0x3db71aa7,0xbbdb1fcc,0xbdb7c2e9,0x3d8b10ff,
0xbd83788c,0x3d00ac3d,0xbd15b193,0x3cfc8b16,0xbc79017e,0x3dfe9ca8,0x3d483d88,0x3c73fe0d,0xbd0911fc,0x3d0d48b5,
0xbd172677,0xbd51ae3e,0xbcdd0e1f,0xbc3b0053,0xbc3c1d44,0x3dabd6f9,0x3d5999d3,0xbbdf424f,0x3ce1963a,0xbd3816c0,
0xbbcd5506,0x3d845fa6,0x3ce65583,0xbdf83e7a,0x3d8f98a4,0xbdef5eeb,0xbc97fe6c,0x3d45f7fd,0x3d07ccee,0xbde09596,
0x3d961ba9,0xbdb09d43,0xbd934733,0xbe0b1970,0xbd18a8e2,0xbc77c5da,0xbd3c552d,0x3d09b406,0xbd657c3b,0xbd249865,
0xbda539e5,0x3b56a52a,0x3d0e1901,0xbdd32a6a,0xbb86a87a,0xbd34c598,0xbcc0b193,0xbbb5878f,0xbcd7633a,0xbd10de49,
0x3c700604,0x3d8d5fe8,0x3d8afde3,0x3d39cf2c,0xbbc8cb60,0x3b43324d,0x3c6af969,0x3e0011ae,0x3b095578,0x3cf44788,
0x3d73b6d0,0xbb6a0537,0x3ce66c11,0x3dc25a42,0xbd4c8281,0x3d5c9627,0xbd3a48f2,0xbc7e3283,0xbac00719,0xbd5b066a,
0xbca5c4c2,0xbb8c348c,0x3c8dac66,0xbd19b0c7,0xbb395765,0xbcadafd2,0x3d0450f8,0xba24a508,0x3d73a8b2,0xbcc9f2f0,
0x3cfe03bf,0x3d7d94f8,0x3b334925,0xbcb8db4e,0xbbd5c26a,0xbcd38fec,0x3dcc8c93,0x3d0e5666,0x3cac98da,0xbd971fdd,
0xba577444,0xbceb0f9a,0xbdb7e03f,0x3c03f920,0xbd91c5fc,0x3c387807,0xbd0ec65e,0xbd06f6e6,0xbd060536,0xbbbc51b5,
0xbd11270d,0x3daf9496,0x3d080ca9,0xbd8e2490,0xbdc2558d,0xbd482a63,0x3d4ce951,0xbd180bdd,0x3b64c615,0x3d7d3ec7,
0x3c82c1e4,0xbb25b04b,0xbd93d9ba,0xbc39d54c,0xbdb9b166,0xbcbcdfae,0xb99dbc9c,0x3bf29922,0xbbc8dbf7,0x3d846cc8,
0xbbb071b6,0x3d70c8ab,0x3c964d2a,0xbc7c5431,0xbd4e78e1,0x3d1b155f,0x3cccc7d3,0x3cb1df6f,0x3d5baa1b,0xbc593026,
0x3d9105d1,0x3ca39afa,0x3d360378,0x3ce3d4b7,0xbcb942fb,0xbd8bade4,0xbaded34d,0xbd3b52b6,0xbce58b39,0xbd050004,
0xbdb04fe2,0xbd43c833,0xbba1e438,0xbd04a2e8,0x3d8d126f,0xbda24b07,0x3cb02ee9,0xbd86971a,0xbcf825e2,0xbdc5503c,
0x3bea0886,0x3c1be942,0x3dc2e67d,0xbdc10fb2,0xbe05878e,0xbc6518f6,0xbbec2ac4,0xbd603147,0x3da88fa5,0xbe26b83b,
0xb94c516c,0xbc4b5895,0x3ba1f068,0xbd614e6c,0x3d5d5899,0xbd95817b,0xbb175e35,0xbd2dc52d,0x3d8a9774,0x3b6bdf24,
0x3d1cdc78,0x3dd1707e,0xbd04db66,0x3d981424,0x3c2d7c44,0xbdf131a1,0xbcca3297,0xbd888636,0xbcc364cc,0xbc12f285,
0x3d760d60,0xbc72b603,0x3d87eab2,0xbd6faae7,0xbdc5dee8,0x3d885c49,0xbdbc1345,0xbde7ea66,0xbca3e3dd,0xbd9e0532,
0x3dcf57c6,0xbd587933,0xbb31292c,0x3d5d2ebc,0xbe11d283,0x3d8144ff,0xb9db70e7,0xbe0e1023,0xbd44a1c4,0x3cb7e7b1,
0xbdd7cdbc,0x3d420bc3,0x3d918913,0x3d27b3a6,0x3cdf1871,0xbd528b00,0x3ddceeee,0x3d2c4e1d,0xbde344dd,0x3d50d31f,
0x3c53413d,0xbd0a7527,0x3dc05d67,0xbdf7988b,0xbd43836b,0xbdcfd798,0xbe3231c3,0xbd4d2d91,0xbe5445d0,0x3beb518c,
0xbcb582ce,0x3d8503ff,0xbda7d081,0x3d8a6666,0x3d8af4e1,0x3d19e9cb,0xbc8fa9e2,0x3c72c02d,0xbcf41014,0x3c20dd19,
0xbd8ec6d6,0x3d0e8eb3,0xbddb905a,0x3bf3e350,0x3dc4b533,0x3df72fac,0xbdd87774,0xbdb66d75,0xbda1adeb,0x3d7898d8,
0xbe1402e3,0xbcc50ddc,0xbceb06bc,0x3d1912e0,0xbb47e73c,0x3d233bbb,0xbc3b91c7,0xbb931e62,0x3cde365e,0x3ba51f49,
0x3add06b0,0x3d62c90b,0x3bf898b0,0xbc67dae5,0xbc7ffb9d,0x3b04cd7c,0xbc3c682b,0x3c7a2f83,0x3ca9557f,0x3b59dfad,
0x3d455cbf,0xbcfbafdf,0xbd1dd31d,0x3d5a4c75,0xbce40b2b,0x3c542fa7,0x3c209b58,0xbb1d7e81,0x3b135f1b,0x3cbdb2b1,
0xbc4a6aa7,0x3d56fa20,0x3d0d84c4,0xbcd3658b,0xb972b1ed,0xbc53f911,0xbbff4199,0xbcead76c,0x3cd784fe,0xbd192742,
0xbb29a532,0x3da2da28,0xbc89a782,0xbcfe0aaf,0x3c9b3a14,0x3c8a4bc2,0xbbc7c47b,0xbd043d59,0x3ce4e6cf,0x3b949504,
0xbd501f4d,0xbbf1dc28,0xbca64e78,0x3d5f7655,0x3b459978,0xbc54e921,0x3d3e3bb2,0x3c89e06f,0x3c2cb4da,0xbd27e2da,
0xbd0e9b80,0x3bc2dd26,0x3d3fa945,0x3c47b4b6,0xbd0924cc,0x3d215687,0xbaca5ed9,0xbc93f1e5,0xbccacbc7,0x3c894013,
0x3d3f84f5,0xbd37b7ff,0xbcd1b328,0xbd1c9619,0x3dd2ed5b,0xbc34ae12,0xbcaed4d2,0xbdad83d0,0x3d5c28e3,0x3b92f176,
0xbd5e296d,0xbd4a0645,0x3c40ee6b,0x3da1a2ab,0x3bbf73fc,0xbc432484,0xbd41cab8,0xbccfd28f,0x3c952c65,0xbc4c9a3d,
0xbca09893,0xbcec1214,0x3c2a8e18,0x3c542db4,0x3e0f8f34,0xbd29e127,0x3b88e095,0x3c79ec0e,0x3cffbe75,0xbc5874fe,
0xbd515492,0x3b8dd77a,0xbcde41e8,0xbd2b8154,0xbca930f7,0xbcbc15eb,0x3d37f1d3,0xbd093bd2,0x3d94d35b,0x3cc205ed,
0xbd50e08d,0xbc663b30,0xbdcf180a,0x3d9dd5c5,0x3df1413d,0x3b2c4a35,0xbd0d23d7,0xbc5eef81,0x3d873c65,0xb9e91d92,
0xbd9ade86,0xbd151a7e,0x3d27bcf2,0xbcb37723,0x3ab5fe5c,0x3cb3729d,0xbdb2846c,0x3d96ea3f,0x3d8da71b,0x3c0e93c2,
0xbd1fe596,0xbcd5a82a,0x3d03abc6,0xbd82bf19,0xbd493aea,0x3d519d21,0xbdee216e,0x3bc3d56a,0xbc260a86,0xbd7013e0,
0xbbd89bfa,0xbdb928be,0xbad2f471,0xba80325f,0x3b429e1d,0x3d5a6cdd,0x3c9853a1,0xbd36ba83,0xbc050e57,0xbabd9df6,
0xbd41f08e,0xbd390e2b,0x3dcbcbb5,0x3d9ca48e,0xbd08f7da,0x3c845793,0x3db02f32,0xbd80df9f,0x3d83bada,0x3d011bb5,
0x3ce4a659,0x3d249d8c,0xbce724c4,0xbde5ed92,0xbdbfcaf2,0x3d4c72ef,0xbda23a78,0x3d60ae94,0x3daabf4e,0x3ceed700,
0xbd2edacb,0xbcaf811c,0x3cb2a0eb,0x3c980c46,0x3bf589de,0xbe26b81b,0x3d522319,0xbd8fdf0d,0x3d79f86f,0xbb582753,
0xbc65a9bd,0x3d59cdcd,0x3bff6b6c,0xbbf96ed0,0x3c954b36,0x3c68533e,0x3b176a7c,0x3c909ea3,0x3c8dc903,0xbc3b630d,
0xbc8c1645,0xbc1e37b9,0xbc8ed7d4,0x3c92c7db,0x3a50133d,0x3cac7db2,0xbbdcb40f,0xbc9f2fae,0x3d438c24,0x3d16956b,
0xbcd99bd9,0x3a23d10b,0x3cc3a3db,0x3c8cc972,0xbb886ac5,0xbd628ae6,0x3ce9343c,0x3d301f19,0xbd0bdabe,0x3d0b653f,
0x3b080281,0x3d144d21,0xbb7f65f2,0xbc762287,0x3d3e5a4c,0xbb504ffc,0x3d0862d9,0xbc0999a2,0x3d3efcb0,0x3c61bf56,
0x3cb62e9e,0xbbff4541,0x3babaabf,0xbd843f57,0x3ba7b2a2,0xbb38d7a1,0xbce6e91f,0xbbef97d8,0xbc59063b,0xbbf45591,
0x3cb34fcf,0xbc5e6be5,0x3cdafd2b,0x3aacbb0b,0x3c2cf619,0xbd776701,0xbcc32a92,0x3beb8b79,0x3cedf42e,0xbd600d28,
0xbb7f9af3,0x3bf3ab37,0x3c86c181,0x3b0dbc88,0x3c5977f6,0xbd1f2db4,0x3caa0dd5,0x3a85f888,0xbcb55ebc,0xbcb18c76,
0x3d7319f3,0xbcc5d6f3,0xbd17573f,0xbd1a6c00,0x3caf1d84,0x3c44c299,0xbcc73e52,0xbd7d2d17,0xbb90d821,0x3d0afefc,
0x38286192,0xbce8a9f8,0xbd0f6dd9,0xbbbca282,0xbce2ecf6,0xbd725957,0xbd50a891,0x3c7c3aa3,0xbcb9d561,0x3d70e97b,
0xbd00b627,0x3cf285b8,0xbbbf179d,0xbc66187d,0x3d4661b9,0x3d621492,0x3da27863,0xbd86a2e5,0x3c9590d2,0x3d368008,
0xbd1bf990,0x3dadd966,0xbc85f35e,0x3ac05c19,0x39c8b2cf,0x3c92cda2,0x3d1da148,0x3d5b2fe7,0xbb5f9a4e,0x3db1232d,
0x3d75e5a7,0xbcd14155,0x3d3cea67,0x3d074c71,0x3d46e5f6,0xbbdf47cb,0xbd6f5108,0x3d455405,0xbd36c154,0xbd11f5b6,
0x3b7a6be8,0x3c356423,0xbd437934,0xbb4c0609,0xbe334fba,0xbd31edf4,0x3c512a12,0x3c8c3bf4,0xbba7301f,0x3c9e05cc,
0xbc4bcc6e,0xbd1bd9e6,0xbd39aa5a,0xbdc123c5,0x3c96eef6,0xbde4b07b,0x3d0bddf5,0x3cc76985,0x3bbe343b,0xbc7dd03c,
0x3b98d142,0x3d9063d8,0xbac4ea93,0xbcf02890,0xbd8389d8,0x3dc5587d,0xbcf00f2f,0xbd6172e6,0x3c5a2338,0x3cc3338b,
0x3d235e51,0x3cfa9466,0x3d022fe4,0xbc082e4b,0xbd5a522e,0xbce14592,0xbc8d9c77,0x3c94d352,0x3cd6b885,0xbbf16803,
0x3d3310a8,0xbd9be494,0x3c81c34c,0x3cace194,0xbd084134,0xbd906593,0x3d6d6473,0xbd6daaa3,0xbdb2bb21,0xbdc4dba8,
0xbd3f493f,0x3d109bb9,0x3d548547,0xbd88600f,0xbb9a8500,0x3c995cd1,0x3c1408f5,0x3cd43f5d,0x3de205d4,0x3cbb4a4f,
0x3cb32258,0x3d80caef,0x3d6cfee7,0x3c8c2b57,0x3bc311bb,0x3d860f08,0xbb07b8b9,0x3d4e181d,0xbc32d0e5,0xbd74c413,
0xbc0a13d8,0xbd6d81d4,0x3ccff8d9,0x3c7ad7b1,0xbd46f533,0xbc9e155d,0xbd3b2346,0x3ca4d912,0x3d10dca4,0xbd1b4b76,
0xbc9f2056,0x3d231aab,0xbc0a21b8,0xbdac5a68,0x3d37bea0,0x3d8a5824,0x39285adb,0x3afaff3c,0x3de9328f,0xbd335f3a,
0xbcd51e5e,0x3b3d6501,0x3e48ef22,0x3d56d8bd,0x3c979787,0xbcce3891,0xbd2e5ced,0x39fda6ca,0xbd33d886,0x3d44e0f9,
0x3cb21f78,0xbd53bf56,0xbb62a0f4,0xbb0a74ce,0xbbf17455,0xbc5f4057,0x3d312e2c,0xbd185802,0x3c481abe,0xbc5d0f45,
0xbd71755c,0xbc02de75,0x3caa9334,0x3c003fec,0xbc497432,0x3c6920e3,0x3d044d2d,0xbbd3a124,0xbb506049,0x3cc3dede,
0xbd9564cd,0xba272b1f,0xbd0d2505,0xbc930ec9,0x3d611b14,0x3bbe609c,0x3db56b22,0x3c46410d,0xbdad8b61,0xbd41e798,
0xbca2d78f,0xbb41d327,0xbc314cf8,0x3db3a5a7,0x3cd7b842,0x3c2c247b,0xbafefdeb,0xbde1054c,0x3d93de46,0xbca14c66,
0xbceb47ce,0x3d736f8d,0x3d176912,0xbddb2e8e,0xbd4b5b8a,0x3da1e582,0xbd0b0b72,0xbbcabcaa,0x3cf27850,0x3b1dda15,
0xbb32a73e,0x3b2a3c69,0x3c6e51cf,0xbdc8e01c,0xbde5bfc3,0xbc73edc3,0x3d1eb56f,0xbd36e334,0x3d701906,0x3d13eb58,
0x3d78941c,0x3c2bb395,0xbdb92e00,0x3ca25d7f,0xbc6b4438,0x3c0a7ab8,0x3d20a41f,0xbda9aae3,0x3d847cbb,0xbc906952,
0xbd040035,0xbbd1ad24,0x3ca8b6b1,0xbd1c7891,0x3e120dd9,0x3d7a5971,0x3d4bf42d,0x3d0a47ed,0xbc684b63,0x3b45c92e,
0x3cdc0851,0xbccc8e38,0xbcf75ceb,0xbced4f9b,0xbd002871,0x3d89ae3e,0x3c8ba263,0x3d1a20f1,0xbc448622,0xbc5fc627,
0xbccf36a0,0x3d9424f8,0xbd5f4e3c,0xbaa6ee5e,0x3cdee021,0xbcc487c3,0xbc65a6ba,0xbd360912,0xb9c87916,0x3d8e730e,
0x3c90611c,0x3d2b9cca,0xbc61bc9c,0xbd22676c,0x3c1412d8,0x3ad17d6e,0xbc8e097f,0x3d3c6cc9,0xbc810e93,0x3d0542d7,
0x3d334e59,0xbdad369a,0x3c52abe0,0xbb4e2871,0x3cbbf06e,0x3d8efdac,0xbca2dd5c,0x3d1abd5c,0x3ce9b899,0xbd63cb7c,
0xbd210961,0xbc86c5d2,0xbd673f17,0x3d083d46,0x3d007348,0xbd261727,0x3c8eec28,0x3d4ce67d,0x3c230c85,0xbe0f2a8b,
0xbdcab7bf,0x3c2a85e8,0xbcabbf43,0xbd7beaa0,0x3bf02aad,0x3d40e7cb,0x3d874815,0x3dc87cfe,0xbc5888c5,0xbd9e701d,
0x3c9d1974,0xbd1d8049,0xbd74b307,0x3d015bed,0x3db1675a,0x3d8ad39f,0x3dcd4182,0xbca5caf3,0x3cb5bd90,0x3d48ffe2,
0x3cb21614,0x3caf2972,0xbceec4ba,0xbdaabbaf,0x3bd4b0d4,0x3c9f8104,0xbddbd866,0x3d9d3738,0xbdeea197,0x3c0e722f,
0xbd34304c,0x3d0167a7,0x3d255c5e,0xbcbb93aa,0xbc86d44c,0x3aa5fb38,0xbd2ca2f2,0xbc8b52c6,0x3daa370b,0xbd8a409e,
0xbb569806,0x3cef1593,0x3b9d9906,0xbd58555e,0xbc06caf9,0x3a1ce7a8,0xbdc3eafe,0x3be018af,0x3c9ca654,0xbd15bb50,
0x3d352195,0xbd59ca1e,0x3bf1bd00,0xbca567f9,0xbce58803,0xbbff10b3,0xbbcaca09,0x3cb57932,0xbdc129c3,0x3d05f11b,
0x3d6a14e0,0xbddee2da,0xbd602b00,0x3d2e904d,0x3d78ba3e,0xbc62c823,0x3d4164f1,0x3d1cc3b9,0xbba81e4f,0xbc0b6914,
0xbcaf6ee8,0x3cf0fcf2,0xbd448c2e,0xbd930e08,0xbc49515b,0x3dc0df2f,0xbdafab75,0xbd03d740,0xbdb657f9,0x3ce76a0f,
0x3dc11603,0xbdcb5f98,0x3c1f4151,0xbd63c9f8,0xbdb558b6,0xbd8b0170,0x3e0f8cdc,0xbdf71a5d,0xbdc37332,0xbdbb2241,
0xbc0ff378,0x3b9658dd,0x3b86fb26,0xbbd1e28f,0x3c8bf7ed,0x3cf79f9d,0xbd855c68,0xbd00079e,0x3cf35cc7,0x3be9f099,
0x3c807057,0xbc3802b5,0x3b9a5602,0x3d553ec7,0x3d598142,0x3c050a8c,0x3c22269d,0x3c6ad60c,0x3ddc8c14,0xbb80c836,
0xbd509bac,0x3c9130c3,0xbc5ecdfc,0x3d5fcc20,0xbbb8b7d9,0xbc84891f,0x3d9febf9,0xbd422bb5,0xbd0e2e53,0x3e06ff23,
0xbd38fc3f,0x3d2ea69c,0xbc55e433,0xbcfa4551,0xbd12f8b3,0x3bb4c94e,0x3c012870,0xbbde8727,0xbc92971e,0xbcb564e9,
0xbd6ebe97,0xbc304d9c,0x3d447a3e,0x3d2286dd,0xbbcad7ae,0xbb9fc3d6,0x3d19a669,0xbcd59f6b,0x3cb78cfe,0xbd4caba2,
0xbc84a3ec,0xbc06c5bb,0x3d62bf04,0xbc6187d1,0x3cad3860,0x3ccb28cc,0x3c1b7757,0xbd6957ac,0x3d840503,0x3ccaee20,
0xbd80a5fe,0x3cb422ff,0xbd127c51,0xb9fdb448,0x3d051b78,0xbcd020d0,0xbb862d20,0x3dd4645d,0xbc4c919f,0x3d5a2ec5,
0xbd53c585,0x3d5b9a6e,0xbc71c262,0xbd15bb1b,0x3d115f0f,0x3cb1a2d1,0x3d65a6c4,0x3dc3a97c,0x3ca816bf,0x3d6b0894,
0x398f81b4,0xbc3163cb,0xbc934501,0xbd89b0e1,0xbc3bd695,0xbd96bb3f,0x3d77e72f,0xbd5867bd,0xbd34cbd6,0x3d08b06f,
0x3c32add1,0x3c14ef47,0xbc8f0164,0x3db1fd8d,0x3d866372,0x39f5ddd2,0xbcb19dc3,0x3d80e86c,0x3b67fa99,0xbd17b3ae,
0xbc862241,0x3d39b03e,0x3bd6a6b7,0x3d379d0a,0xbc00610d,0xbd6c4eeb,0x3d03c2ae,0xbc75e3cc,0x3ccd7004,0xbd4377d1,
0xbd2beb27,0x3d085862,0xbc7b4a81,0x3c51e896,0xbd9a8563,0x3c257b68,0xbccb661e,0xbd0579ac,0xba75790c,0x3d3f0a58,
0xbcfe7d02,0x3bb09552,0xbbe39ba5,0xbd00cb1c,0xbda16445,0xbd0fa50b,0x3da14af6,0xbd9abb94,0x3d7dd88a,0x3c6e7da2,
0x3ca3fcdb,0xbbc0d276,0x3c09c927,0xbc67ede8,0x3d0735f2,0x3c86fca4,0xbdcf4d81,0xbc9cf9d3,0x3cc0c064,0x3c4c1480,
0xbcc596ca,0x3d064b87,0x3d400329,0x3d4c5849,0xbb905e63,0x3c5c0b42,0x3c888d5e,0x3d554666,0xbc621bf7,0xbbd20127,
0x3a2f1ae9,0x3c57e437,0x3cbec61c,0xbc12f20c,0x3d1317a5,0x3d8a1d6a,0xbd952177,0xbc8d4c59,0x3d1e68e9,0x39c3e170,
0xbcba9c4c,0xbd8cb54f,0xbcbe8693,0x3ce2b50e,0xbcfdca2b,0x3c89aaf4,0xbd4535c3,0xbbe6c58c,0xbd822904,0xbd9dd969,
0x3dc4eb45,0x3cce1da3,0x3d020173,0xbca0f682,0xbd7caf4f,0xbc5c584c,0xbd9c2c80,0x3d3523b1,0xbd0e344a,0x3d037e2a,
0xbce066c9,0x3cf60e6f,0x3bd78d9e,0xbd2388b7,0x3ded90a4,0xbb966b18,0x3c71e20e,0xbd1019f8,0xbdbde9fb,0xbdbae090,
0xbd078b47,0x3b08da6f,0xbd0b435a,0xbc574e1f,0xbbb66c3e,0xbd426c21,0x3c91080d,0xbd4392a0,0x3cb75633,0xbdb23934,
0xbc4d1bff,0x3d8168c1,0x3b0f340a,0x3dd1fba0,0xbd6f3764,0x3d296354,0x3d93d746,0x3d234849,0xbbca4921,0xbdc0191c,
0x3d8df829,0xba919768,0xbd279c39,0x3d9c0659,0xbe13b2f1,0x3d697430,0x3dab9aa9,0x3d398e92,0xbded9624,0x3d000234,
0xbd2b8495,0xbe130936,0x3d236aa7,0xbd5f3032,0xbd89947a,0x3ce4b5ca,0x3a698659,0xbbe134c3,0x3ced4724,0xbba24b1b,
0xbd042982,0x3c121dd5,0x3c47d4eb,0x3c9d02eb,0xbd9239a9,0x3ba1a5f4,0xbd974739,0xbcf2b933,0x3dd52c4d,0xbcbf7ce0,
0xbd0c68bb,0x3dd21867,0x3d212e38,0xbd33b369,0x3dde40ab,0x3d32de46,0x3c17bfd0,0xbd3a0d7c,0x3e0b5f41,0x3cb50e1a,
0x3db58e59,0x3ceafebd,0xbc16fa21,0x3e17e79c,0xbd44f05e,0xbd353d6f,0xbdbf3a74,0xbd9144ca,0x3d06360a,0x3bf7c9e4,
0x3df2b943,0xbd1aa662,0xbd1aa3cf,0x3dda6688,0x3c387c64,0x3c8b464d,0xbd88bf33,0x3d1172eb,0x3d0cf03d,0x3d559d6f,
0x3ccadcff,0xbccfbe38,0xbd1d5836,0xbb3bacfe,0xbd06253c,0xbcceee11,0x3d02059d,0x3bb55a95,0x3d313d2a,0xbd1c1813,
0xbd22fe42,0x3c383786,0xbd4e29f2,0xbcd2c1fd,0x3d13c7fb,0x3ce636b4,0x3c31fd6a,0x3bd5a564,0xbbe23826,0xbb73b339,
0x3d48c3ff,0xbd911993,0xbb0df62b,0xbd01261e,0x3dd53125,0x3ca3e035,0x3cfc5f54,0xbd0e6587,0xbcf1fd9b,0xbd2d7811,
0x3cbc8f34,0xbcd95df9,0xbd405e50,0x3c03c8fc,0xbd414fde,0xbd09af66,0xbc81f6d4,0xbd3e4f5b,0xbca8babd,0xbbbf3561,
0xbd2bb682,0xbd1301e2,0xbb91e3af,0x3d1befa7,0x3d041cb8,0x3a665f05,0x3d815c29,0x3c38f04e,0x3c8792dd,0xbca1d391,
0x3d1264a8,0x3d0d7d3e,0x3d5acd4a,0xbd9f175e,0x3c5dc8ad,0x3df1ca7f,0xbc032197,0xbcf32d89,0xbc88539c,0x3b029beb,
0xbc69fb03,0x3d1401ab,0xbb163cac,0xba5b11de,0x3d8b5a44,0xbc81ccce,0x3c80a211,0x3baaf75f,0x3c9755ac,0x3d9a6cd5,
0x3e0ce3d6,0xbd15cdca,0x3d1cfc2b,0x3cd722be,0xbd0272a9,0xbdaac853,0x3db1b7ac,0x3cc4688b,0x3d833916,0xbc58d478,
0x3caa48a4,0xbcee5071,0xbc7311a8,0xbd3d6748,0x3d5f872d,0x3c6909dc,0x3c158e41,0x3d7630de,0x3d1f29d6,0xbcabe381,
0xbc6698d7,0x3d789ce0,0xbba3bf12,0xbd9b04f0,0xbd6d9b21,0x3ccace25,0xbdf75590,0xbc903b8b,0x3d986cf6,0xbdb4840b,
0x3dbe741a,0x3dcfc536,0xbda03131,0x3d9ca8c1,0xbaaa614e,0xbd8e9499,0x3dd1156b,0xbc532894,0xbc420545,0xbd5084c8,
0x3c8c95a8,0x3c6e0f0a,0x3d1ecda4,0xbc0536e2,0x3d8b6fca,0x3c522470,0xbd352649,0x3dcaeebf,0x3d3c9e05,0xbdcd6ebf,
0x3d19151f,0xbd865717,0x3d4259b4,0xbc8d3944,0xbcbbbf95,0xbd2703d8,0xbdb6aa7a,0xbd896722,0x3e006bfd,0xbc61f321,
0x3c72eeaa,0xbd1dc38c,0xbdbd1b8b,0xbd81adfd,0x3c04a3aa,0x3ddcb7dd,0xbdbfc0e4,0xbcf363a2,0xbca242ea,0xbd15011a,
0xbda57f83,0xbd33ead3,0x3dbb0d1c,0x3d88107b,0x3c8ccbe0,0x3d4b963f,0xbc388a47,0x3cc27d04,0xbd9ab34a,0x3bd6983c,
0x3dfc0a94,0xbdcbdd87,0xbbcb1e19,0x3c99717e,0xbd3ddf63,0xb91963ec,0xbdefa397,0x3dba46a5,0x3de40d43,0x3d4c734b,
0x3d8b1895,0x3d9ef5d3,0xbdc1fa21,0x3d01e0b9,0x3d4efcf8,0x3db96d7a,0x3d021279,0x3ceb866e,0x3afe95aa,0x3cbb4232,
0xbd3aedf5,0x3d453ef7,0xbdd75a6d,0x3d1af5d7,0xbb4e0657,0xbc0c4868,0x3c397867,0xbcaff217,0xbd910ab3,0xbce58d24,
0xbd8e2b24,0x3c175a23,0x3da2ef1a,0x3ccd73a0,0xbac2e187,0xbcff8138,0xbd041729,0xbd0b36a2,0xbc2c882d,0x3d2292e6,
0xbd8ecc1b,0x3bb4d167,0x3b851c4d,0xbc752bb2,0x3ccbdbcc,0x3c018fa1,0xbc83aead,0xbcdbf0f7,0xbcf64a3d,0xbd4f6044,
0x3c9c5698,0xbc92cfd6,0xbbdd6ad4,0xbc104095,0x3d2857c9,0x3d7680ea,0x3aeb05a7,0x3c8f7a5d,0xbd8f8033,0xbcd45ea3,
0x3c8836b8,0xbccb0e5a,0xbd43855e,0xbd927986,0x3d0518c7,0xbc5c9f22,0xbc2d5ca4,0xbbf1475b,0xbd5b3408,0xbdb6ca8e,
0xbd2bf3d7,0xbd331e2b,0xbc39423d,0x3cb45396,0x3bbb7ea6,0x3d22cadc,0xbca2e5cb,0x3ce5dc84,0x3d9b910f,0x3c76153b,
0xbda76407,0xbd232c52,0x3c5beabd,0x3ca40192,0x3d3785fa,0xbde22232,0x3d5727b0,0xbcb676b4,0xbdd4d47b,0x3d005ee8,
0x3cd1fce4,0x3d692e88,0xbcd96417,0x3cc00850,0xbcffe552,0x3d067e2a,0xbc37ebf0,0xbd2e66c4,0xbc3b5d2c,0xbd00b88a,
0xbd63ca5e,0xbcbf55d5,0xbc58825a,0xbd570f6f,0xbdee4a43,0x3c935e68,0x3de2dcf3,0x3d127f55,0x3d38585a,0x3d23552e,
0xbbc8560d,0x3d4263cc,0x3d10db1c,0xbcd4d8b4,0x3d10fe92,0xbb8747cb,0xbc9ac52d,0x3b301fa9,0x3cc8435a,0xbb836b51,
0xbce09407,0x3b004396,0xbc007548,0xbb8fe3bd,0x3d710611,0xbbe4590c,0xbca62aaf,0x3ca918ab,0x3d217238,0x3d86117a,
0xbd4f7e84,0xbcbce249,0x3d8000d6,0x3d1cc001,0xbcbd2573,0x3cb06a8f,0xbc937713,0xbd29d18c,0x3ccff42f,0xbd19be49,
0xbd9d8571,0x3d8243e4,0x3d893905,0x3cf28765,0xbc05a716,0x3c1fc621,0x3d4c592d,0x3d8c2695,0xbdb81e71,0xbc827b05,
0xbc902a03,0xbd63b0c8,0xbcd257a3,0xbbed88be,0xbd122307,0xbd03d495,0x384efd1a,0x3c1b1a93,0x3d158344,0xbcc3b57c,
0x3d09abc6,0x3c3353c5,0x3d8bbc56,0xbd1dcd0a,0x3d6d4cc2,0xbc534f67,0xbd8b7b34,0x3d561085,0xbcbe33ad,0xbb0b7656,
0xbbb3f165,0x3c6bf95e,0x3d5f0b1c,0x3cb51eb6,0x3b40a112,0x3d8a99a6,0x3c6da2b1,0xbc496aa8,0x3de788c1,0x3de77121,
0xbbe78036,0xbd106c1f,0xbb522e99,0x3c801e91,0x3d0551ac,0xbd29ecb2,0xbce7b75d,0xb8c1b5a7,0xbd53712f,0xbc259fb4,
0xbd0e7420,0x3d50a7fd,0x3d82bfcf,0x3d732208,0xbcb5c052,0x3e4a5fb2,0xbc68978f,0x3bb2383e,0xbcd61a10,0xbda87193,
0xbd8a09be,0xbd796784,0x3d5cb517,0xbc86f0e9,0x3e11f145,0xbd391897,0x3c7b9fc4,0x3d260b2f,0x3cf5baa2,0xbd9239d6,
0x3d119ac2,0x3d67e362,0x3bf1d9e4,0x3da3fef1,0xbd4161a5,0x3c85eac0,0x3c853ffd,0xbc6db8c8,0xbb24a29f,0x3c6a05a9,
0xbd6b20ec,0x3ca6271c,0x3c1b53f8,0x3aad4a62,0xbdb040db,0x3bdd13aa,0xbd7696fc,0x3d57ec75,0x3d54c70b,0x3c29401a,
0x3d4252b8,0xbd5e863c,0x3e00bcf4,0x3d55ba47,0xbd631873,0x3c6f0dea,0x3ce9b062,0x3d82edeb,0xbc16dcc3,0x3b568c90,
0xbd6c4c6e,0xbcf4322b,0xbdb62975,0x3dabff37,0x3d09b2ac,0xbc7f293a,0x3d28f38a,0xbd80710d,0x3ca3d295,0xbd7640c2,
0xbcbb5937,0x3d5ccdba,0x3d1b4230,0xbd88a0a6,0x3cebeb50,0xbc0c4e5f,0xbc89d698,0xbc823da6,0xbd79b1ef,0xbd0d2795,
0xbd5754c7,0x3d247463,0xbd811d59,0xbcdd5e27,0x3c6930d0,0xbc555979,0x3ccfb17f,0xbd0fe6db,0x3b8f2452,0x3d073834,
0xbd13c59e,0xbdae7430,0xbd221911,0xbc1e259b,0x3dc196a0,0x3bfc1887,0x3de0c48b,0xbbd747f0,0x3dbba440,0x3d820155,
0xbd343c43,0xbd9eb3d3,0xbcf9e09c,0x3d72cfb6,0xbd056f67,0xbd023c29,0x3cba57d7,0xbc2968e4,0x3d9ae7e6,0xbd18292b,
0x3d18a52b,0x3c875f1d,0x3c7661d1,0x3c62c033,0xbd9f4f37,0xbad1b1e1,0xbd576ba1,0x3cc479f8,0xbc938c98,0xbe036c94,
0x3d2c10b5,0xbd36a0b0,0xbbf53eff,0xbc5d1d8c,0xbd07dbe9,0x3d91a726,0xbc8b6217,0x3dafd183,0x3c0cd75c,0x3c93bdc3,
0xbb9ea42f,0x39c76448,0x3d1228e8,0x3c95b995,0x3cdba5d4,0x3cad0c77,0x3cded676,0xbcb57cc1,0x3d89ba5f,0x3c9ec12f,
0x3d914bf8,0xbc1cb933,0xbc31bd94,0x3c2f8f47,0xbb714f20,0xbcf44d44,0xbcd9b6bc,0x3d2dae54,0xbda71345,0x39fc316f,
0xbb602b76,0x3d0ab574,0x3d5bb0be,0x3b567a68,0x3b403c75,0xbd964aaf,0x3d83a0e4,0xbd29bbc2,0xbc68a02a,0x3daa07e4,
0xbd027851,0x3d037740,0xbe11b07f,0xbd347cb5,0xbcd4463c,0x3dcde86c,0x3bb66eed,0x3d41489d,0xbd0e23dc,0xbc8db593,
0x3b8d2525,0xbbd6af16,0x3b6b572c,0x3db0ef8a,0x3d326473,0x3d09cbee,0x3afd72e1,0xbd023fb3,0xbd16cb66,0x3d6e8314,
0x3d902dc8,0x3c1865db,0xbdea3ee5,0x3c906416,0xbc402e4c,0x3da22dad,0xbcc95671,0x3dc729aa,0x3d81f558,0xbc04c98e,
0x3ddb663e,0xbd2cd6fb,0xbd4e45b5,0xba4034dd,0x3cec98cc,0x3ce80bfb,0xbc4c0a70,0xbd97fb63,0x3d6ed6e6,0x3c880247,
0x3cff14cd,0xbbb231d9,0x3d1cdf9d,0x3cf93e53,0xbbfcb084,0xbd8a775d,0x3d89b41e,0x3c76220b,0x3d7f5c3a,0x3d7024b7,
0x3d4db65e,0x3ca2bc69,0xbd0f6f54,0xbd916aa6,0xbdb43da0,0x3c474d99,0xbcbc242b,0xbe117a00,0xbd065e2e,0x3c842d47,
0x3d0bb06b,0x3daa3e93,0x3cd53be7,0xbc646088,0xbdaab42b,0x3a0d8401,0xbd04479a,0xbc8f5f85,0x3dcf39ab,0x3ccc8705,
0xbca4e06f,0x3da2b9a4,0x3cb2530c,0x3b64f220,0xbd132112,0xbda4135e,0xbc1314a7,0x3c1ab577,0x3d88da6b,0xbd7f1a58,
0xbcdffe54,0xbc717dc3,0x3d52e64a,0x3dba0e5e,0xbd402e45,0xb95a9888,0xbd961760,0x3cff24cd,0x3d4250ba,0x3c4ed2cc,
0xbcbe6e02,0xbdf7b1f8,0x3ce444c5,0xbd1e4b79,0xbc7429ef,0x3cc6ff87,0xbbeb78c4,0x3c693bc4,0xbd221803,0x3ca36d5f,
0x3d913f0a,0xbb00907a,0xbd8e28f1,0x3caf77dc,0x3d7f7f03,0x3d4f10b1,0x3b360955,0x3d5ec204,0x3bfd49a7,0x3d437777,
0x3cabce61,0xbaebfc0f,0xbd6e57b2,0xbd06b70e,0xbd242d3d,0xbc5e083d,0xbcc4d53b,0x3d7a83c2,0xbcab9b69,0x3d184386,
0xbd2b2ca6,0x3d0549bb,0x3b9a851f,0xbc9b6ea5,0x3d48fca8,0x3d3043bb,0xbcefbc43,0xbcbfc3dd,0xbc35181f,0x3bf40e1d,
0xbd48b372,0xbcb8299b,0xbd67df30,0x3d269c0a,0xbdc547ac,0xbba5c062,0x3d39ede5,0x3cca3146,0x3d7111a2,0x3d32ac4c,
0xbcfd8527,0x3d68a4f3,0xbda9875d,0x3d7cb608,0xbd77ca53,0xbae564bd,0x3c4f2f14,0x3ce51904,0xbca74dba,0xbd1ea9d9,
0xbcd11fa4,0xbd0ac58b,0xbd0f0cc6,0x3de7d21a,0x3dc48a96,0x3d35dde7,0xbd64ba38,0xbd201fa8,0x3cbb6663,0x3dc0bfa3,
0xbc0b073f,0x3da41b0d,0xbd12c901,0x3c603196,0xbb809917,0xbd3416e2,0xbc48aa75,0xbc68f106,0xbd06901f,0xbd7a2b70,
0x3d658b69,0xbda704bc,0xbc70afc0,0xbd85b6d0,0xbd16afe2,0xbd0aa877,0x3d9a96eb,0x3a138e10,0xbc6c0850,0xbbf98ee4,
0x3c7ec1fa,0xbde5ba18,0xbd67e179,0xbc19b4ff,0x3c6f8205,0x3d8fc5a6,0x3d5826e0,0xbbec09da,0xbd0abb4e,0xbe0c9992,
0x3b98598c,0x3ceefa30,0xbcc95789,0xbc58b17d,0x3c070d70,0xbd4d9fcf,0xbd2ac9f4,0x3d1c413c,0xbdd83419,0x3d9209aa,
0x3da4c72a,0xbd9f44a1,0xbd952481,0xbcce7371,0x3d0798df,0xbc701cfc,0x3c35af6b,0xbca39124,0xbd78377b,0x3d505954,
0x3c09d9ee,0xbb6fdf03,0x3d806e38,0xbb8689af,0x3c851cc2,0xbb3de70d,0x3ad2c646,0xbca05c22,0xbce747e9,0xbdae571e,
0x3c7a8b64,0xbd52d8e2,0x3d079883,0x3b9a2141,0xbcc984b9,0x3c883e77,0xbd9550f1,0x3964b23f,0xbcadfb39,0x3d1cc059,
0x3cfcc4cd,0x3bd77526,0xbcf42008,0x3d0891a5,0xbd6be942,0x391c3af5,0xbaec94ad,0xbd893555,0x3b24cc3b,0xbb8fd242,
0x3ccc91c5,0x3cdcc950,0xbcd79f41,0xbd7123ff,0x3bcba20f,0xbc1e8c1a,0x3d2f1be6,0x3d5877e0,0xbcc38432,0x3c9ee107,
0x3b57a2de,0xbd0e4793,0x3b8204bc,0xbc573bbf,0xbdbd5cd9,0xbd20139f,0x3d02f16f,0x3cd80337,0x3d32fe0e,0x3c85038e,
0xbdbce281,0xbd400f03,0x3d53a2f7,0x3cc02893,0x3c678d55,0xbc35b2d7,0xb92023d5,0xbd0edc26,0xbd286b4c,0x3d0b3be7,
0x3c2e6da8,0x3dc4ae80,0x3bd3a029,0x3c54a4d7,0xbddc319f,0xbcb4f634,0xbd4a9434,0xbce54c15,0xbd04bfeb,0x3d02cc03,
0x372ec16d,0xbd34e65c,0xbcbb0ca3,0x3d8aedb2,0x3be8cab6,0x3c6312c4,0xbc456a10,0x3d132b6e,0xbcbe1e5e,0xbc7201e4,
0xbcbf61a0,0x3d39fb3f,0x3d7b41b6,0x3cd8645c,0xb9859328,0x3d504490,0xbd05e28b,0x3cb3a6c7,0x3c27f4f5,0x3b490097,
0x3c89ce14,0xbdbe5646,0xbd350d49,0x3ccad64c,0xbca8ca28,0xbd192a0e,0xbc325ece,0x3d522558,0xbb727f5d,0xbba054d0,
0x3cdc08d3,0x3aa28cb8,0x3ccf107e,0x3c5503ea,0xbb616e2c,0x3cc49cbc,0x3c830120,0x3c5acae7,0xbd93de12,0x3c858831,
0x3ce3434b,0x3d4d904a,0x3ca8867d,0xbb3c5ac5,0x3d06471b,0x3ce22aad,0xbcdf1966,0x3cb84a35,0xbda315a0,0x3d4c020f,
0x3a04a5c4,0x3c81e8bf,0xbd791180,0x3bf27059,0x3d2f39fc,0xbd2f2cbe,0x3d31af35,0xbc7bfbbf,0xbd1e7913,0xbd13bbb0,
0xbc7c1ecc,0xbd3799f2,0x3c08b16c,0xbd2430d4,0xbc2012ec,0xbd47080d,0x3c79a46f,0xbce39f46,0xbce65968,0x3d29d488,
0xbb4dbe3c,0x3c7bd502,0xbd002363,0xbd066e08,0xbc3abd30,0x3c71c38e,0x3d5eb8a7,0x3cdbbfe1,0xbcb6bbcd,0xbd9c9c4c,
0x3d147d4f,0xbc13040e,0x3abe54c7,0x3c66e7d5,0x3cb98301,0x3ce6c64e,0x3d3e6cd9,0xbcb61507,0xbb27254f,0x3d697578,
0x3c9c3ec3,0x3d3acd87,0xbcf1ce58,0xbcddce65,0x3db5db30,0x3d4ba516,0x3cc162bd,0x3c218f9e,0x3d81d868,0x3cd9f004,
0xbd43303f,0xbbbf4983,0xbd551832,0xbd39a7a0,0xbd0be4b2,0xbcd9fe23,0xbce30e77,0x3c7e3037,0xbc3b79a1,0x3cac3c4c,
0xbc6396b7,0x3bead9bc,0x3d769aa6,0x3d2ee737,0xbd2e023b,0xb9de6dcb,0x3d33242b,0xbc11d8f4,0xbc8f29d7,0xbd9885b7,
0x3d56b388,0xbcda4521,0xbb38291f,0xbb3b267f,0xbd3d55dd,0xbd8f0879,0xbc3741d6,0xbd57a3da,0x3ce815f7,0x3c7cf40d,
0xbc578b3d,0x3c1da77e,0x3be666ef,0xbcd75536,0xbbd8f03d,0xbccbbdba,0xbd816f5d,0x3b8a268c,0xbc29d2a1,0xbcc9af4a,
0xbd23c96d,0x3d14fcfc,0xbcf3ec5b,0xbab34f44,0xbd850298,0x3d9eb858,0xbd84e57e,0x3d129e6e,0xbdd5bf06,0x3b914d6c,
0x3d6d4f3e,0x3b913e68,0xbc28d0ea,0xbb875731,0x3d260d56,0x3bd73646,0xbd9950bc,0xbc5cc53e,0x3cb98569,0x3d4442c3,
0xbd6fd56f,0x3dae8ff6,0x3c260d94,0x3d3fa23b,0x3c9edc31,0x3cf46a48,0xbbd87163,0xbd7ef55d,0x3a9a8a81,0x3c5f870c,
0xbaee049f,0xbcdbe3f8,0x3d31615a,0xbca7b3e1,0x3ceb61f6,0xbc8d1a09,0xbcfc256b,0xbd5f02cb,0xbce693aa,0x3da4bea0,
0xbca17648,0x3cd1b1ec,0xbdce5ce3,0xbda87804,0xbcb448a1,0xbd1b20a1,0x3d0131c5,0x3c8a82cb,0xbcdc3f80,0x3cf599c6,
0x3d524124,0x3bfdb5db,0x3aa3745e,0xbbf7a70f,0xbd16ed5f,0x3d08e715,0xbc4f7a61,0xbd53f3eb,0xbc9e579e,0xbc4fa2e5,
0xbcca89f1,0xbb87a316,0x3ccfb2ad,0x3d19b10b,0x3c5bef93,0xbd6aca2f,0x3c7c033c,0xbd2894f1,0x3d6f76b2,0xbd881fc7,
0x3cbaae8b,0x3d6f59d0,0x3d4ab98c,0x3d73a1fd,0xbd15c7cb,0x3c9b96d3,0xbc612b99,0xbb8ec080,0xbd1155b5,0xbd2faca6,
0xbc8299f1,0x3c78c5ea,0x3cee6a55,0xbdab5714,0xbd3a5f5e,0xba737091,0xbd3a73a3,0xbaedffeb,0xbc508823,0x3d48534e,
0xbcabb9b2,0x3c9e50dc,0x3d920648,0xbd7e77e0,0x3ce6ed5a,0x3c7356e0,0x3d21401d,0x3cd1a611,0x3cf1dff8,0x3d5a4d64,
0x3c03560e,0xbd3b5742,0x3ca4e46e,0xbcc591eb,0x3d10b6e1,0x3d72827c,0xbd3d8a93,0x3cdee25b,0x3d2843a2,0x3c8c32e3,
0x3dab6bb6,0x3ce89aa3,0xbc7fdb86,0xbb41e5c6,0x3c2b49d3,0xbd214ecf,0xbc1c941a,0x3d1160a4,0xbd916707,0xbcce5fc5,
0xbdf91c0d,0xbb149bbe,0x3cba50e1,0x3cda0535,0x3ca33cf8,0xbd1785b7,0xbc87299f,0xbd52b33f,0x3aa7550e,0xbbe56eef,
0x3dc77624,0xbc445860,0x3d287527,0xbc3b54a2,0xbd386fc5,0x3c2a7099,0xbdfbdec7,0x3b595d64,0xbd8af9bd,0xbd151c46,
0x3cd8e855,0x3d27e679,0xb9ed0d30,0x3d18971c,0x3c152108,0x3d1cb39a,0xbce22d31,0xbd9bd178,0x3c8611ec,0x3c31363f,
0x3c8c481b,0xbbe6b849,0xbcc9d0a8,0x3c1b2e0b,0xbcd8ff35,0xbccbbfc6,0x3be0058f,0x3c7cf687,0x3d1538ac,0xbcc6537a,
0xbce58069,0x3cb278e7,0x3c43f831,0x3c33b46e,0x3d49d761,0xbd249624,0xbc67cf08,0x3d1a43a3,0xbc50f895,0xbb6c09f7,
0xbc99bf28,0xbd8c0ae7,0xbcee5a50,0xbbc655cf,0xbd25735f,0xbb61e4ab,0x3d828a75,0x3c9600b2,0x3da8b619,0xbd012feb,
0xbc8536bd,0x3d85500e,0xbc07bb6c,0x3ce6527b,0xbbcbcd04,0x3cc6f94c,0xbd81dbef,0xbbb9c7c4,0xbcf32800,0x3c38954b,
0x3da2d249,0x3d9f1996,0xbce51341,0x3cef1c82,0x3dcd2698,0xbc8b0ed4,0x3d3104b8,0x3b6c3e69,0x3d0bb916,0x3b95f8a1,
0x3b08d1e0,0xbca7fb10,0xbcb14012,0xbd6bc8e6,0xbd99ddef,0x3d10c20a,0x3cf08b03,0xbc3e6159,0xbd55846f,0x3b6fb616,
0xbd45b521,0x3d5faa25,0xbd37635e,0xbd0668a5,0xbb77ad97,0x3ca0a3ae,0x3d5c9a9c,0x3da15396,0x3b53ac29,0x3ca8a6b3,
0xbc824603,0xbcf97062,0xbc0443b8,0xbcaffdcf,0x3c72e80f,0x3d5c6040,0xbd857da5,0x3b387412,0x3bc942b5,0x3d1dae92,
0xbd8c234e,0x3cbf533c,0xbc836cbd,0x3cc178f6,0x3ad7ca00,0x3bf8bbff,0x3cdaf571,0xbd19805a,0x3c1f0718,0x3c68ccdd,
0xbd1bb5ea,0x3c0e4879,0xbd37c081,0xbda03ca0,0xbcb99604,0xbce4f49f,0xbb781fb4,0x3ca70246,0xbc3b9446,0x3db0028a,
0x3c724ddc,0x3ca09e37,0xbb01c56d,0xba55296e,0xbcfba910,0xbcc4f5e1,0x3d282c30,0xbc2d87e3,0xbc10bdcd,0xbd5af473,
0x3d329027,0xb9bbcf93,0x3c1fc44e,0x3bce6da7,0x3b5dcae9,0x3d0cf4c2,0xbc009fb7,0xbcb0eb64,0xbbbe1f3a,0x3d29e69a,
0xbd86f15a,0xbc9d80f6,0xbcfdf31c,0x3c94c78b,0xbd03d966,0xbafaf563,0x3cd3e519,0x3cae756b,0xbc921da1,0x3c033c5c,
0x3cbb6324,0x3cadbbe9,0xbcdc8937,0xbc600498,0x3ca42095,0x3b581f88,0x3d6fce8d,0xbd0ce57c,0x3d2f7d51,0x3ac0cf3a,
0x3c1e0d41,0x3b8d568b,0xbcdce311,0x3d058fd0,0x3d19fa36,0xbcc1e7e8,0xbc18a957,0x3ce9f83a,0x3bafc504,0xbd2c4f15,
0xbc52e963,0x3c19f36d,0x3c12418c,0xbcb0de78,0x3c0da7eb,0x3c5c539b,0xbb7bc91a,0xbc32762f,0x3cae57ff,0xbd373402,
0x3ca6720a,0x3c44f6ea,0x3bbc5396,0x3c4add18,0xbcad3c79,0x3d90eb78,0x3d86d88e,0x3d1671fe,0x3da2fcb1,0x3d02266f,
0xbd4c5fd6,0x3b8d44ba,0x3d822637,0x3d08097a,0xbcddfdcb,0x3d4023ef,0xbd4f67f9,0x3cd8a0bc,0xbc6ad8d8,0x3d1d3bac,
0xbdb3fb8e,0x3b947a32,0xba2cbbe4,0x3d52f522,0xbca5a5b9,0xbb3123e0,0xbc231258,0x3c431067,0x3d0725bc,0x3c443a07,
0x3c945ddd,0xbb73f5b5,0xbaed4cf5,0xbcf30623,0x3bdbfcc4,0xbc1d5561,0x3d06390c,0x3d5f81f3,0x3986f4e1,0xbd11227a,
0xbbdadda5,0x3b4e56de,0x3d6a539c,0xbc67ef8c,0xbd1a750f,0x3c8542d0,0xbbe94ac8,0x3d5adb28,0xbd5466f1,0xbb3ab155,
0x3d3e0def,0xbb7e3a2f,0xbced736c,0x3d4cefc3,0x3bff7e3d,0xbb88d4d3,0xbae041dc,0xbbee97b0,0x3a882c9f,0x3c51e4f7,
0xbd76f0d5,0x3d1b5eab,0x3d229209,0x3d524069,0xbb8544ae,0xbc8d763a,0x3d0825c6,0x3d762a02,0xbc55f9ff,0x3caee682,
0x3d0e20dc,0x3c4586af,0x3d6d1ac9,0xbcec8c09,0xbd68a92d,0x3be014ab,0x3d578f4f,0xbcda6102,0xbdd2be1c,0xbbb82647,
0x3c05b87d,0xbd2d29ab,0xbd286e2e,0x39982b24,0x3d97345e,0x3ce42d44,0x3b988fa2,0x3d0a933c,0x3d82ca51,0x3d759b04,
0x3d580fdd,0xbcd9f1b9,0xbd73f660,0xbc4317cf,0xbbbb1637,0xbd265335,0xbd20d73b,0xbd4e57b4,0x3c147059,0x3ce2df8f,
0xbd322626,0x3d2b8280,0xbc56b8a9,0xbd8881e5,0x3da86849,0xbbae1311,0xbd526b7f,0x3d29eebb,0x3d170eed,0xba8d6eb8,
0x38c6e44c,0xbd4cbca4,0xbc85509f,0xbbfc35a0,0xbd3658f9,0x3c0a545d,0xbbc5c66f,0x3dad6efd,0x3d03f505,0xbd54a8a1,
0xbc404bd7,0x3d17cf28,0x3d880f8e,0xbd5c767a,0x3d61ddfb,0xbd2c23d2,0x3bf347fc,0x3cc21b4c,0x3ceb5689,0xbba44a08,
0x3c7b2f09,0xbd416e1f,0x3d32d915,0x3c4c01c7,0xbc713d73,0xbda77606,0xbda943c9,0xbc92e196,0x3cedb7e1,0xbd012b4a,
0x3d690fc8,0xbca90a4b,0xbdb5e8bb,0x3d164b49,0xbd207d2e,0x3d8f7990,0x3cbd8332,0x3d570451,0x3d2ebb88,0x3d81f3e3,
0xbd2aab2a,0x3c2ca7f1,0xba53524a,0xbc9546ef,0x3e0d137a,0xbcefed0d,0xbd84e5c7,0xbd22f3c2,0xbd998eea,0x3ccb5681,
0xbd9e853a,0xbcc3fa26,0xbbebb0af,0xbdc7b289,0xbc923c8d,0xbca0c377,0xbcb6474e,0xbcd5a3cc,0xbd4a0b97,0x3d812700,
0x3d0f137d,0x3d52527a,0xbcd74538,0x3ce88b89,0xbd9263c6,0xbd34e49b,0x3dfcc253,0xbb753f4a,0xbdc8e026,0x3ddfab80,
0xbd35321e,0xbdd11496,0x3ba083e7,0xbca98e20,0xbbc709af,0xbc16310c,0x3c5d32a1,0x3cabed4c,0xbd1b1a69,0xbcb0be6d,
0x3c4779bb,0x3cf75cba,0xbd1eba98,0x3cbe1eac,0xbd08a0d0,0x3ce75eec,0x3d299419,0xbd522dff,0x3d4561a0,0x3c12f7f8,
0xbc3dfb19,0x3bb0435c,0xbd53413e,0x3bc1eddb,0x3d21333c,0x3abe22a3,0x3ccb7f1b,0x3c6e03a2,0x3ba68e12,0xbc87eebd,
0xbc28c68d,0xbd021f89,0xbcfc1500,0x3cf53223,0xbae45170,0xbd982924,0xbbea4039,0xbd5fe22d,0xbc7685ac,0xbc9836d1,
0x3ca2938d,0xba1831e4,0x3ae32a84,0x3ccc82ed,0xbcb1fa19,0xbcc5ac05,0xbc090897,0x3cba2fbb,0xbd3c874a,0xbd913fb1,
0x3c78573a,0xbca3f056,0x3bc420c9,0xbd2d2676,0xbd189cfc,0xbd2199b4,0xbc96ba7b,0x3ba213bf,0xbce62387,0x3b9ff18a,
0x3d1b2681,0xbc97aeab,0xbd249476,0x3c1a841e,0x3c97cfe0,0xbcaabba3,0xbd32cf7c,0xbc7ba1aa,0x3d586d4b,0xbc584042,
0x3c3ce06c,0xbcf021da,0xbd5d82c8,0xbcc3cbeb,0xbbbb4133,0xbce47d85,0x3d958c2f,0xbcf4f051,0xbd8bed62,0xbc60ee79,
0x3c9fd1bd,0x3ca2cb88,0xbd15f8c0,0xbd9618b4,0xb81b2427,0xbc87e695,0x3d07fcab,0xbd0e0d99,0xbca17845,0x3bbc69fe,
0xbd5b5ee0,0x3d0f8d9b,0x3ac0bc9b,0x3d1966a3,0xbbdf82ac,0xbd983a02,0xbc10ce2e,0x3d61dd99,0xbbcb1030,0xbcb6dd10,
0x3c6bb155,0x3d2e76be,0x3be6d398,0x3cc71613,0xbd08bb16,0xbd858cf9,0x3c912efc,0xbc6058b2,0xbc4f4719,0x3cd0787c,
0x3cc393cf,0x3bf6c58b,0x3bc17527,0xbd696d95,0x3d1cc8fe,0x3d130140,0xbc94604b,0xb8443329,0x3d9d1468,0xbd648ce5,
0x3d09936f,0xbcf2bc01,0xb8f03947,0xbd03c513,0xbc65acc2,0x3cc02985,0xbcb36bd7,0xbc314502,0x3c3b9ef7,0x3be9a965,
0xbb0ea15b,0xbd4af622,0xbd8c0822,0xbceb8563,0x3cd07df0,0xbd88d9eb,0xbc77098f,0xbc32e84f,0x3c1f448f,0xba2b5c2f,
0xbd10640e,0xbcb794d9,0xbd97508d,0x3c83d7d4,0xbd7b1531,0x38d1e18e,0xbccef1bf,0x3c4332f5,0xbd4c5594,0x3aae9a8d,
0x3c243c67,0xbc34a69d,0x3d601fdd,0xb92f9b82,0xbc8490e4,0x3c15ac2b,0xbd05a4b7,0x3cde4f41,0x3c3972b5,0x3c8c3b74,
0x3c7bafdb,0x3c992f33,0x3c0c1bf7,0xbcda4a73,0xbc30ba61,0x3c8f01f5,0x3d70e248,0x3cd3d049,0xbbf249fd,0x3d23aa56,
0xbc9e6355,0xbcfbd2b6,0x3da4cb7f,0x3dbb5853,0xbdd8e914,0xbc2e2d89,0x3c1bf644,0x3c216684,};

