const static size_t backbone1_12_1_weight_size = 28160;
static unsigned backbone1_12_1_weight[]={
0x3e81cb3f,0xbd7e16f5,0x3dfd03fd,0xbb6d56f8,0xbdfde83d,0x3d3b4d3c,0x3b966a65,0xbe32ea7e,0x3d3ed552,0x3d5da17e,
0xbe1c01f6,0xbd80a1a6,0xbd5328a0,0x3935cc5c,0xbe2e4a67,0x3da74885,0x3d69974c,0xbcbac14a,0x3dda05fc,0x3dce7abe,
0x3dd4992d,0xbce709dc,0xbd330035,0xbca181c1,0xbd8991ed,0xbd131ef7,0xbd8c8705,0xbe16d957,0x3d9b4c8f,0xbcd31046,
0xbc8d5632,0xbe340806,0xbdc64af0,0xbdeeb9c3,0x3dadcafc,0x3e02c4c0,0x3ba7319b,0xbe826c9f,0xbd8683e0,0x3e12ed4f,
0xbd195358,0xbe70d38c,0xbe07c0cd,0x3b4c34e8,0xbe323357,0x3d68aa32,0xbd2d7269,0xbc42a75e,0xbdfb7a8f,0xba4dbac0,
0xbd9774ca,0x3e561a48,0x3ac08a11,0x3d2ea41e,0xbd83366a,0xbd8c54dc,0xbd16b033,0x3e0093f1,0x3e84209b,0xbd34c2d9,
0xbe1addb6,0xbe638788,0xbd99bcb7,0xbdae9477,0x3ec98d0d,0x3ebf2879,0xbd98fc0d,0xbe297fde,0xbd41b0b6,0x3bff9c2b,
0x3e04987e,0x3e67bcae,0x3dd76f19,0xbd4fc7c1,0xbe00078d,0xbc627c3b,0xbe2ece54,0xbea23fbb,0xbe87927f,0x3e008ea7,
0x3d138eed,0xbf1fa8a1,0x3b26aa6e,0xbd4d346d,0x3cccdf75,0x3d811215,0x389a3221,0xbda8a586,0x3d935981,0xbd43ab7d,
0x3d0d6d4d,0xbc36ec2e,0x3c21832a,0xbce8bd14,0xbd8de8dd,0xbcb6e0f6,0x3d62385d,0x3e9acb1d,0xbc2f8d98,0x3cca5f9c,
0xbe9792b2,0xbcfc38b1,0x3e2ef2bb,0xbd769ad0,0x3cc01f52,0xbc501dc6,0x3da551d0,0x3e41c3a1,0x3d58183a,0x3e492373,
0x396e0e4e,0xbd56a05e,0xbd8f4f4e,0x3d866ac5,0x3aa07086,0xbd7ccea9,0x3bdab4bb,0xbdf1c4dc,0x39e25d40,0x3d89bdb6,
0x3bcc44cb,0xbc78dfa1,0xbe064169,0x3d338308,0x3e06da2c,0x3e5ce252,0xbe1790dc,0x3d05c6ae,0xbe0c87b8,0x3e293d26,
0xbb77eaed,0x3db395ff,0xbe9f67d3,0x3d1d5597,0xbd3e932e,0xbd6c505d,0x3e535b7c,0xbe275cd4,0xbe303373,0xbe0732df,
0xbe35cf4c,0xbe18ba89,0xbeb3bd14,0x3c1bcc2b,0x3d377e53,0xbdb4b23e,0xbdb50d5c,0xbd5cada9,0x3cf4d2e1,0xbe24d545,
0x3e019c80,0x3b674e92,0xbe2d439f,0x3c219a6c,0xbe35681c,0xbc149367,0x3e073a9f,0x3ba51b5a,0x3e346c31,0x3e33db81,
0xbd68c379,0xbe4e7fc1,0xbdf4e921,0xbd014811,0x3e96ff67,0xbcaa63b6,0x3d5fcc84,0xbd7176da,0x3c88ae3e,0x3d6cd651,
0x3dc16ba2,0xbd1daad8,0x3e5a1d27,0xbe0f6e02,0xbd867c0c,0xbe111168,0x3d59a539,0x3b4947de,0xbe226f70,0xbe37991d,
0x3d9ce928,0xbe2b8e5d,0x3d9df34a,0xbde6017a,0xbd5aa525,0x3e079d88,0x3e0cb45e,0xbd986f8c,0x3d4e4206,0x3eaf202b,
0xbd0c36a0,0x3d840d7f,0x3db534cf,0xbc804948,0xbe55a042,0x3e84ade5,0x3d843372,0xbdf8a679,0xbdea9724,0xbd4160bf,
0x3d05fbdf,0x3cad45df,0xbd2b6f9b,0xbd819a15,0xbd031736,0xbdd7a820,0xbc83cd69,0xbe38c9b1,0xbe954619,0x3e304c35,
0x3cf47b46,0x3d09ac55,0xbdb290d3,0xbd511a62,0xbe0cf903,0xbd1fbc55,0x3da6b767,0x3e036e4b,0xbd03cfeb,0x3e0cd530,
0x3d7031ab,0xbdf54043,0xbd5adde2,0x3dcd319d,0xbd62f838,0x3da8bdc6,0x3df500ee,0x3cbab5a4,0xbc129d8d,0x3d9c4260,
0x3d881896,0x3e31e5fb,0x3c99288d,0x3d6f86c9,0x3e191d55,0x3c2d695b,0xbb164ea2,0x3e10f486,0x3c717a7c,0xbe22390d,
0xbc813445,0xbccf21e6,0xbbb2e249,0x3f1e5015,0x3aebfb9c,0x3b0f0e53,0xbbded134,0x3cf6d8bf,0xbc4309ea,0x3c703a8a,
0x3cc111a9,0xbd16e0f7,0xbc7025b5,0xbd5e834f,0xbca8d0d9,0xbc134dc6,0x3c9972e7,0xbd6a8c2e,0xbdcc13e7,0xbd762eaf,
0xbdc73829,0xbd668acc,0x3c8373a5,0xbc1f6b63,0xbd63eedb,0xbc9d88b7,0xbcf7e038,0x3d835031,0xbcf4519c,0x3dccb3b5,
0xbd9270b1,0xbe0a51e8,0xbd1247f5,0x3d7db8f5,0xbc0c968c,0x3db69297,0x3c8a5c5c,0xbdc9e357,0xbbb5e45d,0xbbc606ee,
0x3d5cf7c2,0x3e262460,0x3da10adc,0x3b366c0a,0x3d2790dc,0xbd1537c9,0x3db128ae,0x3c0eba7d,0xbd3414be,0x3c8e1787,
0xbdac4103,0x3d028fff,0xbd193b6f,0xbe126086,0xbbf94dd0,0x3dd70f8e,0xbd867124,0xbd2d6c1e,0x3cde59c0,0x3ce72b08,
0x3d651608,0x3ca78123,0x3d09c888,0xbb9c6539,0xbda59c44,0xbcdb80b3,0xbe38b0d6,0xbcc1155d,0xbcdbbe4d,0xbc95fa27,
0x3d3f4e83,0x3d286d2f,0xbd84b2a6,0xbd50df48,0xbd2f3b02,0x3d8a9c71,0x3d1f33bd,0xbd139057,0xbba850db,0x3d5075ea,
0x3e14254a,0xbc0d7d62,0xbda62d26,0x3d5b6297,0xbedf15df,0xbdd69096,0x3d08112c,0x3e9c3e7d,0x3d9c0c53,0x3dd64dd1,
0x3deb0e42,0x3e7ffda3,0xbe18bb2b,0xbd9a650d,0xbe49c3ca,0x3e4dd046,0xbe0546ae,0xbd87da20,0xbddc6d1e,0x3dbf43b9,
0x3dc93a56,0x3d3cd534,0x3dbbc171,0x3eaa978b,0xbc478adf,0x3dbb669c,0xbdc47768,0xbe13467d,0xbe013891,0x3c776964,
0xbe60bc33,0x3dc353a3,0x3c7ee94f,0x3ea0de6f,0x3e552da5,0x3ea83b02,0x3dc2b417,0xbc8d7aca,0xbe2e2497,0x3c74e5d1,
0x3c518a52,0xbd2e32c6,0xbde0b918,0x3dbc6476,0xbd3276c5,0x3d0616d9,0xbd67054c,0xbddc213a,0x3da90fdc,0x3e1d8cb4,
0x3cdd21e4,0x3e0cb1e9,0x3e7405ad,0xbde2b960,0x3e16b8fc,0x3e1cf663,0x3daa7349,0xbe765e97,0xba97e761,0x3c08750f,
0xbd975e33,0x3eb09495,0xbdfd909a,0xbe575ed3,0x3db2f0da,0x3d36e043,0xbd809947,0x3d9decfc,0xbdcdecd0,0x3ddc1877,
0x3e9d9ad6,0x3d6e471c,0xbe353851,0x3dad4cab,0xbde5b4bb,0x3dc19a8a,0xbe4540fc,0xbd910445,0xbe2f3367,0xbd2d50ae,
0x3dd31ac7,0xbd62a7f9,0xbda6a439,0xbd777023,0xbdd680de,0xbdabed71,0x3a98cf49,0x3e7a92e2,0x3ccb676b,0xbe7233d4,
0xbe13218e,0x3e2e90c5,0x3e0022b2,0x3c0c98a0,0x3d7bf562,0x3d8b0b88,0xbd1dcf83,0x3d82c84a,0xbc635360,0xbd96cd55,
0xbd13c277,0xbd54a5cd,0xbc4c6da9,0x3dd141dc,0x3cd0a8ed,0xbea0baab,0xbdd1d3fc,0xbceb209f,0xbbb91b7f,0xbcbcbabf,
0xbd29fd89,0xbd1d7250,0x3cf9ed23,0xbd42f09a,0x3e2e12f9,0x3c261f9d,0x3e15d076,0xbd642b9d,0xbe0cd386,0xbe5378e5,
0x3db9b4ba,0xbdbfc4f1,0x3c56b53e,0xbe2e7e19,0xbca8e180,0x3e127746,0xbd88761b,0xbdf3ecfd,0x3bc7e353,0x3a1e6f92,
0x3d927844,0x3e1d63f6,0xbd2c47e4,0xbe3b1862,0xbe451d16,0xbe0b794f,0xbc47d4ba,0xbe65b9e9,0x3d82f6da,0x3e36984d,
0x3d30057a,0xbd69c42b,0xbcf251f4,0xbe498398,0xbcd6b32f,0x3d16e025,0x3c48c54a,0x3cfec29b,0x3cb1ea50,0x3d488e70,
0x3cdb7efb,0x3dcecb68,0xbe9617c6,0x3c5d8340,0xbd213d2f,0x3d067eb4,0x3d379a9f,0xbdbff6c2,0x3dc469bf,0x39640b71,
0xbe1a812e,0xbac6cab9,0xbdbd5141,0xbc51d861,0x3d7ce643,0x3c43c7e2,0x3eee1ff2,0x3ddd0fe7,0xbcba410e,0xbd86cd67,
0x3d2bedd7,0x3c1f276b,0x3c9f8e5f,0xbd42e7cb,0xbd7c106e,0xbd25c785,0x3d51db70,0x3d0f4b14,0xba927043,0x3d7ca78b,
0x3c0fcf21,0xbd8db051,0xb98430d5,0x3cc6682e,0xbd00ae45,0xbcad2338,0xbe2a88e8,0xbc8942c1,0xbde4a25d,0xbdd1183a,
0xbe00c85b,0xbd7bdb4d,0xbd7f29e7,0xbd0c12d8,0x3b7d5352,0x3c22f002,0xbd82edf4,0xbd20a7f7,0xbd937541,0x3d5ae432,
0xbd199394,0xbcbedcd8,0xbc72820a,0x3d8871c6,0xbdc5b0de,0x3c0530b5,0x3d0449de,0xbd5b3745,0xbdb61b17,0x3e00b200,
0x3d339d02,0x3de28e6e,0x3c07c619,0x3c48728e,0x3caef1d2,0x3c824f6d,0x3dedef91,0xbd89e308,0x3e010a17,0xbb53e2c9,
0xbde58a3b,0x3ca65cb0,0xbe305521,0x3e348429,0x3e9b9592,0x3da51476,0x3c8ee396,0x3dad8ddc,0x3da9c33b,0x3da68849,
0x3d03a251,0xbb94a2db,0x3d4138d3,0x3c460f01,0x3dad3a24,0xbcce4373,0xbcdb9f3f,0xbd9eeca4,0xbc8d0f17,0xbd252591,
0x3b2a592b,0x3d36c20c,0x3d92c55d,0x3e159714,0x3e821282,0xbe124469,0xbd4d48bd,0x3ee4502f,0xbe70283d,0x3dff464d,
0xbe8f50df,0x3d71fb62,0xbe20d52c,0xbc3e4572,0xbd455ec7,0x3e18a306,0xbdc5cf6d,0xbd8d418c,0xbe2e5789,0xbe8eba15,
0xbd036c77,0xbdd7d693,0xbe5fa875,0x3e49ce0b,0xbd31a6ae,0x3eae813c,0xbd074d9c,0x3c818b3e,0x3e850190,0x3cfe3bae,
0xbe605cf3,0x3e05eb5b,0xbc85a691,0xbc566c46,0xbeb26610,0x3ecbd9ff,0xbe35a739,0xbe0086ca,0xbda998bc,0xbd596d50,
0x3e65186c,0x3e59f2fd,0xbcaefd8c,0xbe0bde0c,0x3d99be31,0xbe06200c,0x3dcf80fa,0x3e23ea1f,0x3ca8ee2d,0xbe346713,
0xbe159fd8,0xbde63391,0xbe34a71c,0xbe06eab9,0xbeeeafa9,0xbdd68f15,0x3e7a703f,0x3bc5adb8,0x3de96961,0x3ef7e9e6,
0xbd55b8fc,0xbe6e5cfa,0xbe00369f,0xbd99caa6,0xbda5505a,0xbe412da2,0x3e4c177a,0xbd064e02,0xbd047373,0x3da0c6af,
0x3e81d719,0x3e9aa894,0xbe2cb57d,0xbe179417,0x3ebf038f,0x3c5c21ba,0x3e00e955,0xbe12c8db,0x3d7c5c13,0xbe1cbe4c,
0x3d6da47a,0xbdf28dc5,0x3e0e4229,0x3d0ef334,0x3d87b946,0xbd0da9ff,0x3c1de3c6,0xbdab7dde,0x3cffa3ca,0x3e92c464,
0x3e15aa70,0x3d841b6f,0x3d770e0b,0xbc58bc34,0x3dc55d1c,0x3d615e24,0xbd4b6c78,0xbda0b7da,0x3ccf021a,0x3e1256ef,
0xbda9957d,0x3c96a07c,0xbe31eaec,0x3cc99fac,0xbd304dde,0xbce3ffdd,0xbde6edbf,0x3c513751,0xbc83e276,0xbd8b5652,
0xbee474d8,0xbe371810,0x3ebb44be,0xbe3ebe0b,0xbd3cc50e,0xbcc71dea,0xbe3077f2,0x3e5641bc,0x3d4c5bdb,0x3d7c51f2,
0x3e394473,0x3e5112d2,0xbc456dd2,0x3e7a3781,0xbbb9c6d3,0x3e1cb8e6,0x3e361e94,0xbe3dfbfe,0xbe1914f8,0x3c882bf6,
0x3e2597c6,0xbdeff63a,0xbdae0700,0xbdd53240,0xbdb39c12,0xbe4e21fc,0xbafabd3e,0xbe1a7ca6,0xbe3573fb,0x3eb954fb,
0x3cde7029,0x39d5f010,0xbce69e13,0xbdd01ccb,0x3e108bd9,0xbd392f70,0xbdea4442,0xbccfe71b,0xbe0ea8e9,0xbdbde952,
0xbcb4118e,0xbe43b366,0xbe5d917f,0xbe47d9d9,0x3e1e2d3c,0x3e8ff8b0,0x3e20d6b2,0x3d37090f,0xbe1f7bb8,0x3ec0b982,
0x3d3465ac,0xbc548b53,0xbd84929a,0xbd2af6fe,0xbd98d7f7,0x3db8a7ef,0x3ceabc72,0xbacdf249,0xbdc9f65e,0x3f2141dc,
0xbca41c6b,0xbc88a017,0x3e022e94,0xbd2c8dfb,0xbe1c8bc9,0xbdb32363,0xbe0dd0b2,0xbc81427b,0xbd637b51,0x3d98fdc6,
0xbcd7ac77,0xbe3cf3c5,0x3da0e529,0x39900640,0xbd9f0b70,0x3d0a09a0,0x3c64cf49,0x3d30f5b8,0x3de8bbac,0x3caba619,
0xbe320390,0xbda4ac04,0x3d3e3c9d,0x3e1af423,0xbd231f45,0xbcbcd63b,0x3df20917,0xbe290d3e,0x3d9552d2,0xbe33fdc3,
0x3ca5ee89,0x3da66bc2,0xbe0bbb6b,0xbdae1311,0xbc86e4cf,0x3e0c29c3,0x3be9e62a,0xbd260bd7,0xbc80c5ad,0xbcb8774a,
0x3e8e4723,0xbbe65be4,0xbdbaae63,0xbdf9d7bd,0xbdca7a87,0xbd2559e7,0xbe0301dd,0x3d7e4b3a,0xbc410722,0x3d1b25b9,
0xbc15f6b2,0xbdbba2a9,0xbd368801,0x3c87fb2c,0x3d9ccbc8,0x3b32fab2,0xbe5a3182,0x3d750900,0xbd94f27f,0xbd5ab0b2,
0x3d339892,0x3d91a502,0xbcc4c96f,0xbe947d14,0x3cc02a6b,0x3d6c4342,0x3d159a2e,0xbc5f99ea,0xbe083c81,0x3ec8172e,
0xbcdaca41,0xbe0a8043,0xbdc8b56a,0xbdd2c8d3,0xba353b6f,0xbdd55686,0x3cb81bf2,0x3cdcb6da,0xbe1916f4,0x3db90411,
0x3e461150,0x3e0834ff,0xbe037900,0xbd6b73d9,0x3baaea43,0x3c89d978,0xbcbf07ff,0xbd1c3e5d,0x3d635321,0xbdd2dd64,
0xbc663603,0x3e0dbf3f,0x3e75acf8,0xbd069b6e,0x3c43da99,0x3d88ec13,0xbdc35cc0,0x3d0b8364,0x3daf660a,0x3d0faff0,
0x3e0833e3,0x3c7f2250,0x3d93f736,0x3d02aab7,0x3c96b6a0,0xbd1aef56,0x3e475e86,0xbd9e8b41,0xbd98da7b,0x3d947b0c,
0xba861c7c,0x3e3b962a,0x3d02e1cf,0xbda54df2,0x3d96b249,0xbce5b209,0xbe12140e,0xbb58620d,0xbd051fb5,0x3b0c9b3f,
0xbde3be76,0x3e694ac0,0xbc6d86be,0x3da9c73b,0x3cfb7a89,0xbe0da699,0xbd053bef,0x3d473e5f,0x3ddb0ab9,0xbd4f1186,
0xbdd94145,0xbd29670a,0xbda08049,0x3c8bee97,0xbe0c4cd5,0x3e0ec915,0xbe7d76c1,0x3db027f5,0x3c65d493,0xbdbe76f8,
0x3decf24f,0xbd278df0,0xbe9daf81,0xbe91a663,0x3e264e6c,0x3dd60bd0,0x3ad95576,0x3cad650d,0x3e9226d9,0xbdf8a961,
0x3d084899,0x3d195892,0xbd275d76,0x3ddf8d81,0x3cfe10f7,0xbdf4b28e,0x3d5747c6,0x3e2a7311,0x3c8af609,0xbd7af6ef,
0x3d3498bb,0x3ea6cfcf,0xbde85b59,0x3d99ccc7,0xbbab1bd2,0xbc0f7a4e,0xbe554ac8,0xbc55a3b8,0x3ccac0c8,0xbd080634,
0xbdc888e7,0xbd57b7d1,0xbdd15738,0x3cdc6eda,0xbd2d6c83,0x3e2b37a9,0xbcaf81b5,0xbe0c47a0,0xbd2fc200,0x3f2145df,
0x3db326a9,0x3e60ea0f,0x3db78e6d,0x3d59b386,0xbd64fbf5,0xbde5e8ff,0xbd1b0200,0x3e2293f1,0xbd75d56c,0xbd5f8928,
0x3cbb87e3,0x3dd29d2f,0xbe1e72f6,0xbd7793f7,0xbd92c385,0xbe4fce67,0x3cf69343,0xbceed8a8,0xbd0af966,0x3e41c780,
0xbceed154,0x3cbdcb59,0xbcb0bf56,0x3d809c02,0x3e10111f,0xbdc31f85,0xbdd5757e,0xbccf2499,0xbd4a0529,0x3e04a807,
0xbd01289c,0xbe1814b8,0xbd96c931,0x3e1f9210,0x3d882c71,0x3d12f2aa,0xbf244786,0x3da7e25d,0xbd87bf4a,0x3e29782d,
0x3d4b02b8,0xbcf814fa,0x3e176c50,0xbe087a50,0xbd12adbb,0xbe38192f,0x3d265a72,0xbd0041a4,0xbd2a9574,0x3cb0e4a5,
0xbcbd210a,0xbbe8119d,0xbcab7669,0x3ca3d6ea,0x3e5e78a6,0xbc8492c5,0xbda9493b,0xbe1faf99,0xbe1383e1,0xbbd10325,
0xbd355d4c,0x3c90c94a,0xbde482da,0xbdb38708,0x3da4d37b,0x3d4b0c4e,0x3c44415a,0xbd81792d,0x3daa3af7,0x3e213054,
0xbcfa34ee,0xbd62f26e,0x3e28b2a8,0xbd9a5d80,0xbd8bffe9,0x3c2738a1,0x3d7efc6b,0x3cc92e51,0xbc6fb6f9,0xbe115eed,
0xbe80a248,0xbd3185d8,0x3e4e0cae,0xbd87986c,0x3d4eb952,0xbe35fa30,0xbe398997,0xbd40a23e,0x3d6d94ad,0xb8efee1d,
0xbba9662a,0xba5a0762,0x3d8e2521,0x3d2f1cd0,0xbe0e58a6,0xbe25ade9,0x3c9a39f7,0x3dafd646,0xbd76beaa,0xbd0f271d,
0x3dd4fdba,0x3c3bb20c,0x3d9360d9,0x3d19784f,0x3d9c97ba,0xbdaab0a0,0x3ccf8722,0xbe42ad78,0xbce3ea61,0x3e073ad3,
0x3c36d84e,0x3c970c22,0xbd3b87aa,0x3d10fdc7,0x3bdfa984,0x3c314a10,0xbe3aae5b,0xbdfe480c,0xbd750b7a,0xbdc2de6f,
0x3d4c50d4,0xbd82f1eb,0xbd773000,0xbdecb8cd,0xbde52cba,0x3bad00ba,0xbd630dbe,0x3c66c75a,0x3e33b301,0x3dee3ab5,
0x3dcf108f,0xbc79a08d,0x3e515135,0x3c9874c5,0xbdfd96b1,0xbd282ea0,0xbdd3525c,0xbe027eb3,0x3d222b8b,0x3de2effb,
0xbd0d76a5,0xbd7e82ae,0x3d783a43,0xbef8772a,0xbe963d9b,0xbd5ce7da,0x3de7517b,0xbdb0ce9f,0x3e00c8af,0xbc33de4e,
0x3da9414d,0xbe24f139,0xbe381fd7,0xbc8b79df,0xbd3b9317,0x3d98d903,0x3dfa9a45,0xbd87651a,0x3db48750,0x3caab69f,
0x3d081292,0x3d6b8abc,0xbcefe1c3,0x3d803ff5,0xbd1292df,0x3e8d4326,0x3d72f46c,0xbe909b48,0xbce88a40,0xbe8dd0df,
0x3d8e7056,0xbd06cb0b,0x3d7ff6d7,0x3d1a0fcd,0xbe0fef73,0x3e3bfd63,0xbe92193a,0xbc55a8cf,0xbd85a39f,0xbcfe6a6d,
0x3e3e0e0b,0x3d7054ef,0xbc470177,0xbe426fb5,0xbe284d03,0xbed0ecf6,0xbc4d1cb8,0x3d290d0d,0xbd365212,0x3d9e7f88,
0xbd605d47,0x3dbbd6fe,0x3cce0864,0x3d817031,0x3e29d865,0x3daf3690,0xbdbfb0a6,0x3e6f3a3b,0xbd1e5287,0x3d80b531,
0x3df58ce4,0x3d8b601b,0xbd532c98,0x3e25eb21,0xbbc02aef,0x3dc791f8,0x3ea38577,0xbe0f1e52,0xbd6caa1d,0x3ea697ba,
0xbc6116de,0xbd8423a3,0xbd3516b3,0x3cdff297,0xbd316100,0x3ddfaa9d,0x3da1c7b2,0x3d95bf46,0x3c581a8e,0x3d14fd32,
0x3c2117c7,0xbd2c1288,0x3ce31ad6,0xbc5ae7b1,0xbde0f11b,0x3d198f44,0xbd06b71a,0xbc87cef0,0xbe153413,0x3cb25998,
0xbd3343e7,0x3d532ddc,0x3d2e6b7e,0x3d4853f3,0x3cf772a1,0x3d18104a,0xbdc5f91e,0x3d449c2f,0xbde62503,0xbd1e3571,
0x3d387cbb,0xbb179ea2,0xbdcf3f6e,0x3ddc3752,0xbc708089,0x3d1eca91,0xbe2840d8,0x3c3513d5,0xbc816cef,0xbcd2d418,
0x3e8d94d2,0x3dccda44,0x3db8f88e,0xbcf5967b,0x3d38302d,0xba056f6b,0xbc49ed9e,0xbd9e184a,0xbd04b15d,0x3d19104d,
0x3d97644c,0xbcbd298e,0xbb284aa5,0xbd38f0e0,0xbd9c1af8,0x3d1e598c,0xbd162dfe,0xbd86f838,0xbe0b87f3,0x3d10f950,
0x3e0b2136,0x3db30dfd,0xbe5121eb,0x3ce23f16,0xbe445e71,0xbc9d5119,0x3e2b3d07,0x3ddd528a,0xbdc81be9,0xbe93ef47,
0x3d64dfc8,0xbda0d03d,0xbe89dad2,0xbcc1d4f1,0x3d823c8a,0x3d414519,0x3e2d7f2f,0x3de58396,0x3e0dad69,0xbe06f198,
0x3ce98eb4,0xbccdaf47,0xbcc74f1f,0x3ce64da7,0x3ce4c7c1,0xbdd78268,0x3ccd62dc,0xbd536c4d,0xbdcca97b,0xbce71e1d,
0x3d9033c5,0xbdc5d0c8,0xbc706a29,0xbddfcdeb,0xbbb28c11,0xbe613592,0x3d0d4bdf,0xbc2e6a11,0xbd157d5b,0xbdbd15c8,
0x3d268af8,0x3b9f365a,0xbd0a9fa0,0xbaa84ceb,0xbd40f6ea,0x3d4c49d4,0xbd5c9c28,0x3db1f90e,0xbcf75a6f,0xbc2aa38a,
0x3d831b43,0x3d72819c,0x3e0a32fb,0xbe1ba255,0x3d488171,0xbdff504a,0xbdcccd5b,0x3e118dfa,0xbe191055,0xbdadca7b,
0xbe07fd96,0xbe26268f,0xbbd43525,0x3d0d94ce,0xbbd7cf2b,0x3d9b45a1,0xbdf2177b,0xbe184696,0xbda9b3c0,0xbd4f029f,
0xbe107f66,0xbd33e01e,0xbe7fb56d,0xbccff4db,0x3d720c0a,0x3a8db38d,0x3d8a3001,0x3e96fe8c,0x3e0319b6,0x3d2fffb9,
0xbc81b35b,0xbdefd267,0x3e189777,0xbe848d78,0xbda0cd35,0x3ded81e4,0x3d63b7d0,0xbd4d2e55,0x3e480485,0x3db56a7e,
0xbd6d3c29,0x3ddaea44,0xbd44b659,0x3d31c36e,0x3ea35bb3,0x3e715347,0x3eda29f7,0xbdcc706c,0xbe1e7292,0x3e3940e4,
0xbe42c5da,0xbe2340b4,0xbc767fd9,0x3c886690,0xbbec0412,0x3d80f019,0x3cf05a49,0x3d946a78,0x3d823cfa,0x3d9e86fb,
0xbd7fc82e,0x3a5bba4b,0x3e4e26bd,0xbc912396,0xbd27c6e3,0x3c874da3,0x3e4588b8,0xbbc4200e,0xbc0b71c2,0xbcb7d9de,
0x3d736d7a,0xbd71f328,0x3c0c0b01,0x3d9ae265,0xbd69ba9b,0xbdbe7ac8,0xbe022c5b,0x3d2771b6,0xbe024282,0xbdefb13d,
0x3d60a2ae,0xbcb47f69,0xbaf7ce3b,0xbdff2d83,0x3c92f017,0x3d276afa,0xbd81ccda,0x3d045ef1,0x3d89e9b2,0x3e0c4f5e,
0x3df36fb1,0xbce6c497,0xbd0dc43e,0x3e42502a,0xbc994381,0xbd9cc718,0xbe4e574a,0xbe022e21,0x3ce3fdb3,0xba006582,
0x3ca6b00d,0xbd818fe2,0x3d9ae9ca,0x3c79d7e3,0xbb36f8cd,0xbda5fd97,0xbe40954a,0x3d18c0fb,0x3da9fc92,0x3d782293,
0xbe12efd1,0x3c92304d,0xbd945327,0x3e23c8cc,0x3db1028c,0x3e17e866,0x3b94bbc6,0xbd4534b2,0xbd01b2cb,0x3ea6c431,
0xbcb752fd,0xbe6cf627,0xbe241555,0x3bd694b6,0x3e9fc2bd,0x3e1b045c,0x3e1fa5f2,0xbda32322,0x3da91f6c,0xbde23453,
0xbdd30a7f,0xbcb9386b,0xbdc56425,0x3c8bdd7b,0xbd84a49f,0xba11f8a4,0xbdc8c1ef,0xbd607f21,0x3dbce880,0xbd57c202,
0xbe45c51d,0x3d109e29,0xbd2aeb6b,0xbd38a494,0xbd0ad97d,0x3e03766d,0x3bc56387,0xbde3b775,0x3d7e3f77,0x3cecc8ed,
0x3ce36be9,0xbe9287e3,0x3cc133a0,0x3defc1dd,0xbd63d1aa,0x3d8a486a,0xbc988e93,0x3da134bf,0xbe2fc6a8,0x3d1eb0cf,
0xbc76ab88,0xba6ba36d,0xbd2473a9,0xbe755c17,0xbcf8c20b,0xbdb95fbe,0x3c4ab321,0x3decc6f8,0xbc6e22fa,0x3d2408ab,
0x3e5745dc,0x3de2d195,0xbd8eb9b0,0xbe6e7dd7,0xbde9fd6c,0x3d91aa5e,0xbda21b65,0xbd5eef2d,0x3dd57037,0x3b86694a,
0x3ddbd32c,0x3d66fb09,0xbd8a265a,0xbebf3817,0xbdfab562,0xbea7cafc,0x3dfbfa25,0xbe7ff147,0xbc75b1d9,0xbd1f2ae8,
0x3e97e817,0x3cd0d479,0xbe26d14b,0x3e6ed64a,0x3dd41555,0xbc3dce87,0xbed761da,0x3de173c0,0x3dbcf6c4,0x3ca84ffb,
0x3e737cd0,0x3d137d56,0x3e334594,0xbe0b5677,0x3e530eb6,0xbc2b2983,0xbe6635fe,0xbeda5315,0x3bb8dbdc,0x3e8a588e,
0x3c9bb6fe,0x3dbcca35,0x3d7291af,0xbd123df3,0xbe833769,0x3e7664b8,0xbda907ca,0x3e05b43d,0x3d45fb62,0xbe06d5d5,
0xbd05edca,0x3db09baa,0x3e9dbf12,0xbd9449f2,0xbdbc2f78,0x3c2a6e11,0xbe1c608b,0xbcc936db,0x3dac8b5e,0xbd2e8b2e,
0x3e71881e,0x3e26e524,0x3d7eed69,0x3e1873f9,0x3d457c39,0xbe81f04e,0xbd542403,0x3e190e8c,0x3de02285,0xbd81c102,
0xbda48e6b,0x3c70a670,0x3de32dbd,0xbe21d02c,0x3c50e434,0xbd5de02a,0xbddd4625,0xbbf44e8b,0x3c0e0c57,0xbe33b5e2,
0x3ea05270,0x3d8b7e9b,0xbd9bca58,0xbdc4c164,0x3ce905c1,0xbd8d89ec,0x3ddd5b0f,0xbe0384ba,0xbd0bc138,0xbd93a790,
0x3dd0d126,0xbd4612fc,0x3ce77238,0xbd3d4406,0xbe8ece4e,0xbcb69f13,0xbd88ee47,0xbcb539f0,0x3d9a5ee3,0xbd18488c,
0x3cdf765c,0x3c4121d1,0xbc996b19,0xbdde5780,0xbe8cbe50,0x3d5073de,0xbe0e0331,0x3e54e479,0x3dc04464,0xbe29ebd7,
0x3ddb120a,0xbda32564,0xbe4fb03d,0x3da71552,0x3ded676d,0x3e8162c3,0xbe8bcebf,0x3e0267c6,0x3e2b87d7,0x3dadf3a1,
0xbce434e6,0xbe6eb02b,0xbe3ce759,0xbc920478,0xbde7586a,0xbb0911b6,0x3ce14bcc,0x3cc8e762,0x3e4651ae,0xbd8ad7d7,
0xbcb96cab,0x3dc864fb,0xbcb56760,0xbeaf30f2,0x3d6a8bda,0x3d90f5ab,0xbdd79fbc,0xbda6826d,0x3d562003,0x3eb7e2dd,
0xbeaa3dcb,0xbdcdbd07,0x3d886396,0x3e77e229,0xbcc2d170,0x3d637630,0xbd1d243a,0xbea99e89,0xbcd95cf0,0x3dfb3733,
0x3e2f9ad6,0x3d26b995,0xbd7a8560,0xbe3f885a,0xbe944499,0x3dec8663,0x3dd8ac1b,0xbe59568d,0x3e3f9d1d,0xbde97747,
0xbb400aeb,0x3df69ff8,0xbcd60d19,0x3e2d4c8d,0x3d4b576c,0x3d52a331,0xbe11f76f,0x3c7f9544,0x3d9eacf6,0x3e8ae1b3,
0xbe665d59,0x3e26fc6a,0xbea15f88,0xbe2bbc6c,0x3e71ce40,0x3d8bfeb3,0x3c346010,0xbec96e1e,0xbe96d0d6,0xbb6313ef,
0x3dd957c1,0xbe423845,0xbda0969e,0x3d67326e,0x3e642361,0x3e40ad5c,0xbd228658,0x3dbf87ee,0x3d861c91,0x3d817f8b,
0x3e3171a2,0xbd1bb60a,0xbe7f8606,0xbe054251,0x3e81388a,0x3d7b4c7e,0x3e990823,0xbe3fcba4,0x3ea24dbb,0xbd8ebea4,
0xbc240ff3,0x3cd64d05,0xbaea588d,0x3cbe4939,0xbd20c87d,0xbac13555,0x3d849f30,0xbdaabba4,0xbbda66e5,0x3d703b66,
0xbcb41f2c,0xbbf1c29b,0xbcd53031,0x3d88a81a,0xbd9e4cd4,0xbcfba7a8,0x3c9d490d,0xbe093846,0x3dc96dab,0xbce7adb5,
0xbe78dbc8,0xbd06d4e0,0x3dead0a4,0x3d4bb11d,0xbb9f4bfc,0x3d4b91cc,0xbda0750e,0x3e8f2d6c,0x3dab978c,0xbd199e9b,
0x3ce5d2c7,0x3b473198,0x3d8ab78c,0xbc8c1ea7,0xbb3cc5f9,0xbd0d883d,0xbe215216,0xbe1e24db,0x3d5473cc,0x3c599e05,
0xbc24b423,0xbcadbff4,0xbba6cb26,0x3da00982,0xbceaf1e1,0x3e004293,0xbe14f004,0xbe03d2e9,0xbd64d024,0x3ceba65d,
0xbd612a91,0xbd06dff9,0xbda2be5c,0x3d04cbe6,0xbcf001ad,0xbd1a1014,0x3d5de46c,0x3d89ebd3,0x3d5c3e2c,0x3dea2a54,
0x3db12bc2,0xbd07a8b0,0xbdf07a52,0x3da0db70,0x3cf67734,0xbca0c00e,0xbe18c3a3,0xbb264d40,0x3d8b0200,0xbce1effa,
0x3c79e245,0xbd781dd1,0xbe9a8edd,0xbec025b1,0x3e2594a8,0xbda0dd87,0x3ea73511,0x3d7980c4,0xbc5b342c,0xbde77a58,
0x3dd772c3,0xbd180a47,0xbd4e128b,0x3d2fc612,0xbdb1ccdf,0x3e4c3bf8,0xbd5cf47b,0x3d6599c4,0x3e4e78a2,0x3d055790,
0x3e10abde,0x3e1bd81e,0x3c8d1d77,0xbd1724b4,0xbd9f9b9c,0xbd064b82,0x3cf74556,0xbe96f5a9,0x3e613b53,0xbe1e8979,
0xbe0540bd,0x3e483467,0xbd8adc80,0x3d84c1b8,0x3cca8658,0x3dd8ddff,0xbd534fb7,0x3deed0af,0x3d8f6426,0xbd95ca59,
0xbd47b2ce,0x3e0303fa,0xbdbdae9f,0xbc2f0645,0xbd0e1980,0x3cbf2d27,0xbb7d5c4f,0xbe921199,0xbcf02a22,0xbd5962fd,
0x3e0b793d,0x3d221639,0xbcad20ec,0xbd816ff1,0x3dcbe81c,0x3dbaea76,0xbe9b65e4,0xbd100ca1,0x3d2b52c2,0xbda90818,
0xbc89206b,0xbdb85792,0x3b46cdc8,0x3d01aca6,0xbcc516f9,0x3d66c51b,0xbc95e0b9,0xbcd5dc9c,0xbd10d104,0x3c121227,
0xbde11e6a,0x3dad0241,0xbc964120,0x3c73739f,0xbe836844,0xbe82b041,0xbd72662c,0x3ab8883d,0xbd45aed7,0xbd369cc2,
0x3d33b786,0xbd41c8ef,0xbe39751f,0xbe3b03cc,0xbe8c4266,0xbd830930,0x3e3feb48,0x3d90d148,0x3e8cb1e6,0x3d5265b0,
0x3dee1a37,0x3db81f69,0xbe2b2c04,0x3d1b082d,0x3ce6b4e5,0xbce5b829,0x3eb53ab7,0x3dd206bf,0xbe12cd41,0x3de959e5,
0xbc9079a7,0x3b3fa366,0x3e5c7492,0x3e759c5d,0xbdc23392,0x3e87c476,0xbed42778,0xbe8c5ac0,0x3e564a71,0x3e8e67f2,
0x3eb9b6ca,0xb9320588,0xbe14678d,0x3d463100,0xbe262683,0xbe1ad265,0x3e9579f4,0x3e34b958,0x3dd5f156,0x3e7e8934,
0x3ed28e5c,0x3de6b73b,0x3f33cc4b,0x3e04e4dd,0x3d207fd8,0xbd755551,0x3ddd357a,0x3e52e808,0x3e452d61,0xbe95b4d1,
0x3d2213d0,0x3e30bb35,0xbe492fbe,0x3ea0fff1,0x3bbbcfce,0x3e85eebf,0xbeaaaf4d,0x3e373bef,0x3e380f36,0x3b70e3c5,
0x3ddee10c,0xbe570b65,0xbdad0f92,0xbcf729da,0xbe88a4b5,0xbe76b73b,0x3dfb9deb,0xbef73f2f,0xbe0fdedd,0x3e693593,
0x3e69bcb8,0x3ddb3eda,0xbe05198f,0x3e182532,0x3b71222d,0xbee0986d,0xbf05246b,0x3c428c48,0xbe3429c9,0x3ebfdc25,
0x3f2a392e,0xbd11f98d,0x3e35aeb9,0xbec34fb3,0xbe346f2d,0xbe3b6ab9,0xbdd1d4f0,0xbe05f0e7,0x3dbe9882,0x3d93bb9c,
0xbd3ac53e,0x3d00c35e,0x3d65b1f5,0xbc508420,0x3d9784b9,0xbd80e075,0x3e6dc28f,0xbdf07a37,0x3db507af,0x3ea7bc12,
0xbd7adc57,0xba3aeb4d,0xbd2f1508,0xbd88a6a1,0xbe1cabce,0xbd828e6a,0x3cf9c665,0x3d2bdf00,0x3dd33810,0xbd757396,
0xbce38cc3,0xbca83b53,0x3cd16b09,0xbdac69d1,0x3cff1075,0xbd958ab1,0xbdbc2d5c,0x3e2f68dd,0x3e54b6a1,0x3e284938,
0xbe53f717,0x3cc2c55f,0x3e0465f0,0xbe406f52,0xbd3a4ec3,0xbca99e0d,0x3d8170b4,0xbc75cd46,0x3bdbfa0e,0xbd0f8e3d,
0xbdcb219e,0x3db1b59a,0x3bade30f,0x3ee05fce,0xbe017114,0x3e09f2f1,0xbe170d6c,0x3dfeb5ae,0xbe38fc28,0x3ce2c1e4,
0x3d926989,0xbccd4fbe,0xbeca19a6,0xbe6a0bd7,0x3cae7fc6,0x3d9932bc,0xbd401280,0x3b9d71f3,0x3dcfd9b2,0xbd93f57c,
0xbd895cc9,0x3c5d8904,0x3e252d24,0xbe2644d2,0xbe254426,0xbadf02ec,0xbc305d93,0xbd95866d,0x3e72e65d,0x3d31deab,
0x3dc0423c,0x3cb4893d,0x3e23c0aa,0xbde4fbff,0xbe51c63d,0x3d42efe6,0x3e64e150,0xbea9144c,0xbeb17031,0x3e8b4633,
0x3c6823d3,0x3c237739,0xbcb8b05c,0x3e50fce9,0x3d340dff,0x3cda661c,0xbbd4280e,0x3df4d86b,0xbe1716c0,0x3ded2ab1,
0x3dcdba7f,0x3c59a482,0xbc9e44d0,0x3da1a26e,0xbd19d205,0x3d731542,0x3b6ec970,0x3d44a583,0x3e3f5b1b,0x3dd42031,
0x3b64cfac,0xbcd9a4ad,0xbe24eb99,0x3cf0fb6a,0xbf396dd7,0xbbd477ab,0xbcb1f7e0,0xbe1475b7,0xbdf4d8eb,0x3c9f8da8,
0xbd60cc4c,0xbd84ec26,0x3b1b1a3d,0x3c7c74b0,0xbd34fbb2,0xbd4983e9,0x3d8c9759,0xbdd6a882,0x3d0a8ceb,0xbc1083fb,
0x3dfc9d4e,0xbd39c7c5,0x3ced9a90,0x3cccec88,0xbd654297,0x3cb0bf05,0xbeb5f75a,0xbd47b8c9,0x3d84e60c,0xbc43ed8e,
0x3d3d5e53,0xbe0bf444,0x3cdbbf4e,0xbe25f020,0xbdc1a27a,0xbe12cf5c,0xbe4a2e06,0xbe153862,0x3ba74f72,0xbdbe1aae,
0xbd8aafec,0xbd348477,0xbd500445,0x3e6dea84,0x3d69937a,0x3d3aa748,0x3a580f7f,0x3d5e45f0,0x3dd86079,0xbde2f0b1,
0x3d1ca16b,0xbe02e255,0xbacb73c6,0x3d206b59,0x3daff47e,0xbd25a628,0xbe132d68,0x3a65e668,0x3dac9e3a,0x3e263582,
0xbd16e966,0xbddd78a6,0xbe022dcd,0x3dd37dc6,0x3ca99f6c,0x3d983ac7,0xbdda32b3,0x3d11c186,0xbd3cf593,0x3de5812d,
0x3d583fe5,0xbdd94001,0x3b95ccae,0xbccfaa2d,0xbbf4c107,0x3d8909f2,0xbd9e5c81,0xbcc80dbf,0x3dac22f8,0x3dc695c9,
0x3db28f24,0x3e2179d1,0xbe08e3ce,0x3da6d2aa,0x3ce1f346,0x3cde12af,0xbdfa6055,0x3e11b704,0x3dad3721,0x3e28db23,
0xbd981353,0xbd845024,0x3e7f4ba5,0x3da6cbbb,0xbde16fb7,0xbdf01b32,0xbcf40bcf,0x3c4c1e56,0xbdc7f95a,0xbe110a7a,
0xbc37e7c4,0xbc8694af,0x3c6def66,0x3d6940b7,0x3bbe6f5a,0x3e0882cb,0xbd4cb9bf,0xbd5e1c6d,0x3dd33738,0x3c208bcb,
0x3e392313,0xbcb35ce8,0x3d90813b,0xbde7c19b,0xbe342a2c,0xbdefa719,0xbd1f76ff,0xbdaea0f0,0x3d2acb06,0x3e067f1e,
0xbcaa7bc8,0x3cc280c8,0xbe7181b0,0x3df19a81,0xbc014fc0,0x3c43494b,0xbdb7805b,0x3dfa1eaf,0xbe086ff3,0x3e4a0ff3,
0x3e82c6e0,0xbdc1547d,0x3d34880d,0xbe5dda47,0x3df88d7a,0xbd6840c0,0xbdc1128a,0xbd07fdcb,0x3db6f80f,0xbcf06278,
0xbda461de,0xbd0c10be,0x3d4cf0e5,0x3df17a5e,0xbddc2d21,0x3dc27f83,0xbcf836d6,0x3dc67fde,0xbdcb394b,0xbd4e483b,
0xbdde9ec6,0x3d00d787,0x3d12b03c,0x3dc50729,0x3cf9b04d,0x3db73db3,0x3cd6f491,0xbdabd91b,0x3c2eb357,0xbcef022c,
0x3e03bc5d,0x3e493fb7,0x3de16b34,0xbc94e1a7,0x3b2b0d45,0x3db41e06,0xbf0a2507,0x3d65ebae,0x3e0727ca,0xbc9a8ae9,
0xbd860032,0xbd3e863d,0xbd55efd4,0x3ad67d25,0x3cdac5f3,0x391dff9d,0xbda999e9,0xbe3481ff,0xbda37681,0x3cc83230,
0x3ccf5086,0xbd1382a7,0xbd1ec19b,0xbdb1b34e,0xbc67100a,0xbbaafc1b,0xbe17dc0f,0x3da034f8,0x3d342723,0xbc1fc8d6,
0x3cbf1011,0x3c3e7ace,0x3c5f8c83,0xbd831b7f,0xbd1d742e,0xbd900470,0xbd6d621b,0xbb1b17e8,0x3d642f5b,0xbd5bd199,
0xbd8bc589,0xbcf9bc8d,0x3db26e18,0xbc825c5f,0xbc7929bd,0x3d4d9714,0xbe871249,0x3e23b7aa,0xbe27e2ab,0x3cf4b7fe,
0x3e86bdfc,0xbd6f1a77,0xbcb011d5,0xbd944adb,0xbd158bf2,0x3e5349c5,0x3e159897,0xbc8a3ef0,0xbdb7fd71,0xbc865b82,
0xbde24813,0x3d3ff014,0xbd453cf5,0xbcec960e,0x3d150de7,0x3de543a1,0xbc6b320d,0x3e439956,0xbdec5efb,0x3d6222bf,
0xbd8442f7,0x3e8c4ae4,0x3dbaf7bb,0xbe7027dd,0x3d332bf0,0xbd2600db,0xbe95080a,0xbd2af1d7,0x3d262089,0x3e145b3f,
0x3abbf835,0xbd88071f,0x3d9e263f,0xbe04b84b,0x3d7b1bbd,0xbdebbd90,0xbbe5512e,0xbed60583,0xbe5d3ec5,0xbc3d7c6b,
0xbd621b63,0x3e23d75f,0x3c00087e,0xbd8b55ce,0xbe1fb8ad,0xbdeb93d3,0xbdffeb05,0xbe6ddf34,0x3d9c7eb4,0x3e01d99c,
0xbc622490,0x3d8fc020,0x3e208009,0x3e1e702c,0xbe86c295,0x3c0ed76c,0xbe2b3f46,0xbdda5b8c,0x3db857aa,0x3e344f15,
0x3c9095df,0x3e400384,0xbc4824df,0xbd6f9305,0x3c404633,0xbde7f3b5,0x3d251fd2,0x3e4a6343,0xbdcdef49,0xb8aee1d8,
0xbd8c730d,0xbda05957,0xbe725ec4,0xbe0d51f2,0x3e320bc3,0x3e8938d8,0x3d63239d,0x3eb1ff3f,0xbd4676a5,0x3e28ccf5,
0x3e6b8a21,0x3e3021fb,0xbea76784,0xbe2141fb,0x3e0fbfd5,0x3e0f6f67,0x3e641398,0xbe38d686,0x3e090ad5,0x3baeaee6,
0x3d26fb1e,0xbd935e3a,0xbd753872,0x3dae1abb,0xbd3cc262,0x3e258c74,0x3d76656e,0x3e7eaab7,0xbdb95f3f,0xbc52f65b,
0xbd359a6b,0x3e1a3762,0xbb897d69,0xbf1d225c,0xbcc8bf2c,0x3e4d45fd,0xbe023e3c,0xbe0457a3,0x3e96648c,0xbe2ff183,
0xbd5daf35,0xbea49445,0xbdfd3552,0x3e277cba,0x3c4b2d68,0xbd6f9e36,0xbdb93266,0xbe160617,0x3d978151,0x3ee60c29,
0xbead2ca5,0x3cd60b05,0x3d8cc57e,0xbe83c88c,0x3b1c9c2f,0x3d17825a,0xbe02f8bf,0xbe98fdaa,0xbda65131,0x3d2ad313,
0xbe06ddaa,0xbed38767,0x3dff86d8,0x3e1059d9,0xbe3f23d5,0xbd9a6b05,0x3d4f7d41,0xbe2a326f,0x3d17a6fe,0x3ed509a6,
0xbebb2bc6,0x3e09bca0,0xbdd32430,0xbe2b2ae5,0xbe12e5d6,0xbe7ac9e3,0xbd230d6d,0xbedacd11,0xbd9a0891,0xbdb5f5c8,
0x3e19f476,0x3d7a49b6,0xbf55e6b7,0x3e063123,0xbc6ce99c,0x3e637ea4,0xbc5d6a19,0x3da00e8f,0xbb92c765,0x3e3315a6,
0x3e7d0fc5,0x3c830ec8,0x3c89274d,0xbd6f68fc,0x3efa9d3c,0x3e046f4b,0xbe44f807,0x3e650bd9,0x3d7c950c,0x3e8d2d7c,
0xbd41e0bd,0xbe5a7468,0xbc92c6d3,0xbcf773e6,0xbd2af71d,0x3cff5432,0xbe0bd195,0x3d3d46a9,0xbb5cc706,0xbcaf9c02,
0x3dcc4f39,0x3d76a3b1,0xbd279756,0x3b885105,0x3dbb90c3,0x3c815985,0x3de19d7c,0x3d42f47e,0xbdcfa8d2,0xbd57f8d7,
0x3d63afa9,0x3d8ad913,0x3e152438,0x3de352e6,0xbe170c21,0x3e5a19b1,0xbe17b914,0x3d1c466b,0x3de815a5,0x3d901212,
0xbe840c08,0xbdd2fe1e,0xbd6ecd64,0xbdc3208b,0x3d3b39f6,0x3e012f05,0x3cf85f64,0x3c8fde26,0xbcf66cd2,0x3e56955f,
0x3dc2060b,0x3d29b8e4,0xbdae8945,0x3bded0d3,0x3dcb67ff,0xbcfe392c,0xbcce26c9,0x3c40fb48,0x3d161d36,0x3e312227,
0x3d8cd679,0x3d4b0a0a,0xbd27c998,0xbd9ab177,0x3dd8160b,0xbbb05d8c,0xbd3e46a0,0xbe1c310d,0x3d58f269,0x3da91da5,
0xbe27c5d2,0x3c843177,0xbe17ea24,0x3e4a713c,0xbdf11664,0x3e5d3d19,0xbe69be9a,0x3bc600fd,0xbd31a098,0xbdb7a0af,
0xbc6cfdfa,0x3d65ca96,0x3da51303,0x3c8cfd1e,0xbb8cbe88,0x3e4377ad,0x3d2b97f6,0xbdd11b72,0x3ce8448f,0xbcd844ed,
0x3baf56d0,0xbd8dc867,0x3ce9e307,0x3e8ba820,0x3b7741bb,0xbdcb577f,0xba398db9,0x3da5ec43,0xbd053046,0x3e08cf2c,
0x3da4b68d,0xbcf9abab,0x3dc7dfb9,0xbdc66dde,0xbed42f86,0xbe3d72e9,0xbe2863be,0xbd1f0b87,0x3e5be1f8,0xbd586d80,
0x3e2d1aa8,0xbeaf1e43,0xbdd23781,0x3dd8b9f6,0xbdbbeb15,0xbc745c40,0xbd8d67b1,0xbbed0491,0x3d8c8cbf,0xba8791c4,
0x3dd7f688,0xbd704562,0xbcdd6fc8,0xbd43912c,0xbdd01bbe,0xbc3ff3ca,0x3d16a4cb,0xbc3850b7,0x3c817457,0x3c9359a4,
0x3d8a92a6,0xbdaadf02,0x3c6880a3,0xbca687e6,0xbe6fb54d,0xbce6d8c0,0xbe286f5e,0xbccd7fb6,0x3dc034fc,0xbdd49959,
0x3d24c039,0x3d949383,0x3b71f60f,0xbdccd59c,0xbca327e5,0xbe0cc06e,0x3e470332,0x3e947217,0xbcfe3bc6,0x3e083404,
0x3e08f1c6,0x3df814c2,0x3c6500b3,0x3e127f7e,0x3e83a665,0x3e6537b9,0x3dbcbd54,0x3e949123,0xbd11228d,0x3d4fbda0,
0x3e0cebce,0xbb46cfe1,0xbd55c86a,0xbec6d82b,0x3e8d8509,0x3ee6b605,0xbd646552,0xbdce48cf,0x3d94f81d,0x3e176958,
0x3d7082aa,0x3cea2163,0x3d0bb552,0x3d28075d,0xbe9c6beb,0xbd94b115,0x3d53e35a,0x3dd415d5,0xbcb979c4,0x3d30d0f8,
0xbd07b601,0x3ec57c7a,0xbda48ee1,0x3d5c7bbe,0xbcd7328e,0x3d927abb,0x3d0864ad,0x3cad7880,0xbd1907ea,0xbd78c6df,
0x3c5ebbb9,0xbe2a74d4,0xbd8a85fc,0xbd4d7cee,0xbdc11fa9,0x3d3b6ef0,0xbd54eef5,0x3d8f4e2e,0xbe0cf671,0x3d3b9e6d,
0x3c2c94c7,0xbc42060f,0xbe06cb42,0x3c9196e1,0x3d4dd9ef,0xbd9614c1,0xbd9463af,0xbe61fab0,0xbd86b6b6,0x3b9b5be1,
0x3e7d18e8,0xbd2f64cc,0x3d312894,0x3b2a7453,0xbd39f0a7,0x3d5a5868,0xbd34ee39,0xbd13e537,0x3d7a4ee7,0x3d93385e,
0x3dbff3f0,0x3c94df99,0x3cea6906,0xbe1bb871,0xbdbbcd81,0xbe9d2ed3,0xbe0bc788,0x3dae3af6,0xbd355f94,0x3de51def,
0xbd642c00,0xbe0e0ebb,0xbdf487c2,0x3dd8fa2e,0xbc9fe84a,0x3d83679c,0x3d613eb4,0xbc27e7fc,0xbe3cf6b0,0xba0e119f,
0x3dac9d48,0xbd5f36e4,0xbdd22425,0x3d0014ef,0x3d71fc36,0xbd0d1756,0xbdeace15,0xbe2420c1,0xbe058adb,0x3df7cc74,
0x3cf0aa2b,0x3d883022,0xbd9ec75f,0x3bde0fef,0x3d8804b1,0xbd93fa92,0x3e20b825,0x3d6a7458,0x3dd88e0c,0x3de0079f,
0x3d163dc6,0x3ed7232d,0xbdb7f6ac,0xbd9410f7,0x3c4e2afb,0x3c88127e,0xbde08f35,0xbd858718,0xbdac1d1e,0x3cc17950,
0x3b528a73,0xbc7da423,0x3dce332c,0x3d5888df,0x3bf79b2e,0x3e38c872,0x3bfc345b,0x3e896a64,0x3d951473,0xbd56afb5,
0xbda24a76,0x3d982f11,0xbd0f2eac,0xbd620137,0x3df7180d,0x3b33ffe2,0xbdea7bde,0xbe65029c,0xbda41767,0xbdc2d31d,
0xbb8e56be,0x3df230b1,0x3e014177,0x3dd61f65,0xbdef0305,0xbe075bbf,0x3d6c3cef,0xbd761b65,0xbdcf6621,0xbd9ac75f,
0x3a983f5e,0xbe1955c7,0xbe0bbb5f,0xbd80f717,0xbd434f05,0x3d2d50a9,0x3da98970,0x3d98b62d,0x3b544817,0x3e4c123c,
0x3df23448,0xbc859e31,0x3c709980,0x3dbf2cc5,0xbd5d43e2,0x3ddcee85,0xbcefa574,0x3dab2a48,0xbd0e2802,0x3c72c573,
0x3de1e4cf,0x3ca9d3b6,0xbdaa6b42,0x3dfaa0cc,0xbda2d32d,0x3e1b7bc5,0xbe1d5347,0x3d5ec7d0,0xbd943242,0x3cd850aa,
0x3e2692b2,0xbe1858b9,0xbe12534c,0xbcbe0b49,0x3d11ac07,0xbd2d562b,0xbdccad9f,0x3d4288d3,0x3d967921,0x3e250086,
0xbdf555d7,0x3c064f4d,0xbe07076d,0x3d8920ba,0x3d48c5b3,0xbc94c654,0x3d0cdb50,0xbd74e2b8,0xbd03344c,0xbe2e50b8,
0xbde32163,0xbdba3b97,0xbe327e1a,0x3e08ad76,0x3dda9f9b,0x3d7492a9,0xbe11d30f,0xbc7a313c,0x3dfdb6d2,0x3e5d5cee,
0x3d5e4b58,0x3d7d0155,0xbd40a2e8,0xbdf7a93f,0xbe5cf04d,0x3e04175c,0xbe7775d1,0xbd88b0df,0xbe00c5b5,0xbd38c9d9,
0xbd8aeb89,0x3d5ba2c6,0xbcf6b047,0xbdf908b3,0xbdcca060,0xbddc865c,0x3dcea847,0x3e3b00e4,0x3e3dcd52,0x3eccb061,
0x3e2be0b5,0x3d377118,0xbe3e8867,0x3e53b5d8,0xbd3fdad4,0xbe5db2ed,0x3d9124bc,0x3d32063b,0x3dc232fa,0x3cad6b54,
0x3d7d4d87,0xbe6c1395,0xbe366ee3,0x3e4ddef5,0x3dbd988f,0xbdfa4ee8,0xbe66d0b4,0x3a68fed3,0x3d7f7232,0x3d4c6459,
0x3c2749a8,0xbda9812d,0x3d0ceb85,0xbdd79590,0x3d116938,0x3ed02afc,0x3e10ff33,0xbd2af391,0x3e78d9bf,0xbc58dac1,
0x3e0e3a60,0x3d720b4f,0xbd95b808,0x3dc4ec57,0xbdebd1fc,0xbdab1f43,0x3c505711,0x3d51dc23,0xbc124676,0xbdc6c2b6,
0x3d8173e6,0x3dc8ebba,0x3c194e63,0xbdbf673a,0xbcee4738,0x3ccb53ca,0xbe7e3e18,0x3e35cfcd,0xbdd5af68,0xbdb7fedf,
0xbc947a60,0x3d0a7206,0xbd50ab02,0x3bf45cfa,0x3c02f133,0xbd720007,0xbc94d0b8,0xbdb7ecf0,0x3cc294e4,0x3d83540c,
0x3e4d8268,0xbd9640a8,0xbdac5ab4,0xbd5d015f,0xbe502fb4,0x3dddb797,0xbaaf3aeb,0x3e6d071a,0xbe1e173a,0xbe7ee52b,
0x3c6f6d9c,0xbd778f88,0xbe3b377e,0x3dfcd558,0xbd50df6b,0xbe92603d,0xbd8f01da,0xbd320497,0x3db8189e,0x3e0724da,
0x3d9757ea,0xbdd66175,0xbe56bca9,0xbe3c208e,0x3d026252,0xbe7c910f,0xbd2ba772,0xbd0462b1,0x3ddc800a,0x3cccaba7,
0x3e0500f8,0xbcbf85e3,0x3b8074a5,0xbe46af77,0x3d1c395f,0x3cf6ebed,0xbd18a11e,0x3e5a724e,0xbe55f8e3,0x3e928e2d,
0x3e5ebb83,0x3e606e78,0xbe74add0,0xbec8940c,0xbd320a64,0x3ebadf9b,0xbc8a121a,0xbd8b12d4,0xbc9a2893,0x3e80626a,
0xbdbc0531,0xbc8a1295,0x3e040d4a,0x3d5975be,0xbd7059d1,0x3e069f31,0x3c8c8cdd,0x3d486bd2,0xbe57f2e0,0x3ba151c8,
0xbe288e77,0x3c307ae2,0x3c57c692,0xbdb5e193,0x3d1fc77a,0xbda45ddf,0xbcb8d217,0x3d312256,0x3de56928,0x3ce4975e,
0xbcecde38,0xbe8c76e9,0x3e0412b6,0x3d7688f3,0xbe509457,0x3d985199,0x3c71781c,0x3e2acf29,0xbd9b10ee,0x3d92037b,
0x3d373904,0xbd86d347,0xbd2041ec,0x3d9752a0,0xba08a80b,0x3ea7f791,0xbcb71c8d,0x3ce4c7bb,0x3c8a8b95,0xbe4b1a0b,
0xbc534c84,0x3ede2db2,0x3daa6585,0xbd1333b7,0xbe78aa56,0x3d8c219b,0xbd081fed,0x3ce60934,0x3ba5412a,0x3dabbf4e,
0xbea5dc91,0x3db8b661,0xbba06eec,0xbdfa1f26,0x3e6be399,0xbe28f512,0x3dd1fbf8,0xbcc4989b,0x3db1f9a1,0xbdcad1ff,
0xbd080eae,0x3d976f6c,0xbd291b57,0xbcf7fcac,0x3e026d83,0xbca92cef,0xbf2c42ba,0x3e0bb5dc,0x3dc95b15,0xbdddf9f0,
0x3e0177ef,0x3dd0043d,0xbea34d82,0xbe90136e,0xbd0066cd,0x3e354b0e,0x3dc13321,0xbbac467f,0x3e07d00b,0xbe33af3c,
0xbe0cb46c,0x3dc2b352,0xbdd0c4b3,0x3e29dcac,0x3d14df8a,0x3c6275ab,0x3de98789,0xbd95e758,0xbdab8d6f,0xbc5c5269,
0x3d75371f,0x3dd492a5,0xbdce6e1d,0x3c0548d9,0xbc871c7c,0x3c117bf2,0xbe090037,0xbd21b90a,0xbda591d8,0xbcad54d2,
0x3dafaf82,0xbdea63ce,0xbcedc93a,0x3db7f6e6,0xbd89efd8,0xbe22049a,0x3de20496,0x3e09b6fa,0x3e15d8d6,0x3d8c1bfd,
0xbc912e37,0xbd96134f,0x3b8458cb,0x3d9faf7c,0xbd4be177,0x3e2a1d82,0xbeb60075,0xbe3554fe,0xbda3b2f6,0x3e50b6e0,
0x3e0e24c6,0xbd19eb83,0x3c8a5664,0x3a55957b,0xb9c008fd,0xbe29ad34,0xbdb826fc,0x3e2b60e1,0xbc998018,0xbd05cf4f,
0xbdeac5de,0xbc1f2258,0xbc9bd77a,0xbca055f1,0xbe10e869,0xbd4b7b39,0x3e547f2a,0x3c3da629,0x3e14626a,0x3ea3ba79,
0xbdd2e568,0x3c495675,0xbd2dc03c,0xbddbbb8f,0xbd438239,0xbd0e0a5b,0xbe632657,0x3d8a61e3,0xbdf8d0a8,0x3df63901,
0xbcb94bc0,0x3e84741e,0xbe0f4ad4,0xbe29654f,0x3c035710,0x3d5be4c4,0x3cf6a6cf,0x3d1916e3,0x3e752d1b,0x3d126281,
0xbd8bc4a0,0xbdbad0aa,0xbe06de82,0xbcbd362a,0xbd2dddd3,0x3d74228c,0xbc0ce8a8,0x3cc9adfc,0xbc1d9948,0xbd3886ad,
0xbd1e726b,0xbe12301f,0xbe3105e0,0xbc61ad5b,0x3c6dcb42,0x3d783808,0xbd4fcbaf,0xbd1af590,0xbd34b413,0x3d84520b,
0xbdb57fbe,0xbddb8c0f,0x3d10fdf6,0xbd846f78,0xbe389797,0xbe3b203e,0xbc6a68d1,0x3c7e66e8,0xbc147fe7,0x3e9e3ed1,
0xbb5ff30c,0xbc870536,0x3da9ea86,0xbca8695a,0xbd2cc19a,0xbd82fc8e,0xbde27469,0xbe5ef962,0xbc89a236,0x3bfa3901,
0xbd196b06,0x3deddbb5,0x3e83af85,0xbd1111fd,0xbdd39011,0x3cb93f9b,0x3bd1a45d,0x3ddbf4e2,0x3d882616,0xbe031f19,
0xbc7c9024,0x3e7a7125,0x3cbc3ad3,0xbd6bf034,0x3dc79a75,0xbe76399d,0xbd77ab5a,0xbe22167c,0xbc88d641,0x3d0acabf,
0xbd0ee5d2,0xbbcbdfad,0xbacb2957,0x3e071d7f,0xbd17410a,0xbe5aa9bf,0xbe829154,0x3e3004c4,0xbe04c18b,0x3ea1bc11,
0x3d405106,0x3c66e62a,0xbc46d870,0x3be8ff33,0x3e2e1d8d,0xbd4f57b2,0x3dd476f5,0xbd91dca4,0xbcbac938,0x3cb30995,
0xbc9b7b6e,0x3d318df7,0x3d3b9f8c,0xbdd5b7b6,0x3e456529,0x3dc25517,0x3d6a9ed9,0xbac75eb4,0x3c5bd9f1,0x3dc79703,
0x3e095872,0xbca80ce3,0x3da0c944,0xbd7d6f8c,0xbcd24366,0x3cd58047,0x3d2e3414,0xbdd45085,0x3c9176ff,0x3bc44944,
0x3c14574c,0x3d298b3c,0x3dbee36e,0xbcc31abd,0x3dfafa1a,0x3dcba63b,0xbd2eb3ca,0xbbea8168,0xbda5b150,0xbcae1d36,
0xbe2aa7d8,0xbdddeb01,0xbd322719,0x3d391f20,0x3dfae5ca,0xbd937962,0xbe075450,0xbd988d00,0xbe2dd254,0x3df9c5e1,
0x3ccbb649,0xbc6d109d,0x3dd8258a,0x3d61ea0c,0x3e0ce0ab,0xbda961d1,0xbc97f6ac,0x3cdc106c,0xbd1de3cd,0xbce33ed0,
0xbe1e3adb,0x3c0d3a8a,0x3c7c1c41,0x3cab06cd,0x3cc63ace,0xbd8e2497,0xbc9098ef,0x3d8ff19e,0xbdf24f9f,0xbe0fdb98,
0x3d608edc,0x3d21d5f9,0x3d76525c,0xbdbe90b8,0x3d6c4281,0xbde87610,0xbdb69a1d,0x3d089998,0xbe21b22d,0x3e796088,
0x3df5a18c,0xba687a03,0xbd93b5c8,0xbdaac292,0xbdbeb093,0xbd729db8,0x3e19bf07,0x3d7329e1,0x3d14a219,0x3d2d78cb,
0xbc54e1f8,0xbe124bdb,0xbdf23a62,0x3e223319,0x3dabbf1f,0x3de9fbb5,0xbd6f6804,0xbe305ef6,0x3d93aea2,0x3d2802ba,
0xbdb959d6,0xbdeb822b,0x3e1f3268,0xbdeb85cc,0xbc87e983,0xbd16fce2,0xbd999e49,0xbdd1906d,0x3e51c4ee,0x3c636c66,
0xbd7d2923,0xbd62fff4,0xbc14b78b,0xbc05832d,0x3cfb3cdf,0x3dea85b8,0x3db81c40,0xbe5520b7,0x3d2c5187,0x3d7d1ea5,
0x3e6c63f7,0xbe4c3a75,0x3d8ee23a,0xbcabe7f8,0x3d64562d,0xbd9e3566,0x3dbc235f,0xbdddd7ea,0x3de58bb5,0x3da2ed93,
0x3d1aab2a,0xbe8d62af,0x3e641a0e,0x3dc8b149,0x3d265569,0xbe346f28,0xbeec7e4e,0x3daab404,0xbe1e6592,0x3d6283e1,
0x3e93bebd,0xbd3aaa90,0xbe474706,0xbe18015d,0xbdbbbe66,0xbddee181,0xbe020425,0x3d8e92aa,0xbd38756e,0xbdacce7c,
0x3d54cdcd,0x3de97e64,0xbe4c1492,0x3cc6d6af,0x3ea7d672,0x3bc0f030,0x3e421e77,0x3dc64069,0x3e184003,0xbdaaaca9,
0x3dc5caaa,0xbeb5beba,0xbdbfcb97,0xbd9f9933,0x3e6975dc,0x3e21dcb1,0xbd8465de,0x3e0f72bc,0xba49e82f,0x3dddd75b,
0xbd490823,0x3b2988bb,0x3d04c13d,0x3d29104e,0xbcbe2520,0x3cb4fe37,0x3d00beff,0x3d8ff8b8,0x3d43c56b,0xbd5689d5,
0xbe080203,0x3da9fb66,0x3e36f7a1,0xbe4727c1,0xbe1982a0,0x3e62a793,0x3d1b5237,0x3d884d4d,0x3e77baf2,0x3d816839,
0x3daf8e17,0x3c8c88de,0x3dd012e3,0xbd8e4418,0xbdc56df7,0xbc8b2f20,0x3dabf32e,0xbddbad66,0x3d6d1d45,0x3e920513,
0x3e280736,0x3da84392,0xbe1b79fc,0xbd9f1651,0x3e3a9230,0x3cda181e,0x3d65fc01,0xbbdd1096,0xbdb9261d,0xbd7a655c,
0x3e4c3093,0x3e531be8,0x3cb386b1,0x3d21dc23,0x3dc20f59,0x3d9b7b65,0x3d37d215,0xbd963ec6,0xbe2ecc22,0xbca0851c,
0xbe8e4029,0x3e46876a,0x3d2292da,0xbda7e557,0x3db3e279,0xbe0ab7bf,0xbdd9a585,0x3cd08f7d,0x3df64ec8,0x3d25386b,
0xbc6946c9,0xbd4f7fdc,0xbcd0c528,0x3d868206,0x3dd86bdd,0x3db2d216,0xbe18622b,0xbd9dd50c,0x3e8ad8ac,0x3e1dbf9b,
0x3d857f1c,0xbe0c8192,0x3cf951f1,0xbd9e4985,0xbd95af39,0x3db186c6,0x3e9a0248,0x3cc44a15,0x3d8f9b51,0xbd52df12,
0x3d4cc094,0xbd1d9a49,0x3db8c9c3,0x3e3a0df6,0xbdd90f50,0xbd8c2b29,0xbdd91854,0x3d4cd481,0xbdccd907,0xbccaffe6,
0xbcc9be0d,0x3e1a1fcc,0x3e201b89,0x3e4bf6ae,0x3ca59ad2,0x3e404512,0xbe8f4eca,0xbd02b4bc,0xbd4f55ec,0xbdd1d15f,
0x3de22945,0x3e07be3b,0x3e7b92ec,0x3ad144a7,0xbe292d46,0x3d3d9d52,0x3c8c304a,0xbe20fdd9,0x3e411354,0xbc9f0a50,
0x3e28621d,0xbe22e62c,0xbdbe619a,0xbde14be1,0xba24e7ff,0xbcd61903,0x3d143677,0xbe23c199,0xbe4eb45f,0xbe21366f,
0x3e06e1df,0x3d650ef9,0xbdbab11b,0xbd9895ed,0x3da443dd,0xbdbff7f6,0xbe1360cb,0x3dcc5c55,0xbd45ae97,0x3dc660e2,
0x3d9bd469,0xbe311622,0xbe1fd0e5,0xbe50bffa,0x3da61105,0x3d511f32,0x3e0b00f0,0x3e5d30fa,0x3dc3f242,0xbdaf7b9e,
0xbe94bcbf,0x3e66473d,0xbe06941b,0x3cdf1c76,0x3da0e426,0x3dc54656,0x3e294179,0x3e3e0c7a,0xbdaebe02,0x3e84e283,
0xbd41bcfa,0xbe28b7f5,0x3c9c78c3,0xbe693ee7,0xbe04c9ba,0xbd62a445,0xbdf1813a,0xbdc0fa23,0x3e9c5176,0x3e9781d9,
0x3b8609d8,0xbd6e79b2,0xbd3ed590,0x3d452e35,0xbc1b6cc1,0xbd6ec46a,0xbd210432,0x3e0dee14,0xbe027000,0xbe16fd8d,
0xbde32ad3,0x3de3f5b6,0xbd5f7877,0xbcba5271,0xbd54606b,0x3d6f0f83,0xba994c42,0x3dd24833,0x3d17ef7f,0xbe061c5d,
0xbbedfaef,0x3d2f889f,0xbc141610,0x3dc43d66,0xbcc2644f,0xbe2f99af,0xbd8f140d,0x3c99b6a1,0x3d48193c,0x3d290d8c,
0xbd29d783,0x3e6dc1bb,0x3e408a64,0x3b06facf,0xbe49b9f7,0x3dec420b,0x3d5b154b,0x3d0e953a,0x3db56d60,0xbe987b54,
0x3cb61b63,0x3da1c40a,0xbeac2bd1,0x3e6b9acc,0x3e3f0b78,0xbca37e9d,0xbe1558a6,0x3d4404b1,0x3d8b2585,0x3e22fd80,
0xbd66cabe,0xbe1d1602,0xbeed1a69,0x3d66cacb,0x3ca665ae,0x3dd06304,0xbe131a35,0x3dde0f77,0xbef9fb28,0xbde192c9,
0xbe2f9c92,0xbe82ff4f,0x3e7a7868,0x3d0ce02a,0x3ca20111,0xbe5fbb27,0xbd058f26,0xbbb3f026,0x3ddc9488,0x3e8d9ea3,
0x3e7c84c3,0x3c9501f3,0xbe8a7684,0x3c2f01b6,0x3defebf0,0x3e293634,0x3e0d9302,0xbe9c0dbd,0x3dc49a06,0x3e5b104c,
0xbe1a5e3a,0x3d8009bc,0x3acff8b0,0x3b3502a9,0x3e0fc0fe,0x3d6485c9,0x3e8b1bdc,0x3d28c5d1,0xbce37937,0xbcf445ad,
0x3dbf60dc,0x3d0cd316,0xbd2508f3,0x3c9385b0,0x3d0b47b5,0xbd85cc78,0x3d8467fa,0x3e1b14d1,0x3bd15560,0xbe2273a8,
0xbe0eb987,0x3d248d4f,0x3e6bdea0,0x3dbbb4c8,0x3d02b964,0x3d4ec05d,0xbe0a4d6c,0x3bdf5f2f,0xbd04f4a3,0x3dfde61a,
0x3d1f7ac3,0x3d1f38f3,0xbd837517,0x3d885fcc,0x3d1f312d,0x3e4c5ed0,0xbdb5f090,0x3d8194f3,0xbdf8fd58,0xbd2c8e3b,
0x3c99f5be,0xbdd83274,0xbdd5f58a,0x3e24a4a4,0x3e396738,0x3da7dfb4,0xb9e83caa,0x3c616255,0xbe13d728,0x3ec987a5,
0x3d85aad9,0xbe2007f7,0xbd0ec0be,0xbaf83680,0x3cf80a08,0x3d47eba3,0x3e546381,0xbd9d991b,0xbe412cb4,0xbd4dae85,
0x3e2862f9,0xbd978fc2,0xbeba247d,0x3dcd5945,0x3dbddced,0xbe4dafc0,0x3db04390,0x3dae9e36,0xbe33740b,0xbdd44ae7,
0x3db8e73e,0xbd4a9280,0xbc845f5d,0x3dbdc82c,0xbd69f911,0x3ad03660,0xbe1ebcdb,0x3e4f8234,0xbd2e0ae2,0xbdcf9ec1,
0xbdc30620,0x3db2aa95,0x3d1ea93c,0x3c74fd47,0x3d9c9f48,0xbe2123f0,0xbdcba3d3,0xbd268099,0x3e2c1ce8,0xbe4c5dac,
0x3cd515e5,0x3de2cade,0x3dad3e2c,0x3dbb52fa,0x3db607e5,0xbcb9572f,0xbdd594c9,0xbddab485,0xbc0d2e43,0xbd2c0d93,
0xbb59ea03,0xbdd63f79,0xbe051372,0x3de172c2,0xbe1f7b1f,0xbd23ada6,0x3c1aa6b4,0xbd68ddb7,0xbc8b3996,0x3d578254,
0xbd020372,0xbdc62a9a,0x3d39d46c,0xbd841cf7,0x3c9ad447,0x3e049bf1,0x3e0ba684,0x3d4d7508,0xbd1c5619,0x3b8e1260,
0xbe2cc65e,0x3d0817c8,0xbdbf934d,0xbdd0d790,0xbddbd597,0x3daa940d,0x3dfcd95c,0x3e22e16e,0xbe0317a1,0x3de6b658,
0x3d7f21d5,0xbdf52189,0xbbccb478,0xbe176af9,0xbdfb4d05,0xbdd4d13d,0xbdeb3225,0xbcc97ba0,0xbc995796,0x3e65f13f,
0x3db5a55d,0xbd2eea18,0xbdd15262,0x3d1d1027,0xbc22bd75,0x3da08221,0xbe4a4097,0x3dd532ac,0xbce55084,0x3d9c5fec,
0x3d9fd845,0x3dbd0515,0xbd80953e,0xbdda85e9,0xbda656b0,0x3bea3de1,0x3e161b43,0x3d28a8b4,0x3e8a29aa,0x3dd1bfb1,
0xbd163667,0xbd671766,0x3ddbbb57,0xbc55f695,0xbdc17c64,0x3e033e32,0x3d8e4ca2,0xbd74ea15,0x3e13de08,0xbd8d927a,
0xbe55031b,0x3c8afd01,0xbe268f09,0xbdb82e7d,0xbe30fb75,0xbd7f1ba0,0xbd110912,0xbc803daf,0x3e4fc5dc,0xbcb413d4,
0x3dd80f4c,0xbdacb682,0x3dd5fcd6,0x3ce8b20f,0xbe45b202,0x3c8826a1,0xbd954c2c,0xbd591cb5,0x3cebb5af,0x3e39e4b8,
0x3c81e598,0xbe59a7a7,0xbc23f19b,0xbd48bc0e,0x3d0e17fe,0xbe1e898f,0xbc692e56,0xbde29ed4,0xbd2ea2d5,0x3cd45da6,
0x3e461e34,0xbcc026cd,0x3ce38ccc,0x3e305658,0x3d461a63,0xbd4892d6,0x3e66f405,0xbdc36923,0xbdbe0558,0xbdf792b5,
0xbd01e90f,0x3c547741,0x3cc6e1d9,0xbdf8549e,0xbe124add,0xbe32983e,0x3d43547d,0xbdf59be9,0xbe693e8f,0xbe0b65a3,
0xbb77e487,0xbe215359,0xbe1017a9,0xbdee0649,0x3e1ea905,0x3e66e86d,0xbe47753a,0xbd09b144,0x3d909564,0x3dd0efed,
0x3b066132,0xbda6576f,0x3e241fa9,0x3d84cfa0,0x3d9dc09b,0x3eb99661,0xbe3c2826,0xbebb15cb,0xbe347a9d,0x3ec44026,
0xbdb27f44,0xbd81ec9f,0x3df199ef,0x3e271ada,0x3c0a0b8a,0x3c0706d8,0xbd0a7da7,0x3d6cc252,0x3dbd8442,0x3b34ffa6,
0x3e088912,0xbd8e85c9,0x3d3d5434,0xbc5d6a0e,0x3d9b8c93,0x3df8b15e,0x3d02f830,0xbc9bcf13,0xbd39d5e5,0xbd2d34cc,
0x3dd1a2a9,0xbd97c795,0x3e40cbfc,0x3d2c89f5,0xbe8f38c8,0x3b989423,0xbcabd563,0x3e26c480,0x3e820793,0x3d4f7e25,
0xbe1700c7,0x3cc838db,0xbd97e80d,0xbc56bf38,0x3c868c28,0x3de657d2,0x3d5f409c,0xbca4a8eb,0xbd499da1,0xbd4f6642,
0x3d97f5db,0xbd366b7b,0xbc0cc8fd,0x3cb1a33e,0xbd60e26a,0xbdaa8e44,0x3d4c55a0,0xbe176510,0xbc4a8b6f,0x3d38feec,
0x3da65598,0xbd8c19a4,0x3c76a3b9,0xbddca74b,0x3d2f0e62,0xbe2e0e8b,0x3d6c31f3,0xbd826da2,0xbc957e52,0xbc0559cd,
0x3cf316cb,0x3dab38d8,0xbe069e2e,0xbd9d54dc,0xbd918172,0x3da7b3f0,0xbe4e813e,0x3e014c7b,0x3c023057,0x3c99b1db,
0x3cd3975c,0x3d3555ab,0xbd42ca8d,0x3b6f9056,0x3dcce34c,0x3d12f643,0xbe56ea9c,0xbe176c91,0x3db7ed7e,0x3e062f3b,
0xbd412f9a,0xbd4c1c4a,0xbd1d2a18,0xba86869b,0xbd911d82,0x3d12e465,0xbdd21476,0x3ebebb72,0xbdfcf1d2,0x3db87835,
0xbdde23a4,0x3da338de,0xbdce0758,0xbd08737c,0xbdad042c,0xbe2ddd67,0x3cf6b5b7,0x3d8daf87,0xbe190eee,0xbb35e422,
0xbde93b13,0x3d99d8f1,0x3ce9228e,0x3ccd67b8,0x3d219604,0xbd30cbd6,0xbd265212,0x3ca1c9ac,0xbd04fca5,0x3e13c0ad,
0xbde702a1,0xbe63bd09,0x3cc329ab,0x3ccbcf4d,0x3d26b706,0xbd2eca00,0x3e01ca1f,0xbd0a1d77,0x3e0426b1,0x3da6c951,
0x3db011c4,0xbcaad861,0xbceb95c1,0x3d09fb91,0xbc99f0e3,0x3e52caaa,0xbde104c4,0xbeedd184,0xbde9dfca,0xbd7e7bdd,
0xbdc95a11,0x3e0d8fcf,0xbe24fdd3,0x3d7ad9f0,0xbe1e235c,0xbb971182,0x3cc5769d,0xbd1b1f6b,0xbe1aacc8,0xbd606dd8,
0x3dbedf86,0xbbaef1c8,0xbe66d741,0xbc86fa8a,0xbac12032,0x3d0c01be,0x3d177f33,0x3e3cd554,0x3e1c3739,0xbe30cb2c,
0x3d9fc0b6,0xbcb328d5,0xbc61d2ba,0xbc3dd02f,0x3e6127bf,0x3da95c9c,0xbc9232e5,0xbd8646e1,0x3cde8e57,0xbd0ed74e,
0x3d13184c,0xbdc6e6ef,0xbde390a3,0x3e356286,0xbd05aa6f,0xbe1df727,0xbd935251,0x3d88accb,0x3cc59376,0x3ca9367d,
0x3d8e6e0e,0xbdcd5137,0xbdb86f16,0xbd6ccd50,0xbd80d563,0x3dbd3c5e,0xbc04781d,0x3ccd4293,0xbdcd04eb,0xbdbcf624,
0x3e042dd4,0xbd121e06,0xbcce7cb7,0xbdce6ea1,0xbd71ee41,0xbb9854a7,0xbc267e83,0xbe056389,0xbd2a3682,0xbe058b3c,
0xbd7afe42,0xbe48641f,0x3dad3e6c,0x3bf4da39,0x3a8ae493,0x3d639672,0x3e48ec8e,0x3d5e9916,0x3d17c904,0xbc092247,
0x3ec6880a,0x3d8c9412,0xbdb40a6b,0xbc868ad4,0xbdd2498f,0xbda4e1a2,0xbe74abaf,0xbd5b8817,0xbe58b940,0xbd0ff58d,
0xbe2cdb0c,0x3d4468ae,0x3dcae0f8,0xbd93ea6c,0x3c8197ed,0x3d6bd3fc,0xbcddc1ec,0xbe0ac393,0xbeb21dd0,0xbd550250,
0x3e9ce8f1,0xbda9efe7,0xbdff7d36,0x3e67efef,0xbdbe4102,0xbd726846,0x3e39fc05,0xbd4ca69c,0xbe11f342,0x3e478853,
0xbd7ef697,0x3b5fb27e,0xbe082b90,0x3df4915a,0x3e87af22,0x3e3676c4,0xbd0fc874,0xbeb3c42b,0x3e03226c,0xbb0c33d3,
0xbdb577c5,0xbd9584f7,0xbd871656,0x3c8d9d42,0xbd8e21fa,0x3de82b0b,0xbd8694d8,0xbdf8e202,0xbd1a1831,0x3d651a1e,
0x3c94b6bd,0x3e4e1cca,0xbdbd495a,0xbc264c87,0xbc0d2ef0,0xbd9350b6,0x3c982c0d,0xbe23cbbd,0xbd87a202,0x3daa9309,
0x3d27cc6f,0xbd1b374a,0xbb06f3c3,0xbd308c31,0x3c556425,0xbd379a56,0x3cf4bbc3,0x3e00bd35,0xbd845590,0xbb98c345,
0x3baf02f5,0x3ce629a8,0x3d748e6d,0xbe3830dd,0xbdb7e273,0xbd5686c7,0x3d8a6015,0xbd8154e9,0x3e84de3d,0xbcb159f6,
0x3c857469,0xba6b9038,0x3d249684,0x3df159b1,0xbe4ac724,0x3c4cae35,0x3c26c8f9,0x3d94d11c,0x3d683013,0x3d4b0873,
0xbcd6257c,0xbde7d921,0xbe243ca2,0x3cde7d28,0x3dfcd37f,0x3c671f24,0x3d21afec,0xbdc0f7c8,0xbde1edb6,0xbdc37435,
0xbc74bbd2,0x3d85ebd9,0x3d9fbf37,0xbd7016d8,0x3da06904,0x3dd9b1c3,0x3c069c8c,0x3d25e931,0x3da0f5ea,0x3d3e8779,
0x3d3f8526,0x3d804530,0xbdbe12ac,0xbc0647d0,0x3c40359b,0xbd3eb3e4,0x3d848780,0x3df2e5b4,0x3d1dbce8,0x3cfd251d,
0xbcedc168,0xbd1c2d84,0xbc549f25,0x3d4f1a8d,0x3b74ff2b,0xbc24670c,0xbcf380f4,0xbbfe00b7,0x3e0c42f3,0x3da146f1,
0xbc3813a1,0xbda0b3e0,0xbd9b358a,0xbbe419af,0xbc885ded,0x3c8c9828,0x3db5c033,0xbd54572d,0xbcc482d2,0xbc857085,
0xbd000475,0xbd5f84fe,0x3e027ce1,0x3d7b27fa,0x3bd158a5,0x3cf34bea,0xbd6626af,0x3b7ae950,0x3e0350b7,0xbcde4505,
0xbdfa2fad,0x3d8f1877,0xbdf30d6c,0x3c452d11,0xbb47d357,0xbb3f620b,0x3d25dd70,0xbe874150,0x3d56ca2f,0xbd4e24cc,
0xbd4087b2,0x3d1d5e87,0xbbd8304d,0xbc586997,0x3c028bbf,0x3dc89bef,0x3daba054,0xbd73ab0f,0x3d2ed707,0x3c870782,
0x3e995bc5,0x3d4eac06,0xbc46fe7d,0xbdbdbac7,0xbcd7a2b6,0xbe5f10af,0xbdae7f87,0xbc34e1b0,0x3d40d2d7,0xbc48b93b,
0x3d77598b,0xbd316ec2,0xbc663f9f,0x3da30c1f,0xbc4ef719,0x3d7b6817,0xbe34174c,0x3d0e6ede,0xb9ec1925,0xbc2c751d,
0x3e041f72,0xbd4e8a2f,0xbd95c23b,0x3ded9b19,0x3df0e002,0xbd6ace78,0xbc529fc6,0x3d3a2865,0x3c9bca90,0x3e9d90b1,
0xbd7a964a,0x3d484a76,0xbce16099,0xbd6830c6,0x3e27d05a,0x3d9f28e6,0xbccef6f1,0xbc37bdcc,0x3da4d81a,0xbbe9a325,
0xbd38f4ea,0x3ca6943d,0xbcd44f40,0x3c589be5,0xbd365471,0xbc01308e,0x3d8b3cd7,0x3c2d8329,0x3d2d9fac,0xbc2f461c,
0x3ce556ea,0x3d4234e2,0x3cdccf46,0xbd676122,0x3cd3c363,0xbc82ef5d,0x3d89a719,0x3d0c9296,0x3da482f9,0x3d9a6375,
0xbe42b746,0x3d68664b,0xbdbe41aa,0xbd25e7cf,0x3db5ad42,0x3db31ab8,0x3cfe4b32,0xbd4fe251,0xbe190b29,0x3c781583,
0xbcd72bdc,0xbd80d844,0x3d8e29b9,0x3dc7635b,0x3deef853,0x3d32b7b1,0xbdf3053a,0x3d5f8ffd,0xbd75d747,0x3c8994e3,
0xbd3e5d6e,0x3e4d3e40,0xbd23d8d1,0x3c5b9199,0xbda3b205,0xbbd80c55,0xbe1839e4,0xbde276e9,0xbdde9bd8,0xbdc4d482,
0x3dd5c2e4,0x3d8c95f1,0xbd7f261f,0xbd1f90d0,0xbc68c92a,0x3da3c196,0x3a6320d6,0x3e02599f,0xbe6b4a74,0x3e3aa571,
0x3d957b42,0xbc8ef7ed,0x3db7a4a5,0xbcf81355,0xbd3d13b5,0xbd01b524,0xbcc4f3d5,0xbbaad4df,0x3d9b148e,0x3cad7e08,
0xbd202df9,0x3d705379,0x3de0d7c9,0xbd43eaf2,0xbd3324a9,0xbe77f349,0xbd5d3b9f,0x3e1106a2,0xbde84b06,0x3d138565,
0x3bb49b91,0xbe1e7480,0x3d5403c4,0xbd0db956,0x3b4c3b98,0xbd1fb34d,0xbe237ead,0x3cb4a6b4,0xbdc3906a,0xbe862deb,
0x3e07c2c5,0x3c5bf40d,0x3cd20d37,0x3e570de0,0x3dd80bea,0x3d65c5ba,0xbdf17104,0xbc90ecdd,0x3cd22f64,0xbe27eded,
0x3ccc7892,0x3df6c7bf,0x3e29d2cf,0xbe1dc5fa,0xbd976c2c,0x3dec457d,0x3e74c7f1,0x3da08266,0xbddedad8,0xbe553e5d,
0xbc7f6d8b,0x3c1df132,0x3c99582f,0x3ecc2811,0xbed8c0c6,0xbddc6df3,0xbdf38b4a,0xbc66e87f,0xbd297514,0x3ecf32ea,
0x3e4f6759,0x3e8dadcf,0xbe23fe4d,0x3ce4db44,0xbe266374,0xbe04a101,0xbe10e6b4,0xbdf8e107,0x3ead6428,0xbd9e8d90,
0x3e443563,0x3c194e0f,0xbe99428d,0x3e61130a,0xbd8df945,0xbd95dd76,0xbdbc9a5f,0xbd01c56d,0xbc706f20,0x3ea1b0ce,
0xbddb2334,0xbe83d909,0x3d442a10,0x3d67d6f2,0xbdda1fa1,0x3d8ee231,0x3e86a57e,0xbe2ac178,0x3daa566d,0xbe0caf09,
0x3c0ddac2,0xbe182121,0x3e047773,0x3c9134a6,0xbd2f8e65,0x3da284e4,0xbca9138e,0xbce0f56c,0x3c129ed6,0x3e0a0e61,
0x3dbddafc,0x3dac98c8,0xbc696357,0xbe7a40f6,0xbe234b1d,0xbd298186,0x3da6c59f,0x3de33f41,0x3d6aeff6,0x3d9b85fa,
0x3d8747d0,0xbd54331a,0xbd687e03,0x3da18e5c,0xbda65bad,0x3dc92435,0xbd0581da,0x3cae3a7e,0x3de34e7a,0x3c7fc559,
0xbd2df98e,0x3d7f14f6,0xbd537570,0x3d2e6626,0xbcd38a9c,0xbdf5fad2,0xbe1206ee,0x3d893c07,0x3e12514f,0xbe70fd31,
0x3ddb34fa,0x3d877e70,0xbd31b9d6,0xbe61e771,0xbdadae7d,0x3d97188e,0xbe3c0dd7,0xbcbaadfd,0x3ccf72f4,0x3d43cc24,
0xbe1edb51,0x3dc3408d,0xbe061ee0,0xbe9c9222,0xbe83858b,0xbd0723cc,0xbd4fca2b,0x3d2bac5d,0x3d9fbd6a,0xbd5cd5cb,
0x3d71d698,0x3d127fa0,0xbd98ffe6,0x3dd05957,0x3e4a02f3,0x3e297848,0xbe43b7cc,0xbd180fa3,0xbe0636a2,0x3e3c12d8,
0x3d577799,0x3c340397,0xbe40d28b,0xbe411fd8,0x3e429231,0x3daf32fb,0x3a295036,0xbe72dfca,0x3e44ed71,0xbe46a379,
0x3ca7ec16,0xbd55ab3d,0x3da5609a,0x3cdd267a,0xbe089eea,0xbe186d1b,0xbd78ad14,0xbc73acfc,0xbcb849d8,0x3c088562,
0xbe7ba929,0x3d9753a1,0xbd8bf260,0xbea25474,0xbc850707,0x3d1a349c,0x3e08e4bf,0xbe4e4690,0xbdee81bd,0x3c92d5be,
0xbd4642ca,0xbdf248a5,0xbd9b0bc3,0x3dbd10bc,0xbe41c319,0x3e03fb42,0xbcfc6141,0x3d94ee93,0xbe57ce6e,0x3d86b6cb,
0x3dde2538,0xbe89e10a,0x3cf0cc90,0x3d8096cf,0xbd51c9b9,0xbde9ee12,0x3cd7de12,0x3e25a578,0xbdf7a18c,0xbe3c33a7,
0x3d02d730,0x3e869fd1,0xbdbea6b5,0x3bf3008f,0x3b330a62,0x3de5ebd3,0xbde24404,0x3d188ad2,0x3cb10a73,0xbdd15d92,
0xbe91351b,0x3e13a0de,0x3d18cd15,0x3e1b3747,0x3e586b27,0xbe157a7f,0xbdb7e743,0xbdacabc8,0xbacb6e7e,0xbd866d45,
0xbcd1f378,0x3e0ad36c,0x3d6a2846,0xbd0a78fa,0xbcc900e4,0xbd197291,0xbeda471e,0xbb43487c,0xbda1413d,0x3e0183d6,
0xbcfc79b4,0xbd7fc25c,0xbe801ad7,0xbebad52a,0xbdc342f5,0x3e3430cb,0x3e0406d6,0xbdbbfde7,0x3e60cefa,0x3bab0fd4,
0xbdc34f4e,0x3d0dfe39,0xbe673a19,0x3d1e1b74,0x3d76cbad,0x3d5761ce,0xbd302008,0xbd9153fe,0x3e7ab89e,0x3e1331c8,
0xbe811cf3,0x3e779a67,0x3e220568,0xbe41a0ba,0xbd975eae,0xbd280cfd,0xbe1725f8,0xbdc9e473,0x3e1a7c54,0x3eb8f261,
0xbda78617,0xbdee178c,0x3c55c7a7,0xbde01baa,0xbdf34b21,0xbd3b6a0d,0x3dab6ffb,0xbe721f51,0xbe578542,0xbe457584,
0xbde537f9,0x3e0f9fc9,0x3d7e0419,0xbe654cfb,0xbe2b8930,0x3dcf0f73,0x3dcd1d7a,0xbc3f1bef,0x3dac0913,0xbd8dcf36,
0xbdeca4d4,0x3e7a31c9,0xbce2bcf6,0xbd2a1863,0xbc8b8566,0x3c565ccc,0xbd4608fd,0xbde37d8e,0x3d1c3f84,0x3ea0e1cc,
0x3dbd7826,0x3e212aa3,0x3d80d3d5,0x3b12dcc0,0x3dd7eb9c,0xbe56de65,0xbe4ba33b,0xbdabeeef,0x3d67e451,0x3dd78706,
0xbe506b7c,0x3bbe3a72,0xbeb16c7e,0xbdb796e8,0x3e1f22ec,0x3e403e44,0x3d86595a,0x3e37721f,0x3d4c278d,0x3e1ea6e1,
0x3e26bdc7,0xbdabef73,0xbed12886,0xbdda5736,0x3e584ae5,0x3e529832,0x3eefb9ab,0xbe8f182c,0xbd74a2e3,0xbe23e427,
0x3d7ad549,0xbd0a5136,0x3d839807,0x3ec875bb,0x3bdc4b15,0x38870f99,0xbdc74b36,0x3e53f6d5,0xbbb735ed,0x3e5a6b42,
0x3e3402f1,0xbd073366,0xbd3dc8f2,0xbb2f5b48,0xbe41b7dc,0x3db88977,0xbd5c5fb5,0xbe4798d3,0x3e9403e1,0x3e2b7f81,
0x3cdf19a4,0x3d57dc8a,0xbc9c4bb1,0x3dfb9b9a,0xbddd7704,0x3c8d7565,0xbe397de4,0x3e6c1ac7,0x3e5ba878,0x3d186f20,
0xbda580f6,0xbde8aad0,0x3ce8b7b7,0x3d2431dd,0x3ccf5530,0xbd549542,0xbd5cff29,0xbeb874f5,0x3e073667,0x3d99fed4,
0x3e556041,0x3d009653,0x3d7358d0,0x3c993fbd,0xbdd239e4,0x3d948f50,0xbe7c0bb9,0x3e37725b,0xbc8b6bc9,0xbc4521b8,
0xbb7cad24,0x3c33aa4b,0x3da5a8f7,0xbc9c458e,0x3e23bf41,0xbe2e37f8,0xbe533444,0x3d38ff9c,0xbd5dc535,0xbd110209,
0x3e4e910d,0xbdac0ffe,0xbcb416d6,0xbba4fb4d,0xbd8df3c2,0xbe73245d,0xbd03f597,0x3d28ac3e,0xbd7e9c4f,0xbcc8f518,
0x3e24a686,0xbe8e903e,0xbeb0d533,0xbd541d6a,0xbdfd1c6c,0xbdbfc211,0x3d1e66a3,0xbdf1c0d0,0x3e9ebbb5,0x3caedcc9,
0xbd89087e,0x3d1b1021,0x3e10cc18,0x3de77404,0x3d31cf2b,0x3de27012,0x3c96c89a,0x3e2c7546,0xbe239a27,0xbc4d56ae,
0x3d631f1e,0x3e79d604,0x3c18cbf6,0xbdbf261c,0xbde6596b,0xbe06ca97,0xbe11f7bb,0xbd95b998,0x3ef9f0c4,0xbc0118c6,
0xbd8475cc,0xbe343089,0x3c9e2641,0xbc67adbd,0xbcd0b48d,0x3cc158a9,0xbdfe8134,0xbd59b06b,0x3c0ae68a,0x3de4e894,
0xbd92702d,0x3d963376,0xbd9c85fb,0xbc6aedef,0xbd89750c,0xbdd83076,0xbba3ed8a,0xbe1733e1,0xbd53d253,0x3da38bb1,
0xbd5307f6,0xbe194f92,0x3d13638d,0xbdcc9253,0xbe35ce97,0xbde6dc77,0xbe4d43e9,0xbdbf3596,0x3e2ab793,0xbd6067a3,
0xbd974805,0xbd4afe15,0x3d77baf9,0xbda7f78d,0xbc9e8c6e,0xbe0f84af,0x3e1cedf3,0x3e1ec6e8,0xbe332913,0xbb4f3c3e,
0x3e1d4879,0xbdef4606,0xbcbd4525,0x3d9d2833,0x3d6aa0a9,0x3b8f40b1,0x3e342572,0x3e845f62,0xbcf15c7c,0x3e188933,
0x3d1ced6a,0xbc4d1943,0xbd315fa3,0xbe9892ba,0x3cf36e58,0x3e12b71c,0x3dcd148f,0xbd51afbd,0x3dbb8084,0xbbe3b8c9,
0x3cd8b56e,0xbcb1a14b,0x3cc18fa4,0xbd5fcc87,0xbd17c8ca,0xbcbb9070,0x3e2b8960,0x3cf47f4e,0x3baf3be9,0xbd915a05,
0x3d922ff3,0xbd3585d7,0xbb5d67eb,0x3cc5b1fe,0xbdb328cc,0xbda714bc,0x3c3b3fba,0x3c8093fa,0xbdd67081,0x3d415dcc,
0xbb2760a0,0xbcc6a628,0x3c6150a5,0xbdc58155,0x3d7a72ad,0x3df40ca5,0x3e1b9df3,0x3d4d419d,0x3aeb96a8,0xbc81cd74,
0xbd5e1092,0xbd28bf15,0xbd02617b,0xbb9d7f52,0xbc924224,0x3d06120d,0x3d0d648e,0xbe222a64,0xbc4da235,0x3d3e0ac1,
0xbc39e959,0xbc9dc15d,0x3d10c3b9,0x3d5d3378,0xbd33d326,0xbdea957e,0x3b4f1a2e,0x3c0242c8,0x3d13e615,0x3c8785f7,
0x3d2c861a,0xbaeed41f,0x3b00e55c,0x3ce72627,0xbde2216d,0xbc9cb64c,0xbc06d70f,0x3d8a5ed1,0xbdeafd78,0xbdd91819,
0xbd5bd3c2,0x3b572100,0xbb503864,0x3c5712a0,0x3d428c46,0xbc8c3f11,0xbc5881fc,0x3e307b48,0x3d06de01,0xbcbd88b0,
0x3d58a1c1,0x3ddcd831,0xbdf407c9,0xbe4560ab,0xbbebf607,0x3d593926,0x3e57aeff,0x3d4f431e,0x3d4fa6f0,0xbd440790,
0x3cfe387c,0x3d0b29eb,0xbc2298d7,0x3ccb9142,0x3df0593d,0xbca292dc,0x3df6c431,0xbbb1c05e,0xbdea2e70,0x3dd93d36,
0xbb1c27b0,0xbe07c55b,0x3dbc64d3,0xbdd602b2,0xbe1e5538,0x3d047b01,0x3d551295,0xbceba17a,0x3dc55b53,0x3e20abe6,
0x3d06746c,0xbd690e89,0xbc8b3151,0xbce5b552,0x3a0d413c,0x3e46bf59,0x3c93ce21,0xbcfce420,0x3d696288,0x3df10f20,
0xbd218ba2,0xbde958d5,0x3b2ba40f,0x3d9f38f0,0x3e144b8a,0xbd36c545,0x37a0b71b,0x3cf1106f,0xbd8e5c8a,0x3d223e62,
0xbd19b6ba,0x3c3119b8,0xbd75fbfb,0x3e6c2ebb,0xbdfa931d,0x3c71185b,0xbd726b9d,0x3dbe6496,0xbd571abd,0xbdd5c44d,
0x3e17917a,0x3ddb6599,0xbd310a0e,0xbdf7292f,0xbd234f74,0x3cd14933,0x3da789fc,0x3bfc62f0,0x3de9e133,0x3d9b921c,
0x3e8004c0,0xbdf0c304,0x3dcc6703,0xbd90b979,0xbd11bfa8,0x3e33990d,0x3cde206d,0x3d922134,0x3e9dd56c,0x3de72780,
0x3db66d62,0x3bd39f5b,0x3e416183,0xbdad76af,0xbe3b69c0,0xbd7f1fec,0x3d2e485e,0x3d117115,0xbe4dc022,0x3c618172,
0x3da411d8,0xbd40eafe,0x39acd2fa,0x3ceb082e,0x3d4faa8e,0x3dd8c179,0xbe61eb50,0x3d94f77c,0xbcb4f13b,0xbd31d202,
0xbda6a214,0x3ddf47b0,0x3d609605,0x3d0dc250,0x3c9f444b,0x3d29ef62,0xbcb2818f,0x3cbc52d5,0x3dec4061,0xbd95d326,
0xbc8a9f66,0x3c5f798a,0xbc89b734,0xbdcd53ed,0xbcf8d908,0xbd5e88ec,0xbe42ce71,0xbca1a289,0x3e35aa03,0x3cd9259d,
0x3e5212ae,0xbbf07791,0xbe1b2641,0xbe3bdfb8,0xbd90ff02,0x3ddeea0e,0xbdf48c31,0xbe4754b1,0x3b83634f,0xbd7a760c,
0xbe074c04,0xbd4f3f60,0x3ca59fa2,0xbd8d1f35,0x3d10b0e5,0xbd6b6212,0xbe637082,0xbc25a945,0xbdacdb2c,0x3bfdc1ab,
0xbe10c55a,0xbcb50914,0xbd8db9bc,0xbc3ec0c5,0x3e2f93f7,0xbdf06199,0x3dc700df,0x3cbf48d1,0x3d09aaab,0xbd85bc83,
0xbd2256d4,0xbd7647e1,0x3d66ccfb,0x3de72b7d,0x3e3787c7,0x3dd3ec32,0x3d2093cf,0x3e1dd5e3,0xbd3a7ddd,0x3d646883,
0x3e15c68d,0x3e205613,0xbda85daa,0xbe024652,0xbe22111d,0x3c672512,0x3c8611a7,0x3df84ed2,0x3dda0144,0xbc562fa7,
0xbc273ff1,0xbd08772b,0x3bcbd022,0xbd75b2a9,0xbba11dfd,0xbdcf1980,0x3daa9383,0xbba1dbc1,0xbdba8236,0xbd83f753,
0xbc51a7fa,0x3d8175e9,0xbb8100dc,0x3b173087,0xbe437daa,0x3d633fe4,0x3d8a0668,0xbd15a685,0x3dff539f,0xbd81e463,
0x3d009f8b,0xbd9dc9fd,0x3e00d581,0xbc0366ff,0xbe149a8c,0x3dae9a9b,0x3d31e54f,0xbddf33eb,0xbc5632dc,0x3e1bfbd8,
0x3d6bf8d4,0xbdaef65d,0xbc9d8241,0x3dac2fa8,0x3e00d6c8,0xbd74a5d0,0xbd62381c,0xbd810b17,0xbce46eeb,0x3c3d6820,
0xbd06879f,0xbd556bbb,0xbd2543a9,0xbdbc69a4,0x3b9c2031,0x3e03c8e9,0x3d676145,0x3b94b27b,0x3b8caa35,0x3d568a77,
0x3c8b7a20,0x3dbd84f1,0x3d0502ee,0x3dc694c5,0x3c5c4c01,0xbe1d488b,0xbe14ad5a,0x3d87a78b,0x3cb68a80,0x3e190f6e,
0xbc80fd29,0xbe88015e,0xbcca0458,0xbdb7025b,0x3cbf991c,0xbd97cc6b,0xbe1fc8af,0xbd374c0e,0xbd439a82,0xbd5545e4,
0x3d5d7172,0x3d191c38,0x3dba2c32,0xbd95be9e,0x3e22e90e,0xbca1db45,0x3d0a6cb0,0xbcebe79d,0xbdde15a4,0x3d8a338f,
0xbd1c7674,0x3c926991,0xbdac9941,0xbe077359,0x3cc3520e,0x3db09901,0x3bd5ac00,0x3d45ba2e,0xbdd342ce,0x3e05d5b4,
0x3d8ef273,0x3caf1955,0xbbbdc410,0x3d73b020,0xbd098a5a,0xbdc96615,0x3dbfd50f,0xbd459b3e,0x3e0479f6,0x3c7c0294,
0x3e3ccc5e,0xbd00b8d8,0x3d9edc0f,0xbc1dc80b,0x3dcef6fd,0xbdd84232,0x3db2ae5c,0xbd0a8a7f,0x3d446d37,0x3e38fa98,
0xbb2608db,0x3c8cdc1d,0x3e1678e2,0xbb315012,0x3e6a0979,0x3d94f734,0x3d08d5ee,0xbd3c8019,0xbdabfa98,0x3d36ab7a,
0xbc18423b,0x3de961c7,0x3c8e9c7f,0x3d6287aa,0xbbfafbb9,0x3d91e2da,0xbe29e6bf,0x3e638029,0x3dc64989,0xbd92aae4,
0xbe501d67,0x3e80bd18,0xbd7ccf4b,0x3da89eb1,0xbe759a73,0xbcbf5725,0xbd5aca6c,0xbe43ce33,0xbe6bf761,0x3e6cee35,
0xbd4f2c4d,0xbc711f07,0xbd9b95f1,0x3e443ec1,0x3d85dd53,0xbe04466e,0xbe96564d,0x3da83a75,0xbe1e11a5,0x3c293399,
0xbce676db,0xbbb54db1,0xbb4081eb,0x3dcd3d69,0x3d5880d6,0xbcead5fa,0x3e31b2c7,0xbe1d82ef,0x3e2c6e54,0x3de1f140,
0x3d7b4dd2,0xbdbc66dd,0xbd991510,0x3eb531ed,0xbc5afd32,0x3d3c82a8,0xbe0606e5,0xbdbfe137,0xbd1e025f,0x3d6c4ae7,
0xbe88662b,0x3e4c20b0,0xbe1f13ad,0xbd2fda2d,0xbe05eb0f,0x3df34d2c,0x3de969e3,0x3de13f37,0xbdacb324,0x3d34130e,
0xbdb3c0d3,0xbe01e6bf,0xbe32cdd3,0x3e8de892,0xbcdef3bd,0xbc801cf6,0xbe046cd1,0x3d9e120b,0xbd187c16,0x3db22ed8,
0xbe1aebe4,0x3eb482d4,0xbde48a51,0xbe9d4e14,0x3bb3fe51,0xbe0ed568,0xbe83d752,0x3d6e410c,0xbe143018,0x3c0233c9,
0x3d794523,0xbdeb463e,0x3c32f8aa,0x3c966853,0xbea4aba2,0x3e558c58,0xbde481ea,0x3dab326e,0xbcf0aec6,0xbda973ee,
0xbd90e918,0x3e68f0f2,0x3c7f7f8d,0xbe32c918,0xbe5c9644,0xbddf538c,0xbe166dad,0xbeb72bcb,0x3e2bb490,0xbcadb02e,
0x3c877418,0x3d4ba4c4,0xbe90addb,0xbe3a5119,0xbd61ebd5,0x3e419dae,0xbb9d83bb,0x3d445f03,0xbde371ce,0x3e3af1d6,
0x3e2ddd72,0x3bb32c98,0x3e0a6acd,0x3d1cf7ef,0x3e4403a9,0x3e0d0f9b,0xbea86050,0x3deeefd1,0xbe0bd6a5,0x3e6e0a2a,
0xbc7ca317,0xbd76c4c7,0x3e029726,0x3b03a9c4,0x3ce29613,0x3d1d715c,0x3d874648,0x3d1611fb,0xbd1fa5c8,0x3c597d97,
0xbdbae707,0xbd778476,0xbe2db866,0xbc325297,0x3c99a371,0x3ddf9e0f,0x3ca1a464,0x3c7f46c3,0xbcb6f94d,0x3cf7e25f,
0xbdb59c5a,0xbde37c6c,0x3c26e845,0xbc667029,0x3c24674c,0x3d8da9c7,0xbe2664fe,0xbdc358bb,0x3bc19ed8,0x3d04b584,
0x3e02434c,0xbd77fd59,0xbd0e0f82,0x3e059540,0xbdc2c553,0xbd3ef5a0,0x3dc60988,0xbd4ac61c,0x3ad97c22,0xbda94d88,
0x3d008946,0x3e7b8e92,0x3c306a38,0xbd677e8f,0xbb95d253,0xbd1cb1e9,0xbd44e8b6,0xb91901c6,0x3e026a03,0x3d97b99e,
0xbd844ea9,0x3bfd8bf8,0x3b1fce6c,0x3d873d9d,0x3cfb99f6,0xbd08b975,0x3ac1ca98,0xbd81439b,0x3d793aed,0x3d4835b9,
0xbc554e96,0xbd8d9571,0x3b87e4dc,0xbc8d5d3a,0xbcdaec7a,0x3c538e36,0xbe5334b5,0x3d922564,0xbd92dae1,0x3d270e5a,
0x3d5449f4,0x3e269723,0xbd87fbd9,0x3c917690,0xbdc357f9,0x3dcc91e5,0x3c802f71,0x3dc9218d,0xbcf88f96,0xbc601e08,
0x3cec095a,0xbcc07066,0x3b38428d,0xbd321645,0x3cd9df52,0x3e06090c,0x3b881042,0xbe0c3e30,0xbd446c8e,0x3e09dca9,
0xbd2472b0,0x3e2430ab,0x3d182bce,0x3d448de5,0x3d25899f,0x3d612188,0xbcceb850,0xbcef588c,0xbd4dc3a9,0x3d671f8d,
0x3cd7324e,0x3dbccbcb,0x3d3b2d9a,0xbd031bc4,0xbc3f68a8,0xbdd89792,0xbbeeb6c1,0xbe142ec9,0xbe5f794e,0x3cc7f3f2,
0x3dc30433,0x3dd6d4d7,0xbba4e200,0xbd592b40,0x3d72237d,0xbd4ac0d3,0xbcc1828c,0x3c03175c,0x3dc2b5ee,0xbd763f0a,
0x3da08d57,0x3dedbe39,0x3d1ea507,0x3d82de53,0xbd272505,0x3cc4ef50,0x3da94a28,0xbd9a236c,0xba221338,0xbde32c03,
0xbce3534e,0xbcf0eaaf,0xbd94263e,0xbb881989,0xbc9445b9,0xbe02d0c3,0xbcb15dca,0xbe421951,0xbe3a7abd,0x3d877b67,
0x3d8371f0,0x3c217f4e,0x3d437bc5,0xbcc2ae35,0xbdf6daa2,0x3ce7c37d,0xbc547fcc,0x3e2d4f40,0x3c29ebd6,0xbd8ad83b,
0x3d1d7511,0xbc287899,0xbd872f05,0x3c476efb,0x3e750601,0x3df26a3b,0x3cddcb4d,0x3dab1341,0xbc8d2704,0x3bf58a06,
0xbd6b0e4d,0xbb92074a,0xbbbd3488,0xbcf25b7f,0x3d1c1bf0,0x3d03deab,0xbd642ba2,0xbca093f7,0x3d8852d6,0xbd82c610,
0x3d8d1c05,0xbd94815e,0xbdcd4920,0xbb990d03,0xbbeb385c,0x3d52d402,0xbdac4a67,0xbc8885bb,0xbc4b24cc,0xbc31f77d,
0x3d909d96,0xbb0747e6,0x3e310f47,0x3e9ce6ca,0x3d4a2eb6,0x3df4c497,0xbe13c5c4,0xbe07dc74,0xbc1f5462,0xbd4d8e3a,
0xbca6fb9a,0xbcb3950c,0x3d911be5,0xbcf47b01,0xbc624032,0x3d12842d,0xbcaf1a0a,0x3db11edf,0xbd1ff4c2,0x3ddd1c1e,
0x3e2f5d48,0x3c6c8150,0x3d419f36,0x3d836c2b,0x3e015a9d,0x3d6c5d83,0x3e6fca20,0xbd758b42,0x3d8c1102,0x3de476f0,
0xbc7893a5,0xbd517df9,0xbb0f5d97,0xbd6f5bf7,0x3c166b1b,0xbc908529,0xbe0599fd,0x3da3f210,0xbc87625b,0x3d8d12e9,
0xbd1f2121,0xbccc96c3,0xbe06532d,0xbd05ddca,0xbdb3e4e1,0x3c08cc73,0x3ca8e4ef,0xbcc51136,0xbe548cc4,0x3dee3eab,
0x3d6001f0,0xbd65ff1a,0xbdab85aa,0x3cd129d3,0xbaf213ff,0x3c45395c,0xbe271cab,0x3c75a92f,0x3e1298a3,0xbd558e2a,
0x3deada70,0x3be0ef65,0xbdb0de6e,0x3b87fce7,0x3d87f789,0x3dce1bd8,0xbd122952,0x3e1e1908,0x3c7eee3b,0x3d827c16,
0xbb624a0d,0xbcf6f1b8,0xbdab96e1,0xbeb41ca9,0xbe11546c,0x3ea6d935,0xbe438955,0xbe62095a,0x3e73360c,0x3c782693,
0xbd2ccb0e,0xbe623a1b,0xbd89e289,0xbcb6b4cf,0xbdeee7a5,0xbdba9f4a,0xbdf31e5d,0xbb5b173f,0xbe003148,0x3e85a8c9,
0xbe2a13ce,0xbe5ce3d1,0x3d94f41e,0xbee266c6,0x3c3f7c6a,0xbdcaeb9e,0xbda211d2,0x3e39c79c,0xbe1a189f,0x3e3b0333,
0x3d54ed37,0x3a87f354,0x3d8b6604,0xbcd8c600,0xbe72a546,0xbda58223,0x3db97027,0xbd708705,0x3e0d87fa,0xbd7778df,
0xbe8420ce,0xbe6e5413,0xbc1388a1,0xbe1d8270,0xbd1dda22,0xbe976da5,0xbcbf002d,0xbebb8ed2,0x3e158d5d,0x3e43c35f,
0x3e375a8b,0x3dbf1c72,0xbde1f5a2,0xbd89d197,0x3d6ad2af,0xbdc1e925,0xbe3aa418,0x3e6769dd,0xbc8b0d17,0x3da0d063,
0x3e245acd,0x3dbecd7e,0xbe40a135,0x3db00524,0x3e810261,0x3eb882df,0xbe276dfc,0xbe2b1496,0x3e24fd56,0x3d941129,
0x3c9d63d1,0xbcf963c9,0xbca2871f,0x3cc2379b,0x3c4ffc1a,0x3daa8c49,0x3dc22584,0xbd51b1ee,0x3c542770,0xbc829d6e,
0xbd8b2672,0xbd2cc347,0x3a83bdd6,0xbd078334,0xbd6047ce,0xbd78ffe2,0x3ccbce0e,0xbcee45b3,0xbd4b6670,0x3d1153ad,
0x3da2f94b,0x3c9ee699,0xbd15c94f,0xbdc13d05,0xbbe126dd,0xb92dd49e,0x3d65ae97,0xbd9e0a4e,0xbb2a653f,0x3d26f7f2,
0xbd29c8c0,0x3d243e19,0xbc6844a1,0x3d00821b,0x3deb3a5e,0x3da7e527,0xbc96f207,0xba3a77f0,0x3c47f0f9,0xbc284012,
0xbd02aac1,0xbc7ef5f2,0x3d8d36a2,0x3cc33e52,0xbd07abd7,0xbbbfe981,0xbcf9ae3a,0x3c1f03d4,0xb9e7e670,0xbd452583,
0x3d3bfb2b,0x3cf83334,0xbbc43c75,0x3d16a9f2,0x3de83018,0x3d8412b0,0xbdc74ac9,0x3d859358,0x3c8648c9,0xbd8d1208,
0x3b086631,0x3df84e29,0x3dc27377,0xbde46421,0xbc383da9,0x3a54672f,0x3caa92da,0x3d8b2278,0xbb451ba9,0x3c851f06,
0x3d7ff01b,0x3d2ed972,0x3d8dac30,0x3cadb755,0x3be072ae,0x3c2f0b90,0x3d0922b4,0x3cfe08e9,0xbd941f1e,0x3c0386fe,
0x3d715512,0xbd77003f,0xbd136dd8,0xbcde920d,0xbd633a69,0xbd893bc9,0xbb8cfa5f,0xbd93a22f,0x3e052168,0x3d9ac8ff,
0x3cf14c4e,0x3d49a8ad,0xbd1c30e7,0xbe4f8862,0xbd186730,0x3d96fe64,0xbd119b3c,0xbd7fe599,0x3da95142,0xbd0857e2,
0x3d037327,0xbe5345b5,0x3bb8f7eb,0x3dcaa3d9,0xbcb95412,0x3ceb3003,0xbc9d7f8d,0xbd6b6b4c,0x3df39b52,0xbdbb1373,
0xbd9af70f,0xbe089407,0x3bc7a721,0x3cbf0ca4,0xbcb04e0e,0x3aec879a,0xbd14dfdd,0xbd326931,0x3d2ffb62,0x3de27e6e,
0x3d80fb08,0x3e70cbda,0xbd9c3139,0xbcd4cabc,0xbdb23040,0x3ce74cf6,0x3d531109,0xbe122199,0x3e614d3e,0xbbb131c5,
0xbe4fece8,0x3d23d153,0x3d1b85d2,0x3cb6b49f,0x3c6a8def,0x3dd31e62,0x3e07a2c5,0xbdba7481,0xbce4444c,0x3d8f62f3,
0x3e4938f8,0xbdac3bd1,0xbd4ca819,0x3bd4c245,0xbd0969a2,0x3d8eaa70,0xbd193f83,0x3d9f9bdb,0xbd111f56,0x3db196b8,
0x3d16e053,0x3e7659eb,0xbe2ef5c6,0xbd21a3e3,0xbd4f9360,0x3e81b073,0x3da86586,0xbde68f7e,0x3e08b2e0,0xbd882ea9,
0x3c354385,0x3c12e6b8,0x3d8f463a,0xbb836fec,0x3db62af4,0xbdab9785,0x3d2153a1,0xbb7d4619,0x3cfc7cd8,0x3bd0ec25,
0xbbbd2c8a,0xbd244fad,0xbca5ff39,0x3d76fee6,0x3d27f891,0xbbe669fc,0xbc82c32a,0xbc4d3c57,0xbd2b4428,0xbb9b6210,
0x3d4ac4ce,0xbd7b233f,0xbd8506c9,0xbc4eb377,0x3ccd496a,0xbd1033de,0x3dd7f149,0x3d1a2681,0x3d2506c4,0xbd551413,
0x3da890c4,0x3d5e61e9,0xbd2ad064,0xbd8a1066,0x3c9e9f84,0xbbeae4f9,0x3c1b81e6,0x3de834be,0xbd290c70,0x3c176b61,
0xbdbc1c8c,0xbc62ab63,0x3d6d3758,0x3d84ac3f,0x3e0b5298,0xbd6624a5,0x3d0e9ae8,0x3daa4f64,0x3d687458,0xbd80f653,
0xbdcbef68,0xbd9a818a,0x3d3ea0ab,0x3dc1ca80,0xbc9dbb40,0xbcb9def5,0x3d18d6ff,0x3daf7400,0xbd894507,0xbe008c81,
0xbdbf6354,0xbd22f424,0x3d6d0177,0x3d0ef149,0xbd3f7332,0xbd815cbd,0x3c7b4a6a,0x3dcd0dcb,0xbe31569b,0x3e56045a,
0x3e3aa3c7,0x3df7a00d,0xbc83cebd,0x3ce0c15b,0xbdd06c34,0x3bf00df2,0xbdd84a11,0x3d17e310,0x3d7611f1,0x3c697bbd,
0x3da51d5e,0xbd46eb84,0x3c32ed58,0x3da17c2a,0xbd2fdd71,0xbcf41d2e,0xbd3850a5,0xbd89731c,0xbbc1793e,0xbce2e3ea,
0xbcac6012,0x3ceb4afb,0x3c190c02,0x3c122068,0xbb37b1ac,0xba97c9d6,0x3d43aa9a,0x3ca306e7,0x3d5aaeaf,0xbd87d771,
0x3cc9b819,0x3de41760,0xbc8d7dfb,0xbdc56514,0xbd505c21,0xbcc8bcbd,0xbac74113,0x3d519d61,0x3cbbd648,0x3b4a7b08,
0x3d8c8924,0xbce70d3a,0x3c44561a,0x3d06317f,0x3cc22d87,0x3c8ffb8e,0x3d0fb278,0xbcfb535e,0x3d3d9578,0x3d33f28f,
0xbd039834,0xbd9a5991,0x3d810a40,0xbdcbf78f,0x3b9f1975,0xbc8491a0,0xbdc424fc,0x3c2c6fab,0xbd7fe787,0x3d50874f,
0x3e28a573,0xb797cef9,0xbcdf6a7f,0xbd1e5e76,0xbe019520,0xbc85f288,0xbc0ec667,0x3db33029,0x3da1f14c,0x3ce55fa5,
0xbc39e57f,0x3de09439,0x3c3eb33e,0x3d5bac2d,0x3d176b07,0xbd56981f,0xbe555063,0x3da00ccd,0xbd86deba,0x3d847493,
0x3d121e12,0xbe573bc5,0x3d9ea3f3,0xbcbcb0a3,0x3d1756a3,0xba811fbb,0xbe08e118,0x3b0c27b6,0x3d8707cb,0xbd44bfb6,
0xbd069cd7,0xbd94f6e3,0xbde60a66,0xbb58bfd1,0x3d7bf704,0xbcabdddd,0x3a613814,0x3d19944c,0x3c3cca57,0x3d2e0aae,
0xbc0947e8,0x3d2b52ba,0xbd3c6957,0x3da34dcc,0xbb279c5a,0xbd03bccd,0x3d1e0ad6,0xbddd9ba9,0x3c3c217c,0x3d29eadb,
0x3c4eb451,0x3d100952,0xbd885a28,0x3d4b723f,0x3d55554d,0x3bf080f6,0xbd617e40,0xbcd31993,0x3ca9a5ad,0x3d4fb5e2,
0xbb02cc42,0x3af92522,0x3d80e62c,0x3d0c2bed,0xbda300bc,0xbc99ab97,0x3d9ddf9b,0x3db07199,0xbb671228,0x3ca9c872,
0x3cd016da,0xbba483a4,0xbd69b06e,0xbdb5fae3,0x3dbc8f9d,0x3dd16e5e,0xbe0ca858,0xbdd7a3e8,0x3d104506,0x3d01ddb1,
0x3cab4f53,0x3df8da67,0xbc3ea1b9,0x3d2f239d,0x3de0841f,0xbd010410,0x3c7fed68,0xbc612159,0x3c8eba9c,0xbdcb5e44,
0x3d3d7635,0x3d2c996c,0x3cf6c534,0x3d8a2e53,0xbd8ec7e0,0x3d51f759,0xbe17146d,0x3deeafb7,0xbdaef4ed,0x3e359595,
0x3d9be84f,0xbd81751c,0xbd1bf28e,0xbd3f4f65,0x3df52ec4,0x3b08d7af,0xbc4c6ede,0x3d1ea9f8,0x3d0ac382,0xbc8cddd2,
0xbddee0ab,0xbd7a3bea,0x3ccf4a79,0xbc1766d0,0x3c3b5cde,0xbbb488ec,0x3d8988d3,0xba433234,0x3d3acdac,0x3dfe4ff9,
0x3b4739b9,0xbcfc7fac,0x3d00e421,0x3b1a2631,0xbca9269d,0x3cd37d7e,0x3dbdada4,0xbdd62d26,0x3cb72398,0x3c974edc,
0x3d26080d,0x3d4dd1cc,0x3be286d7,0x3af8b9c7,0x3c141907,0xbb8f9ee3,0x3ca95fa4,0x3d367fac,0x3b388143,0xbd167828,
0xbcc04f37,0xbbf2fa82,0x3b96d5ed,0x3b9fd1f4,0xbe02aef5,0xbd397997,0xbc0c5243,0xbc9a7908,0xbd267bc0,0xbd624570,
0xbd2b834c,0x3e01042e,0x3dc3a14a,0xbd785483,0x3d5cf8eb,0xbdf07180,0xbd1790a0,0x3dd15b9a,0xbcc08d14,0x3cbf0968,
0xbdd0e103,0x3d4d4397,0x3d449567,0x3d9f26f7,0xbe3f5182,0x3d338e84,0xbcae6aa9,0xbc92a7bb,0x3d2ba4f3,0x3cb98f97,
0x3d057afe,0x3c96b63a,0xbdcb4667,0x3dd73d92,0xbd1dfc84,0x3c78cce8,0xbc5f6515,0x3d400c99,0xbe5eb42c,0x3e0625ba,
0xbc7f82d1,0xbd1e186c,0x3cb6b668,0xbd847e61,0xbdb2dde8,0x3d233f3d,0xbcf166f9,0xbd8f943d,0x3cefbd99,0xbc902993,
0xbdc8bc84,0xbd16606e,0xbc7c7810,0xbc44308e,0xbdb2e948,0x3d6678ea,0xbd3b78bd,0x3d24abfd,0x3b185591,0xbabe3a9b,
0xbbe89b40,0x3d67c1db,0x3be170d5,0xbc5a5853,0xbe20bc15,0xbd1c95a1,0xbd46ca77,0xbc8f9d91,0xbc5bcdc8,0xbd4b16f1,
0x3caeedff,0x3c9c5782,0x3d922e36,0x3da8dff9,0xbc8f4690,0xbd484ebf,0x3c6bfab0,0x3b500ece,0x3cec3295,0xbc863a96,
0xbdbf162d,0xbd997300,0x3d050419,0xbc8f28bc,0xb9160500,0x3d994fa4,0xbcc6c7f8,0xbd822abb,0xbdac6c3a,0xbd9bef83,
0xb9c2a2ee,0xbc0a15ca,0x3ca83fd4,0xbe10937f,0x3c0eda79,0xbd2a0ab4,0xbcde7526,0x3c7a6eac,0xbbdbbb74,0x3d8e63cd,
0xbc67996a,0x3d6bacc1,0x3d0e8ed8,0xbdb07efb,0x3c3a09d0,0x3d5dc985,0x3e08249c,0x3cbc1dfa,0x3e1f43c4,0x3d1743fe,
0x3c557e6f,0xbd9b289b,0x3a30b665,0xbc5e7ba5,0x3e3d92bc,0x3e24531d,0x3e0cd2d3,0xbd1855fa,0xbca98d04,0xbcda505d,
0x3c387f4a,0x3bea510f,0xbd94d26e,0xbe49ac6d,0x3d8547e9,0xbd755a26,0x3d81cf9c,0x3b438faf,0x3caead00,0xbde393ca,
0x3d23a4f6,0x3c3811d3,0x3cbaf830,0x3de6ed40,0x3d2a0a6f,0x3d5b2679,0xbce97bbe,0x3cdc31b8,0x3d70e45b,0x3d0a195d,
0x3e18fdab,0xbd566985,0x3d3fa4d2,0xbdb46157,0xbc9cd41b,0x3cca4a1c,0xbd1c179a,0xbca6155e,0x3da78705,0x3c2a7675,
0x3c073e65,0xbe221f13,0xbd82eb42,0xbd19793a,0xbe4d94c3,0x3c942b17,0x3d0fe93e,0xbd8144b1,0xbdb0c65e,0x3e844af3,
0xbe26a0c2,0x3d45c0a6,0xbcf86883,0x3d30ee55,0x39db284b,0x3d801f5b,0x3caba369,0x3a960286,0x3d22489c,0x3c856e3c,
0x3a801d4f,0x3e1f79b0,0x3cc58dda,0xbc469af8,0xbd9d803b,0xbc3c40b1,0x3df6cfdf,0x3c93e3b1,0xbd96d78a,0xbc32bae6,
0x3c729ba8,0xbc288c46,0x3d0aa09b,0xbd6cd847,0x3e1bf041,0xbde269cb,0xbe1498ff,0xbbad3527,0xbc1d1c8c,0xba810e7a,
0xbc8f63ad,0xbcf71a32,0x3cdc14df,0xbd0751f4,0x3e100750,0xbe1b7e12,0xbd8b1a7d,0xbc0d3e02,0x3deed9cb,0x3c25d445,
0x3e380189,0xbd9df5fb,0x3bdc4994,0xbdddb93c,0xbcf3251d,0x3e754e94,0xbd953bc3,0xbddfc1c4,0x3d0ef0f6,0x3cb827ba,
0xbcdeb1d8,0xbdb5ee22,0xbdfa0b52,0x3c5af0b9,0x3df8ba16,0x3db6dc18,0xbc24477b,0xbbc5042d,0xbce586fa,0xbd39364d,
0x3c32f550,0xbe1133ee,0x3d2a2cce,0x3d0965e8,0x3dab298b,0xbc6da707,0xbd83a69b,0xbda92f95,0x3adfd3e2,0xbcaae61a,
0x3dcfd9b0,0xbd7b5e01,0xbde3f888,0x3c6732e6,0x3d2a5b67,0x3e3bea0c,0x3d0f1856,0xbd1ea94b,0xbc342669,0xbcdd3375,
0x3da48071,0xbd016ddd,0x3e0c772c,0xbb2a87c0,0xbc7ab02d,0xbc6be06b,0xbd941a02,0xbd93c95d,0x3d2e87e4,0xbc58556c,
0x3cc56f5d,0x3b82afbe,0xbda2a1db,0xbb65959b,0x3d0845cc,0x3dd8538a,0xbd662b94,0xbd8258d9,0xbc3f9a06,0xbc1c272f,
0xbceca5b1,0x3d184d34,0xbce079f0,0xbcee1c94,0xbdf25c53,0xbcfe1416,0xbce1c496,0xbc927e65,0xbd099e1b,0xbc92d6c2,
0x3d012e19,0x3b0846e6,0x3c6eb853,0x3e0bcb88,0x3b8c44ef,0xbe39c70b,0xbdd33249,0x3c9b88b3,0xbd956f30,0x3e0d3b7f,
0x3d9712b1,0xbd938cb5,0x3d50131f,0xbe5775dd,0x3e459708,0xbdb3e57b,0x3d521dc1,0x3c91e223,0x3bb6bf3c,0x3d034cca,
0x3d4452fa,0xbd4a37d4,0xbbcf6e1a,0xbd07e959,0xbde94ad7,0xbd8bb0fa,0x3e3ee0b0,0xbd14fc7e,0x3baaee85,0x39fdc08a,
0xbd62d20c,0x3daf6aad,0x3d9370d5,0xbaed6f47,0xbd6eaa91,0x3e9ca2e8,0xbdbf7012,0xbcc55f2d,0xbceadf58,0xbbefee8a,
0xbd3dbfba,0x3daf667e,0x3d55fc6a,0xbca9ac9f,0xbbf287c4,0xbd3dea3e,0x3bcb599e,0x3dcc4ce9,0xbbd7651f,0x3c6f22a2,
0xbe01a79e,0xbc012610,0xbd0906f7,0xbd939a19,0x3d96225a,0xbcc700f7,0xbd815d10,0xbc0e0471,0xbca28e26,0xbdca9830,
0x3e7c9c2e,0xbcb0f836,0xbdcc7470,0x3d070bd2,0xbd6d6e53,0x3e041cc4,0xbc6a23c7,0x3d07521d,0x3c84d51f,0xbcb0b6bc,
0x3d621944,0xbd44b7c8,0xbcf913cf,0xbd5ac3e8,0xbbe0e117,0xbca460bf,0xbd8aa044,0xbd00decc,0xbe231e91,0x3d13a52e,
0x3dac3371,0xbda80fde,0xbd2c6d1f,0xbe109a5c,0xbd958ca0,0xbd398528,0xbd92b297,0x3c4f6a11,0x3d4e542b,0x3dc3859c,
0x3c925b90,0xbd383be0,0xbe2326b7,0xbde8aaf8,0xbe6e3ce3,0x3d80a085,0x3d59bb03,0xbdbd4c86,0x3d0a2f83,0x3d9ab996,
0x3e44f85b,0x3cbb0a81,0xbccb4fe7,0xbce1f700,0xbcd4d791,0x3d984b59,0xbe10d05d,0xbe198fc2,0xbe524a59,0xbda22adf,
0xbd345a3c,0x3e12f49e,0xbd3a469a,0xbe367c20,0xbddcc475,0x3d755ad7,0x3cef0440,0xbbfb4ca7,0x3d65e386,0xbd40cdcd,
0xbd1344cb,0xbdea49ea,0xbdb66d3d,0x3d20e646,0xbdd87d47,0xbda1433f,0xbd7f924b,0x3d39214a,0x3d0cfb7f,0x3c9500ee,
0xbd138d67,0xbcd3ff9f,0xbe367405,0xbd6d9bda,0xbd750e90,0x3b77ea5c,0xbc7ddd0e,0xbe13136c,0xbd99e5de,0x3e185472,
0x3e031983,0xbc16027a,0xbd034388,0x3b01f3d6,0xbd0a504c,0x3e213f44,0x3d9dde7c,0xbe51e3d7,0x3e0dd75f,0xbadfeb83,
0x3c87ba2c,0x3d90466e,0x3d5648b1,0xbc1686cb,0x3d3a13b2,0xbdabae9f,0xbd177b4c,0x3ccbef94,0xbda37202,0xbdfb57d3,
0xbd69c0a2,0x3cc567b1,0xbe4f349c,0xbbe29811,0xbdd71814,0xbe02644c,0xbbfe62e1,0x3ddfa08b,0xbe33aef7,0xbbaa33b8,
0x3db49f11,0x3dd78247,0x3d550dde,0x3cc74c71,0x3e0d592d,0x3e071721,0xbe163e4b,0xbea95900,0xbd956ecb,0xbcc3e7ad,
0x3d8d3151,0xbdaba6d1,0xbe0d5591,0x3d8db8b2,0xbceef367,0x3d4c10f4,0xbdfa20a3,0xbdda780e,0x3cc9894f,0x3e0da4bd,
0x3d81f935,0x3e234fed,0xbdb49880,0xbd3e42f1,0x3ca2e340,0x3d835a1a,0xbd6ee6be,0xbd7e61c3,0x3e3619e9,0xbd23136a,
0x3c74f489,0xbb9c587f,0x3e087f83,0x3de6f340,0xbe075b9c,0xbd171a8f,0xbd79fe7f,0x3e52b0ed,0x3b4215a1,0x3bf50d2c,
0xbd3ca473,0xbccf2aff,0xbd888de7,0x3bf5baee,0xbd5109e4,0xbe3a95ae,0x3cab22bb,0x3ca147b1,0x3d107c1a,0xbe030d42,
0xbc80d7b7,0x3dfce8e3,0xbb577349,0x3d865445,0xbc0047b9,0xba4faeeb,0xbdab0828,0xbd50eabb,0xbaa9a72c,0x3d72436b,
0xbd85f7b0,0x3df94fa6,0xbe1ff0f8,0xbe247545,0x3e3e4e2f,0xbd167136,0x3e0f8733,0x3d4be05a,0x3d24de30,0x3da63993,
0xbc154daa,0xbe135d3f,0xbd7cfbd5,0x3e1e0397,0xbbf60307,0x3d392ef6,0xbe1cb77b,0x3dc936f6,0xbc179d9a,0x3c78d467,
0x3c93de0b,0xbda0acfa,0x3d6d1080,0xbe4b43a0,0xbe1c3f56,0x3d2148ce,0x3e458c33,0xbdaae2da,0x3c456560,0xbd05229d,
0xbc1bdc1d,0xbb0faa74,0xbd336a5b,0x3c4ddf57,0x3d75e7d2,0xbdcaa680,0x3ca8423d,0x3d0ab16d,0x3c09798b,0x3d57ec00,
0x3dd688d5,0xbd2da98c,0x3cd60a1d,0xbd854e59,0xbd288abb,0xbb89fa76,0xbd973760,0xbb1949f1,0x3d46a05e,0x3ca1928e,
0xbd62d81e,0xbb82908f,0xbab48946,0x3dabc0b3,0xbd203f9b,0xbc88b745,0x3ca7a3d8,0x3d80c123,0x3d5cc9e7,0x3d3ac9fa,
0x3d620a45,0x3d162575,0x3cb13f26,0xbbc4982c,0x3b343024,0x3d2b8a7f,0xbd717a7e,0xbbdd6bc4,0xbd5f7aef,0x3d696b25,
0x3dbca438,0xbcb4f7c9,0x3c106c29,0x3d444ff8,0x3ccf4794,0x3cbb3806,0xbe3ffbf7,0x3d397347,0xbd8059f6,0xbc4618a4,
0x3c99cc80,0xbc4945a6,0x3cbae342,0xbdb787ab,0x3d2b29d3,0xbbbd9ca2,0xbc5d92c2,0x3b044233,0xbdfbd2bd,0x3cf5d93f,
0x3e0cb162,0x3b1d080b,0xbd6d7d2f,0xbd237528,0x3af6cfc0,0xbd0ddfbb,0xbdadf303,0x3cf015f9,0xbddfa3d0,0xbcdb379e,
0x3d165427,0xbda061dc,0xbd05037f,0xbd7c482e,0x3dc264b9,0x3cc5aa72,0x3b9e5f2a,0x3d203982,0x3d5ab540,0xbd95d0dc,
0xbc7d0ba1,0x3c075e91,0xbb68df8c,0xbc0cb961,0x3c967985,0x3d937d43,0x3b83e111,0x3d1634f7,0x3cd3831f,0x3c043d5e,
0x3c3f55bb,0x3cb9411e,0xbc548485,0xbcd6015e,0xbda7804d,0x3ba491a2,0x3ceef640,0x3d57dfdb,0x3ca40dc9,0x3d26bdd9,
0xbded6d80,0xbd5d7caf,0x3d26d1b5,0x3a0b0ef4,0x3c2287ff,0xbca67838,0x3bfc297d,0x3c9aa536,0xbce65cea,0x3d5ade89,
0xbd318639,0xbd0ec6be,0x3c0d4d70,0xbce59f68,0xbcaf6b68,0xbc87213c,0x3be499cb,0xbd1b4af4,0x3d8f7418,0x3bf41068,
0x3c42f429,0x3d0c90a8,0xbd372d2f,0x3b3402c1,0x3d30be5b,0x3d805c32,0xbd89f3d2,0x3c8fe1bb,0x3bba9493,0x3dd03d32,
0xbd128a3d,0x3d0fd615,0xbdd1051a,0xbcd7a770,0xbd3184f9,0xbd3a8c3f,0x3d2928c1,0xbd29f6f6,0xbd3d3e3a,0x3c7afad0,
0xbcd3cbda,0x3c1cde36,0xbd4a7e3c,0x3d193923,0xbd02d8a7,0x3c9586f2,0xbd18b6da,0x3dd933a3,0x3d42822f,0x3ddb4545,
0x3d781fc4,0x3c99b8c6,0xbd83d934,0xbc99bc9b,0xbcfdd21c,0x3dcda047,0x3d2012c2,0xbd883c66,0x3d17b2dd,0x3d9a6f51,
0x3d356a80,0xbd167472,0x3c8a6363,0x3cb30a72,0xbd2f5da9,0xbd1b60db,0xba5d41a6,0x3e0fb05c,0x3caa57e5,0x3b2ceda8,
0xbcf62308,0x3d4bd2d1,0xbd3e34f8,0xbc842d72,0x3caea436,0x3b9b3557,0xbd53a543,0xbd546de4,0x3b9690b3,0xbb4caf05,
0x3c994425,0x3ccb866f,0x3c514a25,0x3a04ce86,0xbb918dbc,0x3cec47f2,0x3cca79cb,0xbcc8cae1,0xbc833736,0x3dbf9021,
0xbda76f86,0x3d42fe3c,0x3d3e283a,0xbcb3d88e,0xbcc59ca0,0xba9bf7ef,0x3d852f1b,0xbd798bd4,0x3ca45ba5,0xbd86b9e6,
0x3d349f7f,0xbad3b9b4,0xbbdc4eff,0x3c64b4ca,0xbcd2723e,0xbc73a9f1,0xbc36823e,0x3a1a6552,0xbbd1f994,0x3cd930f9,
0xbd0ba313,0xbcf70d8b,0xbc93901c,0xbd19867c,0x3c08177a,0xbb578312,0xbd213cf2,0x3cca2852,0xbd2e46b6,0x3c6fca6c,
0x3d074c28,0x3ccf5061,0x3cc46e48,0xbdc4e2ba,0x3c916ec6,0x3d9da273,0x3cd95348,0x3ae506a3,0x3d6efc44,0xbd21bb12,
0x3d31907f,0xbb436f88,0x3d1e7618,0xbc851599,0xbd53250a,0x3d28a060,0xbcf88b24,0xbd0168a4,0x3cbe14e1,0xbc9536d7,
0x3b53d35f,0xbcae3dcf,0xbd16c44f,0xbc152a7c,0x3bc295e6,0x3bbe7792,0xbc85d442,0xbd19867d,0xbd864e81,0x3c5e8379,
0xbd37165c,0x3d6421a5,0x3bacf1e8,0xbce635a3,0xbb074adb,0xbba4546d,0xbd900aab,0xbdb22ea9,0xbc493d58,0x3c581ad7,
0x3caffe5e,0x3cb7d58b,0x3c401fab,0xbc793fa5,0x3b941f32,0xba16ba2c,0x3b8ba06c,0x3d5a0a40,0xbd293b7b,0x3c0f87f6,
0x3d304adb,0xbcaf3e99,0xbc395018,0x3cf2cfb0,0xbd8bfb6e,0xbd163aeb,0x3d148c6d,0x3c947786,0x3d80585f,0xbd426401,
0xbcbc137e,0xbc9a052b,0x3d50c46a,0x3cc6ab0d,0xbde9fe97,0x3c85e8c0,0x3c85ef57,0x3d02504a,0xbc4789ea,0xbcdd7f0e,
0xbcac7d30,0x3d77f049,0xbde5d23b,0xbdcd988a,0x3c883780,0xbb8665ef,0x3da27f67,0xbd74b426,0xbbdba55b,0x3b86a5b8,
0xbc910a20,0xbd1b69bf,0x3b9020e8,0x3d0ec0d2,0x3d8bbfa1,0x3bad11e9,0xbbbade79,0x3b986c79,0x3d9cb8b1,0xbda59915,
0x3cdc5027,0x3d161512,0x3ae205b5,0xbe5cbae1,0xbd06b6a5,0x3c775d05,0xbd601d52,0x3d8277dd,0x3c01f00f,0x3d58bc9b,
0xbe08ee58,0x3d2dd60e,0xbdd1aa58,0x3c6fa8e0,0xbd02afed,0xbd763f51,0xbd3ff838,0x3dbe1988,0x3dc8d8d1,0xbe294a7b,
0x3d6ec8ab,0xbc405959,0xbe14b225,0xbd37e57f,0xbdcb5efa,0x3d1cb732,0xbd663039,0xbd50220b,0x3e0dfa26,0x3e06a8c5,
0x3ca4fcd6,0xbd493a78,0xbdeadc93,0x3bcc92a6,0x3b275452,0xbe4e63d8,0x3d5bb2c1,0xbcb635b5,0x3c308308,0x3d138603,
0x3d86acd6,0x3d11f13e,0xbd3da13e,0x3cd9f0cf,0x3c820e46,0xbd408db2,0xbc7b280c,0x3d21a00b,0xbd832c62,0xbdcc1da6,
0xbc014a95,0x3d629c80,0x3e377ff0,0xbcb76a5e,0xbd9d8412,0x3d2072ae,0xbd13f5b3,0x3dd04d30,0xbb8406bc,0x3d9a9d81,
0x3cad32b5,0x3c6ff99d,0x3b028435,0x3c76e071,0xbdbcfe8e,0xbd2ed44e,0x3d95e3b7,0xbd2fb10a,0x3d2f8f3f,0x3e63c3d2,
0xbd8be106,0xbcef3f94,0xbdcde98f,0x3db51ceb,0xbd146dbe,0x3d6c9d56,0xbe253250,0x3de57488,0xbd7ff77c,0xbd0e63c4,
0x3d4082a7,0xbdaf9543,0xbc2dd612,0xbe0df5ce,0x3c33ec88,0xbd4d6701,0xbdaebf12,0x3d8c19fc,0x3da0e762,0xbdc3cef3,
0x3d19c926,0x3c8f958f,0xbd48c68d,0xbc899082,0x3ca2d3d4,0xbc4a98d5,0x3b859a35,0x3bbceaee,0xbcc139fd,0xbc59dbd9,
0x3c3913e0,0x3da1597a,0xbd4f5b3d,0xbe048014,0xbca6570d,0x3d2c310f,0x3c5a3a67,0xbc0ed74a,0x3cf500c4,0x3d1a9ea8,
0xbcf9d6da,0x3cd3efe0,0x3ce7f87b,0xbc6b15d5,0xbc9befbb,0xbce11f50,0x3c8b673f,0x3b9963fe,0xbd9e7744,0xbc51f932,
0xbd916ccd,0x3cef94ed,0xbc958b9a,0xbd62d457,0x3cafdde4,0xbcc27058,0x3d282558,0x3cf1ff84,0xbd1cfd18,0xbd465c1b,
0x3c8884b9,0x3d527b3d,0xbd5a7173,0xbd06184c,0xbaa82978,0x3c88f07e,0xbd0b47a1,0xbcf3f8e8,0x3d388813,0xbb866dd1,
0xbdefd14e,0x3d55c127,0xbc3732b8,0xbcf6c20c,0x3d79569b,0x3d741d8d,0xbc7f3668,0xbce8fc7f,0xbd3d95d7,0xbbcd4d49,
0x3d9889d7,0x3d1360a8,0xbbc5fa10,0x3d399648,0x3c35876b,0x3ca8601b,0x3d2434f8,0x3d574b32,0xbd3bdc7b,0xbba43439,
0x3d7cd0cc,0xbbb1a5f5,0xbdae74d7,0xbe14bf9f,0x3c6669ed,0x3c0bc70a,0x3e284fc4,0xbc72aaa1,0x3d334c1c,0x3ccfed01,
0xbd33b61b,0xbcc14b12,0xbcdaf93c,0x3ba2e98f,0x3c0bcf24,0xbdd92bd7,0xbcb92caf,0xbd4c00da,0x3d1a5838,0xbd4592b5,
0xbd9b9b7e,0x3c8d65fc,0x3d3176c4,0xbcaba2e1,0x3d36a979,0x3c92bd38,0xbcdc70e2,0xbdd0e717,0xbd32afd1,0xbc6e34d4,
0xbcfad9a1,0x3be6f709,0xba659f0b,0xbb9a8024,0x3c575240,0x3d0152b4,0x3db775f5,0x3cbd25ae,0x3a4f12b5,0x3c193301,
0xbdd47fb8,0xbd827d52,0x3b16d106,0x3c6210f2,0x3c447acf,0xbc942696,0x3d424d6c,0x3d1b9658,0x3d114a9a,0x3c004676,
0x3c6a0d48,0xbcb8db0e,0xbb88b965,0xbd99438a,0x3dc9f9cc,0xbd535b91,0x3d53fdf0,0xbd216581,0xbc46b7b9,0x3ca30087,
0x3bcac60d,0xbd7c95fc,0xbda7c613,0xbd559e5c,0x3c82c421,0xbcb7e863,0xbb9f37cd,0x3d5f53cb,0x3d669b5a,0xbdcc8007,
0x3cfd718f,0x3d8a4884,0xbdcbab90,0xbd09ea5c,0xbe1d0a66,0xbe311f3e,0xbdb70608,0x3d07c47f,0x3c89dc8c,0x3d94401e,
0x3ca33d3d,0x3e03a9af,0xbdff9e53,0xbde8236e,0xbe2e3a23,0x3ced4052,0x3dbcf39b,0x3e472294,0x3d9acc7c,0x3e02699e,
0xbd28b192,0x3bbcdd58,0x3e1c14da,0x3c2c1a2c,0xbd82a8eb,0xbca3ed72,0x3c4cdc9a,0x3c423a01,0x3c14ec7b,0xbd689c07,
0x3d1c28c4,0x3d8039cd,0x3dca2d78,0xbc111b2e,0xbd2d4714,0x3d56a956,0xbd4dff78,0xbd9f856a,0x3d9cf761,0x3ccc0547,
0x3d1bd3b7,0xbc398a84,0x3d659458,0xbdb59baa,0xbc0e78cc,0xbd3772b5,0x3d3c63dc,0x3c69728d,0xbd8e6b23,0x3d6c3991,
0xbc4abeb1,0x3d5acbd2,0x3c0b2932,0x3d1cfcef,0xbcc44f81,0x3da22ae1,0xbced52a8,0x3d2e4f81,0x3d747c74,0xbc1e12ed,
0x3ced61bc,0xbd975821,0x3d6b3e79,0x3babb5a4,0x3c3ab8c5,0x3d47d4bb,0x3bca0a80,0x3c76cf1b,0xbcc12a06,0xba6c3623,
0x3d84545e,0xbc9df2be,0x3c48e370,0xbd748458,0xbdb3578a,0xbc3c5bd1,0xbd3ee851,0xbc21e53a,0xbc9a1747,0xbcb2d216,
0xbd9049a9,0x3cb1bef9,0x3cf62c01,0x3d46bd37,0x3ca3ae84,0x3dc0980c,0xbddabcf6,0x3d81b83e,0x3bb1e7e6,0xbd8a68dc,
0x3d7ac775,0x3b3db527,0x3aff51ed,0xbd04bded,0xbda0761d,0xbd93b8c2,0xbd861a94,0x3cb01c55,0xbc4be69a,0x3dacc4d3,
};

