const static size_t backbone1_2_0_weight_size = 864;
static unsigned backbone1_2_0_weight[]={
0x3dc899d7,0xbde6dbde,0x3df825d4,0xbe89841e,0xbf5d3f86,0x3edaa37c,0xbd786b0d,0xbe14ee83,0xbe257fb9,0x3e078f6b,
0x3b41f49a,0x3bbd7583,0x3de12b82,0x3e9add57,0x3da19200,0xbda8798e,0xbfba01c3,0x3eee76dd,0x3e64546a,0xbd6ecbf9,
0x3e00f86c,0xbd485d0d,0xbf7621b9,0xbe90d5a9,0x3dc289a6,0x3d794626,0xbccf068a,0x3db717bb,0x3ed11a42,0xbd595d2a,
0x3eb6e7de,0xbfa3fa95,0xbc2680d5,0xbe6b37c5,0x3f193954,0xbea6a99a,0xbdc070d7,0x3e9f3710,0x3d9296a3,0x3e7502eb,
0xbfe11c2b,0xbe58f1e9,0x3d23a059,0xbd7bb3f7,0xbd952f69,0xbe11866f,0x3e59bd05,0xbe9886ae,0x3f828149,0x3ec0e459,
0xbe499542,0x3e3d1378,0x3e876980,0x3e67c03a,0xbea3eeb4,0xbe679741,0xbe453ff1,0xbf1afbe8,0xbf28c81e,0xbe07d1c6,
0x3db9407f,0xbc0cadeb,0x3d8671ab,0xbd5320c7,0xbeaec111,0xbd6d9862,0xbd2d9682,0xbf9de7d5,0x3eea6672,0x3ddb08a6,
0x3e6e5b3a,0xbb2d1f9e,0x3d2ebd4c,0xbf97cdbb,0x3e7e968a,0x3e1d03eb,0xbf2e83a9,0x3e6ddfc7,0x3cdfb4d8,0x3e99ff27,
0x3d95692d,0xbd450da3,0x3e4c7800,0x3ec09b56,0x3eae99ed,0x3f3d2e17,0x3e266001,0x3cae2ed4,0xbea66793,0xbe7a5fb3,
0xbde03451,0xbf0e0ae6,0xbe92dc2c,0xbe085036,0x3e87a541,0xbed4144f,0x3ea28286,0x3f5a5285,0xbd77c041,0xbce9e51d,
0x3f66d289,0xbe619e48,0xbe30b215,0x3fac9d7b,0x3f13ec82,0xbea13c95,0xbec1d984,0xbebf38f6,0x3da02b21,0x3ec33a08,
0xbd855372,0x3dc7597c,0x3f6ab7a3,0xbefe70db,0xbf1035fd,0xbf0145a2,0xbd9d1311,0x3d9eaca8,0xbf85288a,0x3eaa426d,
0x3e1ed342,0xbedc7249,0x3f448de8,0xbbaf3b63,0x3ea7fa51,0xbe47035b,0xbd16505f,0x3d69e5d3,0xbb765d98,0x3e299848,
0x3e1c47f9,0x3b9e1f0f,0x3f3e2822,0xbff730a5,0x3e9b19fc,0xbd4c13b1,0xbe90e212,0xbcae0683,0x3d21a408,0xbf8c4fed,
0x3e2fa879,0xbbb63d10,0x3d107321,0xbced17b2,0x3d3c31cf,0x3db10cc8,0x3c1ab19c,0x3dce95ab,0xbf809bc8,0xbbc786a3,
0xbe50634e,0x3fa2b3f0,0xbe214051,0x3f115b6c,0x3f7ba7cc,0x3f0d656e,0x3cf64c00,0x3f8b29a1,0x3f730ce7,0x3e30a727,
0x3e4fb739,0x3e49fd56,0xbcd7a7da,0xbdcf4133,0x3d0edcde,0xbe2cb39d,0xbf91e4f1,0x3e3f07cc,0x3d98ce71,0x3f228510,
0x3eff9663,0x3ebf5c53,0xbe069b18,0x3ddcbb36,0x3ee38bb1,0xbf5b15c9,0xbf031955,0x3dc175c5,0x3e77bbdb,0xbe98d675,
0xbf0cb96d,0xbec039b4,0x3ea3d20e,0xbd6a27cc,0xbf5e8021,0x3f30ced2,0x3ebbce5b,0x3f2819bc,0x3cbbf169,0x3dc36b18,
0x3d76b43e,0x3d8ed40c,0xbe6f5e35,0xbe8f2977,0x3e38cd0a,0x3c699512,0xc003d64e,0xbf1274fc,0xbf120849,0xbedc4573,
0xbe0e48aa,0xbef3d1ba,0xbe96976a,0x3ecaf6bc,0x3e3f72c0,0x3f6f52bb,0x3ef188ba,0x3eb4b035,0x3f4ac73d,0x3ea48422,
0xbe3f3f21,0x3f1b8ad3,0x3f484beb,0xbf06173b,0xbedab83f,0xbd982be3,};

