const static size_t backbone1_8_0_weight_size = 1728;
static unsigned backbone1_8_0_weight[]={
0xbf0e2115,0x3e5d5798,0x3f36abe5,0xbd89c561,0xbf36a311,0x3e2de2f4,0xbd748407,0x3eaf76a5,0xbd0173fa,0x3eae8b64,
0xbd5e0f6e,0x3ef3e2bf,0x3e3c3b5e,0xbf81e83c,0x3d18d5a3,0xbe6a781d,0xbf12cf4d,0xbee20f12,0xbdbdb6e9,0xbe803b4d,
0xbe5a7e49,0xbe9247e5,0x3d6509f6,0xbee4684e,0xbe99b141,0x3e0539f9,0xbe9a95bb,0xbe630c5c,0xbf888925,0xbee1b445,
0x3edca22e,0xbf15d394,0xbe9ea1e9,0xbc560464,0x3d88079a,0xbc129b72,0xbe682286,0xbe809069,0x3f061198,0x3c9da4ad,
0x3ddc0fab,0x3e0f0e1b,0x3d6233db,0x3f1222d3,0x3e011d18,0xbe886287,0xbd8854d0,0xbe70bc1e,0x3c3a91db,0x3f7cb11a,
0xbe918ce6,0x3e558817,0x3eb447ad,0x3d4cf7bf,0x3f0e520f,0x3e90c714,0x3c16af71,0x3ef3a54c,0xbeeb7dd7,0xbd8488d3,
0xbddc2897,0xbf4d65f7,0xbed1705c,0x3a86883f,0xbd10afbf,0xbf1ad5ce,0x3e600559,0xbed955ae,0xbf6c98b1,0x3e1dda11,
0x3daf12f0,0xbe8b0ea2,0xbb552c86,0xbf0ee889,0xbe5a800a,0x3e93078c,0x3f858fc6,0xbead489b,0xbefeff36,0xbed8847b,
0xbe6bc541,0xbee01288,0xbdf4592d,0xbd5a93a1,0xbe961439,0x3f377ef6,0x3f02fa59,0x3e12aeaf,0x3ed2547a,0x3e2e5d04,
0x3db1fcdc,0xbd90ccff,0x3e4a6b56,0x3dbf2d3d,0xbf7ba341,0x3ebd4a1a,0x3f4d1e65,0x3f028631,0x3f45ff72,0x3f171020,
0x3fa35c4f,0x3e4c0e23,0xbebf9031,0xbc6ba85d,0xbd99199f,0xbe1324ab,0xbe0c4a7c,0xbadcf07d,0x3e88f104,0xbe0bb0ec,
0xbf02a3c0,0xbce1d911,0xbe3bb908,0xbf1b5dcf,0x3f2783c3,0x3e3b49da,0xbf0dc9f7,0x3f13bd00,0x3e468c75,0xbe74d729,
0xbe69fc3c,0x3f053914,0xbe884f85,0x3e878790,0x3f139a5d,0xbe32e497,0xbebd7fb0,0xbeaa858b,0x3e4d9a0d,0xbddb29ba,
0x3f42e1f7,0x3ebc9f7d,0x3dbb0381,0x3eb140c9,0x3f214603,0x3e5c5c66,0x3e47a54f,0x3deb9993,0xbdf2ab52,0xbf980493,
0xbe0b53c7,0x3dab43ae,0xbd331000,0xbe2a8838,0xbe342bf9,0x3ea96a7c,0x3d000d4d,0xbe6b547f,0x3dd93232,0xbe9ad7d0,
0xbd5c7bf9,0xbf54445d,0xbe8f2e8d,0xbe02d79f,0x3f8b0cf0,0x3e877106,0xbf000a7c,0xbdc21664,0xbe5f9af8,0xbeaf25e3,
0xbe64937c,0xbe448000,0x3d76faf0,0xbe411588,0xbe3d4ef7,0x3f5ce230,0x3f44cbef,0x3c4a1bb5,0x3f18eaa0,0x3eb41683,
0x3e9490dc,0xbe07aa3a,0xbe101189,0xbda46c00,0x3e84648b,0xbeaa5a75,0xbe07f67b,0x3e4d679a,0x3f5a8da9,0x3e9b0517,
0x3f29bb63,0x3f81d9ad,0x3e9c2944,0x3dffc3fe,0x3d885ad8,0xbd20863e,0xbe40bc99,0x3d974783,0xbdab0c76,0x3f0e26be,
0x3ef4544c,0x3ec614bf,0xbdd2b443,0x3fa96b61,0xbe6cbc34,0xbebe9577,0x3e039ca0,0x3ee5bc40,0x3e944c2d,0xbd77da8e,
0xbd72b1da,0x3f7e5b17,0xbdb2759f,0xbe6a1d56,0x3de9dab5,0xbee42133,0xbe328671,0x3e88bbb1,0x3f40eb66,0xbe339ca8,
0xbeb2efe4,0x3f4fd0f7,0xbda586e8,0xbf2b0223,0xbf11812c,0xbe1845de,0xbdca5b02,0x3da06766,0x3e2c7140,0xbf84b6b5,
0xbe3ae389,0x3f00cc20,0xbefb6b80,0xbcd422e8,0x3d837c4c,0x3c960f63,0xbd9e2b63,0xbdb4e4db,0xbf6f2269,0xbf1ad47a,
0x3e94dcc0,0xbef61540,0xbe67216a,0xbcf2d92f,0x3e2db448,0x3eaea1ad,0x3d419278,0x3ed98902,0x3fc1c6cd,0x3dc6cc35,
0x3e3a1fbb,0xbd2bc533,0x3e82d9cc,0xbebbf019,0xbf1f19c9,0xbe7525aa,0xbf1e896d,0xbf27fb19,0x3dc5643a,0xbe21be72,
0x3c840369,0x3dc9887c,0x3f28e7f4,0xbdff1314,0xbeec99dd,0x3f44e308,0xbee6ca0c,0xbd5c91a0,0x3e4d70b7,0x3e95f6a9,
0xbd713b3d,0x3f353664,0xbee5c17d,0xbf60720c,0x3f5d253b,0xbe1f9cd4,0xbe26aa9e,0x3ea52636,0x3ec5ee35,0x3d2cda59,
0xbe7bf7ef,0xbf1322fd,0xbda08180,0xbf035520,0xbef247d0,0x3f0b75d7,0xbe8fab79,0xbf21235b,0xbe8fc321,0xbf87dbe9,
0xbf003c17,0x3cc73513,0xbeca110a,0x3f099d00,0x3d907aa3,0x3d9af63d,0x3d9b0d78,0x3c981cd5,0xbf461d00,0xbf943dd6,
0x3c5fed73,0x3eb29dbb,0xbf4f25c8,0x3e6c26d6,0xbf05c67c,0xbe698683,0x3da0e143,0x3e7652f0,0xbf21366b,0xbe755d21,
0xbcda90d0,0x3d96d72d,0xbc8f1c58,0xbf0191c4,0x3f763291,0x3f592bcd,0xbea79c2d,0xbf4fd0c2,0xbe177337,0xbd6bce01,
0x3f64f29a,0xbef0a1e6,0xbf0df61a,0x3da8e794,0xbe6889fc,0xbe00fecb,0x3f48d6d3,0xbec587eb,0x3eae6cc6,0xbf477c7c,
0xbf3b39d0,0xbe2423e7,0xbf2379c0,0xbf0306f3,0xbf54e7fb,0xbef89271,0xbe5dec0f,0x3dfb5275,0xbee348d8,0xbe678f69,
0x3f3babb9,0x3dfe6860,0x3f13dd7f,0xbf1b0dca,0xbe8c196d,0x3e7d6f58,0xbf2fbb20,0x3e695e60,0x3f182c9e,0x3e0fe543,
0x3f822242,0x3e9411e7,0xbf060e61,0xbe8746d9,0xbf011a81,0xbeec0c12,0xbed3d728,0xbf547e4f,0xbf346bbc,0xbeebdea0,
0xbf384846,0xbe3869ac,0x3f08d37d,0x3ebd05dd,0xbf01cc85,0x3ebe9ee9,0x3edf5228,0xbf2f1df9,0xbf450a49,0xbe8e8ce1,
0x3e9b79d1,0x3f11550a,0x3e24a2d7,0xbe6d4d4b,0xbf0790ea,0xbf85366c,0xbed05bed,0x3d93e8e5,0xbe2e1ca4,0xbd8bd036,
0x3fbfcdf4,0x3f6fa9eb,0x3d8173b8,0xbe83a8f7,0x3e5d9aca,0x3d967775,0xbd8d7b70,0xbd8a1fa5,0xbf3bd48b,0xbf11ee98,
0x3f566fd4,0xbfd1089a,0xbf2c1dee,0x3f371c52,0xbe99fb64,0x3ef7ebab,0xbe4bdf60,0x3f5b8e52,0xbf295185,0xbf393fdb,
0x3fa4260e,0xbd841dab,0xbf21aaa2,0x3f47df00,0xbeb2ad9d,0xbf19425e,0xbebf67a6,0xbfaa734e,0x3e3c737d,0x3f8d2f9a,
0x3ed16ae1,0x3e3b3dca,0x3f02b205,0x3f811b93,0x3fb9f305,0xbf4138d9,0xbda9ea2c,0xbf64a5ef,0x3eefd259,0x3dad3842,
0xbfd26c1f,0x39a2713e,0xbf0d6094,0xbe537b03,0x3ef9f593,0xbeaa27ba,0xbfe89b07,0x3f17d3a6,0x3f115a3b,0xbec08d51,
0x3ea51c35,0x3e9783a8,0xbe2e59af,0x3f822e6a,0x3ecbaaa0,0x3ee4cd1b,0xbf1d3ad7,0x3ef5f9bc,0x3fc9e97e,0xbd730d0a,
0x3f2097bd,0x3f04f818,};

