const static size_t backbone1_5_1_weight_size = 4608;
static unsigned backbone1_5_1_weight[]={
0x3ed62308,0xbd185a02,0x3da6acf6,0x3df806cd,0x3c78cf13,0xbca8f691,0x3cf6f5f7,0x3cc74a0b,0x3e40a2bd,0xbda92334,
0x3c1d37c4,0xbba91271,0xbdf5d5b5,0x3e023098,0xbc63f68e,0x3d4e8898,0xbd8b2360,0xbe8dadcb,0x3d25ba43,0x3bac3710,
0xbd21a4b3,0x3d337c90,0x3dc5be00,0xbc294094,0xbdb49003,0x3ba30cd5,0x3d526ac4,0x3bfa142f,0x3dc095c8,0x3e1e21c5,
0x3d9a9904,0xbe763137,0x3d66135d,0x3e7b1a5d,0x3db54d3f,0xbd4420e6,0x3e2b48bc,0xbca2b8f7,0x3d288782,0x3e2f9c98,
0x3d712dc0,0x3d910ff5,0x3d13d0c0,0xbc21ba4f,0x3e4e49b7,0x3e106baf,0xbdb69d6f,0x3be26b2b,0xbe8213fd,0xbdc2d64a,
0x3db040b3,0xbd79c723,0x3c9b47c8,0x3e2eb2d4,0xbdf4fc51,0x3dfa943b,0x3d61731b,0xbd4b10f8,0xbde0eaaf,0x3d73f1bb,
0x3e9e08a9,0x3e2bf193,0x3e11e17f,0xbdf9969f,0xbd22facc,0xbd3a85ca,0x3d2bead2,0xbe24a0a0,0xbd675b45,0x3c8f2c0a,
0xbd79ba37,0x3eb828b3,0xbe028032,0xbc090979,0x3c42986e,0x3dee60de,0xbde4ef7d,0xbe9b8af7,0xbda7c7f9,0xbd218cc9,
0x3cfa99f6,0xbd5faa42,0x3c604569,0x3e047870,0xbd3ea91a,0xbe48a131,0xbc919ece,0xbdd835f1,0xbd1bb488,0xbe05c359,
0xbe4abfe1,0xbc9752cd,0x3e15ffe7,0x3e44658a,0x3e9f68f3,0xbe84f2d8,0x3c9928eb,0xbd14665a,0x3cd3bf80,0xbe22ee56,
0x3bb6a823,0xbd91cd1c,0x3d480a65,0xbda01c8d,0x3d9f99ea,0x3d9363b6,0x3d620b67,0x3aae2ed8,0xbdb4f49d,0x3d9ddd17,
0xbb164ec6,0xbda9e841,0x3e08e3ae,0xbda5861d,0xbd0b473e,0xbd56bb3c,0x3d1b76a0,0x3d770e7a,0x3d8f3ebe,0xbdb286d0,
0x3e0e3eca,0xbdb01ab7,0x3d89ae7a,0xbd48b562,0xbe22feac,0xbbc69957,0x3e08104f,0x3c7dbab3,0xbd9d9480,0x3d7ec5ba,
0xbd85fcf0,0xbebbe0ee,0xbe306d8d,0x3dc87ecd,0xbdf897bd,0x3e1dee58,0xbe5c17e6,0x3d93f9c3,0xbd8107aa,0xbcc0eecc,
0xbdd3c692,0xbeafec62,0x3d8accc1,0xbccfed50,0xbe3a744a,0xbe1c4f48,0x3e4368e7,0x3d5c3ecd,0x3d82fa3f,0x3e14df9c,
0x3db8993d,0xbbc601da,0x3cf62b82,0xbe2148ff,0xbc72fdef,0xbcb0d96d,0x3d6dc4dc,0x3e6b37c2,0xbd6c1154,0x3e06b4c9,
0x3e289844,0x3d5a825d,0xbce92f42,0xbe9be173,0xbcc5b530,0x3f004878,0x3dad9709,0x3d1c8419,0xbcdb2932,0xbdb33c02,
0x3dc9a52f,0x3a22cc80,0xbe873556,0xbd1d8f5b,0xbdb1499b,0xbce434cf,0x3e3f231d,0xbe094131,0x3c319ef9,0xbbdfe60b,
0x3dac9eca,0xbd95906e,0xbcef13f7,0xbc1ccbf5,0xbb59a4ae,0x3dcc090f,0xbd0506c9,0xbd8823f7,0x3de37bae,0xbe95fab0,
0x3d36d489,0xbd7d9694,0xbd2fa1a9,0xbe1cb4bb,0x3e9879e4,0x3d3e8649,0x3ea337f8,0x3de05841,0xbe966e26,0xbd4710e7,
0x3d0fb599,0x3c806554,0x3d36620a,0xbd93edac,0xbdbb90f1,0x3d096124,0x3e29831a,0x3e28eb0a,0xbe775e98,0x3ddfc045,
0x3cff597b,0xbda223d9,0xbe8bbc06,0x3e279662,0xbe3492fe,0x3c585c05,0xbca5a786,0xbc75bdef,0xbcc14c1b,0xbe4659d8,
0x3d470c1b,0x3e3d2fa2,0xbeaed53b,0xbd657016,0x3d1eca89,0x3e5bfb9a,0xbe63eb67,0x3e018fc0,0xbd53b224,0x3d97a873,
0xbde3b5d2,0x3e08b173,0x3de965bc,0xbc276eae,0x3bbf67e2,0x3d18a4c1,0xbe2d5f16,0xbb8c9f26,0xbe3ae22e,0x3dcc4f31,
0x3d3cd163,0xbd9dd93b,0xbd335896,0x3d2a1c6d,0xbc5d62f8,0xbdfb2d4b,0x3d3c7f72,0x3d4dca41,0x3e367734,0xbe41370c,
0xbd73305b,0xbde90db2,0x3e6b7598,0x3e6f9db4,0xbb5101ae,0xbd0a9b11,0x3dd54cf2,0x3c19e313,0x3dae6533,0xbd9c847f,
0x3b798034,0xbdf4c31b,0xbd816b90,0x3b53d0a2,0xbe99b26a,0x3cb97e9e,0xbdc4a3f0,0xbd3123a8,0x3c136c16,0xbcdf2491,
0x3cb88b9d,0xbc0ae951,0x3de996ef,0x3dc1740f,0xbd7bcd0d,0xbcb7b658,0x3e841dfa,0xbd14c11e,0xbe4721e3,0x3d16d6db,
0xbd33b7f3,0x3d1a026a,0x3e59c5fd,0x3e21bff8,0x3e393553,0x3d7658af,0xbd280277,0xbe5c8f24,0xbee274ae,0x3e2d74f1,
0x3c4f516a,0x3dccae56,0xbd94804c,0x3de07d6b,0x3da95fdc,0xbc335c31,0x3d8a1d51,0xbed998a0,0xbc9ca1a0,0xbb39fd6a,
0xbd0f945f,0xbd8d47b6,0xbdb4f2f7,0xbeca6d58,0xbc963056,0xbd4b9fd7,0x3d8ab6f4,0x3d7eb60f,0x3d86cd35,0x3e24d84f,
0x3d8fb41b,0x3dd7fa75,0x3da93b19,0xbe452530,0xbca95bc9,0xbe385105,0x3d7f1a45,0x3e8da566,0xbd554aa6,0x3e03ddfc,
0x3c99a06e,0x3d975014,0x3e1ed47b,0x3d5a3b6f,0xbe2c0690,0x3df54a6e,0xbe156fc3,0x3d26d70a,0xbe0afa1e,0x3d49d461,
0xbdb04904,0x3b7bee02,0xbd9f6a75,0x3d88470b,0xbdfdbe7f,0x3cb42249,0x3c434d0d,0xbeaa307b,0x3e14e011,0x3e84c42e,
0xbe10396e,0x3e0e1246,0x3c395467,0xbc490b3e,0x3cd8b9c3,0xbdbeaa73,0xbdb63ec3,0xbe5a2e23,0x3de19676,0x3ea974ed,
0x3e007f22,0xbdec16e6,0xbe6cf76d,0xbdedaf73,0xbd9257af,0x3f039c36,0xbebbad19,0xbd173c9e,0x3ca63d66,0x3eafc49b,
0xbcc925d9,0x3d22495a,0x3db869da,0xbf36d382,0xbf1bad73,0xbc9b5744,0xbdcc7e9a,0x3e02d669,0x3d3860b3,0xbe4fd316,
0xbe0f8a58,0x3db91992,0xbef44c54,0x3d84dd2f,0x3f279f3a,0x3c96b5c5,0xbd7c3ca7,0xbef4d9f7,0xbeff14c4,0xbf283b79,
0xbee1727a,0xbe85f883,0xbe63e287,0x3e64e4b5,0xbb860a9e,0xbcf444ae,0x3d13f848,0x3d9240c0,0xbe13a246,0xbcb58c8a,
0x3c938061,0x3d52384d,0xbd99461b,0xbd16262d,0x3c431e4b,0x3c78b6ac,0x3dc350b5,0x3d4fd615,0xbd1bf707,0x3b9a8451,
0xbbde784b,0x3c1c6183,0x3c9a7d1e,0xbc1de95b,0x3ce6a01a,0xbd3a3baa,0x3d86d273,0xbd8e8b04,0xbde4a2b6,0x3c57756b,
0x3ce3fa3d,0x3e1168d1,0x3b5ed489,0xbccf7374,0xbc42b906,0xbd579fec,0xbc6efcda,0xbe6efead,0x3dbc350f,0x3e5a38cc,
0xbe142294,0x3dc94078,0x3e848965,0xbe39d132,0xbdbe8c86,0x3cae28b0,0xbcd4cbef,0xbcd45e3a,0xbe63c474,0xbc9fe048,
0xbde4d4fe,0xbcb25acb,0x3e31f1af,0xbcdafcbb,0x3ce2a2d3,0x3d5f2fe0,0xbd7f19b0,0xbc9c146c,0x3d11458c,0x3d762695,
0xbc93bfb2,0x3d0caae3,0xbd8aceef,0xbe1def39,0x3c021627,0xbcecdb80,0x3d21160a,0xbe22e29d,0x3e20a6ed,0xbecdd260,
0x3e68a9bd,0x3efa59ba,0xbe136b30,0xbde8bcbe,0xbe471c7a,0xbd89aef3,0x3d9188ed,0x3e22296a,0x3f1305c0,0xbb1515cd,
0xbd812395,0x3e9e9453,0xbef48966,0xbdb61f07,0x3e8d0fc5,0xbd592743,0x3e4b8042,0xbe2ad480,0xbe0c781e,0xbe364230,
0x3e1032ef,0xbf054273,0xbee7e7ec,0xbe9f679e,0x3bc5ed46,0x3dec8283,0x3e637ff0,0xbe1cde66,0xbe154467,0xbe7adaa4,
0x3e302aa7,0x3c72eb5b,0xbd5d5696,0x3e62a456,0xbe51acde,0xbd42ca1a,0xbb8b9934,0xbe0d3446,0xbd183b75,0x3d6b8b10,
0x3de471c9,0x3e584c44,0xbd7c8367,0xbbb5d651,0xbda43db1,0xbec5a027,0x3e78cbe7,0x3d1c5ff1,0xbd70f453,0xbc8a6db0,
0xbe487751,0x3da70447,0x3decb71d,0xbda5e46d,0x3df37937,0xbe8ef6b0,0xbe3c5f94,0xbdb11214,0xbcbea60b,0x3e99abd0,
0xbd6a4a63,0xbed7d3d6,0xbc7fe2c0,0x3e1ce6f0,0xbd74a021,0xbe4571ad,0xbe45320f,0x3d8ed627,0x3c5819de,0xbd7b02f0,
0xbe85480f,0x3d755792,0x3bbb735d,0xbc9ae5a1,0x3e04273b,0x3c4eea7d,0xbd64de5e,0xbda9fd20,0x3e0818b9,0xbd6f14f2,
0xbcd9f71c,0x3d6e4d30,0x3e3986cd,0x3db6ce0b,0x3e755831,0xbd308ad8,0xbd441981,0x3dbe3c53,0xbcab5a26,0xbcadcc01,
0xbd2a1329,0x3d40f8c7,0xba8e6c1f,0x3e5a21bd,0x3bafcf21,0xbcc2c4cb,0x3d1fd82d,0x3d9556d4,0x3df6b7c2,0xbd0a264b,
0xbd373648,0x3aa7331d,0xbd263606,0xbc4eea3c,0xbcae16d6,0xbd4716cb,0xbdbd1ec5,0x3cf7d7af,0x3c88c23e,0x3c9fb747,
0xbdeff2f8,0xbc667f48,0xbc3345ce,0xbbd4dbf9,0x3dec1e17,0xbd3ac744,0xbe1fb8a2,0x3d873fcc,0x3c89677d,0x3d426006,
0xbc5108c8,0xbc920435,0xbd047ae6,0xbe4227e1,0x3d02668b,0xbb22c576,0x3c2cccc2,0x3c770798,0xbdca9d3f,0x3e617ee0,
0xbddaafc9,0xbd2acc69,0x3e10cec5,0xbd8e4197,0xbd268953,0x3e55204c,0x3e63eab3,0x3c06db8d,0xbdfd88d5,0x3d0f86b6,
0xbd609904,0xbda05994,0x3e50354a,0xbda910c7,0xbe94c525,0x3df5f898,0xbdfd6dee,0xbd082a10,0x3e0ed82a,0xbe4cea15,
0xbc91c08a,0xbe65bf1d,0xbd408493,0xbe891999,0x3e215da2,0x3eb42da1,0x3e5fc846,0x3c693fc1,0xbe20f4e4,0x3cb7bd08,
0xbe15e632,0xbb6d9292,0xbd125276,0x3bf153a8,0x3b505350,0xbd914cf3,0x3da6ec53,0x3db4c81b,0xbe91be0f,0x3db69981,
0xbd592193,0x3d40b17f,0xbe2e7f56,0x3d14b153,0x3d8d157c,0xbe2f5931,0xbd1612d1,0x3f075c03,0xbde130be,0x3e07f6cc,
0x3dd3e051,0x3e68a64f,0xbcdbfee7,0xbde1c58a,0xbd5597f3,0xbd3c3faa,0xbd136b44,0xbc47ddb9,0x3d13a4f1,0xbdde0862,
0xbd4f7323,0x3d0d16f9,0xbd34d219,0x3e22a3aa,0xbd46ab6d,0x3c9a3129,0x3cae7848,0xbad47438,0x3d28e385,0x3d821ea2,
0xbbf9e59e,0xbc812783,0x3d45455d,0x3d4777c7,0xbbb60555,0x3db0033f,0x3c97b116,0xbdb36bf0,0x3d709a46,0xbbcb039c,
0x3d31bd25,0xbd01c445,0x3b3b95cc,0x3e371fdf,0x3dc6813c,0xbe0f6be3,0xbdd404c0,0xbe476bf5,0x3c5a835d,0x3c693a46,
0x3def18e9,0xbdd55af4,0xbe02d5ef,0x3e7a74b3,0xbd1ec010,0xbe3780c2,0x3e2fd217,0x3d290d64,0xbd066fab,0x3d11c0a5,
0x3e6610c4,0xbdf330f2,0xbc4df8bc,0x3c74b8ee,0x3d2c887d,0xbbadf493,0xbe59032b,0xbde02773,0x3d430289,0xbd59c031,
0xbe13caae,0xbe9e0d3b,0x3e0a8508,0x3bb04cec,0xbdb6fe7e,0xbc881fba,0xbeabe83a,0x3da43b1b,0x3e82daf2,0xbe257d1b,
0xbe06e249,0xbe1213da,0x3ebb0056,0xbd915eb8,0x3dd2972c,0x3dcba8cd,0x3e45882a,0x3d0dd2a9,0x3d66ec2d,0x3c5eb9f0,
0xbb3af674,0xbcd21ef9,0x3dda6f92,0xbdf414ee,0xbc8c162a,0x3d02c4f5,0xbce6b827,0xbdd2b337,0x3d4d0ad2,0x3d095598,
0x3da52eb5,0xbc319c81,0xbe683775,0xbc9f0d65,0xbdb3a263,0x3e346510,0x3db6019e,0x3dc11947,0x3db22028,0xbda298d4,
0xbe10a7ab,0xbd9d4332,0x3cf52d3c,0xbe21d035,0x3ce5a435,0xbd2da787,0x3e1d2253,0xbd4f951b,0xbe5a7064,0xbce8d95d,
0xbccf863d,0xbc1e3607,0x3b2669e4,0xbce1d820,0xbe3603b0,0xbe59d334,0x3cfe1a91,0xbca29285,0x3e35ee64,0x3c89a67a,
0xbd807cf0,0xb9f69592,0x3d2b1864,0xbd8d7028,0xbdcf5914,0x3d91392b,0x3e0b71f5,0x3e254aac,0xbd159dc8,0xbd21e9a1,
0xbd54ad38,0xbcb6a9f4,0xbdf44130,0xbe0d878c,0x3d9c029a,0x3dfce28e,0x3e60ef69,0x3d3b932c,0xbd841c56,0x3d248582,
0x3ac994c5,0x3c8b4ff0,0xbe65fe10,0x3d376d23,0xbdec20ab,0xbd59bb32,0xbde1a21a,0xbca00c46,0xbe87a690,0x3d99481a,
0xbbecc854,0x3df22e76,0xbe888c22,0xbde0b887,0x3e0002c7,0xbbf91676,0xbc6f0e8d,0xbd9f82c0,0x3d7fe693,0x3d0b21f6,
0x3d95f336,0x3d8f9754,0xbe121442,0x3d2778b3,0x3d122667,0x3ea5c621,0x3d86e6c5,0x3d8b8555,0x3d37e1b4,0xbdaf80ed,
0xbd9dc64e,0xbcc210ae,0xbdf66e9a,0xbd760ef2,0x3d086736,0x3ca1e7a7,0xbd8c4b36,0x3d72dcdd,0xbd079579,0x3d7a79db,
0x3db49d48,0xbd6fd225,0xbdcd4c23,0xbe2456fc,0x3d57beba,0xbe14760b,0xbe6e64e2,0xbdf6d47c,0x3dfdcb00,0x3dad8f9d,
0xbd72321d,0x3e4385de,0x3e8d620c,0x3d750a26,0x3d5b56aa,0xbef16a9a,0x3e56ff32,0xbca061ac,0xbdd08383,0x3e50e074,
0x3d047a83,0x3e7a39b5,0x3c6eb910,0x3e8c784f,0xbcca2bf1,0x3c7994bc,0xbe8168d9,0xbe21a642,0xbe02ac26,0x3e4db79f,
0xbf165562,0xbcc56f2e,0xbd6f6e2e,0x3c06626c,0x3daf8469,0xbea0b4e8,0xbdc7c009,0xbd23877e,0xbde8a61f,0xbcfc203e,
0xbcd3bc1a,0x3c7d711d,0xbe0853bb,0x3e7741c5,0x3e86ef12,0x3e04a7a4,0x3e404e98,0x3e138743,0xbe0da235,0xbee4f600,
0x3d4a1eda,0x3d1de603,0xbe82a3fa,0x3e5435fd,0xbd39f7db,0x3e11c65a,0x3d266029,0xbd483176,0x3dcbff0d,0x3c9215f2,
0xbd89d2b7,0x3cd63a00,0xbe505fe0,0xbd3acbb8,0x3d13f7a0,0x3cb3e592,0xbe94fa4c,0xbdacc4a0,0xbdbead8d,0xbc67319b,
0x3e01a5b5,0xbe007781,0xbe53bec5,0x3d271523,0x3db3a1db,0x3d0b5fb9,0xbd6c7152,0x3e594ef9,0x3de0922d,0xbe4fb409,
0xbd86e141,0xbe828e65,0xbe1f67f7,0xbab9c494,0x3e6bc8e2,0xbd6bff93,0x3cf2bf20,0x3be0f0ee,0xbbb27ebd,0xbe02566a,
0x3d0ebf67,0x3da76adc,0x3ca9532c,0x3c35f6c3,0x3cecac5b,0xbd94afcb,0x3c9c6d81,0xbc32c6bf,0x3e1378e1,0x3cdd3112,
0xbd002baf,0x3aa1a6c6,0xbc58f0f6,0xbd871139,0xbe241232,0xbc41664b,0xbd0c7b13,0x3d4105b4,0xbd2a6a24,0x3d060678,
0x3d3856f4,0x3dcb6321,0x3d3adf0a,0x3d1543f6,0x3e721e42,0xbda42f84,0x3e25a2dc,0x3b2a0d83,0xbd9e9c3d,0x3e074ea2,
0xbd9e79b5,0xbd456c10,0xbdd3d6ef,0xbd1d7b96,0x3e0ec52c,0xbd91433a,0xbd5a9a2b,0x3cb863da,0xb9aa16b0,0xbc829b99,
0xbbb09a15,0x3d0a0f89,0xbe0c366b,0x3d350750,0x3ce91ddf,0xbd479a7c,0xbd72ecb8,0x3e324d04,0x3dc6d83f,0x3d79f452,
0x3db44c0c,0x3df17173,0x3d8822d8,0xbca5f819,0x3d7d866f,0x3dea0cce,0x3e039596,0x3e024a92,0x3d525383,0x3cddccd0,
0x3d50562b,0x3d6ed552,0x3cc43194,0xbdefa1bd,0xbd1652b2,0x3cf73d58,0x3d8f4e8a,0xbcf1d816,0xbcf1fad2,0xbd3db227,
0x3c0df916,0xbd835252,0x3ca372bf,0xbd469c6e,0xbb8f6977,0x3d0e3cec,0xbd1919ed,0xbe6006d6,0xbc60bd0e,0x3d5b3af1,
0x3de21708,0xbd93149b,0x3d889d99,0xbbe99761,0xbd200c30,0x3ca94089,0xbdc26cb4,0xbb350fee,0x3da914c3,0x3cc7e2d9,
0x3e068541,0xbdc45639,0x3dcfaf15,0xbbad1fa6,0xbdffc7c6,0xbcbb62a3,0x3dab6b53,0xbc671ce3,0x3c267849,0x3e3076f2,
0xbdb2b6db,0xbccf3477,0xbd254dc7,0x3c973064,0x3c536138,0xbd85cdf5,0xbac440ba,0xbd778c64,0xbd954064,0xbe17c8bc,
0xbd27af34,0xbd4a020b,0x3d2ad98a,0xbc6f9921,0xbdf538ac,0x3e0bcb99,0xbd27a2d2,0xbd84ed35,0x3de38f6c,0x3d1097f6,
0x3d07cafa,0xbd45ec42,0xbd0c1012,0x3e054c52,0xbc1e5ae7,0x3b8aad0d,0x3d03660e,0x3d9289fc,0xbd8698a7,0x3db29216,
0x3d11e3a2,0x3d3cca06,0xbd78b19a,0x3d18bbe0,0x3cb09fa2,0x3d35fb3c,0xbca1b45c,0xbbe1a905,0xbd279122,0x3c4e2fba,
0x3bf7a192,0xbd88a125,0x3c74ff8d,0x3b0da189,0xbdec8620,0x3d5ffb69,0x3d8e2b84,0xbd9cb7d3,0xbdc4b530,0x3c819e68,
0xbe329f3c,0xbe47b533,0xbdd72299,0xbe0cc17a,0xbd5943af,0xbdb39aec,0xbd254b73,0x3cd84d70,0xbce63e9d,0xbc11f0b1,
0x3cc23170,0x3a26f8a2,0x3e0a160f,0xbe07bb8a,0x3d414fc5,0x3d716d4d,0xbe51b57c,0x3da4e592,0xbd1cabe1,0x3d373b86,
0xbc97d6c8,0xbca87f0c,0x3d15d2b7,0xbd625850,0xbb1ea8a6,0xbd479019,0xbdfbbc71,0xbda01aa7,0x3d4ef216,0xba9680bd,
0xbdcc7ccc,0x3cf993d5,0x3d399cd7,0xbd7b95fe,0x3d568712,0x3d774fbc,0x3db92b42,0xbd3ac6a6,0x3c180860,0x3d3ed606,
0xbb9da7a7,0x3a6c04bf,0xbda633cc,0x3dd38374,0x3c8b3f72,0x3addea1b,0xbdc6cada,0xbd683405,0x3d08e7f7,0xbe48efc9,
0x3d8a6cac,0x3c901c7a,0x3d20a78d,0xbd04353a,0x3d4ec82f,0xbd8c42ce,0xbe1b4af4,0x3ca52faa,0x3d38d45a,0x3d8f9dfb,
0xbd15e3b2,0xbc3987a6,0x3d849418,0x3d3d56d6,0x3dc38a19,0xbcb3d85b,0xbda75de5,0xbd6a7ece,0xbcbf5aeb,0xbacb7dd4,
0x3ce84ed2,0xbda3881a,0xbda3e523,0xbb580dde,0xbdb5dba6,0x3d4e9f17,0xbda990fd,0x3d43a61a,0xbdabe1e6,0x3dc0a324,
0xbe60d1d9,0xbdd891d8,0xbd1a2d76,0x3e0d98df,0xbdfd141b,0x3e1de2d1,0xbcf4c678,0xbe0ed315,0x3e0647c6,0x3d8c5fa2,
0x3c75fd9e,0x3dec87ea,0xbdc09d22,0xbdd9d298,0xbdae71ae,0xbd0c2e64,0x3c5c92a9,0xbd376a29,0xbd2601f5,0xbdb05067,
0x3d7e8505,0xbca7c318,};

