const static size_t classifier_16_weight_size = 2304;
static unsigned classifier_16_weight[]={
0xbe2e3ad6,0xbfaa1ea5,0xbbd4eb6d,0xbde69504,0x3d774071,0x3d2aae18,0x3d8f08d9,0xbdbc60e8,0xbbeb0c81,0xbd701e0a,
0x3e2fecab,0x3aebbeb1,0x3d4da878,0x3bbeced3,0xbed345b0,0xbdf516fd,0xbe088a18,0x3c33b155,0x3d8284ed,0xbdff4f86,
0xbde4a658,0xbd6e61db,0x3d4fbc13,0xbdcc8b9a,0xbd90d642,0x3d129006,0x3d391c7a,0xbdfc276d,0xbdd3e6cc,0xbdbb30f2,
0xbc2695e9,0xbe91febb,0xbe1995ec,0xbe4e224d,0xbe840617,0xbe71b48f,0x3e200e73,0xbd30ad57,0x3e06cbed,0x3e02f32e,
0xbdac5ef2,0x3dc66de6,0x3e2399b7,0x3e3fc0c9,0x3e96c106,0xbe47676f,0x3e49e88b,0x3d770dee,0x3be75483,0x3d799acc,
0xbd91edfe,0xbd91581c,0x3ce8155c,0xbe2bcd86,0xbc709eae,0xbcf3eed4,0x3dae1732,0xbe21cdaa,0xbdf06c6b,0x3dd87542,
0x3e081c3c,0xbf70511d,0xbd2640f0,0xbe074b6f,0x3d9dd34e,0xbc6e2975,0x3d54a029,0xbea6ed13,0x3e2249fb,0x3e1d10b4,
0xbc86f674,0xbda86562,0x3bac1e5e,0x3d980330,0x3d30ad77,0xbec4cecd,0xbdc21029,0xbdef1be0,0x3de9390e,0xbdb2d2d3,
0xbeb5b86e,0x3e384f80,0x3cfa6401,0xbeb123bc,0x3db72e82,0x3ea8f7c4,0x3e52f751,0x3d57f4d0,0xbd44efa1,0x3e0cce81,
0x3e1e22f7,0xbe152ca8,0x3e267a7d,0x3e19ab2f,0x3df9326e,0xbe0c3b5a,0xbe06c113,0xbfaac177,0x3d8e83c7,0xbe235978,
0x3e2d69bd,0xbd87c54c,0x3d577c85,0xbe0900d7,0xbd420ddb,0xbda96f6c,0x3e1e35bc,0x3d648805,0xbcd59663,0x3d1953f0,
0xbe0ecc16,0xbdd98912,0xbdef9beb,0x3c21e4ab,0x3da9916c,0xbe2b8a45,0xbcc4f87e,0xbd17b180,0x3dc9be69,0xbde0980f,
0xbd927ab5,0x3e0965b6,0x3da5b9d2,0xbe344dda,0x3c983eb0,0xbdd87eed,0xbdb349a1,0xbeb8eba0,0xbe1a7d99,0xbe266250,
0xbe9bb687,0xbe568d3e,0x3e128da7,0xbc51d443,0x3d26233c,0x3de9937a,0xbdcea3ea,0xbd73fd0d,0x3e8f9c18,0x3e4e3391,
0x3e548d6e,0xbe8fe436,0x3e799b94,0x3dc59fa0,0x3c5e7014,0x3dcfc514,0xbdb0126d,0xbde18117,0x3deabcd5,0xbde731b4,
0xbd6367c6,0x3d8c7332,0x3d6fc0c3,0xbe0ec6be,0xbe14e79b,0x3dc56147,0xbca5e3ef,0xbf284188,0xbd4107c3,0xbcd2036d,
0xbd275a99,0xbc8ef034,0x3d97f7d6,0xbe1892e4,0x3df126f8,0x3df373ad,0xbeae8178,0xbdead7f5,0x3c3291c9,0x3d0aa1a9,
0x3d2705ce,0x3c83b2ce,0xbd234a05,0xbdf9f6b1,0x3c79334f,0xbd9ea0c8,0xbea95b88,0x3e153064,0x3e0a6a50,0xbe16ce52,
0x3e216001,0x3e7c69bc,0xbd1e5265,0x3d2c5efb,0xbd94348e,0x3e23e031,0x3e2f4f85,0x3d91f1b5,0x3e37e861,0x3d4fc3b2,
0x3cc50890,0x3e1e7f02,0xbdbe3950,0xbf8a9480,0x3d801739,0xbe554260,0x3e62e8d0,0xbe0cb815,0x3d9dab19,0xbdce6c64,
0xbdf0ca16,0xbdafa0c1,0x3d18d261,0x3dcdabe7,0xbd84916e,0x3db54b65,0x3dc3b316,0xbe113195,0xbdfa8fac,0xbd55e3a9,
0x3c9cca1d,0xbdb7bb7d,0x3c4cc6d3,0xbd6e591e,0x3d3a3a32,0xbda262f6,0x3d1fe090,0xbd89d50c,0x3dbecb00,0xbe99ec53,
0x3e2a3185,0xbe0be5a3,0xbda19bdc,0xbe1be98d,0xbe528b37,0x3c513a3c,0xbe697681,0xbd8fd6cd,0x3d91b307,0xbcb9318f,
0x3b8424ec,0x3d9d5d57,0xbdefe0b0,0xbe539bd0,0x3e912743,0x3e22ab9f,0xba7b2ae3,0xbea8e37b,0x3e1bc5f5,0x3db7d67d,
0x3d6cbe75,0x3db58af3,0xbe20084c,0xbd926c8e,0x3e30eda1,0xbe006fc5,0xbddc9187,0x3ce0f501,0x3c7673aa,0xbd7c9bb5,
0xbe1c9831,0x3cf82d40,0xbe231e2e,0xbf1cfb6e,0xbc49a075,0x3d928e82,0xbe066c06,0xbd4cfb99,0x3da08ba6,0x3d105a08,
0xbba56e64,0x3d29cf3f,0xbeb6ed87,0xbdd315a7,0xbbb877c8,0xbcb2f1ab,0x3c2431d3,0x3e2a290f,0x3da18b69,0xbe0228f8,
0xbd6ac5fb,0xbc9207ee,0xbe8bf582,0x3d97f566,0x3dbb8983,0xbd658942,0x3dcab4f3,0x3d9b593a,0xbe3ffc90,0x3c9adbfc,
0xbdb22b71,0x3d60bd95,0x3e0c07a3,0x3e8ec8bd,0x3df326c1,0xbce6662b,0xbe0f6df2,0x3e9b943e,0xbdb90e13,0xbf7cd422,
0x3ca90d6b,0xbe732768,0x3e40cc5c,0xbe42da70,0x3d4d1a73,0xbd9b5662,0xbe0659df,0xbd952435,0xbd8b143a,0x3df32191,
0xbd815218,0x3deb8d8c,0x3e19126c,0xbe5b9dd8,0xbdf66b49,0xbd78f217,0xbcb6ce43,0x3a159699,0xbc01e4db,0xbd816239,
0xbc83fc9a,0xbd748ce3,0x3d958bb9,0xbe56b1e1,0x3da2417b,0xbea645ff,0x3e6f8aef,0xbe1ce68a,0xbd94b450,0x3d3b9c90,
0xbe64776d,0x3dc8d49c,0xbe48a440,0xbc805a85,0xbc231c14,0xbcce9e0a,0x3c7780a2,0xbbfd0198,0xbe0bf27c,0xbe88b3d0,
0x3e859f51,0x3e04eb96,0xbdac2cbd,0xbebd8e55,0x3dac715f,0x3db29762,0x3d8212d2,0x3dd1892c,0xbe326f21,0xbd093247,
0x3e38c8b5,0xbe15f3c8,0xbe09d3b5,0xbd26c91a,0x3c0a9bd4,0x3cc2ae72,0xbe37080c,0xbb8d3a6d,0xbe4538ca,0xbeb3cdc9,
0xbd292541,0x3da172b2,0xbe233ef1,0xbd342b1a,0x3d8c6cf0,0x3de1c3b8,0xbdb38bb3,0xb9cd77e1,0xbe8d9cde,0xbdcb62b1,
0xbcf61255,0xbd701b02,0xbd04c078,0x3e039829,0x3e02d1dd,0xbe1b41fd,0xbda1270b,0x3d9da0c4,0xbe56774f,0x3d1ab886,
0x3c6e9166,0xbcd9dd5c,0x3d70072a,0x3c102776,0xbe56a677,0xbc279a38,0xbdcf3ec3,0xbd1f24fd,0x3dbcf3b3,0x3eabbe03,
0x3d66fe76,0xbd9577eb,0xbe46c532,0x3e95806b,0xbda69397,0xbf5da306,0xbcf700b3,0xbe7c4076,0x3dc9ee13,0xbe7b7d47,
0x3c77400f,0xbd4f375d,0xbd99e295,0xbd52e391,0xbe2991a5,0x3d99f6b2,0xbcd72529,0x3e13e55d,0x3e1ada34,0xbe8b46c3,
0xbdf9533a,0xbd3aec6c,0xbd2300a8,0x3d865d90,0xbd2593ba,0xbcce5b47,0xbd963f38,0xbd6f12f4,0x3d15f07c,0xbe994b05,
0x3d683da7,0xbe99b5a1,0x3e8471df,0xbdf5c124,0xbd00734e,0x3e72aee6,0xbe55b3dd,0x3e08f7c9,0xbe317ce3,0xbc3155df,
0xbd91992d,0xbbae87e2,0x3d1ca15f,0xbe061aa0,0xbdffa331,0xbe8c48ee,0x3e4e54a7,0x3d770c91,0xbe0b2194,0xbebf6c56,
0xbaff3e30,0x3d8f418b,0x3d88c1b7,0x3e013907,0xbe435e9c,0xbc6695c2,0x3e090db3,0xbe38ec51,0xbe2e7002,0xbd8d425d,
0xbcc88b53,0x3ded28a5,0xbe41c0a2,0xbd031717,0xbe4462f0,0xbd1e55f4,0xbdc10cbc,0x3ce7252b,0xbe3764f5,0xbc820bcc,
0x3d5a0b38,0x3dfe97b8,0xbe03f1a1,0xbc97a04f,0xbe4440f6,0xbd2e91d3,0xbb71a5e1,0xbd7290f8,0xbd5d4175,0xb8d5025c,
0x3e0d5c37,0xbe3b018d,0xbd8f8d28,0x3e355c60,0xbe02f7ed,0x3c88e8de,0xbd7f4d61,0xbd55a884,0x3cad0143,0xbcdf3165,
0xbe292977,0xbd2c11bc,0xbd9b6356,0xbdb5db97,0x3d028745,0x3e914470,0x3c791845,0xbdcbd68d,0xbe58164a,0x3e393a52,
0xbdcab55a,0xbf30f921,0xbd80a878,0xbe812d19,0x3c7fd2a6,0xbe895e1c,0x3c232c02,0xbd21c4b4,0xbce802ee,0xbcca9c7f,
0xbe3e106c,0x3d03686d,0xbb87733a,0x3e0e123c,0x3de74429,0xbeaee9a8,0xbde918a6,0xbce9b402,0xbd1bcbd0,0x3db7eb66,
0xbd465f7d,0x39f2d345,0xbdc747d0,0xbd293087,0xbd3af6bc,0xbea147f3,0x3cdbbd33,0xbe81c2b1,0x3e61c657,0xbdd78ada,
0xbbd80f5c,0x3ea18313,0xbe4fb786,0x3e056e04,0xbe405085,0xbc322d9f,0xbdbffe77,0xbc07dc8e,0x3d991e28,0xbe4f2f3f,
0xbdd0de93,0xbe795dcb,0x3e085b7d,0xbbd6dcf8,0xbe3e7777,0xbebdba28,0xbd6ee727,0x3d353d3f,0x3dac4e27,0x3dfe1d09,
0xbe41480b,0x3bf5fdcb,0x3d9dcc7d,0xbe655492,0xbe350e0d,0xbdb522d3,0xbd345974,0x3e5691cd,0xbe2dae1c,0xbd15331b,
0xbe129dec,0x3e0ab477,0xbde5737e,0xbd1f94a1,0xbe2da8a0,0xbcaa116e,0x3d5765a6,0x3e098769,0xbe0997bc,0xbb78db65,
0xbe29b208,0x3c7a676c,0xbb96806f,0xbd8158af,0xbdcb1e18,0xbdce8271,0x3dfab963,0xbe888801,0xbd257f05,0x3e6d99e8,
0xbd95bf52,0x3c8cecfd,0xbdec6782,0xbdabdc55,0xbcdaa625,0x3ce7c08c,0xbdf7a3c1,0xbd8e1b9b,0xbd1a503d,0xbdb033aa,
0xbc8b910c,0x3e62af99,0xbd2c09df,0xbdbf81f7,0xbe5a37ae,0x3dcc17b4,};

