const static size_t regressor_8_weight_size = 11264;
static unsigned regressor_8_weight[]={
0xbd44b72f,0x3d32342c,0xbdaa6b32,0xbd710640,0xbc48d441,0x3ceacf3b,0xbdb2ffd0,0x3d1b377a,0x3d3cb41e,0x3d0148e2,
0xbbb712ac,0xbd71123f,0x3e10ad3a,0xbdd1c250,0x3e14e5d0,0xbdb3a14e,0xbd1acaf1,0x3dc102d0,0x3e1e0b9d,0xbb839d34,
0xbe2fe30a,0x3c70cc2f,0x3ca213b8,0xbd8dcfbf,0x3e72ce14,0x3da9b73e,0xbd57a7b9,0xbcd2212a,0xbc96035d,0x3d17c6dc,
0x3c74b921,0x3e36e944,0x3d1ce606,0xbc7a82b3,0xbdc7df77,0xbdb73388,0x3d4a4b43,0xbda0fe59,0x3c950a30,0xbcc1d1a3,
0xbe2d161b,0xbc971a1e,0x3d16ccb9,0xbc7888a1,0xbc9dd166,0xbd17511c,0xbdf2d130,0xbe078abe,0x3d3334fa,0x3d8ccadb,
0xbc8e09ed,0x3cd93ef7,0xbd3705d9,0x3e266ca6,0xbde0cc74,0x3d576c72,0xbd24f7ac,0x3d92946b,0xbdf4fa4b,0x3e138513,
0x3c81fcbf,0xbdbcf811,0x3d95dd35,0xbd73fa52,0x3d692592,0x3e491760,0x3df9fc51,0xbd218597,0xbeae6c1c,0x3e7565bf,
0x3e44836a,0xbbfe8b23,0xbe807842,0x3e40ca6a,0xbe5b93ab,0xbe8eb24f,0xbd97eb66,0x3da48c08,0xbe30dd72,0x3e3e7722,
0xbd95c449,0xbe6ab052,0x3e88c5c3,0xbe723da7,0x3d2aa166,0x3ead3d10,0xbdaca4bc,0x3e0ff89d,0x3bbd35d4,0x3d72e419,
0x3d3dad42,0xbc418e5b,0xba9818bd,0xbc9492ac,0x3e1ee3b7,0x3bb5857d,0xbbdaeb6e,0xbdf412dc,0xbc1864c0,0x3e1a19a9,
0xbd2f23e7,0xbe32f79d,0x3d25df48,0xbb194e08,0x3de7b9f2,0xbb5513f2,0xbc725d30,0xbdb6944e,0xbd5d15db,0xbd8d2591,
0xbd819634,0xbdb228d5,0x3d76e3b6,0x3e1dc705,0x3e0233fa,0xbc2ebceb,0x3d448bc1,0x3ce8ebb7,0x3dba7e14,0xbdca17e0,
0xbe08d33d,0x3d5fb8e5,0xbe10daa7,0x3d2f03da,0x3ce5ff7c,0x3e026ec1,0xbd1aa61a,0x3da44b29,0x3d6cfee3,0xbd9fb78c,
0xbde7f880,0xbdb83291,0xbc54b5e9,0xbddc2acc,0x3c8351ae,0x3d9ea09c,0xbbb4c054,0xbdd28c73,0x3cfa9cb7,0xbbcf7b82,
0x3db03746,0x3de953e3,0x3d047f56,0x3bbb8d0e,0xbdb41bc7,0xbcc79d1f,0x3dede469,0x3cb1f3e4,0xbd26cdd0,0x3d2300e2,
0xbd1c738e,0xbdb3c48e,0x3e6a6518,0xbe138e31,0x3e371dda,0x3db432af,0xbe60ee35,0x3d405fb0,0xbde87aa1,0x3e4fca4e,
0x3e20da24,0x3eef9b8d,0x3dcafffb,0xbd4a22f0,0x3d9ac01a,0xbd677832,0x3c881779,0xbdb10c68,0x3e62b012,0x3ed1df19,
0xbebb86ed,0xbe0d6b07,0xbea1405e,0xbed075c7,0xbb040700,0xbe03bd94,0xbd120cce,0x3e0987e2,0x3d541930,0x3ec1aae0,
0x3dfbe977,0x3d11b7b5,0x3e1f6725,0x3ca867b4,0xbd23fa0d,0x3e9cd5e4,0x3cda2481,0x3d3ed9b2,0x3e8731c9,0xbc1d3a7e,
0x3e0cb2ce,0xbd8bb32c,0xbdbe0a0a,0x3e52f8c0,0x3e0d4a67,0xbbc29950,0x3ead4514,0x3dba7917,0xbc8f7fb2,0xbe1f579e,
0x3dec58c1,0xbdec7f10,0x3e506f16,0x3e39ebf7,0x3e4c2fce,0x3dc53b5a,0x3e09d9bf,0x3e17d8d3,0xbca22c8f,0x3d550f1b,
0x3e45c050,0x3cde1fff,0xbcd90cfa,0x3d5f0c41,0x3e9723d7,0xb9d9c1b8,0xbe448108,0x3d609b8f,0xbbabbc2a,0x3d676a19,
0x3b458d26,0x3e2f3059,0x3e2f4ed4,0xbce6c758,0xbd6c3a7e,0xbe5adcfb,0x3e8d6c97,0xbdc49cda,0xbd5be5ea,0xbd5d8e1c,
0x3e424b3a,0x3e4166a2,0x3e13e37b,0x3e01a4a7,0x3daf9a47,0x3dfffe6b,0x3e1d9f2d,0x3e2e7efe,0xbebd39af,0x3e94960e,
0x3d150dad,0x3da5e801,0x3ebf7a8e,0x3ddb4cbb,0x3d04ab9e,0xbd1b9e21,0x3f01cbd3,0x3edf4534,0x3e18c32f,0xbe34ce0e,
0x3ed327ab,0x3e16c651,0x3e9d653b,0x3e5e4d9a,0x3e5e517d,0x3f0c1f5c,0xbeca7d53,0xbfa43510,0x3f1c6603,0x3f18927a,
0x3f127bd9,0x3f028533,0x3d10ccc1,0x3ed70357,0xbd11c2b0,0x3e09e0f6,0x3d543324,0x3ec1cf7a,0x3dfbefa3,0x3d11ed35,
0x3e1f8d04,0x3ca82f6a,0xbd23c1e2,0x3e9ce7fb,0x3cda760f,0x3d3f33bb,0x3e873d6f,0xbc1c2f44,0x3e0cc827,0xbd8ba5d3,
0xbdbddc0a,0x3e5303f1,0x3e0d5efa,0xbbc0982b,0x3ead5e37,0x3dbaa439,0xbc8f698c,0xbe1f4477,0x3deca120,0xbdec531d,
0x3e508f81,0x3e3a0763,0x3e4c4e8f,0x3dc53ea9,0x3e09eb61,0x3e17f920,0xbca1c3cd,0x3d55400c,0x3e45c603,0x3cddd727,
0xbcd86ae4,0x3d5f34c9,0x3e97282d,0xb9d50af2,0xbe447352,0x3d608f1e,0xbbaa60ca,0x3d675127,0x3b432391,0x3e2f4499,
0x3e2f43e7,0xbce6804f,0xbd6bfe5c,0xbe5ae16b,0x3e8d7bf9,0xbdc46025,0xbd5bb30e,0xbd5d5791,0x3e42563d,0x3e416d97,
0x3e13d96f,0x3e01bbbf,0x3daf9561,0x3dfffaa8,0x3e1d9ec6,0x3e2e936a,0xbebd2e44,0x3e9492e4,0x3d159a81,0x3da5f80c,
0x3ebf7b13,0x3ddb593f,0x3d05822c,0xbd1b1c22,0x3f01e27d,0x3edf4a00,0x3e1900b1,0xbe34a92d,0x3ed32e2c,0x3e16f10f,
0x3e9d5fd0,0x3e5e3a25,0x3e5e487c,0x3f0c1d00,0xbeca9a85,0xbfa45cdd,0x3f1c80cb,0x3f188a50,0x3f127893,0x3f02994f,
0x3d10bfa1,0x3ed710d0,0x3cbe46a2,0xbe0cee0c,0xbd56bb3d,0xbf2e63f3,0xbc932f9c,0x3dd17cd1,0xbe0942c7,0xbca3f52e,
0x3d12f82c,0xbe95152c,0xbc9d263a,0xbdf686a5,0xbd0e498e,0x3ddd17a2,0xbc99d5a1,0xbd31ced2,0xbd351b9e,0x3e3ef513,
0x3b28c799,0x3cd9eada,0xbe307286,0x3ddbdce9,0x3d2a3bed,0xbd4233b1,0x3f11450a,0x3bdf2dc7,0x3cf058d0,0xbe576db0,
0x3eb4a9f5,0xbad3b2a1,0x3e77f2cd,0x3eae737b,0x3cef35c0,0xbbfa5a70,0xbc2096fe,0xbe3a9657,0x3d6b0697,0xbe45ed36,
0xbdd760a5,0xba2d6ca2,0xbdee9d8a,0x3d9db3d9,0xbbdf6cc1,0xbaa7dbfe,0xbc696e65,0x3e375e81,0x3c8e52d2,0xbddc5b70,
0x3d454b9a,0x3d9b9ebb,0x3bc02b18,0xbca466db,0xbc8abae2,0x3e16e006,0xbea804d0,0xbe0bdcbf,0x3e85e284,0x3eb703de,
0xbd9730f8,0x3de34962,0xbdabac20,0xbd8762ba,0x3db79790,0x3e3ffa5b,0xbe562a34,0x3e372067,0xbdb05ea4,0x3e8cb2df,
0xbeac4015,0x3d62b948,0x3dd5e16a,0x3e37ecc2,0x3cd069bf,0x3c8ba397,0xbe9e8a53,0xbf655861,0xbdd6891c,0xbd844a79,
0xbd1fd182,0xbd2128ee,0xbd1039e4,0x3ed36ec4,0x3e06a72c,0xbeacd359,0x3dbbff36,0xbe71dec3,0xbde00972,0x3e934f79,
0xbaba7e1e,0xbdb61f2d,0xbcd4db1c,0xbe0960fd,0xbd724ac4,0x3d946579,0x3cc6e4ba,0xbcd16836,0xbd60b4fd,0xbea5c6c6,
0x3db2247d,0x3e77250e,0xbd870e81,0xbe3020cf,0xbb339d62,0xbcb06603,0x3de6366e,0x3d895ae6,0xbda7ce18,0x3df62eeb,
0x3d3217b1,0xbd5512fb,0x3dee2169,0xbcc99ca8,0x3ccbf7a7,0x3ea5a3f1,0xbe2a6013,0xbd06dcae,0x3e827354,0xbd11c183,
0x3be31475,0xbe59e982,0xbe9049e3,0x3c6e78e2,0xbe84fe86,0x3e756255,0xbc9c50aa,0x3d8f6234,0xbded6447,0x3e4145ab,
0x3d87f01e,0xbe0a39de,0xbe02ffd0,0xbd8f3993,0xbca13ee1,0xbd4edbd2,0xbdb46be2,0x3c2fb9e7,0x3d0caa91,0xbdd81049,
0xbe72569a,0xbd14f12c,0x3d956e29,0x3e8458b6,0x3e8cb927,0x3e6079cc,0x3d09c425,0xbe054251,0xbcb65dc7,0x3d32b301,
0xbdff04c8,0xbc99752f,0x3d6c324b,0xbda2ca8b,0x3d002d49,0xbd9db055,0x3e154b53,0xbe2e6c06,0xbdb9f624,0x3e4ab5ed,
0xbe0570ff,0x3e701198,0x3e42eb9d,0x3ed8ce22,0xbe26298a,0xbe471211,0x3e662e8a,0xbe0213b8,0xbdde38eb,0x3e68bff1,
0xbe002d0e,0x3f2cc524,0xbfa3e354,0xbe37a11c,0x3f294a0d,0xbdd20dbc,0xbd93acda,0xbe90186a,0xbc8ee035,0x3e5b9844,
0xbd805ecc,0xbed30edf,0x3dbb94a9,0xbc9ccc83,0xbb60dc3e,0xbc291ca0,0x3d51e389,0x3e038b4e,0x3d3521ab,0xbe02c02c,
0x3e350b9b,0x3c1a1fbf,0x3c9d5e40,0xbdfa7508,0xbd95f3b3,0x3dd907b6,0x3e05ed44,0xbe2cc41d,0x3d759daf,0x3e8d013f,
0x3c265e3c,0xbd79339a,0x3f031a32,0x3d5769f7,0x3e54411b,0xbee4be31,0x3e1da352,0x3d3dea3b,0xbd9fb97c,0x3eb51af0,
0x3da82e63,0xbc99316f,0x3ab3665b,0xbe1e1f85,0x3dea214c,0xbe8da727,0x3cad1dbc,0x3d43da99,0xbe3a06e1,0x3cff61e8,
0x3d6ab2f7,0x3aa33c90,0xbce7bb16,0xbcbd6388,0xbdc40a69,0xbe167679,0x3d98a9f2,0x3d97b03e,0x3eb8ff24,0xbc24b97d,
0xbc9684ed,0x3e17bb7b,0xbe9408ee,0xbe9dc7d9,0x3ecfb0af,0x3db8c5af,0xbbcda0c8,0x3dd7d72f,0xbdc795c2,0xbd0f5b8c,
0x3c197579,0x3da8d0bd,0x3d9f867c,0x3e09a5cd,0x3d13829a,0xbe782a89,0xbe3fd91b,0x3ded96b2,0x3e1eff5d,0x3e37bc6d,
0xbd3df61a,0x3d93ed30,0xbc877b66,0xbf84cbb0,0xbd19517b,0x3d89017c,0xbc87aedb,0x3d596ed1,0xbec35c11,0xbf7a2346,
0x3e5b6a1d,0xbe38712d,0x3e3ba141,0xbe70592d,0xbdb7907a,0x3ea599c4,0x3d91e389,0xbdf67cf5,0x3d552748,0xbec421e2,
0xbd500372,0x3cd477f2,0xbbe15c6d,0xbc699f1d,0x3bfc2069,0xbcdab00a,0xbd98bbd0,0x3eb652eb,0x3b2d4e70,0x3b64a52b,
0xbd83ea1c,0x3bcd418c,0x3dbe1303,0x3ee4ce98,0xbdeeb741,0x3d0e9a94,0xbe04eddd,0xbe2defe0,0x3daef8d6,0xbcd668da,
0x3e148d8b,0x3eb04301,0x3d0f706b,0x3e12d885,0xb7600f68,0xbca7ec5f,0xbd905e04,0xbcad0e5d,0xbe797755,0x3d3653e1,
0xbe589953,0x3d65c4ea,0xbbb36a0e,0x3ea5a16e,0xbdff66e5,0x3dbbc993,0x3d2680f4,0x3c28d143,0xbe1d6093,0xbe08de26,
0xbd1065b8,0xbd61fe61,0xbd892ada,0x3cc16f10,0x3d04c6ca,0xbdbc15af,0x3e89a0aa,0xbc27f51d,0x3dda6c89,0x3dd9c8a8,
0xbc8d8cbe,0x3ba1fcdb,0xbe4482ad,0xbcf584d2,0x3d34c8df,0xbd16dfef,0xbe34f165,0x3ca81ccf,0x3ccf2d3a,0x3dae38de,
0xbc8bf3c6,0x3ddeae7d,0x3de79ffd,0xbe17d556,0xbdba9b5b,0xbdd48ff5,0xbe5fb44b,0x3e197028,0x3ec8dee9,0x3e8f9e98,
0xbe85e518,0xbdfbda80,0x3e1606c7,0xbe4c6971,0x3df1cbf4,0xbc80368a,0xbd87c77d,0x3f3f5c4b,0xbfa98a1a,0xbeb5c6da,
0x3e9b2474,0xbf6d275e,0xbd213f48,0x3c4bfe13,0x3b677b1c,0xbc5dc71d,0xbdc3ade8,0xbf81fabe,0x3d49331a,0x3d827808,
0xbd89576f,0xbc6ccf6a,0x3d1afb63,0xbe5cb3cd,0x3dfbbd42,0xbe2237f8,0x3c64aab2,0xbc9acd11,0xbc61f5a7,0xbd6e4626,
0x3ad42f53,0xbc9cfcfb,0xbcbb5281,0xbcaa8d40,0x3e1c15d0,0x3ea41591,0x3c368bf5,0xbcc91454,0x3f18d6fa,0x3ca02b07,
0x3e256b85,0xbd858c2f,0xbc60abbc,0xba2ee1e3,0x3d43d2c1,0x3eaea11a,0x3d4c6e32,0xbd13cd47,0xbb63e2a7,0xbe00d690,
0x3e0568a4,0xbe99d738,0xbb836cfb,0xbd521ba3,0xbdec7e67,0x3ddab9d0,0x3d962067,0xbc2d3cd3,0xbdd03f3b,0xbe250548,
0xbe4910d8,0xbca4fbbe,0x3dbc9fa8,0x3cbd7620,0xbcfaf23f,0xbd09392b,0xbc9198b6,0x3e8c40d8,0xbe823cc7,0xbdab5cfa,
0x3ee4590e,0x3f0928fb,0x3c6eb033,0x3db4dca3,0xbd997e66,0xbd881587,0x3c8bbe8b,0x3cd858c1,0xbe052477,0x3cf51a29,
0xbccabcaa,0x3a96dc70,0xbe6d4e1f,0x3d7cc599,0x3e250af9,0x3e4f391b,0xbcc3b02c,0x3d54964a,0x3dfd09c4,0xbf92d832,
0xbe2cb814,0xbd6409cc,0x3df1ae51,0x3db56d10,0xbe1b3826,0xbe03fbcf,0x3e06c9e9,0xbc9344d2,0x3e9271e7,0x3eca5197,
0xbd52cc1c,0x3e4c1bb2,0x3c997193,0x3c4017d0,0x3c0c5221,0xbe533858,0xbe430f71,0xbd124492,0xbdf81153,0xbc88fcdf,
0xbc9ef433,0xbd123f29,0x3cd56850,0x3eb63fcf,0x3e01bd78,0xbcd967c8,0xbd824da3,0xbc8fb5f4,0x3da806bc,0x3e9b6240,
0xbd4cec5f,0xbcb37549,0x3e54f7a8,0xbe0641b0,0x3da8fdf2,0xbd30678f,0x3e2b9bdb,0x3ec357db,0xbd3f232b,0xbedcb520,
0xbedb09cc,0xbd3d8118,0x3e057a7a,0xbe276b7f,0xbecec627,0x3d517a94,0xbe3c2ff9,0x3e402532,0x3c9e6788,0x3e861029,
0xbd54ee62,0x3e0aba5b,0x3be4c362,0xbda13d71,0xbdc3124e,0xbbe9cecb,0xbcf243df,0xbd9e0112,0xbdd0b902,0x3c371320,
0x3da5c41f,0xbe1eccc9,0x3de092eb,0xbd7d3c3c,0x3e168890,0x3e38534f,0x3e80329c,0xbd88350f,0xbdc4b7c8,0xbdfce35c,
0x3d38a34a,0x3d025614,0xbe481708,0x3dad3d8e,0x3d0f2a02,0xbdad9668,0x3d90c876,0x3d7a0db8,0x3e835739,0xbcf3d5ce,
0xbdb8b5f1,0x3d894445,0x3daad4d8,0x3ec9268a,0x3ed0a4be,0x3def7692,0xbe5cebfa,0xbe6da36d,0x3e8ca146,0xbd6e82d4,
0xbe064d4a,0x3e37e388,0xbccb85bd,0xbde00b8b,0xbfcad7ee,0xbd932470,0x3f0c0c0e,0xbec732bf,0xbdeb2f49,0x3deebc88,
0xbd575ff6,0xbc1be38d,0xbdfc3aaf,0xbf659150,0x3ce6466d,0x3d3d8d52,0xbdb27d6d,0x3c03534e,0x3d2aa76b,0xbea11aa8,
0x3e1a19ba,0xbdcd2441,0x3cecf34e,0xbe34b114,0x3d794a6c,0xbd5f7f4e,0x3d0fd8c9,0xbdaac488,0xbc770109,0x3d975b30,
0x3e021029,0x3eaa18e4,0xbcaa74ef,0xbca00d12,0x3ec1ae9b,0x3d286f14,0x3da2e6d9,0x3eaf0021,0xbebd6a74,0x3bec184c,
0xbe274ce9,0x3e497858,0x3cd90686,0xbd96d8d9,0xbd0cbede,0x3b80e6a9,0x3dfcd97b,0xbe48b28f,0x3d9989f2,0xbe0cb33e,
0xbdc9a4ce,0x3c9196fb,0x3dc078dc,0xbd49a599,0xbdd88f32,0xbe69c06d,0xbe863bca,0x3baf9983,0x3d66aa21,0xbc9bf990,
0xbe80efb2,0xbd2ac87b,0xbccb768e,0x3eb632ae,0xbd1f2466,0x3d15d932,0x3ebbda3c,0x3ee5886b,0xbc83302b,0x3dc0974d,
0x3c302c92,0xbde04ef1,0x3d286353,0xbe087e75,0xbdf68156,0x3dad5340,0x3da7201f,0x3e2565ff,0xbe647031,0x3e630666,
0x3e1351dc,0x3de37501,0xbe1d73eb,0x3e32ef39,0x3e5edef8,0xbf552527,0xbe72cb8b,0xbcb3dc54,0x3e1314b8,0x3de92852,
0x3d9e5899,0xbd30a2ba,0x3e0b7d2b,0x3e013a00,0x3e5d1e27,0x3f826806,0x3bc270d4,0xbc982b44,0x3a8dd66d,0x3e2d6aa1,
0x3cf9f192,0x3ce472fc,0xbdfc65c7,0xbda499e0,0xbcf6d9f5,0x3c966207,0xbc8cbe33,0x3d7b0274,0x3d0ca94d,0x3e8455cc,
0x3e049f7b,0xbdca7074,0xbd0db6b0,0xbc61ce3c,0x3dafa8a8,0x3e4ae1e2,0x3c9f8810,0xbe576952,0x3e4d01c8,0xbdbef3af,
0xbbde4dcb,0xbdc5ac36,0x3e130c07,0x3e867335,0x3dc4f26b,0xbf0bf7d5,0xbf11eebf,0x3a8f80e2,0x3e541aa9,0xbe35a044,
0xbe9b0c34,0x3d82e1b9,0xbe101c38,0x3e15568c,0x3d897a41,0x3e3cd3cf,0xbbcbd05d,0x3da6800a,0xbc809868,0xbd3d0745,
0xbce6c020,0x3cc2d8ee,0xbcf0b1dd,0xbd9284ef,0x3c987b3f,0x3d5f02a2,0x3d50d6a1,0xbe28163a,0x3e27ebfa,0xbd2c732a,
0x3e05a675,0x3e1d085b,0x3e5e2453,0xbe083230,0xbd182b41,0x3b2f3cfe,0x3dc265be,0x3d298a25,0xbdf499a9,0x3dcd3379,
0xbd53dc8e,0xbe271f83,0x3e152d98,0xbd508f5e,0x3ea48477,0x3e0e6e65,0xbe413909,0x3de23f6a,0x3dff033d,0x3ecaa9e2,
0x3ec253d4,0x3e36b9df,0x3d832719,0xbdbd88b5,0x3e5181c1,0x3d113957,0xbe715ac5,0x3e1b91a0,0x3e08d158,0xbf1d8cdb,
0xbf8f1858,0x3d143c30,0x3e3e1c1f,0xbe97521c,0xbd8580ea,0x3e3fc9af,0xbd26af91,0xbe98d038,0xbda75af1,0xbe4d883d,
0xbdaf6786,0x3de136e7,0xbe657a6a,0x3d1be872,0x3d35cca5,0xbee87633,0xbd8ee5f5,0x3b7577b3,0xbd538566,0xbd162ada,
0x3dacc3ac,0xbd6ffc8e,0xbd95ca23,0x3ebad957,0x3cef47d2,0x3e65a249,0xbf02f717,0xbe0d8e6b,0x3d82d84a,0xbd2b4991,
0x3e0f463d,0x3cf438a0,0xbe43bce6,0x3ea46db5,0x3e5f4032,0xbb654285,0x3cff7ff1,0x3e4ee4d2,0xbc8d1bd1,0xbcb9f150,
0xbdfa80d5,0xbd83f660,0x3cc422fd,0x3d5a2d99,0xbdafb840,0xbe06e20a,0xbde7ea0f,0xbdac33bc,0xbc974db7,0xbd395566,
0x3dbbb5ec,0x3ee2c742,0x3e226403,0xbe046191,0x3c140577,0x3d865972,0xbe9e5759,0xbd2497fe,0xbd446fb0,0x3dfd84fa,
0xbdb36fb8,0xbc09d2e8,0xbe8dd72d,0xbe38569b,0xbe834af9,0x3dbc0feb,0x3d5c599d,0xbdd68385,0x3e4f074f,0x3e0d166a,
0xbe864fea,0x3eb50fe2,0x3d37bf29,0x3f8c91cd,0xbecceb07,0x3e81e0de,0x3c9fde83,0xbd9921b7,0xbe3eadef,0x3e39c118,
0xbf20e27f,0xbd1250d2,0xbe6d5aa7,0x3c8fa89b,0xbe4092f9,0xbe1a1de0,0x3ef0b73b,0x3f93529a,0xbde2409f,0xbeeb8be1,
0xbdfd69a2,0x3b5655c6,0xbdeb6d95,0xbccc34c9,0xbdb72c8d,0x3e052152,0xbc78824c,0x3e0ecb01,0x3d087d43,0x3be233d7,
0x3ea9b286,0x3d4efe52,0xbd8a4d9c,0xbee025fe,0x3e383d0b,0xbdb8529c,0xbe3f7966,0xbeef24f6,0x3d89ce1e,0xbd8618d4,
0x3e349a32,0xbeba8a09,0xbc9e631e,0xbba1b8c3,0xbdb7ae5e,0x3dd657f5,0xbdade930,0xbd80d2de,0xbe6e45f4,0x3ad9610c,
0xbd257a0e,0x3eb83852,0x3f786525,0x3d0449a0,0xbd83810a,0xbe64345c,0xbd402386,0xbae4fef2,0xbec4ebfc,0x3e62396c,
0x3d031fc2,0xbe5612c9,0xbdeff571,0x3d7a4d83,0x3dd2b924,0xbe1861cb,0xbda2362f,0xbd931f84,0xbc89a1c3,0x3a3958cd,
0x3e09608d,0x3d8e3ebd,0xbd092777,0xbdf4e72c,0xbefd79d3,0x3bce0b1d,0x3d193764,0x3eb4a5d8,0x3e6bfd7c,0x3ed3a50a,
0x3e1220e1,0x3d744d20,0x3c905d86,0x3d787ba4,0x3d8d3eca,0xbd21f619,0xbd945c04,0xbe3a1750,0x3e08f975,0xbeb086dc,
0x3e88f57c,0xbdf74c23,0xbdb6f745,0x3ebc1e23,0xbe50465f,0xbb9e63ee,0xbe08455f,0x3f5d6208,0x3ec5cb3f,0x3c0e2036,
0x39ed2e19,0xbde252c4,0xbead4c4c,0x3e8ee263,0xbd525dc5,0x3f27a169,0x3e9e1f01,0xbe94d3b8,0x3e562dde,0x3f05cef2,
0xbddca1e5,0xbf21523a,0xbd9e810e,0x3ee96ab4,0xbd986a61,0x3ed91254,0x3e0156d1,0xbde32675,0x3d223947,0x3c5c6797,
0x3d1e9aea,0x3e984f34,0x3cd70458,0x3ac0273c,0x3eba7084,0xbe5d0929,0x3e581446,0xbe3781c9,0xbe0581a1,0x3e07bbbc,
0x3e8ba333,0xbe395a37,0xbcf988e6,0x3e5252b9,0xbd551ba7,0xbdc4e8ec,0x3e0eca7a,0x3da6ca26,0x3e19155d,0xbe889066,
0xbe6c0a94,0x3dce73e6,0xbf3980c1,0x3e401f29,0x3dba40d0,0xbc4095be,0xbd85a6a2,0xbd0e2826,0x3d939df4,0xbd2c209f,
0x3e841629,0xbddb7728,0xbe880f0b,0xbdbbaea1,0x3e09881e,0xbc863b84,0xbce0ee9c,0x3dc1565d,0xbcb34550,0xbe07a29e,
0x3c70bb91,0x3d332b20,0x3ebbc7ef,0xbd3d1851,0xbd1df30b,0x3e34ec8c,0x3d5f8f99,0xbec47af6,0x3dd8068c,0xbf15ca40,
0xbd49afc3,0x3df07acd,0x3d90fb1b,0xbd4224ff,0x3d362c61,0xbdf66cd7,0x3e7d48cc,0x3eb4e2b4,0x3ea7e24a,0xbd2d3330,
0xbe2699a3,0x3ebe69f5,0x3e2c860a,0x3d105a79,0xbe8d98f6,0x3e94b51d,0xbd811597,0xbd092de6,0xbcab0e4d,0x3e5871ae,
0xbe61ac22,0x3cd8d043,0xbe931cee,0xbfef5804,0x3de08816,0xbd709593,0xbde3fe86,0x3cb0aedc,0xbd7e045f,0x3e61ad54,
0x3d301a9a,0x3d9f31fb,0x3e1a38ca,0xbe181e7e,0x3db02b02,0xbd8e15be,0x3e8c5aa1,0x3c81df36,0x3d0a1936,0x3e115f19,
0xbde48b35,0x3dec4127,0xbd7283bf,0xbcd78529,0xbc7ff7db,0x3d1b0fca,0x3e0a5c79,0x3ee1583d,0xbd477fa7,0xbe2ae84b,
0xbee09474,0xbe441729,0xbe00249f,0xbdfb2ba5,0x3d69cd9f,0x3dbfd732,0x3e968c5c,0x3f41d010,0x3ed7efef,0x3d55d94c,
0xbe5534e6,0x3e5a9d81,0x3d210e00,0x3db1a8a7,0xbe84671a,0xbe34ac34,0x3da3c027,0x3e0cbad8,0xbe19603c,0xbc0d1be4,
0x3d22a382,0x3d03f71c,0xbe0dc9ce,0xbe39d2df,0xbc4b60d0,0x3d859d21,0x3e4b0205,0x3d14668e,0xbd14622e,0xbcda776c,
0x3f17a01e,0x3d923e49,0x3d976fa6,0xbd1cbe02,0xbeca1ea0,0xbd7b12f3,0xbe2164ad,0x3e73cf31,0x3dc75f77,0xbd268648,
0xbe111e1f,0xbbc1c403,0xbdd50e75,0x3e15e7db,0x3dbb28ff,0xbde23c88,0x3e1cfd1e,0xbdc2563a,0xbe06f949,0xbe707838,
0xbe98680b,0xbcc4460f,0x3e9c2bd5,0x3f043f97,0x3da5739c,0x3e0c6211,0xbd965de9,0xbe554bbd,0x3e1853cd,0xbe0e8dc1,
0xbe802b74,0x3f346d73,0x3e542386,0xbf248b9e,0xbf06c4c4,0xbfb7eade,0xbdc4603f,0x3c2f73f3,0xbe04e2ac,0xbda59e67,
0xbdbbf7e2,0xb9b9e990,0xbd10bb71,0xbcb511c4,0xbd9c0be0,0x3c0ed870,0x3d375d43,0x3c2effee,0xbbfbd4dc,0xbdc23df3,
0x3dd49969,0xbdc1dad7,0x3e703313,0xbcb6f785,0xbd1270a6,0x3de1ee17,0x3e4dbcc4,0x3c8f8c3b,0xbe2efd0c,0x3d22b6ad,
0x3d4b56d1,0xbdccd33c,0x3e808bb9,0x3dd57e74,0xbda29f92,0xbce61f08,0xbd74eeee,0x3d2d7f8c,0xbc3e3910,0x3e83068e,
0x3d380ff7,0xbd373598,0xbdc809d8,0xbe0122df,0xbb754d64,0xbd8b121e,0x3c4e44d3,0xbad6307e,0xbe3744eb,0x3cd23738,
0x3d8db036,0x3d1d16ad,0xbd257e81,0xbdacdca5,0xbe191b4e,0xbc8aeb3c,0x3de4030a,0x3dbfda0e,0x3cb516de,0x3d209859,
0x3b93a9cf,0x3e11f8e2,0xbda02802,0x3d467875,0x3c810759,0x3de61914,0xbdda992a,0x3de804c4,0xbbe9f494,0xbe8e9a34,
0x3d81754e,0xbd4117ac,0xbbc10e64,0x3e7db43b,0x3e2cbd25,0xbd6a8000,0xbe8fa8c4,0x3e780cac,0x3db76080,0x3d2b1b39,
0xbe84d95d,0x3e845402,0xbea5e761,0xbe96ed56,0xbddaf119,0x3d31378a,0xbe04fa0b,0x3e31ae0f,0x3f07f268,0x3cf7c661,
0x3e210f72,0xbf0f54af,0x3b792498,0x3e98d870,0x3ce14049,0x3db0f155,0xbc41be8a,0xbb204538,0x3d331dcb,0x3bd086da,
0x3d0f9ec6,0xbc07b488,0x3e7d9be4,0x3d1bb6b0,0xbb5a4d11,0xbe1320fe,0x39dd44cc,0x3e431989,0xbc1d1019,0xbe2f3ecb,
0x3d8aecca,0x3bc59ac0,0x3df514cc,0xbd2ab18d,0xbd1a1a78,0xbdd47c99,0xbd7cc30f,0xbd857d81,0xbd4c80ba,0xbddba2e5,
0x3d7f7b4e,0x3e12f2a3,0x3e3aa15f,0xbd611885,0x3d80b70a,0x3cffc964,0x3e0dc8fe,0xbe06817d,0xbe0fe5f8,0x3dfc20ab,
0xbdecceb4,0x3da09461,0x3da1ae70,0x3e0e7eab,0xbd5abe11,0x3d5c06cb,0x3d248808,0xbd9a0a15,0xbddc552d,0x3e132ae8,
0xbd0b4f6b,0xbdd45410,0xba30c930,0xbcb630ef,0x3aaebbcb,0xbe077c48,0x3d765b8b,0x3c6362e5,0x3da95a0e,0x3e096a80,
0x3d364144,0x3d3cd4a5,0xbd729933,0xbd327432,0x3d9bd417,0xbc8852cb,0xbd8a9fd9,0x3daef483,0xbc6f1577,0xbd6cddf4,
0x3e1c1df1,0xbe515e3f,0x3e86f836,0x3db058e4,0xbe62e735,0x3d6b70c6,0xbe05eb3e,0x3e674793,0x3e14d625,0x3ed6e1b5,
0x3e2684ab,0xbdca5b33,0x3c8885d2,0xbdd4e695,0xbdc3d89e,0xbdeea912,0x3e3e71f1,0x3f280558,0xbf3e1d02,0xbf3965cd,
0xbe674ea9,0xbef53eed,0xbca43fd8,0xbe80aac8,0x3d2501a7,0x3e874f6d,0x3d7d7205,0x3ef40440,0x3d959ada,0x3dce10b0,
0x3e9bdc4d,0xbc0ea3a9,0x3b96220e,0x3ed47484,0x3d170454,0x3e1f6d58,0x3e755cbf,0xbcc91949,0x3ec67b0e,0x3c94ee0d,
0xbe434b46,0x3ea6ccc2,0x3e367463,0x3e520938,0x3ec82c9a,0x3dfb5edd,0xbdb01b9b,0xbe92d05b,0x3dfc00d7,0xbe08062f,
0x3e6ba62a,0xbdf15054,0x3e545efe,0x3d20f3d9,0x3dd111d3,0x3e75dc07,0xbbd22810,0x3d8552f1,0x3e5f5012,0x3e9b1d1e,
0x3e6989e1,0xbda9717e,0x3e2d22b4,0x3e948288,0xbe86242c,0x3e045a37,0xbe2999a6,0x3e93be51,0x3e9f8aac,0x3e1acf6c,
0x3d00e0fa,0x3e4a1114,0xbd7d49ff,0xbe3b658e,0x3e8a78d2,0xbde2f661,0xbd1411c4,0xbcd221df,0x3df98ff4,0x3e8eb691,
0x3eb1dcb1,0x3dda82ae,0x3af1913a,0x3d829be6,0x3e5d5e8c,0x3ec09402,0xbebaab00,0x3e861db0,0x3e455476,0x3e0fb561,
0x3f25d1e4,0x3dfad26b,0x3bbf74b1,0x3d00daad,0x3ec33b46,0x3eae4f99,0x3e0f50cd,0xbe7ec6d4,0x3ee9d03b,0x3ebb9f7b,
0x3e24f2ec,0x3e18e31c,0x3f081121,0x3ef77b33,0x3f14e58c,0xc031e1e0,0x3f91b901,0x3fc60fc6,0x3f228d34,0x3eac1305,
0x3eac4794,0x3f468fcc,0x3d24d803,0x3e874711,0x3d7d68c1,0x3ef3eceb,0x3d959972,0x3dce0831,0x3e9bd300,0xbc0e6278,
0x3b95e039,0x3ed46b6e,0x3d16e1d9,0x3e1f5ea6,0x3e754aea,0xbcc9758f,0x3ec6752b,0x3c94c7d8,0xbe435d25,0x3ea6c940,
0x3e366a50,0x3e5200ed,0x3ec81e0c,0x3dfb429e,0xbdb01f9e,0xbe92d6d1,0x3dfbd149,0xbe081245,0x3e6b9af5,0xbdf17081,
0x3e544a91,0x3d20f288,0x3dd0f917,0x3e75cc10,0xbbd3827a,0x3d85438c,0x3e5f47f3,0x3e9b1cd4,0x3e698426,0xbda980d8,
0x3e2d1d04,0x3e94835f,0xbe8629e4,0x3e0457f8,0xbe29a2c1,0x3e93c097,0x3e9f8b2e,0x3e1ac119,0x3d00dd67,0x3e4a19e7,
0xbd7d768c,0xbe3b67da,0x3e8a6b0b,0xbde32447,0xbd143325,0xbcd275dc,0x3df978e6,0x3e8eb389,0x3eb1dc8c,0x3dda5e72,
0x3af03e40,0x3d82ac52,0x3e5d6175,0x3ec08d69,0xbebab5ad,0x3e861b85,0x3e45440b,0x3e0facde,0x3f25d09a,0x3dfac721,
0x3bbb2a67,0x3d00ab7d,0x3ec323e1,0x3eae4dd8,0x3e0f297f,0xbe7ee320,0x3ee9c6f7,0x3ebb9a8f,0x3e24f158,0x3e18e686,
0x3f0812ba,0x3ef77a84,0x3f14e987,0xc031dc8c,0x3f91b346,0x3fc60f8e,0x3f228ee7,0x3eabfe0b,0x3eac45d5,0x3f46889d,
0xbc9d31d5,0xbe0a3db3,0xbd07c595,0xbf3dac39,0xbd0e8378,0x3c8045d0,0xbe1eea8a,0xbd186b95,0x3d1406e8,0xbe99e4f0,
0xbcd6d388,0xbe32ef73,0xbd56fb3c,0x3e034cc2,0xbd30814d,0xbc4a7097,0xbc3a73b7,0x3e6f1a59,0x3cc07f2c,0xbcba9e63,
0xbe44d09f,0x3dd7a717,0x3d410a7c,0xbd202243,0x3f137490,0x3d0c01ae,0xbba40aa4,0xbe85af6b,0x3ec64059,0x3b3c6264,
0x3e780831,0x3f06a717,0x3c660808,0xbd12b28a,0xbca62bd6,0xbee559ad,0xbcd3e7de,0xbe42130d,0xbd92e384,0x3db7067c,
0xbe1b9e71,0x3dfeeec7,0x3d399b61,0xbd4d4e99,0xbcd89e32,0x3e31f7d8,0x3d147ff9,0x3d676686,0x3dbfe8a8,0x3dabe875,
0xb921a418,0x3ca802f3,0x3c429aed,0x3e2c460d,0xbe8aad9b,0xbe091a63,0x3e90d1c0,0x3eaab30d,0xbd120e0f,0x3d1c526f,
0xbdcd6d3a,0xbe1f147f,0x3d68293d,0x3e28361b,0xbe88f168,0x3e5b7947,0xbd27d418,0x3e98ee8d,0xbe94f368,0x3a953134,
0xbb05cf96,0x3e222c76,0x3d09c046,0x3d438a60,0xbeae7144,0xbf753bf4,0xbdfe3eb0,0xbd8bda8b,0x3dcac2f3,0xbcb042e0,
0x3ea0c98f,0x3f1bc41f,0xbdeac61c,0xbf2edb91,0x3db8f831,0xbe3a1de4,0xbd7a60fc,0x3e9c823d,0xbd4b7945,0xbda117d7,
0xbd1b993b,0xbe1b10d2,0xbccd6457,0xbd2aed2c,0x3c9f13af,0x3c1be23d,0xbd88aa8e,0xbee10d49,0x3dd03c90,0x3eb87441,
0xbcc94e80,0xbe12830d,0xbd039e41,0xbd041952,0x3e45e535,0x3cfa010d,0xbe072c68,0x3e451163,0x3d3d9067,0xbdaf429c,
0x3df6503a,0xbcd62667,0x3cc64d30,0x3e815226,0xbe1e6494,0x3c3a4059,0x3eaf877c,0xbc942fcd,0x3ca25b26,0xbea2ee0d,
0xbe8be87d,0x3d8e5e11,0xbe76d048,0x3e817c09,0x3cf9a2be,0x3dcae1b0,0xbd780b76,0x3e32a030,0x3d9b7071,0xbdc49091,
0xbe042f19,0x3d3ac9f7,0xbd30ebca,0xbc326dd4,0xbd80723f,0xbe85cda8,0x3d78cb67,0xbe023c77,0xbe507b31,0xbd60aa71,
0x3d6cfd8d,0x3ea64435,0x3e881d46,0x3e58ef19,0xbdb3039e,0xbdd984c7,0xbc6e6415,0x3d2c0030,0xbe151a8c,0x3c5056c8,
0x3d83ab02,0xbcee79fd,0x3d1831b7,0xbdaddd31,0x3e1017b2,0xbe423e1f,0xbd4fcf0e,0x3e6174ee,0xbe0e3244,0x3e7c192b,
0x3e66d536,0x3eb98c30,0xbe13cb5c,0xbe9edaab,0x3e4ccbed,0xbdae9d9e,0xbe567b58,0x3e952beb,0x3ed50fdf,0x3f6ac149,
0xbfec8b1e,0xbf3ffedd,0x3f6fd9c1,0xbdb8240c,0xbdd002fa,0xbf06f9a1,0xbd1d8d86,0x3ddf4374,0xbda160af,0xbeca1c7e,
0x3d6e2ecd,0x3d725c2f,0x3babe291,0xbd17c496,0x3d8103fe,0x3e52d21f,0x3d36f350,0xbe92e449,0x3e24aa4f,0xbd084aa0,
0x3d9b0d9c,0xbdb38b07,0xbddc1d62,0x3e45e890,0x3e3f57c5,0xbe7561c2,0x3da375ac,0x3e96aa04,0x3d3cdb39,0xbd94623d,
0x3f04f400,0x3df8b02a,0x3e4ec73d,0xbef1f693,0x3e3b7cbe,0x3d1d2b2d,0xbe0ae823,0x3eff01f1,0x3d9ec9b9,0xbd5ab9ea,
0xbd06dab6,0xbe60d007,0x3df05485,0xbe8311e8,0x3b4a7cb5,0x3db466a9,0xbe77f268,0x3cfda612,0x3daaa220,0x3cfa7097,
0x3c400e88,0xbcef2e61,0xbdbb8647,0x3b3b1c09,0x3dbfaca8,0x3d91588e,0x3ebb0732,0x3b9a2f3a,0x3cb14694,0x3dbd9c4b,
0xbe8d49cb,0xbe9d14d6,0x3f006dec,0x3d6dceb1,0xba96ffa2,0x3d195bb8,0xbdaa603b,0xbdd2b16d,0xbc308642,0x3d8f2056,
0x3d3d066f,0x3db08b0b,0x3d58c047,0xbe92e7fc,0xbe453f31,0x3dba838d,0x3dec1de0,0x3e610fcc,0xbd9dedb9,0x3d984f08,
0xbc0f98d7,0xbf884de7,0xbdd448b6,0x3c864ed0,0x3d011a7d,0xbd3814fe,0x3f0dec2d,0xbf807436,0x3de7ec61,0xbe38e512,
0x3e2b23e2,0xbe9ef1ef,0xbdf58ebd,0x3efc5c47,0x3d1bdeb7,0xbe1a56b7,0x3d396d44,0xbedc6ce6,0xbcade9d3,0xbd811c12,
0x3b45d058,0x3d3ef23b,0x3c1c61c2,0xbd3ebf21,0xbd859b71,0x3eea3920,0x3d11ae98,0x3c1022cd,0xbe0056df,0xbc9ceb4a,
0x3e232b38,0x3f18b121,0xbe1f183e,0x3ac0c63d,0xbe141bf3,0xbe35f35d,0x3d9de151,0xbb41f6da,0x3de55913,0x3ea6e768,
0x3d58985e,0x3e50edde,0x3d62ebf4,0xbc7a4f26,0xbd073477,0xbd33f214,0xbe8087e2,0x3ddcc850,0xbe47624b,0xbd803243,
0x3cc5dd43,0x3eaf812a,0xbd829221,0x3e041a22,0x3c81cda7,0xbc9ad2ec,0xbe14bd35,0x3dda1f27,0xbd346459,0xbbd7169a,
0xbd966ed0,0xbe444d5f,0x3cc6e6f8,0xbe0a53a3,0x3e99b8fc,0x3cb97b79,0x3db4aac7,0x3e248b31,0x3caf8e87,0x3d209926,
0xbe7fb772,0xbc38d0c3,0x3d3573ac,0xbd103be7,0xbe6963c3,0x3dfbecb1,0x3d06becf,0x3de6c855,0xbdc97f48,0x3dab262f,
0x3d9ceece,0xbe204f38,0xbd83a06f,0xbe1264b7,0xbe647277,0x3e4e3850,0x3ebd8417,0x3e748940,0xbe810574,0xbe29bc80,
0x3e3ea3eb,0xbe085660,0x3d1e971f,0x3bc586d4,0xbdec2f82,0x3f92ef33,0xbfe8fc7f,0xbf8484cd,0x3edaa2f1,0xbf645919,
0xbd99b1b2,0xbc8c8932,0xbca8300e,0x3da38143,0xbdca5c43,0xbf8845ef,0x3cdcc21c,0x3db0bf70,0xbdc1d7d4,0xbce1996e,
0x3b58c893,0xbe801416,0x3dce0e5f,0xbea9f4c6,0x3c340cd1,0x3c15a390,0x3cd7aa3a,0xbd4849c6,0x3b8a45f7,0x3bfe0bb9,
0xbcc94a39,0xbc94ae9d,0x3e31114c,0x3ea5a127,0x3b8cd1c4,0xbd0184cf,0x3f1f0fe2,0x3d332b6a,0x3e2232d9,0x3d05f41f,
0xbde820f3,0xbc2c7611,0xbc86eb1b,0x3f03cbb6,0x3d3a5a29,0xbd8a852b,0xbd467c21,0xbe9f1cdc,0x3e090ece,0xbe6b8e35,
0x3d162664,0x3d951599,0xbe08004f,0x3e065fd5,0x3df2261c,0xbd7deb37,0xbd9f8e5a,0xbe4cc1e9,0xbde811e6,0xbda6c18c,
0x3e264915,0x3d89d11f,0xbd322eb5,0xbc8be2ba,0x3c39f824,0x3e994ae4,0xbe6a09e1,0xbde353df,0x3f24d6c7,0x3efcbc1d,
0x3abf4f5f,0x3cd0a7a3,0x3cb7edef,0xbe2c4393,0x3c2928c9,0xbc22aad1,0xbe53855c,0xbd3a265e,0xbd9569bd,0x3da781b6,
0xbe450216,0xbd6ee295,0x3de2ad96,0x3e465324,0xbc5765ad,0x3db7745b,0x3e653391,0xbfaef4a2,0xbe58c1c1,0xbd1b2dc2,
0x3d69ffa4,0x3def86a1,0x3f646944,0xbe28c9b5,0xb863ca50,0xbd0e6b21,0x3ed68acb,0x3ebb456b,0xbd8afee6,0x3e560564,
0xbcc689ab,0x3b89b9a0,0x3c0c9864,0xbe7fc7a7,0xbe30015f,0xbdebc64e,0xbe2df306,0x3ce9b903,0xbc0dd5a4,0xbdbcaa12,
0x3d36ba9e,0x3f0933ab,0x3e35266c,0xbd190743,0xbd62c433,0xbb85c5b2,0x3dc36258,0x3ecf32b0,0xbdb9c6dc,0xbd8ce800,
0x3e574ea2,0xbe20b6b6,0x3d25d5d8,0xbd961846,0x3e2159d2,0x3eb2440b,0xbde3b393,0xbecca7a7,0xbedb5f0d,0xbd802563,
0x3de8c649,0xbe71b4c1,0xbece202b,0x3e09aaf4,0xbe35bff3,0x3e8a3400,0x3e1405a6,0x3e41a310,0xbccb2069,0x3e8ad3ae,
0xbd1320a8,0xbcd19049,0xbdedf6f0,0x3dd65e22,0x3d4b4d95,0xbd6e3cb7,0xbe05d14e,0xbec2ec65,0x3d431bd9,0xbe408a6a,
0x3e0a6339,0xbd5484c9,0x3e0189ab,0x3e6e9530,0x3e89f2c4,0xbd8b4408,0xbdd32e1e,0xbde1b646,0x3d0b6edb,0xbd4735f3,
0xbe4378f0,0x3e4823d5,0x3c67cdfe,0xbd9ad47e,0xbd5d4027,0x3d93c0ae,0x3e81842b,0x3ce1fdaf,0x389962c5,0x3d080718,
0xbbfc7040,0x3ee74c5a,0x3ec5e947,0x3ddd9771,0xbe8596d0,0xbe8e63ca,0x3e901702,0xb99f08a1,0xbe6ccf42,0x3e829aa1,
0x3f187beb,0xbddc8452,0xc015a88e,0xbe852e57,0x3f51b358,0xbef70ce0,0x3c987b97,0x3dfb7181,0xbdc06a00,0x3d86bb53,
0xbdefe832,0xbf61c40b,0x3c1f03df,0x3d595454,0xbdfb3a5c,0xbbc12982,0x3adb28aa,0xbed01223,0x3e0ea59d,0xbe6276dc,
0x3cfb838a,0xbe0ab2dd,0x3e0827d2,0xbd32cd81,0x3d1a45f7,0xbdaa4bfc,0xbc11905c,0x3e050fed,0x3e1588c2,0x3eadae52,
0xbd2c004a,0xbd056dc6,0x3ed866ff,0x3d440934,0x3d7a4730,0x3f01c572,0xbf06dd06,0xbbdd51c7,0xbe70daae,0x3e950994,
0x3d179e62,0xbdda2833,0xbd9868b7,0xbdbb74b4,0x3dd9cbca,0xbded82f2,0x3d82b850,0xbd865389,0xbd98dae5,0x3d511a6c,
0x3e09b1e6,0xbd55db30,0xbde7c403,0xbe92f985,0xbe3e8ec5,0xbe1f5ae7,0x3e11d22c,0x3cfa445b,0xbe85dc09,0xbd1428c1,
0x3c02dc04,0x3ec9a35e,0xbcb86632,0xbbaff3dd,0x3f1548ea,0x3ee08539,0xbc14f76c,0x3d33a68a,0x3e030474,0xbe8b254b,
0x3d2874ff,0xbe30d183,0xbe2b69cc,0x3d5de4aa,0x3d386f44,0x3e82777b,0xbe3a2159,0x3e28c358,0x3de158d7,0x3de26ede,
0xbdf83856,0x3e604d36,0x3e93a22f,0xbf895069,0xbe6cdd0d,0xbc90b385,0x3d2f034f,0x3e11c976,0x3f9c688f,0xbcd5e965,
0x3dd3406f,0x3db0d7e2,0x3e9abebb,0x3f7628d9,0x3ca9d018,0xbd9c5bd1,0xbd0cf632,0x3e3d0dcb,0x3d2f7199,0x3d177625,
0xbdd995c8,0xbd454972,0x3b86ab79,0x3d0adecf,0x3b1a989f,0x3d1f29c6,0x3d5b5393,0x3ece6791,0x3e2ab6c5,0xbdcb6fd1,
0x3d1aa384,0x3c104729,0x3d713362,0x3e868be3,0x3b168c21,0xbe88bd5c,0x3e4bf0cb,0xbdd5b5cf,0xbd377df1,0xbe1430d1,
0x3e14005e,0x3e88a9eb,0x3d9fc0aa,0xbf1e43d3,0xbf21d980,0xbc978bac,0x3e520a77,0xbe5b5359,0xbe9ec8ca,0x3e1544aa,
0xbe0a0e69,0x3e94d0c9,0x3e3d7653,0x3db705c4,0xbc024783,0x3e4e46c7,0xbd5407fc,0xbc73fc42,0xbd7baa9f,0x3e5dbaa9,
0x3d496505,0xbd98df37,0xbd3dc389,0xbe742457,0x3b20d23b,0xbe57f4ff,0x3e404c4c,0xbd4c4402,0x3dd96796,0x3e32405a,
0x3e5cf253,0xbdfbea52,0x3ca5c4be,0xbc093ce3,0x3d527e06,0xbd6d6b40,0xbdd542ff,0x3e544a45,0xbd4f68f5,0xbe4ac1d3,
0x3d96835a,0xbda2cbee,0x3ec65c7f,0x3e5d9633,0xbe1413f6,0x3dfa49be,0x3d227600,0x3edc1995,0x3eb9c82b,0x3e10b036,
0x3d22551a,0xbe05978e,0x3e192ae0,0x3a760fd9,0xbe9ba128,0x3e16296c,0x3f25b503,0xbf83ce8b,0xbfc18193,0xbce94f44,
0x3ebcccb9,0xbee27707,0x3b30fafd,0x3e5589fa,0xbe12704d,0xbeace732,0xbd495a47,0xbe45182c,0xbdc2c533,0xbd3aac75,
0xbe88dd0d,0x3c16a12b,0x3d62a25e,0xbf0c1c44,0xbd57cfff,0x3daf884b,0xbdb4b581,0x3b245915,0x3d3f9d8e,0xbb2e9798,
0xbcb0f24c,0x3eda02b4,0x3d8789f4,0x3e5167ff,0xbf082f6d,0xbdf7a0e9,0x3d49bbcb,0xbd392d31,0x3e1b0a8c,0x3ccc7351,
0xbe840d5a,0x3e90824a,0x3e99427e,0xbc2538a6,0x3d923764,0x3e8d8e06,0xbd0c5643,0xbd4a7a7a,0xbde1c56c,0xbe837e40,
0xbe0d78a2,0xbd153c7b,0xbde80bb2,0xbe51835a,0xbddb976d,0xbcb5a044,0x3b42f176,0xbd34df9c,0xbc5d98fd,0x3edc6242,
0x3da8c928,0x3e30b8bf,0x3d9d9b3d,0x3d9d81d8,0xbe99fe9d,0x3b379d0c,0xbbe5bcfc,0x3e1b59d6,0xbc2174b4,0xbce5ea5a,
0xbe984a22,0xbe34967a,0xbe30b2e3,0x3d2c8989,0xbd8ac8bc,0xbea32166,0x3e203b66,0x3dce573d,0xbeaa6b7f,0x3f03ed40,
0x3e3f500b,0x3f9daee4,0xbe93953c,0x3e976eb9,0xbd9e15b6,0xbdb9f868,0xbe11da90,0x3e7ac483,0xbf575d3c,0xbd3b12e6,
0xbe0f6055,0x3a1eafe7,0x3d890791,0xbd7a4d09,0x3f06751d,0x3fcc3969,0xbe4e6ed4,0xbf943736,0xbe154c83,0x3cb48ec6,
0x3cf5f6b1,0xbe1a2f55,0xbe07f28d,0x3c81796a,0xbce45c5f,0x3e0ddb5f,0x3db4dd93,0xbc59399d,0x3ee99ce1,0x3d4e75b4,
0xbdaf2087,0xbf0fbe84,0x3e3fd244,0xbd84cfb7,0xbe1a087b,0xbedef8fe,0x3d6d88c0,0xbd803a28,0x3e7ab0ab,0xbf1b75a3,
0xbd326b45,0x3e3454de,0xbd8884c0,0x3d89037d,0xbe0134fa,0xbdb6e801,0xbe7631f3,0x3c994dbc,0xbd0b4f13,0x3ea30cbb,
0x3f90e390,0x3d19f2d4,0xbc61aca4,0xbe9c7bdf,0xbd66af78,0x3cd199d2,0xbeb4cfdd,0x3e965752,0x3cae82b2,0xbe10c506,
0xbd4eda2d,0xbdefc235,0x3e10bf30,0xbe1d3033,0xbd796261,0x3e3daf7a,0xbd9ba133,0x3d4fc4ef,0x3dfbe64f,0xbd8bc97b,
0x3da4d40c,0xbe164170,0xbef005dd,0xbd1e6739,0x3ce9368d,0x3ed83f7e,0x3e21950f,0x3ed5de77,0x3dce15c6,0x3d867089,
0xba1fc656,0x3dfa7d48,0x3dd6bfaf,0xbdfc3b87,0xbd0e374d,0xbe292bb0,0x3e4af711,0xbec4619f,0x3ed082fd,0xbe77a804,
0xbdbde856,0x3ebe3064,0xbe21fddb,0xbc60d762,0xbd91080f,0x3f38a2b1,0x3ee6e251,0xbde9c931,0xbd0c0683,0xbdc9844d,
0xbec19168,0x3e7ba567,0x3e91a736,0x3f4711e4,0x3d0df52e,0xbf699b75,0x3e42acb2,0x3f06d308,0xbe3c47b2,0xbf7449f5,
0xbdfbd1a2,0x3e24443a,0xbde4d4e0,0x3f0f1ed6,0x3db5ed77,0x3b8f3af4,0x3d7098bb,0xbd0bbfbf,0x3d8841da,0x3ea51550,
0x3d6782a4,0xbd2c0e09,0x3eaca76b,0xbe8bd991,0x3ea655e1,0xbdae9361,0xbe5e55ed,0x3e6c25be,0x3eb87701,0xbe881f08,
0xbcdac7c0,0x3e776985,0x3b9a80f1,0xbe074267,0x3e2edf1e,0x3e339f9e,0x3e24d77d,0xbe9747f7,0xbe2cb060,0x3da97839,
0xbf5c776c,0x3e516907,0x3ddfc362,0xbd2e0ff9,0xbda068d7,0x3e1d0c15,0x3dd19be4,0xbda0a781,0x3def0471,0xbe493926,
0xbea07b20,0xbdc9f989,0x3de9fd92,0x3e07ad1d,0xbc0ff068,0x3da70b24,0xbd944ee4,0x3e5897e2,0x3ca69307,0x3d3cb3ce,
0x3ec717be,0xbd805d07,0x3cc37c30,0x3d6f08b8,0x3d2a6e95,0xbeca2299,0x3e705666,0xbf0e5801,0xbaecc24c,0x3cf52a6f,
0xbddcb56e,0xbe297dfe,0x3d20fd0a,0xbe2987a1,0x3e954a39,0x3edee454,0x3ecc45f8,0xbdbbceee,0xbe2c94ec,0x3f0f50f4,
0x3dd6650d,0x3db759e2,0xbe97f16a,0x3e9f2d47,0xbe01cfc6,0x3cbe7bdc,0xbd57c600,0x3e0af2e6,0xbe1c2515,0xbdb31a94,
0x3f31b2c9,0xbff3a082,0x3d9de4fa,0x3a2dd558,0xbe19f840,0xbe62a168,0x3cc64daf,0x3ea51dd1,0x3ca9d2aa,0xbddeb22c,
0x3e12fcac,0xbe53db98,0x3e06632b,0xbd6aec51,0x3ede0a62,0x3da8fc4a,0x3d2e190a,0x3e4236b2,0xbdb7cb86,0x3dc9a0eb,
0xbd465ec7,0xbd131e5c,0xbd9c14b2,0xbb19aa26,0x3e375ec4,0x3efc5f78,0xbd29792a,0xbe4b421e,0xbedf87db,0xbe45b01c,
0xbe1a5d4d,0xbdcca6e3,0xbc1acfa6,0x3e330663,0x3e9a2ab4,0x3f462416,0x3f056d26,0x3d01cf37,0xbe15ea63,0x3e89276d,
0x3bccfd55,0x3dfbaed7,0xbe78104d,0xbebb1705,0x3cbc3b5a,0x3e19ae53,0xbd35a9dd,0xbc8e05ca,0xbab61e56,0xbd220d9c,
0xbdc9b78d,0x3e7e62fa,0xbd1a1887,0x3e1eb846,0x3de16c31,0x3e4960e7,0xbac0d3bf,0xbdbee0fd,0x3f21cd3e,0x3dbfef53,
0x3d733947,0xbb2bba44,0xbec182c0,0x3c54d10a,0xbe10336a,0x3e50e6bf,0x3d824472,0x3cec1b96,0xbdee5146,0x3dcfb006,
0xbd99c746,0x3e0e5c74,0x3d70989a,0xbe583821,0x3e6a56a0,0xbe27088f,0xbe20c674,0xbea096cb,0xbe7469bd,0x3b874e3c,
0x3e8df513,0x3ebd8767,0x3dfc863e,0x3e2bafa1,0xbdd3bc75,0xbe243cf8,0x3e1f8fe3,0xbe8be78a,0xbf60d5b1,0x3f89a1c5,
0xbd5588cf,0xbfc173c6,0xbf45edde,0xbfba22a3,0xbe62e70e,0xbca5dd38,};

